<unk>	0
<s>	0
</s>	0
,	-2.59938
.	-2.99626
▁ᎠᎴ	-3.36191
▁ᎾᏍᎩ	-3.78811
;	-3.89377
Ꮓ	-4.07862
▁ᎯᎠ	-4.43322
▁ᎨᏒ	-4.72658
Ꭲ	-4.81387
▁	-4.81682
▁ᎥᏝ	-5.15319
▁ᎨᏒᎢ	-5.19934
Ꭹ	-5.25336
ᏰᏃ	-5.26937
?	-5.31661
▁ᎨᏎᏍᏗ	-5.33444
▁ᎤᏁᎳᏅᎯ	-5.34935
▁Ꭴ	-5.43431
▁ᏃᎴ	-5.45898
Ꮧ	-5.55061
▁Ꭰ	-5.56836
▁ᏴᏫ	-5.57512
Ꮙ	-5.60716
Ꭿ	-5.67915
▁ᎩᎶ	-5.72729
Ꭽ	-5.80188
▁ᎢᏳᏍᏗ	-5.80749
▁ᎾᏍᏉ	-5.80819
▁Ꮎ	-5.82808
▁ᎾᎿ	-5.85063
▁ᎾᏍᎩᏯ	-5.86079
⁠	-5.86672
▁ᎠᏎᏃ	-5.88049
▁ᎠᏴ	-5.88512
▁ᏱᎩ	-5.9276
▁ᎢᎦ	-5.95644
▁ᎪᎱᏍᏗ	-5.96071
▁ᏥᎩ	-5.98905
-	-5.99166
▁ᏱᎰᏩ	-6.00063
▁ᏂᎦᏛ	-6.02468
▁ᏂᎯ	-6.02848
Ꮎ	-6.0414
▁ᎤᎬᏫᏳᎯ	-6.05396
▁ᏂᎨᏒᎾ	-6.05523
▁ᏥᏌ	-6.06219
Ᏹ	-6.07813
Ꮫ	-6.08418
ᏍᏗ	-6.09837
▁“	-6.13601
ᏍᎩᏂ	-6.16606
Ꮣ	-6.16969
▁Ꮷ	-6.22428
▁ᎣᏍᏛ	-6.24121
▁Ꮧ	-6.25295
▁ᎯᎠᏃ	-6.25353
▁ᎤᏪᏥ	-6.2945
▁ᎢᏳᏃ	-6.35035
▁ᎾᏍᎩᏃ	-6.38052
▁ᏧᏪᏥ	-6.3902
▁ᎦᎶᏁᏛ	-6.4261
▁Ꮵ	-6.42624
▁ᎠᏂ	-6.43405
Ꭶ	-6.44031
▁ᏄᏪᏎᎢ	-6.44683
▁ᏞᏍᏗ	-6.44831
▁ᎿᏉ	-6.46386
▁ᎡᎶᎯ	-6.46996
▁ᎨᏍᏗ	-6.50816
▁Ꮳ	-6.52881
▁ᎤᏲ	-6.53239
▁ᎿᏉᏃ	-6.53883
▁Ꮪ	-6.54681
Ꮕ	-6.5859
▁ᎦᏙ	-6.58935
▁ᎤᏛᏁ	-6.59526
▁ᎤᏣᏘ	-6.63381
Ꮒ	-6.63675
▁ᎠᏍᎦᏯ	-6.64024
▁Ᏹ	-6.65011
▁ᎠᏥᎸ	-6.65282
▁”	-6.67212
▁ᏫᎵᎻ	-6.71802
,”	-6.72319
▁ᎾᎯᏳ	-6.73008
▁ᏂᎦᎥ	-6.74332
▁ᎬᏂᎨᏒ	-6.75212
▁ᎦᎸᏉᏗᏳ	-6.75219
▁ᎠᎹ	-6.76288
▁ᎬᏂᏳᏉ	-6.77659
▁ᏄᏍᏛ	-6.77768
Ꮈ	-6.78033
▁ᎡᎯ	-6.78973
▁ᎦᎸᎳᏗ	-6.79339
▁ᎧᏃᎮᏛ	-6.79933
▁ᎠᏁᎯ	-6.80577
▁ᎤᏩᏒ	-6.81073
▁ᎠᏕᎸ	-6.83334
Ꭸ	-6.8356
▁ᎠᏰᎵ	-6.83999
Ꮟ	-6.84267
Ꮅ	-6.85682
▁ᎤᏤᎵ	-6.86571
▁ᎨᏎᎢ	-6.8682
▁ᎠᏎ	-6.87248
▁ᎤᏂ	-6.87353
▁ᏌᏉ	-6.90153
▁ᏰᎵ	-6.90514
▁ᎤᏤᎵᎦ	-6.90545
▁ᎢᏣ	-6.9108
Ᏻ	-6.91955
▁ᎢᏴᏛ	-6.92247
▁ᎪᎯ	-6.92708
ᏗᏱ	-6.93396
Ꮢ	-6.94763
▁Ꮣ	-6.94831
Ꮄ	-6.94881
▁Ꭲ	-6.96179
▁ᎤᏍᏗ	-6.96307
▁ᎦᏙᎯ	-6.96827
▁ᏔᎵ	-6.97056
▁ᎾᏂᎥ	-6.97339
▁ᎣᏏᏳ	-6.98135
Ꮂ	-6.98826
▁Ꭿ	-6.99754
▁ᎤᏟ	-6.99971
Ꭰ	-7.00668
▁ᎢᏏᎵ	-7.01983
▁ᎣᏍᏓ	-7.02299
▁[	-7.02955
ᏍᎪ	-7.03787
▁ᏗᎧᎿᏩᏛᏍᏗ	-7.03889
▁Ꭶ	-7.04832
▁ᎠᏓᏅᏙ	-7.06631
▁ᎠᏂᏍᎦᏯ	-7.0764
▁ᎨᏎ	-7.09921
▁ᏔᎵᏁ	-7.12249
▁ᎢᏥᏈᏱ	-7.12997
.”	-7.13655
ᏍᎩ	-7.13726
Ꭺ	-7.14652
▁ᎼᏏ	-7.16038
▁ᎬᏩ	-7.16776
▁ᎢᏳ	-7.17993
Ꭼ	-7.18717
▁ᎢᎬᏱ	-7.20192
▁ᎨᏒᎩ	-7.20493
▁⁠	-7.20952
▁ᎡᎳᏗ	-7.21252
!	-7.21752
▁ᏚᏳᎪᏛ	-7.21887
▁ᏩᎦ	-7.21945
▁Ᏻ	-7.22204
▁ᏤᎦᏈ	-7.22864
▁ᎠᏫ	-7.24466
]	-7.2449
▁ᎤᏂᏣᏘ	-7.2543
Ꮑ	-7.26113
▁ᎤᎾ	-7.26243
ᎨᏍᏗ	-7.26755
Ꮿ	-7.26975
ᏙᏗ	-7.2731
▁ᎡᏆᎭᎻ	-7.27442
▁ᎢᏳᎵᏍᏙᏗᏱ	-7.27519
▁ᎦᏙᏃ	-7.28364
:	-7.28413
Ꮝ	-7.28702
▁ᎢᏗᏢ	-7.28923
▁ᏏᏆ	-7.30335
▁ᏇᎵᏲ	-7.30903
▁ᎾᎥ	-7.31166
▁Ꮻ	-7.31484
▁ᏲᎾ	-7.32496
▁ᎠᎨᏴ	-7.32961
▁ᎬᏗ	-7.34264
▁ᎠᏏ	-7.34815
▁ᏦᏩ	-7.35035
▁ᏌᎳᏓ	-7.3615
▁ᏅᎩ	-7.36162
▁Ꮽ	-7.36188
▁ᏦᎢ	-7.36411
!”	-7.37685
Ꮃ	-7.38046
▁ᏄᏪᏒᎩ	-7.38428
▁ᏂᎦᏓ	-7.38849
?”	-7.39374
▁ᏄᏪᏎᎴᎢ	-7.39918
▁ᏅᏯ	-7.40982
Ꮵ	-7.42027
▁ᏧᏓᎴᏅᏛ	-7.43804
▁ᎢᏥ	-7.44002
▁ᎦᎪ	-7.44247
▁ᏐᏈᎵ	-7.44377
▁ᎠᏓ	-7.44551
▁ᎦᏚ	-7.45057
▁ᏱᎨᏎᏍᏗ	-7.45106
Ꮞ	-7.45751
▁Ꮿ	-7.46107
▁ᏂᎪᎯᎸ	-7.47436
▁ᎤᏙᎯᏳᎯᏯ	-7.48528
▁ᏥᏌᏃ	-7.4877
Ꭾ	-7.49217
▁Ꮒ	-7.49835
ᏍᎬ	-7.51398
▁ᏂᏚᏪᏎᎴᎢ	-7.5174
▁ᏝᏍᎪ	-7.53485
▁ᎠᏂᏧᏏ	-7.54258
▁Ꮔ	-7.54263
▁ᏣᎬᏫᏳᎯ	-7.5469
▁ᎤᎬᏩᎵ	-7.55316
▁ᎠᏆ	-7.55703
▁ᏧᏤᎵ	-7.55771
▁ᎦᎵᏉᎩ	-7.55838
▁ᏓᎶᏂᎨ	-7.55843
▁ᎬᏩᏍᏓᏩᏗᏙᎯ	-7.57927
▁ᏄᏪᏎᎸᎩ	-7.58041
▁ᎦᏓ	-7.58244
▁Ꭸ	-7.58437
▁ᎡᏍᎦ	-7.58473
▁ᏂᎦᏗᏳ	-7.59264
▁ᎢᏧᎳᎭ	-7.61539
▁ᎤᏙᏓ	-7.61611
▁Ꭼ	-7.61799
▁ᏰᎵᏉ	-7.62409
▁ᎣᏂ	-7.63608
Ꮨ	-7.63667
▁Ꮥ	-7.65443
▁ᏈᏓ	-7.66203
▁ᎪᏪᎵ	-7.67293
▁ᏄᏪᏎᎴ	-7.67586
▁ᏚᏂ	-7.68073
▁Ꮭ	-7.68811
▁ᎤᏤᏍᏙ	-7.69084
▁ᎢᏴ	-7.69632
▁ᎠᎩ	-7.69793
Ᏼ	-7.70418
▁ᏣᏂ	-7.70454
▁ᎢᎩ	-7.70592
▁ᏥᎷᏏᎵᎻ	-7.71326
▁ᎠᏧᏣ	-7.72086
▁ᏂᏚᏪᏎᎸᎩ	-7.72123
▁ᎦᏚᎲ	-7.72166
▁ᎠᏏᏉ	-7.72255
▁ᎬᏂ	-7.72694
▁ᏅᏗᎦᎵᏍᏙᏗᎭ	-7.73646
▁ᎠᏂᎨᏴ	-7.74397
▁ᎤᏅᏒ	-7.75421
▁ᏱᎨᏎ	-7.76542
▁ᏉᎳ	-7.7747
▁ᏧᎾᏓᎴᏅᏛ	-7.77564
▁ᎡᏙᏓ	-7.77567
▁ᎢᏯᏂᏛ	-7.78439
▁ᎢᏤ	-7.78476
▁ᎬᏂᏛ	-7.78619
▁ᏍᎩ	-7.79304
▁ᏄᎬᏫᏳᏒ	-7.79994
▁ᏂᎬᎾᏛ	-7.80023
Ꮀ	-7.8076
▁Ꭱ	-7.80817
▁ᎢᎦᎢ	-7.81675
▁ᎾᏍᎩᏯᎢ	-7.82227
▁ᏣᎵ	-7.8252
▁ᏐᏉ	-7.8259
▁ᎠᏂᏔᎵ	-7.83033
Ꮲ	-7.83222
▁ᎪᎯᏳᏗ	-7.83649
ᏍᎨᏍᏗ	-7.84267
▁ᎯᏍᎩ	-7.85496
▁ᎡᎳᏂ	-7.85853
▁ᎾᎥᏂ	-7.85865
ᏔᏅᎯ	-7.86001
▁ᏄᎵᏍᏔᏁᎢ	-7.86442
▁ᏑᎾᎴ	-7.86469
▁Ꭷ	-7.86805
▁ᎤᎵᏂᎩᏛ	-7.86818
Ꭵ	-7.87116
▁Ꮩ	-7.87309
▁ᎤᏓᎵᎢ	-7.87799
▁ᎤᏙᎯᏳᎯ	-7.87917
▁ᎤᏁᏨ	-7.87925
ᎸᎯ	-7.87938
▁ᏥᎪ	-7.8818
▁ᎼᏏᏃ	-7.8844
▁ᎠᏣᏗ	-7.88623
Ꮻ	-7.88764
▁ᏗᎦᎳᏫᎢᏍᏗᏱ	-7.88943
Ꮜ	-7.89021
▁Ꭽ	-7.89025
ᎸᎩ	-7.90821
▁ᎩᎦᎨ	-7.91042
▁ᎢᎨᏎᏍᏗ	-7.9131
▁ᎢᎬᏱᏗᏢ	-7.91312
▁ᎤᏓᏙᎵᏍᏗ	-7.91315
▁ᏄᏂᏪᏎᎢ	-7.91359
ᎮᏍᏗ	-7.91722
▁ᏧᏂ	-7.9219
Ꮳ	-7.92854
▁ᎠᏯ	-7.93092
Ꮸ	-7.93358
ᎴᎢ	-7.93452
▁ᏗᎦᎸᏫᏍᏓᏁᏗ	-7.94822
▁ᎩᎳ	-7.94832
▁ᏗᎧᎿᏩᏗᏙᎯ	-7.95074
▁ᎤᏛᏅ	-7.95366
ᏔᏅ	-7.95543
Ꮩ	-7.95721
▁ᏧᎾ	-7.95746
▁ᎠᎵᏍᏓᏴᏗ	-7.95807
▁ᏗᏣ	-7.96131
▁ᎢᏧᎳ	-7.96706
▁ᏌᏌ	-7.97012
▁ᎡᏏᎩ	-7.98364
Ꮥ	-7.98477
▁ᎠᎾᎵᏅᏟ	-7.98965
▁ᎭᏫᏂ	-7.99761
▁ᏓᏆᎴᎳ	-7.99969
▁ᎤᏓ	-8.00752
▁ᎰᎻ	-8.01003
▁ᎦᎶᎯᏍᏗᏱ	-8.01097
▁ᏅᏩᏓᎴ	-8.01466
▁ᎢᎾᎨ	-8.01562
▁ᎤᏩᏌ	-8.01609
▁ᏒᏃᏱ	-8.02
▁ᎤᏥ	-8.02646
▁ᏍᎩᎾᎾ	-8.02972
▁ᏧᎬᏩᎶᏗ	-8.04091
▁ᎢᎬᏱᏱ	-8.04121
▁ᎬᏩᎦᏘᏯ	-8.05126
▁ᎤᏃᏕᎾ	-8.05129
▁ᏅᏙ	-8.055
▁Ꭵ	-8.05634
▁ᏔᎳᏚ	-8.06194
Ꮤ	-8.06227
▁ᎢᎸᎯᏳ	-8.0726
▁Ꭳ	-8.07396
▁ᎦᎸᎶᎢ	-8.07769
▁ᎣᎩ	-8.07885
ᏍᏛ	-8.08042
▁ᏚᏙᎥ	-8.08077
▁ᏱᎨᏎᎢ	-8.08358
▁ᎦᏲᏟ	-8.10442
▁ᎤᎾᏤᎵᎦ	-8.10881
ᏒᎢ	-8.1127
ᏅᎯ	-8.11549
▁ᏧᎾᏁᎶᏗ	-8.11693
▁ᎠᏏᏴᏫ	-8.11839
ᏍᎦ	-8.11859
▁ᏥᏳ	-8.12298
▁ᏅᏩᏙᎯᏯᏛ	-8.12817
▁ᎦᏳᎳ	-8.12829
▁ᏚᎾ	-8.13427
▁Ꮹ	-8.13596
ᏉᏍᎩᏂ	-8.13638
▁ᏄᎵᏍᏔᏅ	-8.13823
▁ᎢᏓᎵᏅᏟ	-8.13969
▁ᎤᏚᎩ	-8.14139
▁ᏱᎨᏒᎾ	-8.15131
▁ᏗᎦ	-8.15338
ᏍᎩᏂᏃᏅ	-8.15391
▁ᏓᏂ	-8.15563
ᏁᎢ	-8.15602
▁ᎠᏰᎸ	-8.16071
▁ᎠᏆᏤᎵ	-8.16155
▁ᎤᏍᏆᏂᎪᏗ	-8.16277
▁ᎡᏆ	-8.16406
ᏍᎪᎢ	-8.16944
▁ᎦᏓᎭ	-8.18132
▁ᎢᎪᎯᏛ	-8.18726
▁ᎠᎬᏱ	-8.18759
▁ᎭᏫᏂᏗᏢ	-8.19926
▁ᎠᏇᏥ	-8.1993
ᏎᎢ	-8.20034
▁ᏧᏤᎵᎦ	-8.20412
▁ᎩᎳᏉ	-8.2079
▁Ꮫ	-8.21074
▁ᏅᏓᏳᏓᎴᏅᎯ	-8.21156
▁ᏂᏨᏪᏎᎭ	-8.2117
▁ᎭᏢ	-8.21174
▁ᏄᏂᏪᏒᎩ	-8.21226
ᎸᎢ	-8.22065
▁ᎤᏇᏓᎵ	-8.22401
▁ᎤᎾᏓᏅᏘ	-8.22439
▁ᏐᎢ	-8.22577
▁ᎢᏳᏩᏂᏌᏛ	-8.23671
▁ᎢᏐ	-8.23737
▁ᎢᏳᏰᏃ	-8.23881
ᎲᎢ	-8.23912
▁ᎯᎳ	-8.24
▁ᎤᏁᎳᎩ	-8.24967
▁ᏠᎨᏏ	-8.24969
▁ᏃᏗ	-8.25418
▁ᏄᏍᏗ	-8.26036
▁ᎢᏯᎦᏴᎵ	-8.26251
▁ᏄᏪᏒ	-8.26271
▁ᎤᏕᎵᏛ	-8.26275
▁ᏧᏙᎢᏛ	-8.26283
▁ᎢᎦᏛ	-8.26647
▁ᎦᎵᏦᏛ	-8.26793
▁ᎠᏓᏁᎸ	-8.2697
ᏍᏗᏱ	-8.2725
▁ᏧᏍᏆᏴᏍᏗ	-8.27641
▁ᎤᏛᏛᏁ	-8.28008
Ꮆ	-8.28272
▁ᏍᏉ	-8.28661
▁ᎢᏳᎵᏍᏙᏗ	-8.28705
▁ᏄᎵᏍᏔᏁ	-8.28805
▁ᏗᎪᏢᏔᏅᎯ	-8.2892
▁ᎠᏁᎲ	-8.29027
ᏒᎩ	-8.29531
Ꮖ	-8.2979
▁ᎢᎪᎯᏓ	-8.30291
▁ᎠᏁᎲᎢ	-8.31132
▁ᏄᏓᎴᏒ	-8.31809
▁ᏦᎢᏁ	-8.32054
ᏅᎩ	-8.32493
ᎪᎢ	-8.32744
▁ᎠᏍᏓᏯ	-8.33045
▁ᎦᏁᎸ	-8.33073
▁Ꮶ	-8.33927
▁ᎤᎾᏤᎵ	-8.34057
▁ᎠᎾᏙᎴᎰᏍᎩ	-8.34421
ᎨᎢ	-8.348
▁Ꮟ	-8.34914
▁ᏃᏉ	-8.35644
▁ᎠᏍᎪᎯᏧᏈ	-8.35877
▁ᎩᎬ	-8.35887
▁ᏥᎨᏒ	-8.3604
▁ᏕᏥ	-8.36143
▁ᏥᏳᎯ	-8.36304
Ꮴ	-8.36682
ᏍᎬᎢ	-8.37175
▁ᏕᎦ	-8.373
▁ᎡᎳᏆᏗ	-8.37324
▁ᎠᏲᎱᎯᏍᏗ	-8.37331
▁ᏧᏅᏏᏓᏍᏗ	-8.37332
ᏙᏗᏱ	-8.37362
Ꮹ	-8.3739
▁ᏄᎵᏍᏔᏅᎩ	-8.37943
▁ᎠᎦᏴᎵᎨ	-8.38066
▁ᎤᏒ	-8.38137
▁ᏌᏩᏂ	-8.38767
▁ᎠᏂᏆᎵᏏ	-8.38767
ᎮᎢ	-8.39295
▁ᎧᏅᏂᏍᎩ	-8.39842
▁ᎤᏂᏃᏕᎾ	-8.40267
▁ᎤᏃᎴ	-8.40374
▁ᎤᏁᎬ	-8.40446
▁ᎤᏒᎯ	-8.40896
▁ᎡᏣ	-8.41547
▁ᎠᏍᎦᏂ	-8.41558
▁ᏄᏂᎬᏫᏳᏒ	-8.4178
▁ᏧᏕᏘᏴᏛ	-8.41781
▁ᎠᎺᏉᎯ	-8.41787
Ꭷ	-8.41978
ᎬᎢ	-8.42003
▁ᎠᏍᎪᎵ	-8.42812
Ꭴ	-8.42852
▁ᏗᏥ	-8.43161
Ꮚ	-8.43183
▁ᎤᏂᎬᏫᏳᎯ	-8.43352
▁ᎨᏐᎢ	-8.44087
▁ᎡᏥ	-8.44138
▁ᎢᏯ	-8.44713
▁ᎢᎦᏤᎵ	-8.44751
▁ᎠᏙᎴᎰᏍᎩ	-8.44888
Ꮯ	-8.44942
ᏍᏙᏗ	-8.45109
▁ᏂᎬ	-8.45671
Ᏺ	-8.46154
▁ᏗᏂᎧᎿᏩᏗᏙᎯ	-8.46463
▁ᎤᏬᏰᏂ	-8.46473
▁ᏣᏄᏏ	-8.46497
▁ᏅᏩᎾᏓᎴ	-8.47201
▁ᏂᎯᏍᎩᏂ	-8.47263
▁ᎤᏓᏅᏘ	-8.4802
Ꮷ	-8.48126
▁ᎨᏐ	-8.4896
▁ᎠᏥ	-8.49386
▁ᎾᎿᏂ	-8.49892
ᎨᎶᎯ	-8.50368
ᏁᎸ	-8.50702
▁ᎢᏗ	-8.50744
▁ᏑᏓᎵ	-8.50991
▁ᏧᏂᏍᏆᏂᎪᏙᏗ	-8.51421
▁ᎥᎥ	-8.51443
▁ᏂᎬᏅ	-8.51675
▁ᏗᏂᏲᎵ	-8.52235
▁ᎦᎸᎶ	-8.52305
▁ᎢᏨ	-8.52316
▁ᎤᏙᎯᏳ	-8.52338
Ꭳ	-8.52856
▁ᎤᏴᏍᏗ	-8.52939
▁ᎠᏲᎵ	-8.53006
▁ᎡᏆᎻ	-8.53096
▁ᎤᎵᏂᎩᏗᏳ	-8.53115
▁ᎡᏝᏪᎯ	-8.5324
▁ᎠᎦᏴᎵᎨᎢ	-8.54017
▁ᏤᏥ	-8.54392
▁ᎦᎵᏦᏕ	-8.54804
▁ᎦᎾᏝᎢ	-8.5483
▁ᎪᎰᏍᏗ	-8.54845
▁ᎠᏂᏴᏫᏯ	-8.54846
▁ᎤᎵᏏᎩ	-8.54873
▁ᏨᏒ	-8.54984
▁ᎢᏨᏒ	-8.55026
▁ᎤᏅᏗ	-8.5568
▁ᎣᏓᎸ	-8.55755
Ꭱ	-8.55964
▁ᏗᏂᏲᏟ	-8.56555
▁ᏔᎵᏁᏃ	-8.56564
▁ᎠᏓᎨᏳᏗ	-8.56601
▁ᎨᎵᎵ	-8.56638
▁ᎦᎸᏉᏗ	-8.56821
▁Ꮨ	-8.56891
ᎦᎵ	-8.57116
▁ᏥᎨᏒᎩ	-8.57189
▁ᏥᎨᏎᎢ	-8.57259
ᎠᏁᎶᎯ	-8.57266
▁ᎤᏁᎳᏅᎯᏃ	-8.57437
Ꮘ	-8.57968
▁ᎢᏯᎩᏳᏍᏈᏛ	-8.58345
▁ᎠᏍᎩᎾ	-8.58381
▁ᎤᏤᎵᎪᎯ	-8.58402
▁ᎪᎢ	-8.58477
▁ᎠᎩᎾ	-8.58983
▁ᎭᎾ	-8.59164
Ᏸ	-8.59245
▁ᏄᏓᎴ	-8.59671
▁ᎠᏄᏬ	-8.59982
▁ᏗᏃᏪᎵᏍᎩ	-8.60159
▁ᎤᏅᏏᏓᏍᏗ	-8.60239
▁ᏕᏫ	-8.60261
▁ᎧᏁᏌᎢ	-8.60264
▁ᎩᏟ	-8.62025
▁ᎦᏰᎪᎩ	-8.62033
▁ᎦᏚᎲᎢ	-8.62183
▁ᎠᎦᏔᎲᎢ	-8.62516
▁ᎭᏂ	-8.62817
▁ᎠᎾ	-8.63164
▁(	-8.63897
▁ᎧᏁᏍᎦ	-8.63898
▁ᎠᏂᏧᏣ	-8.63903
▁ᎤᎬᏫᏳᏌᏕᎩ	-8.63961
Ꮭ	-8.64329
▁ᎠᏛ	-8.64449
▁ᏫᏥ	-8.64585
▁ᏗᏆᏤᎵ	-8.65669
▁ᏕᏣ	-8.6582
▁ᎴᏆᏂ	-8.65821
▁ᎠᏃᎯᏳᎲᏍᎩ	-8.65825
▁ᏥᏍᏕᏥ	-8.6583
▁ᎤᏣᏔᏅᎯ	-8.6584
▁ᎠᏰᎳᏍᏗ	-8.65863
▁ᏄᏍᏕᏍᏗ	-8.65945
▁ᎤᏛᎦᏅ	-8.6599
▁ᎢᎦᏓ	-8.66777
▁ᎤᏰᎸᏗ	-8.66886
▁ᏣᏤᎵ	-8.67477
▁ᎠᏂᏍᎩᎾ	-8.67787
▁ᏗᎦᏙᎵ	-8.67831
▁ᏔᎷᎩᏍᎩ	-8.67963
ᏔᏁ	-8.68217
ᏍᎨᎢ	-8.68326
▁ᎨᎳᏍᏗᏱ	-8.68555
ᏍᏓ	-8.69175
ᏔᏅᎩ	-8.69263
ᏁᏗᏱ	-8.69305
▁Ꮁ	-8.69471
▁ᎠᏌᎻᏓ	-8.69781
▁ᏗᎾᏓᏅᏟ	-8.69782
▁ᎨᏥᏅᏏᏛ	-8.6979
▁Ꮕ	-8.69804
▁ᎺᎵ	-8.69826
▁ᏅᏲᎯ	-8.69844
▁ᏧᏁᏥ	-8.69878
▁ᎠᏂᏏᏴᏫᎭ	-8.69882
▁ᎠᏗᎾ	-8.69883
▁ᏱᎦ	-8.69907
▁ᎤᏲᎱᏒ	-8.70097
Ꮠ	-8.70183
▁ᎢᎦᏛᏃ	-8.70415
▁ᏂᎦ	-8.70683
▁ᎤᏰᎸᏛ	-8.71027
▁ᎠᎲ	-8.71226
ᏍᏔᏅ	-8.71246
▁ᎤᎪᎲ	-8.7142
▁ᏗᏣᏤᎵ	-8.7167
▁Ᏼ	-8.71719
▁ᎢᎸᎯᏢ	-8.71822
▁ᎦᏩᏒᎩ	-8.71822
▁ᎢᏳᏕᏘᏴᏛ	-8.71833
▁ᏧᏂᏲᎱᏒᎯ	-8.71835
▁ᎤᏕᏁᎴᎢ	-8.7185
▁ᎪᏢᏔᏅᎯ	-8.71941
▁ᎰᏩ	-8.71943
▁ᎠᏍᎪᎯ	-8.72322
▁ᎠᎦᏙᎥᎯᏍᏗ	-8.72334
o	-8.72336
ᏧᏈ	-8.72467
▁ᏥᎨᏎ	-8.7283
▁ᎢᏳᏍᎩᏂ	-8.73094
▁ᎦᏍᎩᎸ	-8.73106
▁ᎠᏎᏉ	-8.73143
▁ᎬᏅ	-8.73156
ᏅᎢ	-8.73598
▁ᎤᏁ	-8.73629
▁Ꮀ	-8.738
▁ᏅᏓᎬᏩᏓᎴᏅᏛ	-8.73909
▁Ꮸ	-8.73946
▁ᏃᏯ	-8.73966
▁ᏣᏁᎳᏅᎯ	-8.73982
ᎲᎩ	-8.74093
▁ᎤᏠᏱ	-8.7417
▁ᎢᏳᎾᏍᏗ	-8.74181
▁ᏂᎪᎯᎸᎢ	-8.74621
ᏍᎨ	-8.74638
ᏗᎭ	-8.74745
ᏗᎦᎳᏫᎢᏍᏗᏱ	-8.75123
▁ᏓᏔᎴᏒ	-8.75198
▁ᎤᎾᏓᏡᎬ	-8.75278
▁ᎧᏁᎬ	-8.7528
▁ᏗᏓᏍᏚᏗᏱ	-8.76034
▁ᎭᏫᏯ	-8.76038
▁ᏥᎦᏔᎭ	-8.76231
ᏔᏁᎢ	-8.76854
ᎬᎾ	-8.76894
▁ᎤᎷᏨ	-8.76956
▁ᏅᏗᎦᎵᏍᏙᏗᏍᎨ	-8.7715
▁ᏄᏪᏎ	-8.7716
▁ᎨᏴ	-8.77617
ᎭᏩ	-8.77743
▁ᏥᏚ	-8.77906
▁ᏔᏕᏲᎲᏍᎩ	-8.78207
▁ᏆᎴᏗ	-8.78214
▁ᏗᏤᏥ	-8.78235
▁ᎥᏣᏱ	-8.78243
▁ᎤᎾᏤᎵᎪᎯ	-8.78248
▁ᏧᏂᎸᏫᏍᏓᏁᎯ	-8.78291
▁ᏗᏂ	-8.78604
▁ᎤᏐᏅ	-8.78628
▁ᏓᎦ	-8.78658
ᏎᏍᏗ	-8.78917
▁ᎤᎾᏛᎦᏅ	-8.7956
▁ᎢᎸᏍᎩ	-8.79812
▁ᏒᎦᏔ	-8.8043
▁ᏅᎦᏍᎪᎯ	-8.80431
▁ᎤᎵᎮᎵᏍᏗ	-8.80466
▁ᏅᏓᎦᎵᏍᏙᏗᏍᎬᎩ	-8.80492
▁ᎤᎴᏅᎮ	-8.80497
▁ᎠᎳᏂ	-8.8057
▁ᎤᏲᎢᏳ	-8.80571
▁ᎬᏘ	-8.80594
▁ᏚᏬᎡᎢ	-8.80603
▁ᎡᎶᏛ	-8.80634
▁ᎠᏂᏯᏫᏍᎩ	-8.80871
▁ᎠᏂᏐᎢ	-8.81519
▁Ꮴ	-8.81699
▁-	-8.81733
▁ᎦᏁᎸᎢ	-8.8175
▁ᎦᎵᏦᏛᎢ	-8.81804
▁ᎤᏙ	-8.81846
▁ᎤᎧᏛ	-8.8192
▁ᏂᎯᏃ	-8.81934
▁ᎾᏍᎩᏍᎩᏂ	-8.81939
▁ᎦᏍᎩᎶ	-8.82029
▁ᎢᏯᏂ	-8.82103
▁ᎠᎹᏱ	-8.82156
▁ᏌᏉᏉ	-8.82383
▁ᏗᏅᏃᏛ	-8.82437
▁ᏥᏍᏆ	-8.82493
▁ᎡᎺᏅ	-8.82704
▁ᎬᏩᏚᏫᏛ	-8.82707
▁ᎩᎳᏈᏴ	-8.82715
▁ᎤᏣᎴᏍᏗ	-8.82722
▁ᎠᎬᏱᏣ	-8.8277
▁ᎣᎯᏍᏙᏗ	-8.82776
▁ᎭᏫᏂᏣ	-8.82784
▁ᏣᎳᎩ	-8.828
▁ᎬᏔᏅᎯ	-8.82912
▁ᏂᏣ	-8.83458
▁ᎬᏂᎨ	-8.83473
▁ᎣᏂᏃ	-8.83623
ᎾᏍᎩ	-8.8385
ᎲᎾ	-8.84178
▁ᎤᎾᏙᏓᏆᏍᎬ	-8.84197
▁ᏂᏚᏪᏎᎴ	-8.84244
▁ᎤᏙᎴᎰᏒ	-8.84495
▁ᎤᏓᏅᏙ	-8.84527
▁ᏗᎬ	-8.84667
ᏁᎸᎯ	-8.84858
▁ᎴᏥᎵ	-8.85028
▁ᎠᏂᏲᏍᎩ	-8.85037
▁ᎠᏂᏣᎳᎩ	-8.85039
▁ᎦᎸᎳᏗᏢ	-8.85349
▁ᎤᏅ	-8.85793
▁ᏗᎬᏩ	-8.85838
▁Ꭺ	-8.86115
▁ᎠᎵ	-8.86171
ᎴᏍᏗ	-8.86338
ᎨᎳᏍᏗᏱ	-8.86473
▁ᏥᎨᏐ	-8.8661
▁ᏂᏥᎥ	-8.86625
▁ᎠᎦ	-8.8668
▁ᏍᎩᏴ	-8.86842
▁ᏗᏄᏬ	-8.8721
▁ᏫᎾᏍᏛᎾ	-8.87409
▁ᎡᏉᏂ	-8.87426
▁ᏧᏒᎯᏛ	-8.87493
▁ᏎᎵ	-8.87543
▁ᎪᎩ	-8.8763
▁ᏤᎯ	-8.87889
ᏗᏍᎩ	-8.88391
▁ᎤᎵ	-8.88466
▁ᏂᎦᏪᏍᎬ	-8.8851
▁ᎡᎭ	-8.88561
▁ᏚᏏᎳᏛ	-8.88926
▁ᏂᏚ	-8.89387
▁Ꭻ	-8.89515
▁Ꮤ	-8.89522
▁ᎤᏪᏘ	-8.89783
▁ᏖᎸᎳᏗ	-8.89847
▁ᏃᏈᏏ	-8.89884
▁ᎠᏕᎳ	-8.89916
▁ᎾᏂᏪᏍᎨᎢ	-8.89937
▁ᎠᏆᏤᎵᎦ	-8.90197
▁ᎦᏚᏏ	-8.90304
▁ᏧᏗᏱ	-8.91317
▁ᎠᏋᏒ	-8.91346
Ꮋ	-8.91446
Ꮺ	-8.91781
▁ᎢᎾᎨᎢ	-8.9181
▁ᏑᎾᎴᎢ	-8.91999
▁ᎨᎾᏂ	-8.92133
▁ᎣᎭᏁ	-8.92349
▁ᏭᏕᎵᎬ	-8.92357
▁ᎤᏏᏙᎵ	-8.92365
▁ᏂᎬᏩᏪᏎᎴᎢ	-8.924
▁ᎢᏳᏟᎶᏛ	-8.92437
▁ᎪᏱᏁᎢ	-8.92583
▁ᎫᏩ	-8.92593
▁ᏕᎯ	-8.92601
▁ᏙᏱ	-8.93055
▁ᏤᏍᏗ	-8.93078
▁ᏱᏚ	-8.93216
ᏗᏍᎬ	-8.93272
ᎯᏳ	-8.93683
▁ᎠᏂᎦᏔᎲ	-8.93752
▁ᎤᎵᏏᎬ	-8.94077
▁ᎤᏁᏤ	-8.94181
Ꮔ	-8.94759
▁ᏗᏨᏍᏙᏗ	-8.94918
▁ᎦᎶᏇ	-8.9492
▁ᏑᎾᏓᏡᎩ	-8.9492
▁ᎩᎦ	-8.94933
▁ᏃᏊ	-8.94936
Ꮇ	-8.9495
ᏛᎾ	-8.94968
▁ᎢᎾᏛ	-8.95043
ᏓᏁᏗ	-8.95062
▁ᏅᏗᎦᎵᏍᏙᏗᏍᎨᏍᏗ	-8.95196
ᎬᎩ	-8.95462
▁ᎠᏴᏃ	-8.95681
▁ᎦᎶᎯᏍᏗ	-8.95739
▁ᏥᎨᏐᎢ	-8.95786
ᏒᎾ	-8.95795
▁ᏗᎫᎪᏙᏗ	-8.96449
▁ᎦᎵ	-8.96583
▁ᎤᏪᎵᏎ	-8.96617
▁ᏄᎾᏍᏛ	-8.96737
▁ᎡᎯᏍᏗ	-8.96801
▁ᏡᎬ	-8.96842
▁ᎤᏁᏤᎴ	-8.96923
▁ᎣᏥ	-8.96996
▁ᎤᎾᏓ	-8.97383
▁ᎤᏁᎳᏅᎯᏍᎩᏂ	-8.97413
▁ᎣᎦ	-8.97457
▁ᏣᏥ	-8.97508
▁ᎨᏥ	-8.97557
▁ᎬᏃᏛ	-8.97558
▁ᏗᎵᏍᏓᏴᏗᏱ	-8.97579
ᏕᏍᏗ	-8.9763
▁ᎠᏥᎸᏉᏗᏳ	-8.97632
▁ᎠᎰᎵ	-8.97639
▁ᏫᏚ	-8.97678
▁ᎤᏁᎦ	-8.97704
▁ᎤᎬᏫᏳ	-8.98495
▁ᏱᏓ	-8.98587
ᎯᎠ	-8.98744
▁ᎤᏩ	-8.9892
▁ᎤᏍᎪᎸ	-8.99113
▁ᎬᏂᏳᏉᏃ	-8.99212
▁ᎡᎶ	-8.99416
▁ᎤᏪᎷᏁ	-8.99425
▁ᏄᏛᏁᎴ	-8.99448
▁ᎤᏚᎵᏍᎬ	-8.9955
▁ᎠᏆᏓᏅᏙ	-8.99724
▁ᏧᎾᏤᎵ	-9.00179
▁ᏧᏬᏰᏂ	-9.0025
▁ᏂᎦᏪᎭ	-9.00287
▁ᎥᏞᏍᏗ	-9.00293
▁ᏍᏓᏯ	-9.00346
▁ᎤᏂᎷᏤ	-9.00378
▁ᏣᏁᎭ	-9.00453
▁ᎠᏎᏉᏉ	-9.00733
▁ᏓᏳ	-9.00944
ᏔᏂ	-9.00979
▁ᎮᎾ	-9.01314
▁ᎢᏅ	-9.01563
▁ᎨᏣ	-9.01613
▁ᎤᏪ	-9.02031
▁ᎠᏰᎸᎢ	-9.02117
▁ᎠᏓᏅᏖᏍᎬ	-9.02197
▁ᏓᏥ	-9.02389
▁ᏱᏣ	-9.02462
▁ᎠᎵᏍᎪᎸᏙᏗ	-9.02819
▁ᎬᏩᏂ	-9.02837
ᏍᏘ	-9.03005
▁ᏧᏆᎶᎦ	-9.03024
▁ᏦᎠᏍᎪᎯ	-9.03025
▁ᏗᎧᎸᎬ	-9.03025
▁ᎤᎩᎬ	-9.03052
▁ᏗᏂᎳᏫᎩ	-9.03061
▁ᎩᎶᏍᎩᏂ	-9.03089
▁ᏄᎾ	-9.03118
▁ᏅᏃᎯ	-9.03153
▁ᏧᎾᏤᎵᎦ	-9.032
▁ᎩᎦᎨᎢ	-9.03953
▁ᎤᏩᏒᏉ	-9.03971
ᏁᏢᏔᏅᏛ	-9.0464
▁ᏕᎤ	-9.04671
▁ᏅᏗᎦᎵᏍᏙᏗᏍᎬ	-9.05091
▁ᎣᏏ	-9.05205
ᏒᎯ	-9.05206
▁ᏓᎾ	-9.05357
▁ᎢᏣᎵᏍᏓᏁᏗ	-9.05611
▁ᏍᎩᎾ	-9.05745
▁ᏩᎭᏯ	-9.05881
▁ᏙᏱᏗᏢ	-9.05899
Ꮪ	-9.06058
▁ᎤᏍᏆᏂᎩᏗ	-9.06186
▁ᎡᎶᏗ	-9.06221
ᏗᏍᎨᏍᏗ	-9.06265
ᎯᏍᏗ	-9.06356
▁ᎤᏠᏱᏉ	-9.06398
▁ᎠᏙᎯ	-9.06624
▁ᎤᎦᏔ	-9.06628
ᎰᎢ	-9.06693
▁ᏛᎦ	-9.06744
ᏁᎴ	-9.06897
ᏙᎢᏳᏍᏗ	-9.06994
▁ᎬᎩ	-9.07383
▁ᎤᏣᏘᏂ	-9.08063
▁ᎢᏳᎾᎵᏍᏓᏁᏗ	-9.08596
▁ᎢᏳᎾᏛᏁᏗ	-9.0862
▁ᎯᏍᎦᏍᎪᎯ	-9.08822
▁ᏂᏚᏳᎪᏛᎾ	-9.08823
▁ᏎᏓᏂ	-9.08823
▁ᏎᎷ	-9.08828
ᏛᎢ	-9.08849
▁ᏣᏁᏢᏔᏅᎯ	-9.08851
▁ᏣᏙᏓ	-9.08892
▁ᎤᏂᏙᏓ	-9.08914
▁ᏩᏍᏛ	-9.08929
▁ᏱᏥᎦᏔᎭ	-9.08951
▁ᎢᏤᎲ	-9.08996
ᎩᏍᏗ	-9.09029
▁ᏥᎻ	-9.09117
▁ᎠᏗᏔᏍᏗ	-9.09322
▁ᎶᏗ	-9.09484
▁ᎾᎥᏂᎨ	-9.09498
▁ᏧᏓ	-9.09574
▁ᎤᎵᏍᏆᎸᏗ	-9.10091
▁ᎠᏂᏅ	-9.10428
▁ᎤᏐᏱ	-9.10775
▁ᎤᏬᏢ	-9.1086
▁ᎤᎵᏍᏓᏴᏗ	-9.11687
▁ᎨᎵ	-9.11703
▁ᏱᎦᎵᏍᏙᏓ	-9.11856
▁ᎠᏥᏅᏏᏓᏍᏗ	-9.11859
▁ᎤᎵᏍᏈᏗ	-9.1186
▁ᎵᎠ	-9.1186
▁ᎢᏥᏍᎦᏯ	-9.11878
▁ᏚᎾᏙᎥ	-9.11922
--	-9.11943
▁ᎤᎧᎵᏨᎯ	-9.12032
▁ᏧᏓᏏ	-9.12043
▁ᎠᎦᏔᎲ	-9.12044
▁ᏎᎦ	-9.12086
▁ᎤᎾᏝᎢ	-9.1213
Ꮦ	-9.12203
▁ᎪᎳ	-9.12256
▁ᎤᏍᎪᏍ	-9.12582
▁ᏂᏗ	-9.12774
▁ᎢᏤᎲᎢ	-9.12786
▁ᎦᏬᏂᏍᎬ	-9.1362
Ꮱ	-9.13893
▁ᏄᏪᏎᎸ	-9.13943
▁ᎠᏴᏍᎩᏂ	-9.1414
▁ᎤᎶᎩᎸ	-9.14179
▁ᎡᎲ	-9.14183
▁Ᏺ	-9.14911
▁ᎵᏇᎩ	-9.14977
▁ᎨᎻᎵ	-9.14977
▁ᎤᎦᎾᏍᏛ	-9.14985
▁ᏚᏅᏓᏒ	-9.14988
▁ᎠᏂᏴᏫ	-9.14995
▁ᎠᎨᏳᏣ	-9.15012
▁ᏏᏌ	-9.15062
▁ᎡᎵ	-9.15063
▁ᎤᏲᎱᏎᎢ	-9.15068
▁ᏥᏄᏍᏗ	-9.15085
▁ᎬᏙᏗ	-9.15177
▁ᎦᏁᎦ	-9.15259
▁ᎤᎷᏤ	-9.15313
▁ᎦᎸᎳᏗᏣ	-9.15356
ᎸᎭ	-9.1536
Ꮼ	-9.15523
▁ᏅᏓ	-9.1596
ᏙᎸᎢ	-9.16028
Ꮏ	-9.16146
▁ᎬᏅᎢ	-9.16333
▁ᏓᎩ	-9.17215
▁ᎤᎪᎮ	-9.17447
ᏁᏗ	-9.17763
▁ᎢᏯᏛᏁᏗ	-9.17982
▁ᏧᎸᏫᏍᏓᏁᎯ	-9.18203
▁ᏔᎴᎲᎦ	-9.18206
▁ᎠᏂᏳᏩᏁᎦ	-9.18211
▁ᏥᎪᏪᎳ	-9.18216
▁ᏧᏓᏆᏙᎩ	-9.18217
▁ᏓᏆᎴᎷ	-9.18221
▁ᎢᎬᏁᎸᎯ	-9.18239
▁ᎦᏚᎢᏣ	-9.1825
▁ᎢᎾᏓ	-9.18304
ᏁᎭ	-9.18524
Ꮗ	-9.18573
▁ᏭᎷᏤ	-9.18609
▁ᎤᏕᏯᏙᏗ	-9.1864
▁ᎢᏳᎵᏍᏓᏁᏗ	-9.18756
▁ᎠᏗᎭ	-9.19023
▁ᎤᎾᎵ	-9.19147
▁ᎦᏚᎢ	-9.19395
ᏏᏴᏫᎭ	-9.2033
▁ᎤᏂᏍᎦᏅᏨ	-9.20358
▁ᎬᏗᏍᎬ	-9.20553
ᏍᎪᎯ	-9.20695
▁ᎤᏛᎦᏁ	-9.20701
ᏗᏍᎪ	-9.20719
▁ᏄᎵᏍᏔᏂᏙᎸ	-9.20724
▁ᎤᏂᏲ	-9.20947
▁ᏈᎵᎩ	-9.21399
▁ᎦᎷᏯᏍᏗ	-9.21537
▁ᏅᏓᎦᎵᏍᏔᏂ	-9.21537
▁ᏔᎳᏍᎪᎯ	-9.21538
▁ᎢᏣᎵᏅᏟ	-9.2154
▁ᏕᏧᎬ	-9.21545
▁ᎤᎾᏓᏤᎵᏛ	-9.21548
▁ᎠᏂᎨᏯ	-9.21549
▁ᎦᏅᏍᏙᏗ	-9.21549
▁ᎢᏥᏙᏓ	-9.21568
▁ᎯᏅᏏᏓᏍᏗ	-9.21568
▁ᏧᎾᏛᏐᏅᎯ	-9.2159
▁ᎢᏣᏛᏁᏗᏱ	-9.21621
▁ᏎᎦᏨ	-9.2169
▁ᏍᎪᎯ	-9.21955
ᏍᏔᏁᎢ	-9.22227
▁ᏥᏓ	-9.22235
▁ᎦᎵᏉᎩᏁ	-9.22268
▁ᎠᏂᏓ	-9.225
ᎬᎿᎨ	-9.22584
▁ᎤᏂᎪᎲ	-9.23287
ᎯᏍᏗᏱ	-9.23356
▁ᏂᎯᏰᏃ	-9.23954
ᎣᏍᏓ	-9.24164
▁ᎤᏛᎾ	-9.24686
▁ᏐᎣᏁᎳ	-9.24985
▁ᎤᎩᏨᏛ	-9.24997
▁ᏓᎿᏩ	-9.24997
▁ᎢᏯᏛᏁᎯ	-9.2501
▁ᏥᏂᎬᏅ	-9.25018
▁ᎢᏨᎨᏳᎢ	-9.25026
▁ᏂᎦᎵᏍᏗᎭ	-9.2504
▁ᎦᎸᏉᏙᏗ	-9.25063
▁ᎤᎴᏂᏙᎴᎢ	-9.25085
ᏙᎯ	-9.25183
▁ᏭᎶᏎᎢ	-9.2543
▁ᎢᏯᏍᏗ	-9.25484
▁ᎡᎮᎢ	-9.25507
▁ᎾᎯᏳᏉ	-9.25774
▁ᎤᎷᏨᎩ	-9.25821
▁ᎤᏪᏅᏎ	-9.2597
ᏛᎩ	-9.26315
▁ᏂᎦᎥᏉ	-9.26508
▁ᎠᏓᏅᏓᏗᏍᏗ	-9.26699
▁ᎤᏁᏤᎸ	-9.27056
▁ᏗᎾ	-9.27087
ᎨᏳᎯᏳ	-9.27226
▁ᏩᏯ	-9.27353
ᎠᏗᏔᏍᏗ	-9.27623
ᏗᎦᏅᏌᏗ	-9.27656
▁ᏗᎦᏚᎲ	-9.27728
ᏍᎬᎾ	-9.27728
▁ᏗᎨᏒ	-9.2803
▁ᎤᎵᏍᏆᏗᏍᏗ	-9.28305
▁ᏧᏂᎾᏫ	-9.2835
▁ᎠᏂᏍᎦᎾ	-9.2845
▁ᏂᎬᎾᏛᎢ	-9.28455
ᎧᏔᎮᎢ	-9.28477
▁ᎧᏃᎯᏰᎩ	-9.28566
▁ᎥᏓᎵ	-9.28572
▁ᏅᎬᏩᏪᏎᎸᎩ	-9.28585
▁ᎢᏥᎦᏔᎭ	-9.28614
▁ᎤᎾᏫ	-9.28619
▁ᏏᏓᏁᎸᎯ	-9.28666
▁ᎤᏟᎯᏳ	-9.287
▁ᎠᏂᏃᎯᎵᏙᎯ	-9.28719
▁ᎠᏓᏁᎯ	-9.28725
▁ᎦᏛᎦ	-9.2891
▁ᎠᏤᎯ	-9.28943
▁ᏤᎭ	-9.29275
▁ᎢᎬᏩ	-9.2931
▁ᎪᏪᎸᎢ	-9.29424
▁ᎠᏂᎦᏔᎲᎢ	-9.29714
▁ᏧᏂᏍᏗ	-9.29951
▁ᏗᎨ	-9.30008
▁ᏧᏩ	-9.30422
▁ᎦᏓᏁ	-9.30681
▁ᏅᏩᏓᎴᏃ	-9.30959
▁ᎪᏪᎸ	-9.30982
▁ᎠᏯᏙ	-9.31097
▁ᎤᏕᏘᏴᏌᏗᏒ	-9.31408
▁ᎠᏍᏛ	-9.31416
ᏅᏒ	-9.31429
▁ᎠᏂᏬᏂᏍᎬ	-9.31438
▁ᏄᏩᏁᎴ	-9.31445
▁ᎤᎿ	-9.31468
▁ᏴᏫᏉ	-9.31543
▁ᏂᎦᎵᏍᏗᏍᎬ	-9.31545
▁ᏚᎴᏅ	-9.31764
▁ᎦᏄᎸ	-9.31925
▁ᎦᏙᎬ	-9.31973
▁ᎠᏠᏁᏗ	-9.3226
▁ᏗᏇᏥ	-9.3226
▁ᏅᏓᏳᎶᏒᎯ	-9.32268
▁ᎡᏉᎯᏳ	-9.32271
▁ᎠᎦᏘᏏᏗᏢ	-9.32283
▁ᎦᏬᏂᏍᎩ	-9.32288
▁ᏧᏳᎪᏗ	-9.32298
▁ᏗᏰᎸᎯ	-9.32302
▁ᏩᎶᏏ	-9.32319
▁ᎤᏔᎳᏬᎯᏍᏗ	-9.32334
▁ᎦᎷᏨᎭ	-9.32335
▁ᎾᏍᎩᏯᏉ	-9.32496
▁ᎠᏓᏫ	-9.32513
▁ᎦᎸ	-9.32526
▁ᎠᎹᏟ	-9.32548
▁ᎠᏆᏛᏅ	-9.32557
▁ᎯᎪ	-9.32563
ᏁᎳ	-9.32794
ᎲᎦ	-9.32832
ᏛᏁᏗ	-9.33035
▁ᏂᏓ	-9.33541
▁ᎠᎦᏗ	-9.33908
ᎧᏂ	-9.34088
ᏕᎾ	-9.34293
▁ᎨᎦ	-9.34381
▁ᎤᏁᏨᎩ	-9.34482
▁ᏄᏛᏁᎸ	-9.34528
▁ᏙᏛ	-9.34752
---	-9.34949
▁ᎦᏙᎨ	-9.35017
▁ᏄᏍᏕ	-9.35114
▁ᏥᏣ	-9.35227
▁ᏕᎤᏙᎥ	-9.35286
▁ᏓᏳᏓᎴᏅ	-9.35309
ᎨᏒ	-9.3543
▁ᎠᏆᏚᎵ	-9.35676
▁ᏧᎸᏫᏍᏓᏁᏗ	-9.35936
▁ᎠᎦᏴᎵ	-9.36022
▁ᏗᏏᏓᎵ	-9.36106
▁ᎣᏣᎵᏅᏟ	-9.36107
▁ᏤᎩᏏᏂ	-9.36107
▁ᎯᎸᎢᏴ	-9.36109
▁ᏆᏂᏆ	-9.36109
▁ᎢᏓᏓᏅᏟ	-9.36113
▁ᎨᏥᎸᏉᏗ	-9.36117
▁ᏗᎨᎦᏁᎶᏗ	-9.36118
▁ᎠᏈᎻᎴᎩ	-9.36125
▁ᏓᎦᎷᏥ	-9.36129
▁ᏗᎨᏫ	-9.36148
▁ᎢᎬ	-9.36151
▁ᎤᎦᎵᏍᏗ	-9.36158
▁ᎠᏁᏙᎯ	-9.36179
▁ᎬᏩᏕᏁᎴᎢ	-9.36209
▁ᎾᎩᏪᏎᎸᎩ	-9.36219
ᏅᎾ	-9.36228
▁ᏕᏣᏓᏅᏛᎢ	-9.36316
▁ᏦᏰᏂ	-9.36363
▁ᎤᏔᎾ	-9.36375
▁ᎠᏂᎪᎢ	-9.3659
ᏱᎩ	-9.3724
▁ᏴᎩ	-9.37389
ᎢᏳᏍᏗ	-9.37673
”	-9.37908
▁ᏗᎩ	-9.37916
▁ᎣᏓᎸᎢ	-9.37922
▁ᏧᎬ	-9.37971
▁ᎪᏪᎵᎯ	-9.38015
▁ᎦᏰ	-9.38023
▁ᏓᏆ	-9.38042
ᏨᎩ	-9.38331
▁ᎪᎯᏓ	-9.38533
Ꮡ	-9.38667
e	-9.38778
▁ᏄᎵᏍᏔᏅᎢ	-9.38868
▁ᏕᏣᏙᎥ	-9.39265
ᏅᏏᏛ	-9.39378
▁ᎠᎵᏍᏚᎶ	-9.39431
▁ᎠᏤ	-9.3949
▁ᎥᎩ	-9.39552
▁ᎦᎨ	-9.39668
▁ᏄᏩᏁᎸ	-9.39767
▁ᎢᏣᏤᎵ	-9.39987
▁ᎪᏍᏚ	-9.40111
▁ᏘᏅᏏᏓᏍᏗ	-9.40114
▁ᏄᏂᎬᏫᏳᏌᏕᎩ	-9.4012
▁ᏗᏓᏅᏙ	-9.40132
▁ᎢᎳᏯ	-9.40139
▁ᎤᏗᎴᎩ	-9.40146
▁ᎤᎾᎵᏍᏕᎸᏙᏗ	-9.40148
▁ᏗᏘᏂᏙᎯ	-9.40173
▁ᏐᎳ	-9.40182
▁ᏥᏕ	-9.40184
▁ᏗᏜ	-9.4022
▁ᎤᏍᎦᏃᎵ	-9.40252
▁ᎤᏩᏒᎯᏳ	-9.40311
▁ᎠᏍᏓᏱ	-9.40316
▁ᏗᏣᏤᎵᎦ	-9.40442
▁ᎠᏆᏚᎵᎭ	-9.40477
▁Ꮡ	-9.4048
▁ᎤᏕᏅᎯ	-9.40505
ᏁᎵ	-9.40648
▁ᎤᏙᎯᏳᏒ	-9.4069
▁ᎬᏗᏍᎩ	-9.40855
▁ᏙᏳ	-9.40874
▁ᏱᏗ	-9.40995
▁ᏯᏆ	-9.40996
ᏍᏙ	-9.41148
▁ᏞᎦ	-9.41208
ᎢᏍᏗᏱ	-9.41293
▁ᏕᎨ	-9.41321
ᎦᏅᎯᏛ	-9.41349
ᏍᏆ	-9.42444
▁ᏓᎬ	-9.42452
t	-9.42851
▁ᎥᏍᎩ	-9.42901
▁ᎯᏯ	-9.43091
▁Ꭹ	-9.43291
▁ᏧᏂᏢᎩ	-9.4336
Ꮰ	-9.43443
ᏕᎢ	-9.43481
▁ᎠᏥᎸᏱ	-9.43655
▁ᏥᏈ	-9.43717
▁ᏭᏂ	-9.43915
▁ᎤᎶᏐᏅ	-9.43977
ᎥᎢ	-9.44191
▁ᎠᎧᎵᎢ	-9.44224
▁ᎠᏰᏙᎳᏛᏗ	-9.44263
▁ᏓᏏᎳᏛ	-9.44268
▁ᏩᏏᏓᏂ	-9.44273
▁ᎠᏍᏆᎨᏂ	-9.44273
▁ᏩᏚᎵᏏ	-9.44274
▁ᏧᏕᏘᏴᏓ	-9.44274
ᎠᏂᎳᏍᏓᎸ	-9.44277
▁ᏥᏔᎦ	-9.44277
▁ᏧᏯᏖᎾ	-9.44277
▁ᏚᏬᏢᏔᏅᎩ	-9.44287
▁ᎤᏬᏚᎯ	-9.44313
▁ᎧᏃᎮᏍᎩ	-9.44322
▁ᏱᏄᏍᏗ	-9.44339
▁ᎤᏅᏌ	-9.44342
▁ᏧᏂᎸᏫᏍᏓᏁᏗᏱ	-9.44376
▁ᎠᎹᏰᎵ	-9.44387
▁ᎾᏃ	-9.44642
▁ᏥᏁᎬᎢ	-9.44679
▁ᏱᏗᏥ	-9.447
ᎵᏍᏗ	-9.44708
▁ᎤᏲᎱᏒᎯ	-9.45037
▁ᎤᎵᏍᏗ	-9.45038
ᏛᎦ	-9.45051
▁ᏱᏥ	-9.45161
▁ᎨᏂ	-9.45186
▁ᎫᏢᏗ	-9.45197
ᏌᏛ	-9.45305
▁ᏂᏥ	-9.454
▁Ꭾ	-9.45786
▁ᎧᏁᎬᎢ	-9.45892
▁ᏗᎦᎸᏉᏗ	-9.46002
▁ᏚᏁᏤᎴ	-9.46025
▁ᎠᏍᎦᎾ	-9.46144
▁ᎤᏂᏥ	-9.46273
▁ᏗᏆ	-9.46612
▁ᎾᏂᎥᏉ	-9.46851
▁ᏙᎯ	-9.46979
▁ᎠᏔᎴᏒ	-9.47212
ᎯᏍᏙᏗ	-9.47229
▁ᎠᎲᎢ	-9.47355
▁ᏦᎩ	-9.47378
▁ᏚᏙᎥᎢ	-9.47481
▁ᏧᏪᏅᏒ	-9.47777
▁ᏗᏓᎴᏂᏍᎬ	-9.47802
▁ᎠᏦᏴ	-9.47809
▁ᎦᏥ	-9.47871
▁ᏂᏕ	-9.48087
▁ᎤᏬᎸ	-9.48107
ᎢᏍᏗ	-9.48302
▁ᏗᎦᎫᏍᏛᏗ	-9.48384
▁ᏍᏈᏍᏓ	-9.4862
▁ᎵᏫ	-9.48625
▁ᎨᏥᏅᏏᏓᏍᏗ	-9.48626
▁ᏌᏊ	-9.48635
▁ᏌᎪᏂᎨ	-9.48642
▁ᎧᏂᎩᏓ	-9.48652
▁ᎤᎦᎾᏍᏓ	-9.48654
▁ᏚᏬᏢᏅᎩ	-9.48656
▁ᎦᎶᏙᏗ	-9.48659
▁ᎢᎩᏙᏓ	-9.48667
▁ᎾᏍᎦᏅᎾ	-9.48669
▁ᎠᏂᎩᏏ	-9.48695
▁ᏍᏔᏯ	-9.48719
▁ᎤᏬᏗᎨ	-9.48731
▁ᎤᎾᏁᎳᎩ	-9.48735
▁ᎫᎫ	-9.48769
▁ᎠᏢᏗᏱ	-9.48788
▁ᎠᏲᎩ	-9.48893
▁ᎤᏓᏅᏘᏳ	-9.48927
▁ᎠᎩᏏ	-9.48971
▁ᎤᏅᏟ	-9.48988
▁ᏚᎸᏫᏍᏓᏁᎲᎢ	-9.49175
ᏐᎢ	-9.49179
▁ᎤᏓᏅᏖ	-9.49318
▁ᎢᏳᏍᏗᏉ	-9.49444
▁ᎦᏅᎯᏛ	-9.49543
▁ᎤᎾᎵᎢ	-9.49734
▁Ꮑ	-9.50025
▁ᎡᎲᎢ	-9.50076
▁ᎢᎦᏘ	-9.50281
ᎡᎢ	-9.50376
ᏍᎦᏅᎢᏍᏗ	-9.50751
▁ᏫᎦ	-9.51106
▁ᎤᎸᏉᏗ	-9.51241
▁ᏅᎩᏁ	-9.51372
▁ᎾᎥᎢ	-9.51717
ᏤᏍᏗ	-9.52283
▁ᏓᏓᎿᏩᏍᏛ	-9.52286
▁ᏂᏚᎩᏨᏂᏒ	-9.52323
▁ᏓᏆᏙᎥ	-9.52334
▁ᎤᏂᏣᏖ	-9.52364
▁ᎤᏃᏴᎬ	-9.5237
ᎠᎴ	-9.52416
▁ᎢᎦᎦᏛ	-9.52475
▁ᏧᎾᏍᏗ	-9.52511
▁ᏍᏆ	-9.52647
▁ᎢᎾ	-9.52722
ᎲᏏ	-9.52886
ᏍᎬᎩ	-9.52965
▁ᏗᎧᏃᏗ	-9.52971
▁ᏥᎦ	-9.52997
▁ᎠᎦᏘᏏ	-9.53164
▁ᏗᏖᎵᏙ	-9.53175
▁ᎤᏍᎦᏎᏗ	-9.53176
▁ᏧᏃᏰᏂ	-9.53176
▁ᏅᏛᎩᏅᏏᏛ	-9.53189
▁ᏂᎦᏪᏍᎨᎢ	-9.53191
▁ᏗᏂᎦᏙᎵ	-9.53209
▁ᎾᏎᎵᏗ	-9.53212
▁ᎠᎩᏅᏏᏙᎯ	-9.53213
▁ᎠᏂᎪᏕᏍᎩ	-9.53228
▁ᎯᎸᎯᏳ	-9.53231
▁ᎬᏂᏗᏳ	-9.53237
▁ᏦᎳᏂ	-9.53243
▁ᎤᏍᏆᎸᎲ	-9.53271
▁ᏗᎧᏃᏗᏱ	-9.53393
▁ᏚᎪᎮ	-9.53411
▁ᏅᏗᎦᎵᏍᏙᏗᏍᎪ	-9.53458
▁ᎤᏂᎷᏨᎩ	-9.53593
▁ᎦᏬᏂᎯᏍᏗ	-9.53636
▁ᎭᎾᎾ	-9.53789
ᎴᎯᏐᏗ	-9.53825
▁ᏗᏤ	-9.53887
▁ᎠᎼ	-9.53907
▁ᏫᏣ	-9.53968
▁ᎤᏥᎸᎢ	-9.54021
ᏒᎭ	-9.54138
▁ᎤᏪᎿᎢ	-9.5418
▁ᏙᏓ	-9.54232
ᏚᎵᏍᎬᎾ	-9.54285
▁ᏭᎷᏤᎢ	-9.54381
▁ᎤᏒᎢ	-9.54529
▁ᎢᎬᏁᏗ	-9.5454
ᎦᏔᎲᎾ	-9.54546
▁ᏧᏍᏗ	-9.54585
ᎠᏋᏌ	-9.54587
ᏂᏏ	-9.54676
ᎡᎵ	-9.54819
ᏁᎲ	-9.55106
▁ᎠᎬ	-9.55131
ᏍᏔ	-9.55345
ᏁᎳᏅᎯ	-9.55543
▁ᏗᎦᏓ	-9.55632
▁ᎬᏩᎾ	-9.56197
ᏤᎢ	-9.56285
▁ᏅᏛ	-9.56452
▁ᎤᏍᎦᏅᏨ	-9.56724
ᏁᎴᎢ	-9.56978
▁ᎦᏛᎬ	-9.57051
▁ᎦᎳᎨᏴ	-9.57065
▁ᏕᎦᏚᎲ	-9.5707
▁ᏗᎩᎦᏴᎵᎨ	-9.5708
,]	-9.57081
▁ᏂᏣᏛᏁᎸ	-9.57082
▁ᏚᏂᎸᏫᏍᏓᏁᎲ	-9.57117
▁ᎦᏓᏅᏖᏍᎬ	-9.57127
▁ᏚᎾᏓᏅᏛ	-9.57163
ᎩᏎ	-9.57239
▁ᎦᏅᏅ	-9.57248
▁ᎤᏕᏅ	-9.57277
ᎲᏍᎩ	-9.57378
▁ᏚᏯ	-9.5745
▁ᏇᏂ	-9.57721
▁ᎢᏤᎾ	-9.57763
▁ᎤᏂᏬᏂᎯᏍᏗ	-9.5784
▁ᎤᎾᎵᏍᏓᏴᏗ	-9.57856
▁ᎤᏂᏴᏍᏗ	-9.57879
c	-9.57894
▁ᎢᏥᏈ	-9.57903
▁ᎢᏳᏩᎫᏗ	-9.57928
▁ᏄᏃᎯᏳᏒᎾ	-9.57928
▁ᏒᎧᏔ	-9.57928
▁ᎢᏳᏓᎴᎩ	-9.57928
▁ᎢᏥᏡᏱ	-9.57928
▁ᏚᏙᎡᎢ	-9.57931
▁ᎢᏳᏩᏂᎸ	-9.57934
▁ᏙᎴᏛ	-9.57938
▁ᎦᎵᏆᏍᎪᎯ	-9.57938
▁ᏫᏥᎢᎦ	-9.57939
▁ᏪᏌ	-9.57944
▁ᎢᏤᏯᏔᎮᏍᏗ	-9.57947
▁ᎦᏃᎸᎥᏍᎬ	-9.57955
▁ᎢᏌᏯ	-9.57956
▁ᎢᏗᎦᏔᎭ	-9.57958
▁ᏅᏓᏳᎵᏍᏙᏔᏅᎩ	-9.57966
▁ᏄᎬᏫᏳᏌᏕᎩ	-9.57972
▁ᎢᏨᏲᏎᎭ	-9.57987
▁ᏗᎹᏗ	-9.57996
▁ᏧᏙᏓᏆᏓ	-9.57997
▁ᏥᏍᏚ	-9.57999
▁ᎤᎯᏐᏗ	-9.58034
▁ᎤᎵᏑᏫᏓ	-9.58044
▁ᎠᏏᎾᏌᏂ	-9.58064
▁ᏓᏯᎢ	-9.58154
▁ᎠᎫᏴᏙᏗ	-9.58161
▁ᎤᏲᏨ	-9.58173
▁ᏗᎦᎪᏗᏱ	-9.58179
▁ᎦᎾᏰᎯᏍᏗ	-9.58207
▁ᎤᎾᏫᏱ	-9.58241
▁ᎤᎾᏄᎪᏫᏒᎯ	-9.58265
▁ᏗᏦᏢᏗ	-9.58286
▁ᎠᎴᏬ	-9.58307
ᎪᎯ	-9.58322
▁ᎠᏆᏛᎦᏅᎩ	-9.5835
▁ᏉᎳᏃ	-9.58439
▁ᏭᏴᎴᎢ	-9.58513
ᏍᏔᏂ	-9.58589
▁ᏁᎳ	-9.58675
▁ᏩᏍᏗ	-9.58901
▁ᎾᏂᎥᎢ	-9.5897
▁ᏧᏪ	-9.59612
▁ᎠᎩᏍᏗ	-9.59872
▁ᎢᏤᎯ	-9.60037
▁ᎡᏘ	-9.60755
▁ᎠᏓᏁᎸᎢ	-9.61009
ᎶᏗ	-9.61012
▁ᎤᏲᎢ	-9.61079
ᏑᏴᎾ	-9.61124
▁ᏄᏍᏛᎢ	-9.6132
ᎪᏗ	-9.61427
ᏁᎮᏍᏗ	-9.61453
▁ᏳᎾ	-9.61459
ᏁᎸᎩ	-9.61492
ᎾᏝᎢ	-9.61694
Ꮾ	-9.61841
ᏔᏅᎭ	-9.61979
ᎦᏘ	-9.62025
▁ᎠᏂᏃᎮᏍᎬ	-9.62053
ᎤᏁᎳᏅᎯ	-9.62095
▁ᏓᏓᏁᎸ	-9.62142
▁ᏭᎶᏒ	-9.62669
ᏥᏌ	-9.62688
▁ᎯᎸ	-9.62706
ᏛᎬᎦ	-9.62784
ᏉᏃ	-9.62808
▁ᎡᏉᏗ	-9.62814
▁Cr	-9.62928
▁ᎢᏳᎾᏛᎿᏕᎩ	-9.62928
▁ᏍᎦᏚᎩ	-9.62928
▁ᏂᏥᏪᎭ	-9.62929
▁ᏎᎩᎵ	-9.6293
▁ᏧᏓᏕᏒᏛ	-9.62934
▁ᏗᏂᎭᏄᎸᎯ	-9.62935
▁ᎡᏈᏌ	-9.62937
▁ᎠᏦᎭᏴ	-9.62941
▁ᎤᎪᏏᏓ	-9.62943
▁ᎠᎩᎵᏯ	-9.62953
▁ᏚᎳᏍᎬ	-9.62961
▁ᏔᎷᏣ	-9.62963
▁ᏍᎩᏃᎲᏏ	-9.62964
▁ᎢᏳᏓᎴᏅᏛ	-9.62966
▁ᎤᏩᏙᎯᏴᏓ	-9.62966
▁ᎢᎳᎪ	-9.62967
▁ᎤᏂᎬᏫᏳᏌᏕᎩ	-9.62969
▁ᎢᏳᏩᏂᏐᏗᏱ	-9.62969
▁ᎢᏳᏩᏁᏗᏱ	-9.6298
▁ᏗᎪᏪᎵᏍᎩ	-9.62986
▁ᏓᏣ	-9.63001
▁ᏙᏰ	-9.63037
▁ᏒᎮᏱᏣ	-9.63086
▁ᎢᎬᏁᎯ	-9.63095
▁ᎠᎵᏍᏕᎸᏙᏗ	-9.63109
▁ᎡᏓ	-9.63114
▁ᎤᏰᎯ	-9.63115
▁ᏣᎾ	-9.6327
▁ᏛᎾ	-9.63299
▁ᎾᏍᎩᏉ	-9.63312
)	-9.63343
▁Ꮖ	-9.63404
▁ᏣᏁᎳ	-9.63417
▁ᏱᏂ	-9.63448
ᏁᎯ	-9.63668
▁ᎡᎵᏍᏗ	-9.63739
▁ᏚᎾᏓᏅᏛᎢ	-9.63806
▁ᎧᎸᎢ	-9.63836
▁ᏗᎪᏪᎶᏗ	-9.63861
▁ᏭᎾ	-9.64103
▁ᎤᎾᎵᎪ	-9.64302
▁ᏄᏛᏁᎴᎢ	-9.64561
▁ᎠᏙ	-9.64585
▁ᎦᎸᎳᏗᏳ	-9.64632
▁ᏣᏤᎵᎦ	-9.64714
▁ᎢᏯᏂᎢ	-9.64754
▁ᏗᏦ	-9.64881
▁ᎤᎾᏓᏡᎬᎢ	-9.64895
ᎩᎶ	-9.65019
▁ᏱᏨ	-9.65259
▁ᎤᏂᎸᏉᏗ	-9.6541
▁ᏓᎾᏓ	-9.65666
▁ᏂᎦᏗ	-9.65722
▁ᎤᏥᎸ	-9.65863
▁ᎤᏓᏅᏖᏗ	-9.65952
▁ᏗᎧᎿᏩᏛᏍᏗᏱ	-9.65973
ᏅᏓ	-9.66063
ᎵᏍᏙᏗ	-9.66112
▁ᏄᏪᏒᎢ	-9.66159
▁Ᏸ	-9.66207
ᏛᎯ	-9.66552
▁ᏗᏗ	-9.67051
Ꮉ	-9.67204
▁ᏃᏥ	-9.67252
ᎦᏔᎭ	-9.67261
▁ᎤᎨᏓᎵᏴ	-9.67288
▁ᎧᎳᏩᏗᏒ	-9.67288
▁ᎤᏅᏏᏴ	-9.67289
▁ᎢᏦᎯᏳᏒ	-9.67353
▁ᎠᏤᎵᏍᏛ	-9.67358
▁ᎠᎪ	-9.67684
Ꭻ	-9.67707
▁ᎨᎳ	-9.67791
▁ᎦᏁᏌᎢ	-9.67864
▁ᎾᏂ	-9.67874
▁ᎤᏕᏁᎸ	-9.67909
▁ᎤᏅᏒᏉ	-9.67922
▁ᏕᎩ	-9.67934
▁ᏨᏗᏓᎴᎲᏍᎦ	-9.68191
▁ᎠᏙᎳᏅᏍᏗ	-9.68191
▁ᎥᏳᎩ	-9.68194
▁ᏗᏟᎶᏍᏔᏅᎯ	-9.68194
▁ᏦᏓᏂ	-9.68204
▁ᎠᏂᏫᏅ	-9.68206
▁ᎤᎩᏨᏓ	-9.68209
▁ᏱᏅᏗᎦᎵᏍᏙᏗᎭ	-9.68216
▁ᎢᏳᎾᎵᏍᏙᏗᏱ	-9.68223
▁ᏗᏓᏘᏂᏙᎯ	-9.68229
▁ᎡᎵᏊ	-9.68229
▁ᎢᏯᎾᏛᏁᎯ	-9.68242
▁ᎬᏩᏟᏍᏗ	-9.68244
▁ᏧᎪᎳ	-9.68259
▁ᎠᏟᎶᏍᏗ	-9.68262
▁ᎪᎯᏗᏳ	-9.68268
▁ᎤᏓᏂᎵᎨ	-9.68277
▁ᎨᎵᏍᎬ	-9.68312
▁ᎠᏃ	-9.68324
▁ᏧᏓᎴᏅᏓ	-9.68329
▁ᎠᏥᏍᏛ	-9.68347
▁ᎪᎨᏱ	-9.68368
▁ᎮᎦ	-9.68403
▁ᎤᏚᎵᏍᎨᏍᏗ	-9.68411
▁ᎤᏚᎸᏗ	-9.68431
▁ᎾᏍᎩᏴ	-9.68444
▁ᎢᏣᏤᎵᎦ	-9.68458
▁ᎢᎦᎦᏘ	-9.68479
▁ᏫᏓ	-9.6853
ᏍᏕᎸᏗ	-9.68556
▁ᏗᏆᏤᎵᎦ	-9.68652
▁ᎤᏚᎵᎭ	-9.68741
▁ᎦᏂ	-9.68919
ᏕᎵ	-9.6892
▁ᎤᏓᏅᏖᎴ	-9.69047
▁ᎠᏁᎭ	-9.69068
▁ᎤᏕ	-9.69274
▁ᎯᎠᏍᎩᏂ	-9.69523
▁ᏧᏓᏃ	-9.69715
ᏙᎩ	-9.69748
▁ᎤᏂᏣᏔ	-9.69816
▁ᎣᏂᏱ	-9.69948
ᏂᏗᏳ	-9.70178
ᎶᎯ	-9.70523
▁ᎤᎵᏬᏨ	-9.7059
ᎷᎦ	-9.70829
▁ᏁᎳᎩ	-9.70884
▁ᎤᏚᎵ	-9.71012
ᎸᏗ	-9.71017
▁ᎠᏗ	-9.71699
ᎡᏗᏱ	-9.71745
▁ᏄᏂ	-9.71862
▁ᎢᎨ	-9.71958
▁ᎾᎾᏛᏁᎲ	-9.72016
▁ᏯᎩ	-9.72018
ᎪᏍᏓᏱ	-9.72313
ᎾᏏ	-9.72407
▁ᎡᏙᎲ	-9.72409
▁ᏱᎬ	-9.72441
▁ᎤᏪᎵᎯᏍᏗ	-9.72477
ᏰᎵ	-9.72713
▁ᏭᏯᏅᎮ	-9.72857
▁ᎠᎾᎢᏒ	-9.72903
▁ᏕᏡᎬ	-9.72931
▁ᎤᏂᎷᏨ	-9.72954
▁ᏕᎭᎷᎨ	-9.72971
▁ᏄᎾᏛᏅ	-9.7303
▁ᎠᏆᏚᎵᏍᎬ	-9.73128
▁ᎤᏁᏨᎢ	-9.73219
▁ᏭᎷᏨ	-9.73233
ᎶᏛ	-9.73283
▁ᏗᏥᎾᏫ	-9.73513
▁ᏐᏓᎻ	-9.73513
▁ᎤᎷᎯᏍᏗ	-9.73724
▁Perry	-9.73746
▁ᏅᏬᏘ	-9.73746
▁ᎠᎵᏍᏔᏴᏗ	-9.73747
▁ᏧᎦᎾᏮ	-9.73747
ᏚᏓᎴᏍᏙᏗ	-9.73748
▁ᎤᏏᏩ	-9.73766
▁ᏗᏕᏲᏗ	-9.73768
▁ᎧᏂᎩᏛ	-9.7377
▁ᎤᏂᎩᎬ	-9.73771
▁ᎤᎾᏰᎯᏍᏗ	-9.73777
▁ᎤᏫᏯ	-9.73777
▁ᏧᎾᎩᎸᏗ	-9.73778
▁ᎤᏬᏢᏔᏅᎩ	-9.7378
▁ᎤᏁᎫᏥᏛ	-9.73793
▁ᎠᏆᏁᎳᏅᎯ	-9.73809
▁ᎠᎵᏍᎪᎸᏔᏅᎯ	-9.73813
▁ᎧᎸ	-9.73819
▁ᏳᏚᎵᏍᎨ	-9.73841
▁ᎤᎶᏒᏍᏗ	-9.73893
▁ᎤᏢᎩ	-9.73916
▁ᏂᏗᎥ	-9.73923
ᏨᎯ	-9.7395
▁ᏂᎦᎵᏍᏓ	-9.73956
▁ᏚᏓᏘᎾᎥᎢ	-9.74005
▁ᎤᏂᏍᏆᏂᎪᏎᎢ	-9.74009
▁ᎠᏍᏚᏗ	-9.7401
ᏌᎳᏓ	-9.74035
▁ᎢᏳᎾᏛᏁᏗᏱ	-9.74203
ᎤᏅ	-9.74317
▁ᎤᏍᏆᏂᎪᏗᏳ	-9.74321
ᎦᏅᎯᏓ	-9.74431
▁ᏄᏛᏁᎸᎩ	-9.74537
▁ᏐᎢᏱ	-9.74779
▁ᎣᏏᏉ	-9.74826
▁ᎤᎭ	-9.74866
▁ᏗᎨᏒᎢ	-9.7509
▁ᏴᎬ	-9.75135
▁ᏳᏂ	-9.75234
ᏖᏍᏗ	-9.75338
▁ᎦᏅ	-9.75424
▁ᎤᏁᎸ	-9.75482
▁ᎠᏫᏅ	-9.75642
▁ᏡᎬᎢ	-9.75646
▁ᎤᏁᏨᎯ	-9.75654
▁ᏂᎦᏪᏍᎬᎢ	-9.757
▁ᏓᏨ	-9.75841
▁ᎤᎸ	-9.75846
ᎦᏛ	-9.75861
▁ᎢᏧ	-9.75889
ᎥᏍᎬ	-9.76525
▁ᏁᎰ	-9.7653
ᏂᎸ	-9.76566
▁ᎠᏏᏴᏫᏃ	-9.7666
▁ᎤᏬᎵ	-9.76784
ᎡᎯ	-9.76923
▁ᏫᎬᏩ	-9.76963
▁ᎠᏎᎩ	-9.77172
ᏠᎾᏍᏗ	-9.77503
▁ᎠᏜ	-9.77565
ᏍᏊ	-9.7757
ᎵᎦ	-9.778
n	-9.7796
▁ᏚᏳᎪᏛᎢ	-9.78075
▁ᎠᎾᏓ	-9.78143
ᏛᏗ	-9.78157
ᏍᏉ	-9.78171
▁ᏗᏓ	-9.78185
▁ᎠᏰᏙᎳᏛ	-9.78255
▁ᎢᏳᎢ	-9.7846
▁ᏔᎵᎭ	-9.78666
▁ᏗᎪ	-9.78698
▁ᎤᎵᏁᏨ	-9.78734
▁ᎠᎾᏛ	-9.78765
▁ᏓᏁᏩᏗᏒ	-9.78817
▁ᏕᎨᏌᏗᏒ	-9.78841
▁ᏱᎨ	-9.79024
ᎠᏯ	-9.79053
▁ᎤᏍᎪᎵ	-9.7914
▁ᏯᎾ	-9.7927
▁ᎡᏝᏪ	-9.79321
ᏴᏫ	-9.79323
▁ᎤᏓᏴᏍᏗ	-9.79429
▁ᎪᏪᎳ	-9.79443
▁ᏕᎦᎶᏗ	-9.7945
▁ᎤᏕᎰᎯᏍᏗ	-9.79524
▁ᎷᏈᏂ	-9.79629
▁ᏗᏂᎵᎠᏅᎯᏛ	-9.79629
▁ᏱᏄᎵᏍᏔᎾ	-9.79629
▁ᎢᏈᎬᎢ	-9.79629
▁ᎤᎵᎪᎲᏍᏗ	-9.79629
▁ᏧᎦᏒᏍᏗ	-9.7963
▁ᏍᏆᏞᏍᏗ	-9.79632
▁ᎹᏏᏙᏂ	-9.79634
▁ᎠᎾᏓᏅᏟ	-9.79639
▁ᎬᏔᏂᏓᏍᏗ	-9.79642
▁ᏞᎩᏳ	-9.79642
▁ᎠᎪᏄ	-9.79644
▁ᏗᏍᏓᏓᏅᏟ	-9.79648
▁ᏌᎺᎵᏱ	-9.7965
▁ᎡᏗ	-9.79653
▁ᏧᎳᏏᏕᏂ	-9.79671
▁ᎠᏫᏄᏣ	-9.79672
▁ᏗᎦᏅᏙᏗ	-9.79677
▁ᎢᏨᏗᏍᎨᏍᏗ	-9.79688
▁ᎢᏳᏪᏅᏍᏗ	-9.7969
▁ᎤᏬ	-9.79693
▁ᏧᏍᏆᏅᎾ	-9.79696
▁ᎠᏂᎦᏓᎭ	-9.79701
▁ᎡᏏᏱ	-9.79718
▁ᎠᏥᎾᏝᎢ	-9.79737
▁ᎤᏬᏚᎯᏳ	-9.7978
▁ᎤᏬᏚᏨ	-9.79814
▁ᏎᎳᏱ	-9.79831
▁ᏁᎲᎾ	-9.79832
▁ᎫᎴ	-9.79876
▁ᏥᏥ	-9.79887
▁ᏔᎵᏧᏈ	-9.79912
▁ᎤᏂᏴᏍᏗᏱ	-9.79952
▁ᎠᎪᏩᏛᏗ	-9.79978
▁ᎤᏟᏍᏓ	-9.79983
▁ᏧᎾᏓ	-9.80065
▁ᏱᎨᏐᎢ	-9.80111
▁ᏤᎮᎢ	-9.80169
ᎨᏳᏎᏍᏗ	-9.80186
▁ᎣᏁ	-9.80202
▁ᎠᏁᎮᎢ	-9.8024
▁ᏚᎴᏁᎢ	-9.80446
▁ᎤᎴ	-9.8047
ᏩᏛᎲ	-9.80519
▁ᏰᎭ	-9.80522
ᏅᏟ	-9.80722
▁ᎠᏓᏁᏗ	-9.8077
ᏩᏛᏗ	-9.80893
▁ᎠᏓᎯ	-9.809
ᏍᏗᏍᎬ	-9.81048
ᏢᏙᏗ	-9.81351
ᎸᏉᏙᏗ	-9.81411
▁ᎠᏥᎸᏉᏗ	-9.81583
▁ᎢᏳᎾ	-9.81591
▁ᏥᏯ	-9.81756
▁ᏒᎯ	-9.81783
ᏫᏒ	-9.8186
▁ᎦᏍᎩᎸᎢ	-9.82017
ᏯᏅᏛ	-9.82202
▁ᎤᎨᏳᎯ	-9.82504
▁ᏙᎯᏱ	-9.82708
ᎴᏂ	-9.82799
▁ᏚᎴᏁ	-9.83136
▁ᎤᏁᏅᏎ	-9.83215
ᎢᏳ	-9.8327
▁ᎤᏂᏠᏱ	-9.833
▁ᏚᎾᏓ	-9.83563
ᏛᎭ	-9.83585
a	-9.8376
▁ᏨᏍᎩᏃ	-9.83959
▁ᎤᏣ	-9.84094
ᏉᏰᏃ	-9.84138
▁ᎠᏂᏙᎾᎥ	-9.84452
ᎡᎭ	-9.84626
▁ᏅᏓᏳ	-9.8463
ᎳᏅᎯ	-9.84639
▁ᎦᏁᎲ	-9.84641
Ꮁ	-9.84731
▁ᏙᎩ	-9.84783
ᏙᏓ	-9.84822
▁ᏗᏣᏓᏅᏙ	-9.8489
ᏗᏍᎨ	-9.85001
▁ᎤᏰᏤ	-9.85011
▁ᎠᏆᏛᎦᏅ	-9.8502
▁ᎠᏆᎧᏛ	-9.85022
▁ᏓᏠᎯᏍᏛ	-9.85062
▁ᎠᏁᏙᎲ	-9.85065
▁ᏭᎶᏎ	-9.85087
▁ᏙᏓᎸ	-9.85177
▁ᎤᏓᏅᏎ	-9.8524
ᎳᏗ	-9.85256
▁ᎠᏴᏫᏯ	-9.85444
▁ᏏᎩᎻ	-9.8559
▁ᎠᏥᎦᏘᏗᏍᏗ	-9.85616
▁ᎬᏆ	-9.85664
▁ᎢᏳᏟᎶ	-9.85688
▁ᎤᏓᎵ	-9.85754
ᏚᎦ	-9.85764
▁ᎢᏳᏛᏁᏗ	-9.85823
▁ᏔᎵᏁᎢ	-9.85845
y	-9.85869
▁ᎦᎷᏯᏍᏘ	-9.85879
▁ᎬᏩᏍᏓᏩᏛᏎᎢ	-9.85879
▁ᎢᏏᎺᎵ	-9.85879
▁ᎤᎵᏗᏨ	-9.85879
ett	-9.8588
▁ᏅᏓᏳᏂᎶᏒᎯ	-9.85881
▁ᏗᏰᏙᎳᏛᏗ	-9.85881
▁ᏗᎬᏔᏂᏓᏍᏗ	-9.85883
▁ᏑᎾᏙᏓᏆᏍᏗ	-9.85884
▁ᏂᎬᏩᏪᏎᎸᎩ	-9.85884
▁ᎢᏯᏅᏙ	-9.85884
▁ᎠᏖᎵᏙ	-9.85888
▁ᎤᎴᏂᏙᎸ	-9.85889
▁ᎢᎦᏪᏍᏗ	-9.85892
▁ᎭᏩᏧ	-9.85893
▁ᏚᏘᏅᏎ	-9.85894
▁ᎠᎦᎵᏍᎬ	-9.85902
▁ᏕᎹᏍᎦ	-9.85911
▁ᎠᏂᎨᎾᏂ	-9.85911
▁ᎢᏳᏓᏅᎯᏓ	-9.85911
▁ᎠᏫᏒᏗᏱ	-9.85911
▁ᏗᎳᏑᎶ	-9.85915
▁ᎦᏂᎦᏔ	-9.85916
ᏩᎬᏘ	-9.85919
▁ᏣᏓᎵᎢ	-9.85935
▁ᏌᎾᏱ	-9.85945
▁ᏥᏚᏙᎥ	-9.8595
▁ᎤᏁᎵᏤᎢ	-9.85962
▁ᎧᏃᎮᏓ	-9.85969
▁ᎠᎪᏙᏗ	-9.85969
▁ᎤᎾᏁᎳᏅᎯ	-9.85975
▁ᏎᎻ	-9.8598
▁ᎠᎩᎵᏲᎢᏍᏗ	-9.85982
▁ᏗᏦᏢᏙᏗ	-9.85991
▁ᎤᎾᏰᎯᏍᏗᏳ	-9.85992
▁ᎤᎾᏠᎾᏍᏗ	-9.85997
▁ᏙᏱᏨ	-9.86003
▁ᎠᏰᏟ	-9.86014
▁ᏱᏂᎦᎵᏍᏓ	-9.86023
▁ᏏᏲ	-9.86114
▁ᎤᏂᎯᏍᏗᏱ	-9.86132
▁ᎠᎩᏰᎸᎭ	-9.86147
▁ᏈᎳ	-9.8617
▁ᎤᎷᎯᏍᏗᏱ	-9.86182
▁ᎠᏍᎪᎯᏁ	-9.86184
▁ᏧᏒᎯ	-9.86191
▁ᎢᎬᏓ	-9.86268
▁ᎾᏂᏪᏍᎬᎩ	-9.86269
▁ᏚᎸᏫᏍᏓᏁᎲ	-9.86292
▁ᎤᏴ	-9.86294
▁ᎠᎱᏍᏕ	-9.8634
▁ᏗᏂᏅᏌᏗ	-9.86367
▁ᎠᏁᎩ	-9.86447
▁ᎢᎬᏒ	-9.8655
▁ᎨᎵᎠ	-9.86566
▁ᏕᎬ	-9.86665
▁ᏓᏁᏩᏗᏒᎢ	-9.86757
▁ᏄᎾᏛᏅᎢ	-9.86813
▁ᏕᎭᎷᎨᎢ	-9.86813
▁ᎢᏓ	-9.86987
▁ᎤᏓᏅ	-9.86995
▁ᎠᎿᏬ	-9.87339
ᎸᏉᏗᏳ	-9.87354
▁ᏕᎦᏛ	-9.87957
▁ᏗᎨᏥ	-9.88049
ᎭᏂ	-9.88071
ᏔᏅᎢ	-9.88124
ᎵᏏ	-9.88236
ᏃᎮᎭ	-9.88316
▁ᎨᏴᎢ	-9.88331
▁ᏣᏉ	-9.88403
▁ᏴᎦ	-9.88507
ᎪᎵᏰᏍᎩ	-9.88806
,)	-9.89039
▁ᏥᏓᏂ	-9.89231
▁ᎤᎾᏙᎴᎰᏒ	-9.90021
▁ᎤᏇᏓᎸ	-9.90166
▁ᏳᏩ	-9.902
▁ᎤᏂᏁ	-9.90479
ᏅᏒᎩ	-9.90487
ᎵᏍᎦᏍᏙᏛ	-9.9056
▁ᏩᎩ	-9.90755
ᏗᏍᎨᎢ	-9.90895
▁ᏤᏣ	-9.91059
▁ᏚᎸᏫᏍᏓᏁᎸ	-9.91222
▁ᏄᏛᏅ	-9.91301
▁ᎤᏚᎵᏍᎨ	-9.91496
ᏣᏓ	-9.91562
▁Ꮠ	-9.91596
ᎵᏱ	-9.91644
▁ᏎᎳ	-9.91654
▁ᏕᏥᎸᏫᏍᏓᏁᎲ	-9.91719
▁ᏭᏴᎴ	-9.9176
▁Ꮲ	-9.91775
▁ᏅᏗᎦᎵᏍᏙᏗ	-9.91821
ᎵᏍᏆᏗᏍᎩ	-9.91862
▁ᎡᎮ	-9.91882
▁ᏫᏚᏂ	-9.91914
▁ᏗᏁᎲ	-9.92034
▁ᎤᏪᏙᎸ	-9.92224
▁ᏗᎧᏃᎩᏍᏗ	-9.92299
ᏴᏓ	-9.92381
▁ᎤᏪᏅᏍᏗ	-9.92394
▁ᏱᏗᏣ	-9.92399
▁ᎠᎾᏓᎾᏏᏂᏙᎯ	-9.92546
▁ᎠᏗᏆᎸᏕᏲ	-9.92546
▁ᎠᎵᏰᎾ	-9.92548
▁ᎦᏣᏄᎳ	-9.92549
▁ᏌᎶᎵ	-9.9255
▁ᎠᏨᏍᏙᏗ	-9.9255
▁ᏗᏥᏲᎵ	-9.92556
▁ᎢᎬᏩᎵᏍᏙᏗ	-9.92562
▁ᎢᏣᎵᏍᏙᏗᏱ	-9.92565
▁ᎠᏒᎬ	-9.92566
▁ᏗᏂᏏᏗ	-9.92575
▁ᏥᏄᏪᏎᎢ	-9.92575
▁ᎠᏤᎷᎩ	-9.92579
▁ᎠᏂᎩᎷᏫ	-9.92584
▁ᎤᎵᏍᎨᏛ	-9.92596
ᎵᏰᎢᎶᎯᏍᏗ	-9.92603
▁ᏫᎦᎷᎩ	-9.92607
▁ᏗᏂᏰᎸ	-9.92635
▁ᏫᎶᎯ	-9.92636
▁ᎤᎾᎳᏅᎯ	-9.92641
▁ᏄᎾᏓᎴᏒ	-9.9267
ᏲᎯᏍᏗ	-9.92685
▁ᎤᏲᎱᎯᏍᏗᏱ	-9.92743
▁ᎤᎴᏫᏍᏔᏅ	-9.9277
▁ᎠᏥᎳ	-9.92793
▁ᎭᏫᏂᏨ	-9.92796
▁ᎢᏳᏍᏘ	-9.92829
▁ᎠᎾᏓᏅᏖᏍᎬ	-9.9284
▁ᎧᏫ	-9.92848
▁ᎤᏟᏂᎩᏓ	-9.92852
▁ᎧᏃᎮᏗ	-9.92855
▁ᏯᎦᏔᎮ	-9.92891
▁ᎤᏂᏣᏛᎩ	-9.92896
▁ᏭᏂᎶᏎᎢ	-9.92916
▁ᏗᎩᏏ	-9.92924
ᎦᏙᏃ	-9.92985
▁ᏂᎪᎯᎸᎾᏉ	-9.92987
ᏄᎦ	-9.92987
▁ᏥᎨᏳᎢ	-9.93009
▁ᎤᏴᏜ	-9.9302
▁ᎡᎩ	-9.93035
▁ᎦᏥᏯ	-9.93083
▁ᎠᎢᏒᎢ	-9.93177
ᏯᏖᏅ	-9.93233
▁ᏂᎦᎵᏍᏙᏗ	-9.9328
▁ᎡᎮᏍᏗ	-9.93281
▁ᏚᎸᏫᏍᏓᏁᎸᎢ	-9.93383
▁ᎠᏁᏙᎲᎢ	-9.93433
▁ᎢᎦᏤᎵᎦ	-9.9345
▁ᎪᎨ	-9.93474
▁ᏗᏁᎲᎢ	-9.93555
▁ᎡᏙᎲᎢ	-9.93579
ᎸᎾ	-9.9362
▁ᎤᏓᏅᏅ	-9.9365
▁ᏍᎩᏯ	-9.93786
▁ᎢᏅᎯ	-9.93897
ᏰᎯ	-9.94008
▁ᏑᏓᎵᏁ	-9.94052
▁ᏙᎦ	-9.94088
▁ᎡᎾ	-9.94122
▁ᎤᏛᏁᎢ	-9.94187
ᎳᎻ	-9.9447
▁ᏣᏂᏃ	-9.94655
▁ᏩᏁ	-9.9466
;]	-9.94744
▁ᏂᏙᏓᏳ	-9.94856
▁ᎤᏂᎷᏤᎢ	-9.94867
ᏍᏗᏍᎨᏍᏗ	-9.94905
▁ᏂᏥᎥᎢ	-9.94937
ᏤᎸ	-9.94954
ᏎᎸ	-9.95029
▁ᎤᏛ	-9.95063
▁ᎠᏂᏐ	-9.95072
▁ᏂᎪᎯᎸᎾ	-9.95089
ᏃᎲᏏ	-9.95113
▁ᏧᏅ	-9.9515
▁ᎠᏓᏰᏍ	-9.95265
ᎪᏩᏛᏗ	-9.95377
▁ᎠᎩᎭ	-9.95455
ᏍᏔᏅᎩ	-9.9553
▁ᎠᏋᏒᏉ	-9.95561
▁ᏕᏣᏓ	-9.96017
▁ᎦᏨ	-9.9607
▁ᏙᏓᎦ	-9.96118
ᎵᏗ	-9.96225
▁Ꮜ	-9.96571
▁ᏱᎬᏩ	-9.96732
ᏗᏍᎪᎢ	-9.96739
ᎲᏍᎨᏍᏗ	-9.96744
▁ᏣᏚ	-9.96814
▁ᎪᎯᏍᎩᏂ	-9.96923
ᎸᏉᏗ	-9.97244
ᏙᎴᎰᎯᏍᏗ	-9.97246
ᏧᏈᏍᏗ	-9.97414
▁ᎤᎦ	-9.97484
▁ᎦᏛ	-9.97756
▁ᎢᏳᏪ	-9.97927
ᏙᎥ	-9.97966
▁ᏥᎬ	-9.98124
▁Ꮞ	-9.98147
▁ᎦᏁ	-9.984
▁ᏧᎾᏄᏬ	-9.98542
▁ᎢᏍᏗ	-9.98715
▁ᎤᏬᏢᏅ	-9.9875
ᎦᎶᏁᏛ	-9.98834
▁ᎡᎳᏪ	-9.98869
▁ᏓᏫᏒ	-9.98934
▁ᎠᏨᏯ	-9.98965
▁ᎠᏰ	-9.99103
ᏓᎵ	-9.99112
▁ᏭᏂᎷᏨ	-9.99158
▁ᏚᏁᎴ	-9.9926
▁ᏧᎵ	-9.99442
▁ᎤᏓᏅᏛ	-9.99473
▁ᏤᏈ	-9.99601
▁ᎠᏛᎪᏗ	-9.99604
▁ᏗᎪᏪᎵ	-9.99644
▁ᎤᏩᏛᎲ	-9.99654
▁ᎠᏂᏌᏚᏏ	-9.99688
▁ᎦᎶᏄᎮ	-9.99688
▁ᎬᏍᎦᎢᏍᏓᎩ	-9.99688
▁ᏂᎦᏅᎯᏎᏍᏗ	-9.99688
▁ᏑᏓᎴᎩ	-9.99688
▁ᏄᏜᏏᏛᏒᎾ	-9.99689
▁ᏌᏯᏂ	-9.99689
▁ᏗᏁᎶᏙᏗ	-9.99689
▁ᏧᏃᏑᎶᏨᎯ	-9.99689
▁ᏢᏓᏥ	-9.9969
▁ᎤᎶᏒᏍᏔᏅᎯ	-9.99692
▁ᎢᏨᏔᏲᏎᎭ	-9.99695
▁ᏧᎾᎳᏏᏕᏂ	-9.99698
▁ᏧᎾᏦᎯᏍᏗ	-9.99699
▁ᎢᏳᏓᎨᏛ	-9.997
▁ᎳᏏᎳ	-9.99701
▁ᎢᎩᏍᏕᎵᏍᎩ	-9.99704
▁ᎢᏣᏓᏙᎵᏍᏗᏍᎨᏍᏗ	-9.99708
▁ᎤᏚᏫᏛ	-9.99708
▁ᏫᏂᎦᎵᏍᏓ	-9.99713
▁ᏫᏄᏒᎸ	-9.99713
▁ᎦᏃᏍᎩᏍᎩ	-9.99715
▁ᎣᏌᏂ	-9.99717
▁ᎣᎦᏁᎳᏅᎯ	-9.99719
▁ᎦᏰᏌᏗ	-9.99726
▁ᎾᏛᏁᎮᏍᏗ	-9.99726
▁ᎤᏴᏣ	-9.99731
▁ᎠᎦᏘᏯ	-9.99738
▁ᎤᎾᎴᏅᎮ	-9.9974
▁ᎠᏂᎦᏔᎿᎢ	-9.99743
▁ᏚᎦᏒᏍᏛ	-9.99743
▁ᎬᎪᏩᏛᏗ	-9.99744
▁ᎠᎵᎮᎵᏍᏗ	-9.99746
▁ᎢᎦᏪᏛ	-9.99753
▁ᏗᏯᏖᎾ	-9.99757
ᏅᏗ	-9.99787
▁ᎤᎦᏃᏩ	-9.99821
▁ᎤᎵᏍᎨᏓ	-9.99822
▁ᏂᏙ	-9.99823
▁ᏂᎦᏚ	-9.99842
▁ᏧᎾᏓᎵᎢ	-9.99847
ᏛᏳᎨᏗ	-9.99886
▁ᎢᏳᏅᏁᏗᏱ	-9.9989
▁ᎠᏓᏅᏖᏗ	-9.99944
ᏔᏲᏎᎴ	-10.0001
▁Ꮼ	-10.0001
▁ᏣᏁᎮᎢ	-10.0002
▁ᎦᏁᎳ	-10.0006
▁ᎠᏂᏁᎵ	-10.0007
▁ᏗᎦᎵᎠᏅᎯᏛ	-10.0012
▁ᎤᏬᏢᏅᎯ	-10.0012
▁ᏧᎸᏫᏍᏓᏁᏗᏱ	-10.0012
ᎪᏩᏘᎭ	-10.0013
▁ᎤᏤ	-10.0013
▁ᏄᎾᏛᏁᎸᎩ	-10.0015
▁ᎠᏥᎸᎠᏁᎶᎯ	-10.0025
▁ᏚᏳᎪᏗ	-10.0027
▁ᎤᎾᏄᎪᏫᏎᎢ	-10.0028
▁ᎤᏔᎷᎩᏍᎩ	-10.0032
▁ᏯᏆᏚᎵ	-10.0036
▁ᏓᎬᎾ	-10.0039
▁ᏭᎶᏒᎩ	-10.0046
▁ᎬᏩᏛᏛᏁ	-10.0047
▁ᎠᎦᏔᎭ	-10.005
▁ᎾᎥᏂᏳ	-10.0055
ᎸᏌᏛ	-10.0059
▁ᎭᏓᏅᏖᏍᎬ	-10.0061
ᏃᎯᏎᎸ	-10.0061
▁ᏓᏠᎯᏍᏛᎢ	-10.0065
▁ᏕᎬᏩ	-10.0068
▁ᏧᎵᎢ	-10.0069
▁ᏕᎨᏌᏗᏒᎢ	-10.007
▁ᏯᏂ	-10.0072
▁ᎤᏁᏤᎸᎩ	-10.0098
ᎷᏥᏏ	-10.01
an	-10.0104
▁ᎠᏔᎴᏒᎢ	-10.0109
▁ᏚᏪ	-10.0111
ᏍᏕ	-10.0113
ᏌᏘ	-10.0116
▁ᎤᏣᏛ	-10.0145
▁ᏧᏪᏘ	-10.015
ᏍᏗᏍᎩ	-10.0173
ᏕᎩ	-10.0185
▁ᎬᏗᏍᎬᎢ	-10.019
ᎲᏍᎬ	-10.0192
▁ᎤᏯ	-10.0211
▁ᎤᎴᏅ	-10.0214
ᏍᏛᎾ	-10.0235
▁ᎠᏰᎸᏗ	-10.0243
ᏲᎯ	-10.0256
▁ᎤᏰᎸᏛᎢ	-10.0273
▁ᎤᎪ	-10.0311
▁ᏍᎩᏃ	-10.0315
▁ᎤᏂᎵ	-10.0323
ᏍᏔᏁ	-10.0324
▁ᏤᎩ	-10.0336
ᏁᏥ	-10.0355
ᎢᏍ	-10.036
▁ᎤᏲᏉ	-10.0362
▁ᏗᏣᏓ	-10.0375
▁ᎠᏓᏅᏙᏍᎩᏂ	-10.0379
ᎵᏓᏍᏗ	-10.0387
ᏓᏡᎬ	-10.0389
▁ᏥᎨᏒᎢ	-10.0399
▁ᎯᎦᏔᎭ	-10.0403
ᎯᎭ	-10.0405
ᏢᎢ	-10.0406
▁ᎠᏍᏓ	-10.0463
▁ᎪᎯᏛ	-10.0477
ᎴᎭ	-10.0491
▁ᏓᏓ	-10.0491
ᎭᏗ	-10.0493
▁ᏗᎬᏩᏂ	-10.0515
ᎦᏘᏍᏙᏗ	-10.0523
▁ᏚᏅ	-10.0524
▁ᎤᏦ	-10.0525
▁ᏥᏅᏏᏓᏍᏗ	-10.0549
▁ᎧᎵ	-10.0557
▁ᎤᎫᏴᏗ	-10.0585
▁ᏄᏍᏛᎾ	-10.0601
▁ᎤᏍᎦ	-10.0617
ᎴᏅ	-10.0622
▁ᎠᏁᏙᎮ	-10.0627
ᏁᎲᎢ	-10.0639
▁ᏕᎨᏴ	-10.0644
▁ᏓᏅᏅ	-10.0646
▁---	-10.065
▁ᏗᏓᏁᎸ	-10.0654
▁ᏚᎾᏓᏡᏩᏗᏒ	-10.0656
▁ᎣᏣ	-10.0656
▁ᎠᎦᏍᎦᏂ	-10.0675
▁ᎤᏄᎪᏨ	-10.0685
▁ᏑᎾᎴᏃ	-10.069
▁ᏫᎬ	-10.0701
▁ᏅᏃ	-10.0701
▁ᎤᏛᏐᏅ	-10.0704
▁ᎠᏂᏃᎯᎵᏙ	-10.0713
▁ᎦᏅᎬ	-10.0715
▁ᏚᎪᎲ	-10.0718
▁ᏗᎦᎪᏗ	-10.0721
▁ᎠᏒᎨ	-10.0722
▁ᎤᏲᎱᎯᏍᏗ	-10.0732
▁ᎤᏓᏅᏖᎸ	-10.0733
ᎪᏣᎴᏛ	-10.0733
▁ᎯᏆ	-10.0733
▁ᏍᏏᏉᏯ	-10.0738
▁ᏗᎦᏙᏌᏗᏍᏗᏱ	-10.0738
▁ᏗᏂᎨᏫ	-10.0738
▁ᏚᏑᎬ	-10.0738
▁ᏀᎾ	-10.0738
▁ᏌᏙᏂ	-10.0738
▁ᏧᎾᏦᏴᏍᏗ	-10.0738
▁ᎮᎳᏂ	-10.0738
▁ᎾᎦᎥ	-10.0739
▁ᏗᎪᏒᏔᏅ	-10.0739
▁ᎬᎩᏍᎦᎩ	-10.0739
▁ᎨᏣᏍᎦᎩ	-10.0739
▁ᎠᏉᏰᏂ	-10.0739
▁ᎦᏚᎢᏗᏢ	-10.0739
▁ᏗᏂᎰᎵ	-10.0739
▁ᎦᏂᏓᏛ	-10.0739
▁ᎨᎦᏑᏰᏛ	-10.0739
▁ᏁᏂᏏ	-10.074
▁ᏇᏍᏓ	-10.074
.]	-10.074
▁ᏍᏗᏫ	-10.074
▁ᎠᏂᎦᏔᎾᎢ	-10.074
▁ᏗᏍᏆᎾᎳᏗᏍᏗ	-10.0741
▁ᏄᏍᏗᏓᏅ	-10.0741
▁ᎣᏥᎦᏔᎭ	-10.0741
▁ᎢᏳᏕᏘᏴᏓ	-10.0741
▁ᎤᏕᎶᎰᏎ	-10.0742
▁ᎤᎧᏲᏛᎯ	-10.0742
▁ᎣᎭᏂ	-10.0743
▁ᏩᏛᎬᎦ	-10.0743
▁ᎢᏥᏯᏫᏍᎨᏍᏗ	-10.0743
▁ᎠᎦᏯᎷᏗ	-10.0743
▁ᎠᏂᎩᏏᏙᎯ	-10.0744
▁ᎠᎾᎦᎵᏍᎩ	-10.0744
▁ᏗᏥᎶᏍᏔᏅ	-10.0745
▁ᎠᏂᎦᏔᎯ	-10.0745
▁ᏥᎮᎾ	-10.0746
▁ᎢᏥᏅᏟ	-10.0746
▁ᎨᏆᏂ	-10.0746
▁ᏓᎨᏏ	-10.0746
▁ᎠᏍᎦᏰᎬᏍᏔ	-10.0747
▁ᎦᎾᏍᏓ	-10.0747
▁ᎦᏐᎯ	-10.075
▁ᎤᏙᎴᎰᏎ	-10.0751
▁ᎤᏪᎷᏅᎩ	-10.0754
▁ᏄᏕᏘᏴᎮᎢ	-10.0755
▁ᏓᏳᎶᏒ	-10.0757
▁ᎠᎦᏔᎿᎢ	-10.0757
ᏙᎳ	-10.0758
▁ᎩᎶᎢ	-10.0761
▁ᎢᏕᎾ	-10.0762
▁ᏚᎧᎾᏁ	-10.0762
▁ᎤᏁᎷᏁᎢ	-10.0768
▁ᎢᏥᏍᎦᏅᏨᎢ	-10.0769
▁ᎪᏢᏅᎯ	-10.0769
ᏯᎠ	-10.0771
▁ᎤᏂᎩᏍᏗ	-10.0772
▁ᎤᏓᏅᏒᎩ	-10.0773
▁ᎨᏙᎲ	-10.0774
▁ᎤᎵᏍᏕᎸᏙᏗ	-10.0776
▁ᎤᏛᏐᏅᎯ	-10.0777
▁ᎠᏧᏏ	-10.0777
ᎠᏎᏃ	-10.078
▁ᎤᏓᏔᏅᎯ	-10.0783
▁ᎤᎾᏛᏁᎢ	-10.0784
▁ᏕᎦᎶᏗᎯ	-10.0784
▁ᎤᎾᏓᏑᏴ	-10.0784
▁ᎠᎩᎪᎲᎩ	-10.0786
▁ᏓᎧᏅᎢ	-10.0789
▁ᎬᏩᎷᏤᎸᎩ	-10.0789
▁ᎤᏁᎳᏅᎯᏱ	-10.0793
▁ᎬᏩᎪᎲ	-10.0795
▁ᎤᏄᎪᏤ	-10.0796
ᏣᏘ	-10.0796
▁ᎢᏧᏩᏁ	-10.0798
▁ᎡᏙᎯ	-10.0799
ᏍᏔᏅᎯ	-10.0803
▁ᎡᎳᏗᏣ	-10.0803
▁ᎠᏥᎸᎨᎶᎯ	-10.0803
▁ᏕᎭ	-10.0805
▁ᎪᏢᏒᎢ	-10.0809
▁ᎨᎾᏂᏱ	-10.0811
▁ᏚᎾᏓᏡᏩᏗᏒᎢ	-10.0823
▁ᎠᎩᎾᏫ	-10.0824
▁ᎤᏂᏍᎦᏅᏨᎯ	-10.0824
▁ᎤᏍᏘᏰᎬ	-10.0827
▁ᎪᏣᎴᏛ	-10.0828
▁ᎠᏁᎳ	-10.0834
ᏖᎸᏗ	-10.084
▁ᎮᏗ	-10.0841
▁ᏥᎪᎨ	-10.0843
ᏅᏎ	-10.0849
▁ᎤᎪᏗ	-10.0858
▁ᎠᏁ	-10.086
▁ᎦᏅᎯᏓ	-10.0862
ᏓᏏ	-10.0873
▁ᏚᏂᎸᏫᏍᏓᏁᎲᎢ	-10.0876
ᎦᏗᏓ	-10.0899
▁ᏂᎦᏪᏍᎬᎩ	-10.0913
▁ᎤᏩᏅ	-10.0914
▁ᎤᎴᏅᎲ	-10.0937
▁ᏱᎦᎩ	-10.0943
▁ᎤᎲ	-10.0947
▁ᎤᎪᎮᎢ	-10.095
▁ᎦᏬᏂᏍᎬᎢ	-10.0951
▁Ꮾ	-10.1033
ᏒᏅ	-10.1052
▁ᎡᎳ	-10.1065
▁ᎤᏲᎱᏒᎢ	-10.1066
ᎵᏍᎪᎸᏓᏁᎸᎯ	-10.1067
;)	-10.1072
▁ᏥᏙ	-10.1074
▁ᎦᎾ	-10.1077
▁ᎤᎿᏥ	-10.1077
▁ᏫᎩ	-10.1078
ᏅᎭ	-10.1111
ᎷᏤᏗᏱ	-10.1116
▁Ꮋ	-10.1133
▁ᎧᏁᎢᏍᏗ	-10.1135
▁ᏙᏗ	-10.1138
▁ᎢᏳᏩ	-10.1141
ᎫᏴᏙᏗ	-10.1149
▁ᎾᏑᏴ	-10.1158
▁ᎠᏂᏂ	-10.1163
ᏍᏕᏍᏗ	-10.1163
ᎦᏔ	-10.1164
▁ᎤᏩᏛᏗ	-10.1184
ᎶᎢ	-10.1191
▁ᏩᏥ	-10.1206
▁ᎠᎦᏔ	-10.1207
▁ᎤᏂᏁᏨ	-10.1218
▁ᎠᎾᎵ	-10.1222
▁ᎤᏄᏬ	-10.1256
ᎥᎾ	-10.1267
▁ᎯᏍᎩᏁ	-10.1299
ᏓᏂᎸᏨᎯ	-10.1331
▁ᎠᎯᏗ	-10.1346
▁ᎪᎯᏳᏗᏍᎩ	-10.1359
▁ᏏᎻᏯᏂ	-10.1385
ᏤᎵ	-10.1396
▁ᎣᎦᏤᎵ	-10.1409
ᏓᏑᏯ	-10.1412
▁ᎨᏓᎵ	-10.142
▁ᎧᏃᎮᏍᎬ	-10.1432
▁ᏄᎾᏛᏁᎸ	-10.1438
▁ᏫᎦᏅᏅ	-10.147
▁ᎠᏂᏨᏯ	-10.1471
▁ᎠᏅᏗᏍᎬ	-10.1479
▁ᎠᏇ	-10.1482
▁ᎤᏜᏅᏛ	-10.1484
▁ᏕᎦᏅᏅ	-10.1486
ᏁᏤᏗ	-10.1487
▁ᏫᏚᏯᏅᎮ	-10.1491
▁ᎪᏱᏁ	-10.1492
▁ᏣᎩ	-10.1502
▁ᏂᎬᏁ	-10.1504
▁ᏕᎪ	-10.1505
ᏩᏛ	-10.1508
▁ᎠᏂᏁᎬ	-10.1508
▁ᏥᏙᎬ	-10.1509
▁ᎭᎵ	-10.1511
▁ᎤᏂᎩᏎ	-10.1514
▁ᎠᏇᎵᏒ	-10.1516
▁ᎤᎾᏚᎵᏍᎬ	-10.1517
▁ᏚᎸᏌᏛ	-10.1518
▁ᏂᏚᏩᏁᎸ	-10.1521
▁ᎠᏁᎵᏍᎨ	-10.1522
ᎥᎯᏍᏗ	-10.1524
▁ᏥᏁᎬ	-10.153
▁ᎤᏪᏅᏒ	-10.153
▁ᏣᏚᎵ	-10.1531
▁ᏱᏥᎦᏔ	-10.1539
ᏗᏣ	-10.1541
ᏃᏁᎸᎩ	-10.1547
▁ᎢᏯᏆᏛᏁᏗ	-10.1548
▁ᎤᏁᏓᏍᏗ	-10.1549
ᏄᏬ	-10.1551
▁ᎦᎴᏂ	-10.1554
▁ᏂᏨᏁᎸ	-10.1558
▁ᎡᎳᏂᎬ	-10.1564
ᏢᏗ	-10.1568
▁ᎤᏍᏚᎢᏒ	-10.157
▁ᎠᏂᏃᏍᎩᏍᎩ	-10.1571
▁ᎠᏂᏩᏥᏂ	-10.1571
▁ᎦᎳᎱᏂ	-10.1571
▁ᏕᎦᎳᏫᎥ	-10.1571
▁ᏗᏓᏬᏍᎩ	-10.1571
▁ᏧᏓᎿᏩᏛ	-10.1571
▁ᏧᏙᏓᏋᏓ	-10.1571
▁ᎢᏆᎶᏂ	-10.1571
▁ᎾᎪᏔᏅᎾ	-10.1571
▁ᏚᎾᎧᏛ	-10.1571
▁ᎤᏙᎴᎰᎯᏍᏗᏱ	-10.1572
▁ᏚᏃᏢᏔᏅᎩ	-10.1572
▁ᏄᏓᎵᏓᏍᏛᎾ	-10.1572
▁ᏗᏂᏬᏂᏍᎩ	-10.1572
▁ᏗᎨᏥᎤᏍᏕᏎᎸᎯ	-10.1572
▁ᎢᏕᎯ	-10.1572
▁ᎠᏓᏪᎳᎩᏍᎩ	-10.1572
▁ᏅᏓᎦᎵᏍᏙᏓ	-10.1572
▁ᏗᏂᏍᎪᎵ	-10.1572
▁ᏂᎦᎵᏍᏔᏂᏙᎲ	-10.1572
▁ᏣᏔᎦ	-10.1572
▁ᏧᏆᎶᎬ	-10.1572
▁ᏄᎵᏍᏔᎾ	-10.1573
▁ᎢᏥᏰᎸᏎᏍᏗ	-10.1573
▁ᏂᏣᏛᏁᎮᏍᏗ	-10.1573
▁ᎾᎵᏍᏆᏗᏍᎬᎾ	-10.1573
▁ᎢᏣᏅᏖᏍᏗ	-10.1573
▁ᎥᎩᏅᏏᏛ	-10.1573
▁ᎤᏬᏑᎶᏨᎯ	-10.1573
▁ᏚᎾᎴᏁ	-10.1573
▁ᏦᏢᏗ	-10.1574
▁ᎢᏥᎦᏔᎮᏍᏗ	-10.1574
▁ᎢᏧᎳᏗᏢ	-10.1575
▁ᎯᏍᎦᏯ	-10.1575
▁ᏂᏚᎾᏓᏪᏎᎴᎢ	-10.1575
▁ᎡᏂᏗ	-10.1576
▁ᎠᏌᏅᏙᏗ	-10.1576
▁ᎣᏂᏗᏢ	-10.1576
▁ᏅᏓᎦᎵᏍᏙᏔᏂ	-10.1576
▁ᏗᏑᏢᏛ	-10.1576
▁ᎠᎵᏥᏙᎲᏍᎩ	-10.1576
▁ᎢᏥᎦᏙᎥᎯᏍᏗᏱ	-10.1577
▁ᎡᏈᎵ	-10.1577
▁ᏧᎾᎵᏂᎩᏛ	-10.1577
▁ᎪᎯᏳᎲᏍᎩ	-10.1578
▁ᎠᏥᎤᏍᏕᏎᎸᎯ	-10.1578
▁ᎢᏯᏍᏘ	-10.1578
▁ᏂᎬᏪᏎᎭ	-10.1579
▁ᏧᏍᎪᎵ	-10.158
▁ᎠᏓᏍᏓᏴᏗ	-10.158
▁ᏣᏓᏅᏙ	-10.1581
▁ᎤᏛᎦᎾ	-10.1581
▁ᏅᏧᎵᏍᏙᏔᏅ	-10.1583
ᏍᎪᏃ	-10.1584
▁ᏍᎩᏙᎵᎩ	-10.1586
▁ᎠᏂᏅᎢ	-10.1588
▁ᏍᎪᏯ	-10.1589
▁ᏂᎦᎵᏍᏔᏅᎭ	-10.1589
▁ᏧᏂᎳᏫᎢᏍᏗᏱ	-10.1591
▁ᎢᏳᎵᏍᏔᏅᎯ	-10.1592
▁ᎭᎻ	-10.1592
▁ᎤᎵᏍᏗᏳ	-10.1592
▁ᎤᏕᎵᏒ	-10.1592
▁ᏚᏠᏱᎴᎢ	-10.1594
▁ᎠᏆᎵᏏ	-10.1594
▁ᎢᏯᏆᏛᏁᏗᏱ	-10.1595
▁ᏓᏓᏏ	-10.1595
▁ᏦᎳ	-10.1597
▁ᏱᏙ	-10.1598
▁ᎢᏓᎵ	-10.1599
▁ᏥᎪᏩᏘᎭ	-10.1599
▁ᏄᏩᏅ	-10.16
▁ᎢᏨᏯ	-10.1602
▁ᎹᏗ	-10.1603
▁ᎤᏪᏗᏱ	-10.1605
▁ᎤᏍᏆᏛ	-10.1611
▁ᎤᏣᏖ	-10.1612
▁ᎨᎥᎢ	-10.1614
▁ᎡᏘᏴ	-10.1618
▁ᎧᏅᏑᎸ	-10.1619
▁ᎤᏂᎩᏒᎩ	-10.1619
▁ᏓᎬᏩ	-10.1624
▁ᏘᎵ	-10.1624
▁ᎹᎩ	-10.1625
▁ᏂᏚᏩᏁᎸᎩ	-10.1626
▁ᏧᏂᎾᏫᏱ	-10.1627
▁ᏗᏨ	-10.1629
ᏌᏂ	-10.163
▁ᏧᏓᏅᏛᎢ	-10.1638
▁ᏌᏚ	-10.1643
▁ᏧᏬᏚᎯ	-10.1645
ᏎᏗ	-10.1646
▁ᏭᏂᎷᏤᎢ	-10.165
▁ᏄᎾᏍᏗ	-10.1654
▁ᎾᏆ	-10.1655
▁ᎨᏂᏗ	-10.1659
ᏏᏗᏒ	-10.166
▁ᎤᏄᏢ	-10.1663
ᏐᏅ	-10.1671
▁ᎠᏆᎵ	-10.1682
▁Ꮢ	-10.1682
ᏴᏗ	-10.1684
▁ᏱᏚᏂ	-10.1685
▁Ꮘ	-10.1687
▁ᎠᎭ	-10.1689
▁ᏂᏫ	-10.1694
▁ᏱᎰ	-10.1714
ᎵᏍᏔᏅ	-10.172
ᏍᏆᏂᎪᏗ	-10.172
▁ᎦᏛᎬᎢ	-10.1723
▁ᎤᎪᎲᎯ	-10.173
▁ᏄᏛᏁᎸᎢ	-10.176
ᏁᎬ	-10.1767
▁ᎤᏁᎢᏍᏗ	-10.1782
ᎩᏓ	-10.1782
ᏍᏔᏅᎢ	-10.1793
▁ᏚᏩ	-10.1793
ᏪᏨᎯ	-10.1818
ᎦᎸ	-10.1851
▁ᎠᎩᎪᎲ	-10.1851
▁ᏗᎬᏙᏗ	-10.1858
▁ᎤᎾᏕ	-10.1874
ᏴᎭ	-10.1874
ᏘᏗ	-10.1875
Ꮬ	-10.1887
▁ᎤᎭᎨ	-10.19
ᏍᏓᏴ	-10.1902
▁ᏥᏴ	-10.1911
▁ᏓᏥᏯ	-10.1919
▁ᏄᏓ	-10.1927
ᏧᏏ	-10.1961
ᏗᏒ	-10.1967
ᎩᏍᎨᏍᏗ	-10.1974
▁ᎯᎾ	-10.1974
▁ᎠᎦᏛ	-10.1977
▁ᏫᏗ	-10.1992
▁ᎠᏏᎳᏛ	-10.1994
▁ᎤᏔᏅ	-10.1995
▁ᎤᏙᏓᏃ	-10.1997
ᏅᏏᏙᎯ	-10.2017
ᏁᎮ	-10.2021
ᎠᏯᏗ	-10.2026
▁ᎯᎸᎯ	-10.2027
ᏂᏒ	-10.2043
ᏙᎮᏍᏗ	-10.2044
▁ᎤᎶᏒ	-10.2059
ᎡᏍᏗ	-10.206
ᎶᏒ	-10.206
▁ᎤᏍᏆ	-10.2064
▁ᎨᎶᎯ	-10.2071
▁ᎤᏛᏅᎩ	-10.208
▁ᏂᏣᏛᏅᎢ	-10.2104
ᏁᎸᏔᏅ	-10.2106
ᏪᎳ	-10.212
▁ᎠᏲ	-10.212
▁ᏭᏂᎷᏤ	-10.212
▁ᎤᏩᎨᏫ	-10.2149
▁ᎭᎴ	-10.2153
ᎧᎵᎢ	-10.2154
▁ᎢᏍ	-10.2161
ᏗᏳ	-10.2169
ᎪᎩ	-10.2172
ᎤᏙᎯᏳ	-10.2179
ᏯᏅ	-10.2186
▁ᎠᎢᏒ	-10.2195
▁ᏂᎪ	-10.2215
ᎩᏍᎪ	-10.2216
▁ᎠᏂᏁ	-10.2218
▁ᏥᎾ	-10.2222
ᏉᏗ	-10.2222
ᏙᎵ	-10.2228
ᏙᎵᏍᏗ	-10.2231
ᏰᎸ	-10.2236
▁ᎠᏍᎦ	-10.2241
▁ᎠᏍᏚᎲ	-10.2244
ᏬᏂᎯᏍᏗ	-10.2249
ᏓᏁᎸ	-10.2295
▁ᏗᎾᏓ	-10.2297
▁ᎬᏯ	-10.2299
▁ᎠᏍᎦᏅᏨ	-10.2302
ᎩᎳ	-10.2306
ᎥᏏ	-10.2329
ᏅᏓᏗᏍᏙᏗ	-10.2335
ᏓᎶᏂᎨ	-10.2337
▁ᎾᏆᏛᏁᎸ	-10.2339
▁ᎪᏢᏒ	-10.2342
ᎴᏅᎯ	-10.2344
ᏔᎷᎩᏍᎩ	-10.2347
▁ᎠᏓᏙᎵᏍᏗ	-10.2348
ᏅᏅ	-10.2352
▁ᎾᏂᏪᏍᎬ	-10.2353
ᎨᎳᏍᏗ	-10.2354
▁ᎠᎩᏁᏨ	-10.2361
▁ᎠᏓᏅᏖᏍᎨ	-10.2369
▁ᎡᎵᏍᎨ	-10.2372
▁ᎥᏓᎸ	-10.2377
▁ᎤᎩᏨᏅ	-10.2383
▁ᎤᎵᏂᎬᎬ	-10.2384
▁ᎠᏲᏟ	-10.2387
▁ᎢᏣᏓ	-10.2387
ᎵᎪ	-10.239
▁ᎬᏩᎷᏤᎴ	-10.2394
ᎢᏳᎾᏍᏗ	-10.2394
▁ᏣᎧᏛ	-10.2394
▁ᏗᏤᎲ	-10.2395
▁ᎤᏂᏃᎮᎸ	-10.2395
▁ᎦᏰᏌᏛ	-10.2396
▁ᏂᏣᏛᏅ	-10.2404
▁ᎤᎿᎥ	-10.2408
▁ᎤᏰᎸᏁ	-10.2408
▁ᏫᏍᎩ	-10.2411
ᏆᎵ	-10.2414
▁ᎠᏓᏯ	-10.2415
▁ᏗᏥᏰᎸ	-10.2418
▁ᏫᏚᏯᏅᎲ	-10.2428
▁ᎬᏩᎷᏤᎸ	-10.2433
▁ᎤᎦᏔᎲᏒ	-10.2434
▁ᎾᏛᏁᎲ	-10.244
▁ᎠᏁᎵᏍᎬ	-10.2453
▁ᏗᏄᎪᏗᏍᎩ	-10.2457
▁ᎢᎬᏩᏁᏗ	-10.2457
▁ᎠᏥᎢᏍᏗ	-10.246
ᎥᏝ	-10.2462
ᏗᏍᎬᎢ	-10.2468
ᏇᏓᎵ	-10.2468
▁ᏚᏅᏎ	-10.2475
▁ᎪᏢᏗ	-10.2477
▁ᎠᏰᎳᏍᏘ	-10.248
▁ᎡᎩᎵᏈ	-10.248
▁ᎢᏗᏍᏓᏓᎳ	-10.248
▁ᎦᏌᏆᎸ	-10.248
▁ᏂᏓᎪᏔᏅᎾ	-10.248
▁ᏌᏬᏚ	-10.248
▁ᎢᏯᎬᏁᎸᎯ	-10.2481
▁ᎠᏂᏈᎵᏍᏗ	-10.2481
▁ᏌᏱᎳ	-10.2481
▁Chap	-10.2481
▁ᏣᎦᏟᎶᏍᏔᏅᎯ	-10.2481
▁ᎧᏁᏍᎪ	-10.2481
▁ᏚᎧᏔᏍᏔᏁᎢ	-10.2481
▁ᏥᏍᎪᏴ	-10.2481
▁ᏧᏓᏕᏍᏗᏱ	-10.2481
▁ᏅᏓᎦᏥᏴᏁᎵ	-10.2481
▁ᎤᏲᏍᏛᏉ	-10.2481
▁ᎮᎼ	-10.2481
▁ᎠᏕᏒᎲᏍᎩ	-10.2481
▁ᎢᏆᎻ	-10.2481
▁ᎢᏳᏛᏁᎸᎯ	-10.2481
▁ᎠᏗᏒᏍᏗ	-10.2481
▁ᏗᏥᎦᏙᎵ	-10.2482
▁ᏥᏂᏣᏛᏅ	-10.2482
▁ᏧᎾᏓᏅᏙ	-10.2482
▁ᎦᏌᎾᎵ	-10.2482
▁ᎤᏂᏁᎫᏥᏛ	-10.2482
▁ᎤᎩᏓᏟᏅᏯ	-10.2483
▁ᎤᎳᎨᏯᏛᏤᎢ	-10.2483
▁ᏗᎿᏬ	-10.2483
▁ᎤᎴᏴᏒ	-10.2483
▁ᏱᏥᏍᎦᎢᎮᏍᏗ	-10.2483
▁ᎠᎹᏳᎸᏓ	-10.2484
▁ᎧᏴᏐᎵ	-10.2484
▁ᎠᎩᎬᏫᏳᎯ	-10.2484
▁ᏣᏤᎵᎪᎯ	-10.2484
▁ᏏᎵᏱ	-10.2484
▁ᏥᏲᏎᎸ	-10.2484
▁ᎦᎫᏍᏛᏗ	-10.2485
▁ᏐᏁᎳ	-10.2485
▁ᎠᏂᏃᎮᏍᎩ	-10.2486
▁ᏇᏕᎵ	-10.2486
▁ᏗᎨᏥᎾᏌᎢ	-10.2486
▁ᏭᎷᏣ	-10.2487
▁ᎠᏰᎲ	-10.2487
▁ᎠᎦᏔᎾᎢ	-10.2487
▁ᎤᏣᏔ	-10.2487
▁ᎤᎾᏗᏍᎦᎶᏗ	-10.2488
▁Ꮗ	-10.2488
ᏙᎢ	-10.2488
▁ᏓᎬᏔᏂ	-10.2488
▁ᎬᏩᏍᏓᏩᏛᏒᎩ	-10.2488
▁ᎬᎵᏍᏆᏗᏍᎩ	-10.2489
▁ᎠᏉᎳ	-10.2489
▁ᎢᏳᏩᏁᎯ	-10.249
▁ᎠᎵᏍᎪᎸᏓᏁᏗ	-10.249
▁ᏚᏃᎡᎢ	-10.249
▁ᏥᏥᎦᏔᎭ	-10.249
▁ᏗᎬᏩᎸᏌᏛ	-10.249
▁ᏯᎦᏔᎭ	-10.2491
▁ᎣᎩᏙᏓ	-10.2491
▁ᏤᏙᎲ	-10.2492
▁ᎠᏃᏍᏛ	-10.2492
▁ᎤᏁᏢᏔᏅᎯ	-10.2493
▁ᏗᎦᏅᏍᎨᏂ	-10.2493
▁ᎾᏥᎾᏝᎥᎾ	-10.2494
▁ᏧᏂᎦᏴᎵᎨ	-10.2494
▁ᏳᏩᏁᎦ	-10.2496
▁ᏏᏅᏓ	-10.2496
▁ᎢᏣᏠᎾᏍᏗ	-10.2497
▁ᏭᎶᎯᏍᏗᏱ	-10.2498
▁ᎪᏪᎳᏅᎯ	-10.2499
▁ᎠᎨᏯ	-10.2499
ᎬᏫᏳᏒ	-10.25
▁ᏦᏈ	-10.2501
ᎯᏓ	-10.2502
▁ᎬᏂᎨᏒᎢᏳ	-10.2503
▁ᎤᏁᏍᏓᎳ	-10.2505
▁ᏥᏂᎦᏪᎭ	-10.2506
▁ᎪᏢᏅ	-10.2507
▁ᎠᏥᏃᎮᏍᎬᎢ	-10.251
▁ᏧᏁᎬ	-10.2512
▁ᎤᎦᎹ	-10.2513
▁ᏂᎦᏅᎯᏒᎩ	-10.2514
▁ᎤᎪᏩᏛᏗ	-10.2519
▁ᏂᏚᏍᏛ	-10.252
▁ᎡᏉᏗᏱ	-10.2528
▁ᎤᏅᏏᏙᎯ	-10.2529
▁ᎤᏓᏅᏖᎸᎯ	-10.2531
ᏳᎯ	-10.2534
▁ᎣᎩᎾᎵᎢ	-10.2535
ᎾᏰᏍᎬᎾ	-10.2542
▁ᎾᎦᏔᎲᎾ	-10.2544
▁ᎤᏕᏁᎸᎯ	-10.2545
▁ᎠᏁᎰ	-10.2549
▁ᏓᏕᏲᎲᏍᎬᎢ	-10.2556
▁ᎤᏬᏢᏅᎩ	-10.2558
▁ᎠᎭᏂ	-10.256
▁ᏓᏂᏁᎸᎢ	-10.256
ᏂᏓᏍᏗᏱ	-10.2561
▁ᎤᏍᎦᏅᏨᎯ	-10.2566
▁ᎡᎳᏗᏢ	-10.2567
▁ᎬᏂᏳ	-10.2568
ᏚᎵᎭ	-10.2575
▁ᎨᎳᏍᏗ	-10.2591
▁ᎤᎿᎥᎢ	-10.2591
▁ᎠᎩᏍᏗᏱ	-10.2592
ᏂᎩᏛ	-10.2593
▁ᏱᏕ	-10.2594
▁ᏥᎨ	-10.2596
ᎡᏗ	-10.2599
▁ᏤᏆ	-10.2606
▁ᏌᎵ	-10.2616
▁ᎠᏍᏘ	-10.2622
▁ᏕᏡᎬᎢ	-10.2626
▁ᎤᎾᏛᎦᏅᎯ	-10.2634
ᎵᏯ	-10.2648
▁ᎾᎨ	-10.2652
▁ᎠᎩᏰᎸ	-10.2666
▁ᏕᏂ	-10.2672
▁ᎠᏆᏓᏅᏙᎩ	-10.2672
▁ᏂᎬᏁᎲ	-10.2682
▁ᏳᏚᎵ	-10.2683
ᏠᏱ	-10.2685
▁ᎦᏙᎬᎩ	-10.2686
ᏄᎪᏫᏒᎩ	-10.2691
ᎾᎥ	-10.2694
ᏑᏰᏛ	-10.2694
ᎨᏳᏗ	-10.2696
ᏈᏍᏗ	-10.2708
ᏁᎰᎢ	-10.2709
▁ᏄᎵᏍᏔᏂᏙᎸᎢ	-10.2717
▁ᎤᏂᏍᎦᏅᏨᎢ	-10.2722
ᏕᎶᎰᎯᏍᏗ	-10.2727
▁ᎦᎸᏉ	-10.2733
▁ᎤᎷᏤᎢ	-10.2745
▁ᎤᏗᏔᏍᏗ	-10.2749
▁ᎠᎫ	-10.276
▁ᏅᏗᎦᎵᏍᏙᏗᏍᎬᎢ	-10.2761
▁ᏦᎯᏳᏒ	-10.2762
▁ᏥᏄ	-10.2781
ᏓᏅᎦᎸᏛ	-10.2789
▁ᎠᏒᎩ	-10.2792
ᏏᏁ	-10.28
ᏔᏲᏏ	-10.2818
id	-10.2819
▁ᎢᏥᏰᎸ	-10.2827
▁ᎤᎧᏛᎢ	-10.2832
ᎩᎯ	-10.2848
▁ᏕᏍᎩ	-10.2857
ᎨᏂ	-10.2863
ᏙᎴᎰᏏ	-10.2865
▁ᎨᏛ	-10.2866
ᏁᏤᎴ	-10.2866
▁ᎢᏒ	-10.2872
ᏔᎾ	-10.2881
▁ᎤᏂᎲ	-10.2889
▁ᎭᏩ	-10.2908
ᎷᏣ	-10.2911
▁ᎦᏲᎵ	-10.2913
▁ᎤᎾᏛ	-10.2916
ᎦᏙ	-10.2942
ᏓᏅ	-10.2963
l	-10.2972
▁ᏚᎦ	-10.2989
ᎵᏍᏗᏱ	-10.3017
ᎡᎸᎩ	-10.3025
▁ᏄᏪ	-10.3026
ᎵᏏᏱ	-10.3043
▁ᏦᎢᎭ	-10.3047
▁ᎩᎵ	-10.3062
▁ᎢᏏᎵᏱ	-10.3075
ᏅᏓᏓ	-10.308
▁ᎾᎩ	-10.3085
ᎦᏔᎰ	-10.3086
ᏙᏢᏅ	-10.3097
ᏛᏂ	-10.3112
▁ᏚᏁᎸ	-10.3118
ᏨᎢ	-10.3139
ᏁᏍᏗ	-10.3142
ᎯᎯ	-10.3153
ᏕᏅ	-10.3158
▁ᎠᏂᏫᎾ	-10.3161
ᏓᏍᏗ	-10.318
▁ᏓᏰ	-10.3183
ᏚᎵ	-10.3203
ᏰᎢ	-10.3221
ᏅᏏᏓᏍᏗ	-10.3236
▁ᎠᏂᏐᎢᏃ	-10.324
ᏙᎸ	-10.3249
ᎥᎩ	-10.3272
ᎶᏨ	-10.3277
▁ᎯᎦᏘᏏ	-10.3279
▁ᏧᏙ	-10.3282
ᏁᏤᎸᎯ	-10.3284
▁ᏣᏓ	-10.3293
▁ᎪᎦ	-10.3298
ᎦᎳ	-10.3299
ᏁᎸᎢ	-10.3304
ᏎᎴ	-10.3312
▁ᏗᎦᏅ	-10.332
▁ᎣᎩᎾ	-10.332
▁ᎤᏬᏂᏒ	-10.3326
ᎾᏄᎪᏫᏏ	-10.3329
ᏟᏍᏗ	-10.3329
▁ᎤᏂᏣᏛ	-10.3335
▁ᏄᏅ	-10.3345
▁ᏚᎧᎿᏅ	-10.3345
▁ᎢᎳ	-10.3347
ᏔᏅᎾ	-10.3351
ᏯᏅᎲ	-10.3353
ᎡᎸᎯ	-10.3363
▁ᏂᎨ	-10.3368
ᏩᏛᎮ	-10.3368
▁ᎠᏉ	-10.3371
▁ᎠᏔᎴᎦᏒ	-10.3376
▁ᎤᏃᏁᎴ	-10.3379
ᏣᏛᏁᎯ	-10.339
▁ᏕᎦᏚᏩᏗᏒ	-10.339
▁ᏧᏩᎫᏔᏅᏒ	-10.3394
▁ᎤᏍᏓᎦᎸ	-10.3397
▁ᏓᏕᏲᎲᏍᎬ	-10.3398
▁ᏱᎨᏐ	-10.3402
ᎪᎱᏍᏗ	-10.3403
▁ᎠᏚᎢᏍᏛ	-10.3404
▁ᎤᏰᎸᏅ	-10.3405
▁ᎤᏂᎷᏤᏗ	-10.3406
▁ᏩᎾ	-10.3407
▁ᏚᏬᎡ	-10.3407
▁ᏓᏂᏁᎸ	-10.3418
▁ᏗᎫ	-10.342
▁ᎣᎵᏩ	-10.3422
ᏅᎦ	-10.3424
ᏗᏢ	-10.3433
▁ᎤᎷᏤᎴ	-10.3435
▁ᏤᎮ	-10.3436
▁ᎤᏬᏚ	-10.3443
▁ᏕᎪᏪᎸ	-10.3444
▁ᎤᏁᎦᎸ	-10.3449
ᏍᎦᎢᎲᎾ	-10.3451
ᏥᏲᏏ	-10.346
▁ᎤᏅᏎ	-10.3472
rs	-10.348
▁ᎡᏂᎾᏯ	-10.348
▁ᎤᏂᏃᎮᎴ	-10.348
▁ᎥᏘᎣᎩ	-10.348
▁ᏑᏓᎳᏍᎪᎯ	-10.348
▁ᏗᎫᏓᎸᏗᏱ	-10.348
▁ᏤᎦᎳᏯ	-10.348
▁ᎡᎹᏂᏓ	-10.3481
▁ᎢᏍᎦᎳᏗ	-10.3481
▁ᏧᎦᏃᏮ	-10.3481
ᎰᎲᏍᏗ	-10.3481
▁ᎤᎵᏍᏔᏴᏗ	-10.3481
▁ᏧᏯᏖᏃᎯ	-10.3481
▁ᏯᏃᎩᏳ	-10.3481
ᏔᏬᏍᏔᏅ	-10.3481
▁ᏗᎧᎾᏩᏛᏍᏗ	-10.3481
▁ᏫᏚᎧᎿᏁ	-10.3481
▁ᎤᎾᏢᏉᏗ	-10.3481
▁ᏗᏇᏅᏒ	-10.3481
▁ᏗᎾᏓᏂᏱᏍᎩ	-10.3481
▁ᎤᏯᏖᏃᎯ	-10.3481
▁ᎢᏤᎳᏗᏙᎮᏍᏗ	-10.3481
▁ᏗᏍᏆᎨᏂ	-10.3481
▁ᎬᏉᏎᎰ	-10.3481
▁ᏕᎨᏥᏰᎸᏔᏅᎩ	-10.3481
▁ᏦᏍᏓᏓᏅᏟ	-10.3481
▁ᎻᎾᏌ	-10.3481
▁ᎢᏳᏩᏂᏌᏅᎯ	-10.3481
▁ᏑᎾᏓᎴᎩ	-10.3481
▁ᎦᎶᎯᏍᏗᏳᎶᏗ	-10.3481
▁ᎡᏥᎸᏉᏓ	-10.3481
▁ᏅᏓᏳᎵᏍᏙᏗᏱ	-10.3481
ᎦᏚ	-10.3482
▁ᎨᏣᏍᏓᏩᏗᏙᎯ	-10.3482
▁ᏂᏣᏪᏒ	-10.3482
▁ᏕᎪᏪᎵᏍᎬ	-10.3482
▁ᏅᏓᎬᏁᎵ	-10.3482
▁ᏍᎩᏄᏍᏛ	-10.3482
▁ᎪᏌᏂ	-10.3482
▁ᎠᏂᏈᎷ	-10.3482
▁ᎢᏲᏍᏛ	-10.3483
▁ᏱᏅᎦᎵᏍᏓ	-10.3483
▁ᎤᏰᎸᎮ	-10.3484
▁ᎯᎨᏴ	-10.3484
▁ᏂᏣᏛᎦ	-10.3484
▁ᏗᏓᎴᎲᏍᎦ	-10.3485
▁ᏧᎳᏍᎩ	-10.3486
ᏍᏚ	-10.3486
▁ᎢᏳᏛᎿᏕᎩ	-10.3486
▁ᏓᏓᎶᏂ	-10.3486
▁ᎢᎧᏁᏨᎯ	-10.3486
▁ᎠᏓᏠᏍᏗ	-10.3486
▁ᏫᏨᎷᏤᏗᏱ	-10.3487
ᎸᏉᏕᏍᏗ	-10.3487
▁ᎤᏂᎷᎯᏍᏗᏱ	-10.3488
▁ᎤᎵᏠᏯᏍᏕᏍᏗ	-10.3488
▁ᏛᏍᏆᎸᎯ	-10.3489
▁ᏗᏓᏂᏐᏗᏱ	-10.3489
▁ᏑᏕᏘᏴᏛ	-10.3489
▁ᎢᏣᎵᏍᏕᎸᏙᏗ	-10.349
▁ᏗᎦᎴᏂ	-10.349
▁ᎢᏣᏛᎦᏅᎯ	-10.3491
▁ᎠᏙᎴᎰᎯᏍᏙᏗ	-10.3491
▁ᏭᏴᎸ	-10.3491
▁ᎤᏛᎪᏗᏱ	-10.3492
▁ᏭᏂᎶᎯᏍᏗᏱ	-10.3492
▁ᎢᏳᏩᏁᎸᎯ	-10.3493
▁ᎠᎩᏅᏏᏛ	-10.3493
▁ᎤᏓᏙᎵᏍᏓᏁᎴᎢ	-10.3494
▁ᎠᏂᏦᎢ	-10.3494
▁ᎾᏂᎦᏔᎲᎾ	-10.3495
▁ᎤᏁᎷᏅᎩ	-10.3495
▁ᎤᏪᎵᏍᏗ	-10.3495
▁ᏩᎩᎷᏨ	-10.3495
▁ᎤᏓᏙᎵᏣᏘᏳ	-10.3496
▁ᏦᏓᎸ	-10.3496
▁ᏁᎵᏍᎬ	-10.3496
▁ᎠᏇᏅᏍᏗ	-10.3498
▁ᎤᏪᏙᎵᏍᏗ	-10.3499
▁ᎾᏂᎠ	-10.3501
▁ᎢᎨᎬᏁᏗ	-10.3501
▁ᎬᏩᏔᏲᏎᎴ	-10.3502
▁ᏴᎨᏥ	-10.3502
▁ᎤᏂᏇᏓᎸᎢ	-10.3503
▁ᏂᎦᎵᏍᏗᏍᎨᏍᏗ	-10.3504
▁ᏙᏓᏳ	-10.3504
▁ᎠᎦᏍᎬ	-10.3506
▁ᎾᎩᏪᏒᎩ	-10.3506
▁ᎤᏩᏂ	-10.3507
▁ᎤᎶ	-10.3507
▁ᎤᏌᎳᏓᏅ	-10.3508
ᎦᏴᎵᎨ	-10.3509
▁ᎤᏂᏁᎫ	-10.3509
ᏂᏌᏁ	-10.351
▁ᏗᎦᎶᏗ	-10.351
▁ᏥᏍᏆᏯ	-10.3513
▁ᎤᎾᏕᏅᎯ	-10.352
▁ᎤᏂᏃᎮᎸᎯ	-10.352
▁ᏚᏂᏅᏎ	-10.3522
▁ᏂᎬᏁᎭ	-10.3525
▁ᏤᎲᎩ	-10.3526
▁ᏚᏁᏤᎸᎩ	-10.3527
▁ᎢᏳᏛᏁᏗᏱ	-10.3527
▁ᎤᏰᎸᎯ	-10.3528
▁ᏙᏧᎾᏓᏅᏛᎢ	-10.3529
▁ᎤᏓᏑᏯ	-10.3533
▁ᎤᏪᏅᏍᏗᏱ	-10.3533
ᏛᏅ	-10.3533
▁ᎤᎾᎵᏍᏓᏴᏗᏱ	-10.3535
ᏰᎭ	-10.3535
▁ᎣᎬᏒ	-10.3539
▁ᏄᎾᏛᏁᎴᎢ	-10.3539
ᏲᎢᏴ	-10.3539
▁ᎠᏆᏓᏅᏛ	-10.3539
▁ᎤᏓᎴᏅᏛ	-10.354
▁ᏅᏓᎬ	-10.354
▁ᏫᏚᏯᏅᎲᎩ	-10.3541
ᎦᏔᎯ	-10.3544
▁ᎤᎵᏬᏨᎯ	-10.3548
▁ᎤᏪᏅᏒᎩ	-10.3549
▁ᏚᏌᎳᏓᏁ	-10.355
▁ᎠᏥᎸᎨᎳᏍᏗᏱ	-10.3552
▁ᎨᎦᎫᏴᎡ	-10.3562
▁ᎤᏪᏙᎸᎩ	-10.3563
▁ᎤᎩᎸ	-10.3569
▁ᎤᏄᎪᏨᎩ	-10.3571
▁ᎾᏂᏪᏍᎬᎢ	-10.3574
▁ᎤᏂᏰ	-10.3577
▁ᎠᏎᏍᎩᏂᏃᏅ	-10.3579
▁ᎤᏰᎸᏁᎢ	-10.3581
ᏗᏏ	-10.3585
▁ᏙᏯ	-10.3586
▁ᏥᏍ	-10.3588
ᎧᏁ	-10.3592
▁ᎠᏨᏯᎢ	-10.36
▁ᏕᎳ	-10.3604
▁ᎢᎾᎩ	-10.3606
▁ᎤᏂᏰᎸᏁ	-10.3611
ᏄᎪᏩ	-10.3617
▁ᏲᎩ	-10.3618
▁ᎧᏁᏉ	-10.3621
ᏩᏒ	-10.3632
▁ᎢᏳᏓᎵ	-10.3637
▁ᎠᏫᏍᎩ	-10.3644
▁ᎠᏤᎵᏍᏛᎢ	-10.3645
▁ᎤᏂᎬ	-10.3662
ᏲᎯᏍᏔᏅ	-10.3682
▁ᎧᎪ	-10.3685
▁ᏴᏓ	-10.3688
ᏓᎴᏅᏛ	-10.3691
ᎲᏍᎦ	-10.37
ᏓᏱᎵ	-10.3704
▁ᏔᎵᏍᎪ	-10.371
▁ᏄᏩᏁᎴᎢ	-10.3718
▁ᏗᎦᏚᎲᎢ	-10.3727
Ꮮ	-10.3747
▁ᏗᎦᏅᏌᏗ	-10.3749
▁ᏫᏗᎦ	-10.3757
▁ᎾᏋᏁᎸ	-10.3761
▁ᎤᎶᎩᎸᎢ	-10.3761
ᏁᎸᎾ	-10.3765
ᎵᏍᏕᎸᏙᏗ	-10.3766
▁ᎬᎾ	-10.377
ᏒᏃ	-10.379
▁ᏛᏂ	-10.3811
▁ᏱᏏ	-10.3813
▁ᎤᎬ	-10.3833
▁ᏙᎩᎾ	-10.3843
ᏅᏔ	-10.3846
▁ᎠᏋᎭ	-10.3856
▁ᎤᎴᏁ	-10.3861
▁ᏂᏕᎬᏁ	-10.3875
ᎲᏍᎪᎢ	-10.3881
▁ᎠᏟ	-10.3883
ᏥᎪᏩᏛ	-10.3886
ᏤᎵᎦ	-10.389
ᎰᎵ	-10.3891
▁ᏥᎪᎥ	-10.3892
▁ᎤᏥᎸᏒ	-10.3894
▁ᏣᏁ	-10.3924
▁ᏄᎵᏍᏔᏁᎮ	-10.394
▁ᎤᏚ	-10.396
▁ᎢᎯ	-10.3972
▁ᏰᎵᏍᎨ	-10.3976
ᏁᏃ	-10.3986
▁ᎤᎲᎢ	-10.399
▁ᏧᏬ	-10.3992
▁ᎠᏫᎾ	-10.4023
▁ᎣᎬ	-10.4028
▁ᎢᏣᏓᏅᏘ	-10.4032
ᎱᏍᏗ	-10.4033
ᏍᏔᎾ	-10.4039
ᏁᎮᎢ	-10.4055
ᎠᏈ	-10.4061
ᏛᏙᏗ	-10.4062
ᏍᏆᏙᏅ	-10.4064
ᎸᏉᏙᏗᏱ	-10.4072
▁ᏂᎬᏩ	-10.4076
▁ᏱᏙᎦ	-10.4089
▁ᎣᎩᏂ	-10.4091
ᎳᏓ	-10.4102
ᏒᏍᏗ	-10.4105
ᏍᏕᎵᎭ	-10.4124
▁ᎢᎬᏁ	-10.4137
ᏓᏅᏖᏗ	-10.414
ᏍᏓᏩᏗᏙᎯ	-10.4147
ᎾᏄᎪᏨᎯ	-10.4151
▁ᏓᏲ	-10.4154
▁ᏚᏂᏲ	-10.4158
ᏍᎦᎩ	-10.4162
ᏗᏍᎬᎾ	-10.417
ᎧᏅ	-10.4173
ᏏᏆ	-10.4177
ᏉᏍᎪ	-10.4178
ᎯᏫ	-10.418
▁ᎡᎦ	-10.4186
▁ᎤᎾᏛᎦᏁ	-10.4189
▁ᎦᏰᏥ	-10.4205
ᏇᏅ	-10.4205
▁ᎩᎳᎯ	-10.4217
▁Ꮂ	-10.4224
ᏰᏌᏛ	-10.425
▁ᎤᏍ	-10.4251
ᎪᎵᏰ	-10.4253
▁ᏱᏗᎦ	-10.4257
ᏂᏗ	-10.427
▁ᎡᏥᏁᏗ	-10.4271
▁Ꮉ	-10.4277
ᏕᏗ	-10.4287
ᏦᏅ	-10.4307
ᏍᏔᏱ	-10.4331
▁ᏥᏂᎦᏪ	-10.4334
ᏠᏍᏗ	-10.4337
ᏥᏩᏛᎲ	-10.4347
▁ᏱᏍᎩ	-10.4362
ᎪᎵᏰᏗ	-10.4362
▁ᏧᎾᎴᎯᏐ	-10.438
▁ᎠᏓᏅᏖᎵᏙ	-10.4384
ᎵᎢ	-10.4386
ᎦᏓᏁ	-10.4388
▁ᎠᏍᎪᎯᏃ	-10.4411
▁ᎾᎿᏉ	-10.4415
h	-10.4423
▁ᏫᏓᏂ	-10.4433
ᎠᏎ	-10.4438
ᎾᏄᎪᏫᏒᎯ	-10.4439
▁ᏄᏂᏪᏒ	-10.4448
▁ᎤᏂᎩᏒ	-10.4452
ᎢᏒ	-10.4458
▁ᎾᎬᏁᎸ	-10.446
ᎾᏄᎪᎢᏍᏗ	-10.4466
▁ᏥᏁ	-10.4468
▁ᏥᏁᎸ	-10.447
▁ᏓᏈ	-10.4475
▁ᎯᏰᎸ	-10.4476
▁ᏂᎦᎵᏍᏗᏍᎨ	-10.4476
▁ᎣᏓᏅᏛ	-10.4489
▁ᏥᏂ	-10.4492
▁ᎤᏲᎯᏍᏔᏁ	-10.4493
ᏓᏂ	-10.4495
ᏗᏂᏅᏌᏗ	-10.4496
ᏍᏆᏂᎪᏙᏗᏱ	-10.4496
ᎭᏕᏬ	-10.4498
▁ᏧᏴᏢ	-10.4499
▁ᎢᏣᏓᏡᎬ	-10.4502
▁ᎤᎾᎵᎮᎵᏤ	-10.4504
on	-10.4507
ᎨᎵᎠ	-10.4508
ᎠᎩᎾ	-10.451
ᎦᎸᎳᏗ	-10.451
ᎠᏕᎸ	-10.4512
▁ᎡᏙᎮ	-10.4514
▁ᏕᎤᎴᏔᏅ	-10.4514
▁ᏱᏓᏂ	-10.4516
ᎭᏲᎲ	-10.4516
ᏗᎦᏘᏯ	-10.4518
▁ᏧᏓᏅᏛ	-10.4519
▁ᎤᏪᏴ	-10.4527
ᎧᎵᏨᎯ	-10.4528
ᏠᎠᏏ	-10.4535
ᏲᎭ	-10.4538
ᏲᎯᏎᎸᎩ	-10.4539
▁ᏚᏂᎸᏫᏍᏓᏁᎸ	-10.4542
▁ᎠᏓᏁᏣᏍᏚᎶ	-10.4542
▁ᎤᏗᏞ	-10.4557
▁ᎢᏙᎻ	-10.4563
▁ᏏᏓᏁᎸ	-10.4563
▁ᏧᏂᎳᏫᎢᏍᏗ	-10.4569
▁ᎠᏲᎱᏒ	-10.457
▁ᏅᏲ	-10.4571
▁ᎠᏥᏍᏕᎸᏗ	-10.4571
▁ᏙᏧ	-10.4576
▁ᏣᎾᏫ	-10.4577
▁ᏥᏰ	-10.4587
▁ᎮᎵᎠ	-10.4587
▁ᎤᎾᏕᏅ	-10.4587
ᎭᏄᎸᎯ	-10.459
▁Philadelphia	-10.4592
▁ᏐᎵᎹᏅ	-10.4592
▁ᏕᎨᎦᏨᏍᏗᏍᎬ	-10.4592
▁ᏕᏦᎯᏳᏎᏍᏗ	-10.4592
▁ᏚᏍᏆᎸᏔᏁ	-10.4592
▁ᎬᏩᏠᏯᏍᏗ	-10.4592
▁ᏆᎳᏆ	-10.4592
▁ᎢᏦᎯᏳᎯ	-10.4592
▁ᏗᎦᏒᏍᏔᏅ	-10.4592
▁ᏚᏩᏂᎦᏢ	-10.4592
▁ᎤᏒᎯᏰᏱ	-10.4592
▁ᏀᎢᏳ	-10.4592
▁ᏇᏚᎡᎵ	-10.4592
▁ᎤᏣᎴᏓ	-10.4592
▁ᏚᏛᏛᏁ	-10.4592
▁ᏗᎾᏕᏲᎲᏍᎩ	-10.4592
▁ᏧᎴᎯᏌᏅᎯ	-10.4592
▁ᎨᏅᎢᏍᏗ	-10.4592
▁ᎤᏗᏔᎲ	-10.4592
▁ᎧᏂᎵᏯ	-10.4592
▁ᏚᎧᎿᏁ	-10.4592
▁ᏧᏴᏨ	-10.4592
▁ᎤᏬᏓᎸ	-10.4592
▁ᏓᏳᏂᎶᏒ	-10.4592
▁ᏧᏙᎢᏓ	-10.4592
▁ᎦᏣᏃᏍ	-10.4592
▁ᏗᎦᎸᏫᏍᏓᏁᎸᎯ	-10.4592
▁ᏅᏩᏙᎯ	-10.4592
▁ᎢᏧᎾᏓᎳ	-10.4592
▁ᎤᏄᎪᎢᏍᏗ	-10.4592
▁ᎠᏚᎸᏗ	-10.4592
▁ᎡᏅᏍᏗ	-10.4592
▁ᏧᏣᏲᏍ	-10.4592
▁ᎢᏥᏆᎵᏏ	-10.4592
▁ᏱᏣᏓᏅᏖᏗᏍᎨᏍᏗ	-10.4592
▁ᎤᏓᏑᏱ	-10.4592
▁ᏗᏥᎸᏫᏍᏓᏁᏗᏱ	-10.4593
▁ᎤᏓᏅᎵᏰᎥ	-10.4593
▁ᎡᏣᏂᎵ	-10.4593
▁ᏓᎵᏆ	-10.4593
▁ᎢᏗᏅᏁ	-10.4593
▁ᏗᎨᏥᎾᏝᎢ	-10.4593
▁ᎦᏓᎷᏯᏛ	-10.4593
▁ᎠᎾᏛᎩᏍᎩ	-10.4594
▁ᏗᎬᎪᏩᏛᏗ	-10.4594
▁ᎠᎩᎷᏥᎸ	-10.4594
▁ᎠᏍᏆᏚᎸ	-10.4594
▁ᎠᏂᎴᏴᏍᎩ	-10.4594
▁ᎪᏍᏗ	-10.4595
▁ᎤᎵᎬᎭᎷᏴ	-10.4595
ᎾᏙᏓᏆᏍᏗ	-10.4595
▁ᏱᎪᎵᎦ	-10.4595
▁ᎤᎾᏓᏓᏍᎬ	-10.4595
▁ᏗᏛᏓᏅᎯ	-10.4595
▁ᏚᏃᏢᏅᎩ	-10.4596
▁ᏗᎪᏑᎴᏗᏱ	-10.4596
▁ᏧᎴᏔᏅᎯ	-10.4596
▁ᎾᏯᏛᎡᏍᏗ	-10.4596
▁ᎬᏩᏲᎱᎯᏍᏗ	-10.4596
▁ᏧᏓᎴᏅᎲ	-10.4597
▁ᎬᏆᏛᏁᏗᏱ	-10.4597
▁ᎠᏄᎦᎸ	-10.4597
▁ᏥᎣᎵ	-10.4597
▁ᎥᏥᎪᎥᎩ	-10.4598
▁ᏂᏥᎦᏔᎲᎾ	-10.4598
▁ᎠᏓᏍᏓᏩᏗᏙᎯ	-10.4598
ᏛᏅᎢᏍᏙᏗᏱ	-10.4598
▁ᎤᏓᎴᏨ	-10.4598
▁ᎤᏕᏁᎢ	-10.4598
▁ᎤᎾᎵᏗᎩᏛ	-10.4599
▁ᎤᏬᏪᎳᏅᎯ	-10.4599
▁ᎠᏓᏪᎳᎩᏍᎬ	-10.4599
ᎳᏏᏕᎾ	-10.46
ᎤᏅᏓᏕ	-10.46
▁ᎠᎹᎴᎩ	-10.46
▁ᏚᎷᏫᏍᏔᏁᎲ	-10.46
▁ᎤᏂᎪᎮ	-10.4601
▁ᎢᎩᏅᏟ	-10.4601
▁ᏍᎩᎾᏝᎢ	-10.4601
▁ᎤᎵᏨᏓᏆᏓ	-10.4602
▁ᎢᏧᏕᏘᏴᏛ	-10.4602
▁ᎤᎬᏫᏳᏎᏍᏗ	-10.4602
▁ᏔᎸᏗ	-10.4602
▁ᎤᎶᎯᏍᏗ	-10.4603
▁ᎢᎠ	-10.4603
▁ᏧᎾᏄᏩᎢ	-10.4604
▁ᎾᏁᎲᎾ	-10.4605
▁ᎠᎵᎮᎵᎬ	-10.4606
▁ᎠᏁᏙᎭ	-10.4606
▁ᎤᎧᎭᏛ	-10.4607
▁ᎠᎩᏰᎸᎲ	-10.4607
▁ᎠᏨᏍᏛ	-10.4607
▁ᎤᎴᏫᏍᏔᏁ	-10.4608
▁ᎠᎵᏥᏙᎲᏍᎨ	-10.4608
▁ᏭᏂᏴᎴᎢ	-10.4608
▁ᎤᏂᏰᎸᏒᎩ	-10.4609
ᏥᎯᏍᏗ	-10.4609
▁ᎦᏅᏙᏗ	-10.461
▁ᏧᏬᎸ	-10.4611
▁ᎡᏙᎭ	-10.4613
▁ᎠᏴᏤᏂ	-10.4614
▁ᎧᏃᎩᏍᏗ	-10.4615
▁ᎨᏥᏁᎸᎯ	-10.4615
▁ᎥᎩᏙᏉ	-10.4616
ᎦᏃᎱᎩᏍᎬ	-10.4618
▁ᎤᎾᏗᏅᏗ	-10.4618
▁ᎤᏅᏙᏗᏱ	-10.4619
▁ᏭᏂᎶᏒᎩ	-10.462
▁ᏗᏂᎦᏘᏯ	-10.4621
▁ᎤᏪᎧᏅᎩ	-10.4621
▁ᏥᏍᎪᎵ	-10.4625
▁ᏄᏂᏪᏎᎸᎩ	-10.4625
▁ᎢᏳᏓᎵᎭ	-10.4626
▁ᎾᏍᎦᎢᎲᎾ	-10.4627
▁ᏯᏗᎭ	-10.4627
▁ᎾᏂᎡᎢ	-10.4628
▁ᎠᎧᎵᏬᎯ	-10.4628
▁ᎤᏨᏉᏗ	-10.4629
▁ᎤᏙᏓᏆᏓ	-10.463
ᎡᎴᎢ	-10.4634
▁ᎠᏓᎴᏂᏍᎬ	-10.4635
▁ᏗᎦᎵᏍᏙᏗᎭ	-10.4636
▁ᎤᏕᏗᏱ	-10.4637
▁ᎠᏟᏍᏛᎢ	-10.4637
▁ᎤᏯᏅᎯ	-10.4637
▁ᎠᏯᎥ	-10.4637
▁ᎡᎮᎾ	-10.4638
▁ᏗᏟᏍᏗ	-10.4639
▁ᎤᏪᏁᎢ	-10.464
▁ᏐᏓᎻᏱ	-10.464
▁ᎢᎩᏁᎸᎯ	-10.4642
ᎶᎯᏍᏗᏱ	-10.4643
ᏢᏅ	-10.4646
▁ᎤᏰᎸᎭ	-10.4648
▁ᏗᏐᎢ	-10.4648
▁ᏍᏓᏱ	-10.4652
▁ᏣᏚᎵᎭ	-10.4653
▁ᏱᎾ	-10.4658
▁ᏫᎦᎶᎯᏍᏗ	-10.4658
▁ᏯᎩᎭ	-10.4658
▁ᏍᎩᎨᏳ	-10.4658
▁ᏧᏂᎵ	-10.4661
▁ᎢᎦᏁᎳᏅᎯ	-10.4664
▁ᏧᏁᎳ	-10.4664
▁ᏓᏳᏓᎴᏅᏓ	-10.4664
▁ᏙᏥ	-10.4664
ᏰᏂ	-10.4665
▁ᎦᏁᏌᎢᎯ	-10.4669
ᏗᏍᎪᏂᎯ	-10.4675
▁ᏥᎨᏥ	-10.4676
▁ᎤᎵᏏᏂ	-10.4676
▁ᏚᏂᎸᏫᏍᏓᏁᎸᎢ	-10.4677
▁ᎡᏙᎮᎢ	-10.4678
▁ᎭᎾᏂ	-10.4681
▁ᎢᏯᎬᏁᏗ	-10.4682
▁ᎤᎾᏛᎦᏁᎢ	-10.4684
ᏅᏍᏗᏱ	-10.4685
▁ᎤᏩᏛᎮᎢ	-10.4686
▁ᎦᏗ	-10.4686
▁ᎢᏗᎦᏪᏍ	-10.4686
▁ᎤᏎᎵᏔᏅ	-10.4692
ᎩᎡᎸ	-10.4692
▁ᎠᏒᎭ	-10.4702
▁ᏭᎷᏨᎩ	-10.4703
▁ᎦᏄᎸᏒ	-10.4707
▁ᎡᎵᏍᎨᎢ	-10.471
ᎸᏓ	-10.4716
▁ᎥᎵ	-10.4717
▁ᎤᏍᏉᏟ	-10.4724
▁ᎤᏃᎮᎴ	-10.4724
▁ᎬᏙᏗᏱ	-10.4725
▁ᎤᏓᏅᏖᎸᎢ	-10.4725
ᏁᎶᏗ	-10.4729
▁ᎤᏯᎢ	-10.473
▁ᏏᎦ	-10.4732
▁ᎢᏌ	-10.4733
▁ᏕᏥᎸᏫᏍᏓᏁᎲᎢ	-10.4737
▁ᏗᏍᎩ	-10.4742
▁ᎤᏓᏅᏛᎢ	-10.4744
ᏍᏕᎸᎯ	-10.4747
ᏍᏕᎵᏍᎬ	-10.4747
▁ᏄᎳ	-10.4748
▁ᎢᏦ	-10.4749
▁ᎠᏑ	-10.475
ᎥᏍᎨᏍᏗ	-10.4751
▁ᎤᏓᏅᏎᎢ	-10.4752
▁ᏚᏁᎴᎢ	-10.4767
▁ᎾᎾᏛᏁᎲᎢ	-10.4768
▁ᏗᏟ	-10.477
▁ᎢᏦᎯᏳᏒᎢ	-10.4779
▁ᎤᏯᏅᏒ	-10.4786
▁ᎡᎵᎩ	-10.4791
▁ᎦᏓᏅᏖᏍᎬᎢ	-10.4797
▁ᏗᎬᏗ	-10.48
▁ᏗᎬᏩᏓᏂᎸᎢᏍ	-10.4804
▁ᏧᎵᏏ	-10.4804
ᎳᏏ	-10.4805
▁ᏦᎾ	-10.4805
▁ᎤᏲᎴ	-10.482
▁ᎠᏍᎦᎾᎢ	-10.4821
▁ᎡᎲᎩ	-10.4821
▁ᏚᏁᏤᎴᎢ	-10.4825
ᎳᏅ	-10.4828
▁Ꮝ	-10.4828
ᎳᏁᎢ	-10.4835
ᏍᏛᏱ	-10.4843
ᎦᏨ	-10.485
▁ᏅᏗ	-10.4859
▁ᎠᎦᏘᏰ	-10.486
▁ᎠᎾᏗᏍᎪ	-10.4866
ᎪᎵᏰᎡ	-10.487
▁ᎦᏯ	-10.4873
▁ᏅᏓᏳᎾᎵᏍᎪᎸᏔ	-10.4874
▁ᏧᎾᏄᎪᏫᏎᏗ	-10.4875
▁ᎤᏪᏅᏎᎢ	-10.4878
▁ᎠᏍᏛᎢ	-10.4896
▁ᎪᏍᏔ	-10.4914
▁ᏗᏂᏩᎾᎦᎳ	-10.4923
▁ᎤᎾᏄᎪᏫᏒ	-10.4924
ᏁᏤᎵ	-10.4925
▁ᎤᎪᎲᎩ	-10.4928
▁ᎤᏁᎳ	-10.4928
▁ᎤᏅᏅ	-10.4946
▁ᎠᏓᏅᏖᏍᎬᎢ	-10.4949
▁ᎤᏪᎷᏁᎢ	-10.496
ᏲᎰᏎᎸ	-10.4966
▁ᎤᎵᏍᏚᎢ	-10.4973
▁ᏇᎵᏥ	-10.4978
ᎢᎦ	-10.5001
▁ᎤᎾᏙᏓᏆᏍᎬᎢ	-10.502
▁ᎠᏂᏤ	-10.5022
▁ᏗᏂᏃ	-10.5024
▁ᎠᏲᎱᏍ	-10.5025
▁ᎠᏆᏓᏅᏖᏗ	-10.5037
▁ᎤᎾᎩᎸ	-10.5043
▁ᎠᏥᏁᎸ	-10.5044
ᏬᎥ	-10.5045
▁ᎤᏍᎪ	-10.5052
▁ᏅᏗᎦᎵᏍᏙᏗᏍᎨᎢ	-10.5055
▁ᎦᏚᏱ	-10.5071
ᎥᎦ	-10.5094
ᏓᏁᏟᏴᏛ	-10.5102
ᏂᏫ	-10.5104
▁ᎤᏂᏩᏛᏗ	-10.5112
▁ᎢᏣᎵ	-10.5137
▁ᎠᏋ	-10.5145
▁ᏗᎲ	-10.5154
ᏂᏯ	-10.5156
ᎦᏙᎥᎯᏍᏗᏱ	-10.517
ᏍᏆᏂᎪᏕᏍᏗ	-10.5173
▁ᏙᏘ	-10.518
▁ᎤᏂᏴᎸ	-10.5183
▁ᏂᎦᎵᏍᏙᏗᏍᎨ	-10.5186
ᎣᎢ	-10.5191
▁ᎤᎾᏄᎪᏫᏎ	-10.5199
▁ᎠᎦᏕ	-10.5209
▁ᏚᏓ	-10.5215
ᎷᎩ	-10.5234
▁ᎤᏂᏴ	-10.524
ᏂᏙᎯ	-10.5247
▁ᏕᎫ	-10.5259
▁ᎤᎵᎮᎵᏤ	-10.5268
▁Ꮺ	-10.5268
ᏛᏔᏂ	-10.5271
▁ᎢᏥᎩᏍᏗ	-10.5293
ᏃᎮᏍᎬᎢ	-10.5295
ᎢᏴ	-10.5296
▁ᏧᎴ	-10.5299
ᏅᏓᏛ	-10.5306
ᏟᎶᏍᏙᏗ	-10.5307
▁ᎠᎨ	-10.5318
ᏛᏁᏗᏱ	-10.5324
▁ᎾᎦᏛ	-10.5348
▁ᏙᎯᏳ	-10.5369
ᏛᏁᎵ	-10.5382
▁ᎬᏗᎭ	-10.5385
▁ᏂᏨ	-10.5388
ᎵᏍᎬ	-10.539
ᏓᎳ	-10.5403
▁ᏗᏨᏂᏗ	-10.5406
ᏎᎸᎩ	-10.5412
ᏍᎦᏰᎬᏍᏓ	-10.5413
▁ᎤᏥᏃ	-10.5413
▁ᎡᏣᎫᏴ	-10.5414
Ꮽ	-10.5416
▁ᏙᏓᏣ	-10.5418
ᎴᎾ	-10.5418
▁ᏛᎩ	-10.5433
ᏍᏖ	-10.5443
▁ᎭᏓ	-10.5467
▁ᎢᏥᎲ	-10.5471
ᎯᏯ	-10.5482
▁ᏚᏯᏪ	-10.5483
▁ᏂᏛ	-10.5487
Ꮛ	-10.5489
▁Ꮏ	-10.5489
▁ᎤᏁᎴ	-10.549
▁ᎡᎳᏪᏱ	-10.5495
▁ᎢᏍᏓ	-10.5496
ᎾᏝᎠ	-10.5505
ᏙᎴ	-10.5506
ᏪᏒ	-10.5506
▁ᎦᏅᎨ	-10.5507
ᎮᏃ	-10.5509
▁ᏱᏫ	-10.5542
ᎨᏍᏗᏗ	-10.5544
ᏅᏖ	-10.5545
▁ᏚᏙ	-10.555
ᎨᏛ	-10.5552
▁ᏕᏨ	-10.5552
ᏣᎵ	-10.5559
ᏅᎵ	-10.5563
▁ᏨᏗ	-10.557
ᏘᏰ	-10.5573
ᏲᎵ	-10.5574
▁ᎠᏗᏍᎬ	-10.5576
▁ᎤᏂᎦᏙᎥᏒ	-10.5578
▁Ꮮ	-10.5586
▁ᏦᏥ	-10.5589
ᏙᎵᏨ	-10.5596
ᎬᏫᏳᎯ	-10.5597
ᎵᏓ	-10.56
▁ᎤᎧᏔ	-10.56
▁ᎠᏢ	-10.56
▁ᏂᎯᏍᎪ	-10.5603
▁ᏣᏆ	-10.5608
▁ᏂᎯᎾ	-10.5608
ᏘᏲᏍᏗ	-10.561
▁ᎦᏣᏄᎵ	-10.5628
▁ᎤᎦᏛ	-10.5641
ᏁᏎᎢ	-10.5641
ᏯᎥᎢ	-10.5647
ᎴᏅᏛ	-10.5649
▁ᎢᏣᏚᎵ	-10.5654
ᏍᏔᏅᎭ	-10.5655
▁ᏕᏣᎧ	-10.5686
▁ᏂᏚᏪᏎᎸ	-10.5703
ᏠᏨ	-10.5705
▁ᏧᎳᏑᎶ	-10.5715
▁ᎦᎶ	-10.5715
ᏦᏁ	-10.5723
▁ᏳᏫ	-10.5725
ᏙᎬ	-10.5734
▁ᏓᎵᏍᏗᎳᏁᎬ	-10.5737
▁ᏙᏓᏆᏍᎬ	-10.5747
▁ᎤᏁᎵᏎ	-10.5748
▁ᏗᎦᏅᏬ	-10.5748
▁ᎤᏬᎴ	-10.5751
▁ᎢᏕᎲ	-10.5752
▁ᏓᏂᎳᏫᎥ	-10.5755
▁ᏗᏥᎦᏴᎵᎨ	-10.5755
▁ᏓᏟᎶᏍᏛ	-10.5755
ᎶᏐᏅ	-10.5756
▁ᎤᏗᏛᎮ	-10.5756
ᏥᎨᏳᎢ	-10.5758
▁ᎢᎩᏍᎦᏅᏨ	-10.5758
▁ᎤᏬᏎᎴ	-10.5758
▁ᎧᎸᎬ	-10.5759
r	-10.5762
▁ᎠᏂᏙᎾᎡ	-10.5762
▁ᎤᏚᎢᏍᏔᏅ	-10.5762
▁ᏚᎴᎯᏌᏅ	-10.5766
▁ᎤᏪᎧᏁᎴ	-10.5767
▁ᎠᏂᎦᏴᎵᎨ	-10.5773
▁ᏓᏂᎧᏅ	-10.5775
ᏕᎬ	-10.5776
▁ᏧᎦᏴᎵᎨ	-10.5778
ᎠᎹ	-10.5778
▁ᎡᎵᏍᎬ	-10.5783
ᎵᏬᏨ	-10.5786
ᏁᏨ	-10.5786
▁ᎦᎢᏒ	-10.5788
ᎬᏫᏳᏌᏕᎩ	-10.5788
ᏲᎪ	-10.5788
ᏟᏂᎩᏓ	-10.5794
ᎾᏉ	-10.5795
▁ᎪᏍᏓ	-10.5797
ᎤᏍᏆᏂᎩᏗ	-10.5798
▁ᏚᏁᏤᎸ	-10.5799
▁ᎦᏆᏘ	-10.5799
ᎧᎵᏬᎯ	-10.5801
▁ᎭᏗ	-10.5801
ᏴᎵ	-10.5806
ᎤᏙᎯᏳᎯ	-10.5807
ᏛᏁᎲ	-10.5808
▁ᎠᏁᎮ	-10.581
▁ᎪᏢᏔᏅ	-10.5811
ᏂᎦᏓ	-10.5813
ᏅᎪᏤ	-10.5813
▁ᏤᏅᏍᏗ	-10.5816
▁ᎠᏓᎨᏗ	-10.5816
▁ᎤᏩᏛᎮ	-10.5816
▁ᏚᎷᏫᏍᏔᏁ	-10.5818
▁ᎤᏂᏍᏆᏂᎪᏙᏗ	-10.5819
▁ᎪᎹᎵ	-10.5819
ᎸᏫᏍᏓᏁᏗ	-10.5823
▁ᎢᏥᏍᏆᏂᎪᏙᏗ	-10.5823
ᏔᏲᏎᎸᎩ	-10.5825
ᎴᎯᏌᏅ	-10.5827
▁ᎢᏳᏅᏁᏗ	-10.5828
▁ᎨᏥᏁᏗ	-10.5831
▁ᎤᎾᏅᏗ	-10.5833
▁ᎠᏕ	-10.5833
▁ᎯᎠᏉ	-10.5834
▁ᎤᏰᎸᏎ	-10.5836
ᎡᎵᏍᏗ	-10.5838
ᏴᏐᎵ	-10.5838
ᎾᏓᎴᎩ	-10.5841
▁ᎡᏉᏄᎶᏗ	-10.5842
▁ᎤᏂᏚᏯᏍᏗ	-10.5842
▁ᎤᏓᏏᏂᏕᎾ	-10.5842
▁ᎾᏂᎳᏍᏓᎸ	-10.5842
▁ᏅᏓᎬᏴᏁᎵ	-10.5842
▁ᏈᏯᏏᏆ	-10.5842
▁ᏗᎾᏙᏂᏍᎩ	-10.5842
▁ᏦᎩᎸᏫᏍᏓᏁᎯ	-10.5842
ᎦᏌᏯᏍᏕᏍᏗ	-10.5842
▁ᎠᏣᏪᏐᎸᏍᏙᏗᏱ	-10.5842
▁ᎤᏓᏛᏛᏁ	-10.5842
▁ᎦᎵᏦᏙᏙᏗ	-10.5842
▁ᏆᎻᏆᏂ	-10.5842
▁ᎢᏰᏆ	-10.5842
▁ᏗᎧᏁᎢᏍᏗ	-10.5842
▁ᎯᎧᏅᎭ	-10.5842
▁ᎯᎦᏙᎵ	-10.5842
▁ᏂᏚᎾᏓᏪᏎᎸᎩ	-10.5842
▁ᏫᏂᎦᎵᏍᏙᏓ	-10.5842
▁ᎤᏪᏲᏓᏛ	-10.5842
▁ᎦᏅᏃᏩ	-10.5842
▁ᏗᏉᏰᏂ	-10.5842
▁ᎠᏂᏙᎾᎢ	-10.5842
▁ᏧᏁᎿᎢ	-10.5842
▁ᏧᏩᏂᎦᏝᏅ	-10.5842
▁ᏄᏬᎯᏳᏒᎾ	-10.5842
▁ᏧᏃᏚᎯ	-10.5842
▁ᏗᏆᎳᏏᏕᏂ	-10.5842
▁ᏅᏓᎪᎯᏥ	-10.5842
▁ᏅᏃᎱᎶᏗ	-10.5842
▁ᎤᏢᏉᏗ	-10.5842
▁ᎢᎳᏏᏗ	-10.5842
▁ᏧᎾᏓᏍᏚᏗ	-10.5842
▁ᏕᏥᏲᎵᎸᎭ	-10.5842
▁ᎦᏣᏄᎸ	-10.5842
▁ᎬᏩᏕᏁᎸᎯ	-10.5842
▁ᏗᎦᏃᏣᏟ	-10.5842
▁ᎤᏪᏚᎲ	-10.5842
▁ᎤᏬᏞ	-10.5842
▁ᏱᏄᎵᏍᏔᏅ	-10.5842
▁ᎪᏒᏔᏅ	-10.5842
▁ᎤᏂᎸᏉᏔᏁ	-10.5842
▁ᎤᏂᎬᎥᏍᎩ	-10.5843
▁ᏅᏓᏳᏓᎴᏅᏛ	-10.5843
ᏍᎦᎣᏅ	-10.5843
▁ᏱᏤᎵᎯᏍᎨᏍᏗ	-10.5843
▁ᎰᏪᎸᎦ	-10.5843
▁ᏓᎩᏯᏪᎦ	-10.5843
▁ᏧᏓᏘᎾᎢ	-10.5843
▁ᎦᏯᎴᏍᏗ	-10.5843
▁ᎢᎬᏪᏅᏛ	-10.5843
▁ᏗᎧᏂᎨ	-10.5843
▁ᎤᎾᏓᏑᏰᏛ	-10.5843
▁ᎢᏨᏍᏗᏰᏗᎭ	-10.5843
▁ᎥᎩᏅᏟ	-10.5844
▁ᏂᏚᏅᏏᏴ	-10.5844
▁ᎬᏩᏓᏍᏕᎸᏗ	-10.5845
▁ᏧᏃᏩ	-10.5845
▁ᏗᏁᏙᎲ	-10.5845
▁ᏕᎪᏢᏩᏗᏒ	-10.5845
▁ᏄᏠᎾᏍᏛᎾ	-10.5845
▁ᎠᏂᎾᏁᏍᎬ	-10.5845
▁ᎢᎧᏁᎢᏍᏗ	-10.5845
ᎳᎩᏒ	-10.5845
▁ᏗᎩᏅᏒ	-10.5845
▁ᎠᏆᏓᎵᎢ	-10.5845
▁ᏄᏂᎲᎾ	-10.5845
▁ᏌᏈ	-10.5846
▁ᎠᏂᏯᎢ	-10.5846
▁ᎤᏂᏑᎸᏓ	-10.5846
▁ᎲᏗᏍᎨᏍᏗ	-10.5846
▁ᎿᏛᎦ	-10.5846
▁ᎤᏍᏗᎩᏛ	-10.5846
▁ᎦᏌᎴᏂ	-10.5846
▁ᎡᏣᎸᏉᏗᏳ	-10.5846
▁ᎢᏥᏪᏍᏗᏱ	-10.5846
▁ᎠᏆᎵᏍᏓᏴᏗ	-10.5847
▁ᎠᎹᏳᎶᏗ	-10.5847
▁ᎤᏕᎶᎰᏒ	-10.5847
▁ᏗᎫᎪᏗᏍᎩ	-10.5847
▁ᎠᏁᏢᏔᏅᎯ	-10.5848
▁ᏙᏗᏣᏓᏅᏛᎢ	-10.5848
▁ᏫᎨᏥᏲᎵᎭ	-10.5848
▁ᏓᎭᏃᏫ	-10.5848
▁ᏚᏦᎯᏍᏛ	-10.5848
▁ᎡᏃᏱ	-10.5849
▁ᎠᎾᏓᏙᎵᏍᏓᏁᎯ	-10.5849
▁ᎬᏁᏍᏗ	-10.5849
▁ᏚᎦᏌᏛ	-10.5849
▁ᎤᎩᎵᏲᏨ	-10.5849
ᎿᏕᎩ	-10.5849
▁ᎦᎵᎡᎵᎦ	-10.585
▁ᏧᏙᏓᏆᏛ	-10.585
▁ᎠᎬᏓᎨᏂ	-10.585
▁ᎯᏬᏂᏍᎬ	-10.5851
▁ᏗᏓᏬᏍᏗ	-10.5851
▁ᎠᏯᏖᎾ	-10.5851
▁ᎤᏃᏍᏛ	-10.5851
▁ᎤᏂᎵᏦᏩᏛ	-10.5852
▁ᏱᏍᎦᎢᎮᏍᏗ	-10.5852
▁ᎠᎬᎭᎸᏛ	-10.5852
▁ᏓᎬᏁᎵ	-10.5852
▁ᎤᎾᏛᏁᎸᏗ	-10.5853
▁ᏥᏅᏗᎦᎵᏍᏙᏗᎭ	-10.5853
▁ᎤᏂᏍᏆᏂᎪᏒᎩ	-10.5853
▁ᎤᏛᏅᎢᏍᏔᏁ	-10.5853
▁ᏚᏭ	-10.5853
▁ᎤᏘᏴᎯ	-10.5854
▁ᎤᎭᎸᏂᎯ	-10.5854
▁ᎠᎦᎸᏓ	-10.5854
▁ᎠᎦᏙᎵ	-10.5854
▁ᎬᏩᏃᏁᎴ	-10.5854
▁ᎠᎪᏎᎮᏍᏗ	-10.5856
▁ᎠᏂᏥᎸᏍᎩ	-10.5856
▁ᎢᎪᎯ	-10.5856
▁ᎹᎾ	-10.5858
▁ᎩᎾᎵᎢ	-10.5859
▁ᏅᏓᏰ	-10.5859
▁ᏓᏆᎧᎾᏅ	-10.586
ᏕᎦ	-10.586
ᏳᏍᏗ	-10.586
▁ᎠᎪᏔᏅᎯ	-10.586
▁ᎦᏟᏓ	-10.5861
▁ᎮᏂᎵ	-10.5861
▁ᏫᏚᎾ	-10.5861
▁ᎠᏓᏰᎨᏍᏗ	-10.5861
▁ᏂᏨᎦ	-10.5862
▁ᎢᏥᏁᏍᏗ	-10.5862
▁ᎤᏃᎯᏳᏗᏱ	-10.5862
▁ᎠᏥᏅᏏᏛ	-10.5864
▁ᏕᎬᏗᏍᎬ	-10.5864
▁ᎠᎴᏂᏍᎩ	-10.5866
▁ᏧᎾᏄᎪᏫᏒᎯ	-10.5867
▁ᎭᏂᏣ	-10.5868
ᎳᏚ	-10.5869
▁ᎤᏂᏩᏛᎮ	-10.5869
▁ᎠᏂᏴᎩ	-10.587
▁ᏄᎾᎵᏍᏓᏁᎸ	-10.587
▁ᎤᏰᏨ	-10.587
▁ᎤᏂᏗ	-10.587
▁ᏕᎧᏁᏤ	-10.5871
ᎲᏍᎬᎾ	-10.5872
ᏯᏅᎲᎩ	-10.5872
▁ᎤᎾᎦᏙᏍᏕᎢ	-10.5872
▁ᎤᏂᏁᎬ	-10.5874
▁ᎩᎳᏊ	-10.5874
ᏰᎢᎵᏓᏍᏗ	-10.5875
▁ᏗᎵᏍᎪᎸᏓᏁᎸᎯ	-10.5875
▁ᎠᏲᏙᏗ	-10.5876
.)	-10.5877
ᏃᎴ	-10.588
▁ᎤᎾᏕᏗᏱ	-10.588
▁ᎠᏂᎯᏗ	-10.588
▁ᏣᎨ	-10.5882
▁ᏄᏛᏅᎢ	-10.5888
▁ᏬᎩᎷᏨᎩ	-10.5889
▁ᎤᏗᏗᏢ	-10.5889
▁ᎤᏡᏗᏍᎩ	-10.5889
▁ᎠᎪᎵᏰᏗ	-10.5891
▁ᎤᎾᏅᏅ	-10.5894
▁ᎠᎬᏗᏍᎬᎢ	-10.5894
▁ᎤᏂᎩᏍᏗᏱ	-10.5894
▁ᏮᏛ	-10.5895
▁ᏗᏥᎾᏫᏱ	-10.5897
▁ᎠᏂᎩᏍᎬ	-10.5898
▁ᎦᏟᎮ	-10.5898
▁ᎤᏪᏅᎩ	-10.5899
▁ᏧᏁᏤᎢ	-10.5901
▁ᎤᎵᏍᏆ	-10.5901
▁ᏗᏧ	-10.5902
ᏯᏔᎮᏍᏗ	-10.5905
▁ᏙᏓᎨ	-10.5908
ᏲᎾ	-10.591
▁ᏗᏁᎯ	-10.5911
ᏁᏆ	-10.5911
▁ᎠᎯᏓ	-10.5912
▁ᎤᎵᏍᏆᏛ	-10.5914
▁ᏓᏍᏛᎢ	-10.5914
▁ᏎᏉ	-10.5915
▁ᎤᏌᎯᎸᎢ	-10.5915
▁ᎦᏰᏫᏍ	-10.5917
▁ᏲᎦ	-10.5919
▁ᎠᎵᎮᎵᎨ	-10.5922
ᏎᎭ	-10.5927
▁ᎢᎩᏍᎦᏅᏨᎢ	-10.5929
▁ᎤᏂᏁᏨᎩ	-10.5929
▁ᏕᏥᏁᎸ	-10.5932
▁ᎤᎾᏓᏅᏎ	-10.5933
▁ᎾᏆᏍᏛ	-10.5936
ᎤᏲ	-10.594
▁ᎤᎴᏅᎩ	-10.5942
▁ᎦᏓᏍᎬᎢ	-10.5943
▁ᏗᎪᏢ	-10.5943
▁ᎠᏓᎯᎯ	-10.5946
▁ᎦᏁᏟᏴᏍᏗ	-10.5951
ᎧᎭ	-10.5958
▁ᎠᏥᏛᏙᏗ	-10.5959
▁ᏚᏩᏛᎮ	-10.5962
▁ᏅᎵᏌᎵᏉ	-10.5969
▁ᏓᏤᎸ	-10.5969
▁ᎪᏛ	-10.5972
ᎦᏯ	-10.5977
▁ᎤᏤᎸ	-10.5978
▁ᎤᏬᎯᏳ	-10.598
▁ᎤᏂᎩᏎᎢ	-10.5981
ᎴᏃ	-10.5982
▁ᎤᏚᎸᎲ	-10.5983
▁ᎤᏂᎪᎲᎯ	-10.5984
ᎿᎢ	-10.5985
ᎦᏔᎲ	-10.5986
▁ᎬᎨᏳᎢ	-10.599
▁ᏗᎨᏣ	-10.5993
ᏕᏯᏙᏔᏅᎩ	-10.5996
▁ᎣᏒ	-10.5996
▁ᏱᏂᎬ	-10.6001
▁ᎤᏬᏢᏅᎢ	-10.6003
▁ᏮᏓ	-10.6003
ᎸᏉᏛᎾ	-10.6005
▁ᏏᎳ	-10.601
▁ᏣᎪ	-10.6017
ᏔᏲᏍᏗ	-10.6017
▁ᎠᎵᏍᏆᏗᏍ	-10.6017
▁ᎮᏓ	-10.602
ᏇᎵ	-10.6021
▁ᎪᏪᎸᎩ	-10.6036
ᏐᏉ	-10.6041
▁ᏝᎨ	-10.6049
▁ᎦᎬᏩ	-10.605
▁ᏥᎳ	-10.6051
ᏄᎪ	-10.6063
ᏞᏍᏗ	-10.607
ᏁᎰ	-10.6073
▁ᎤᏩᏔᏅ	-10.6074
▁ᎦᏅᏅᎢ	-10.6084
▁ᏴᎦᎦ	-10.6085
ᎠᏆ	-10.6086
ᎧᏏ	-10.6087
▁ᏂᏚᎩᏨᏂᏒᎢ	-10.6087
▁ᏄᏓᎴᎯ	-10.6104
▁ᎤᏬᎸᎢ	-10.6105
▁ᎡᏍᎦᏂ	-10.6109
ᏍᎬᏏ	-10.6117
▁ᎠᏓᏙᎵᏍᏙᏗ	-10.612
ᏔᏂᏓ	-10.6126
ᏃᎮᎸ	-10.6127
▁ᎵᏏ	-10.6129
▁ᎤᏍᏆᎸ	-10.6144
ᏙᎵᎩ	-10.6145
▁ᎮᎯ	-10.6145
▁ᏍᎩᏍᏕᎸ	-10.6147
ᎩᏍᎬ	-10.6148
ᏴᎩ	-10.6152
ᏎᎸᎯ	-10.6153
▁ᎠᏂᏍᎦᎾᎢ	-10.6157
▁ᏄᏍᏕᎢ	-10.6157
ᎦᎹ	-10.616
ᏦᏰᏂ	-10.6166
▁ᏅᏩᏍᏛ	-10.6168
▁ᎤᎾᏛᎦᏅᎩ	-10.6171
▁ᏥᏅ	-10.6171
ᏓᏴᎳᏛ	-10.6174
▁ᎤᏁᏤᎸᎢ	-10.6175
▁ᎤᎦᏃ	-10.6177
ᎫᏩ	-10.6177
▁ᎾᏍ	-10.6182
▁ᎥᏣ	-10.6186
▁ᎲᎦ	-10.6192
ᎩᏍᏗᏱ	-10.6192
ᏍᏚᎢᏒ	-10.6207
▁ᏕᎨᏥ	-10.621
▁ᏓᎶᏂᎨᎢ	-10.6213
ss	-10.6219
▁ᏓᎦᏥ	-10.6226
▁ᎤᏁᏒ	-10.6226
▁ᎠᎩᎸᏉᏗ	-10.623
ᎷᏤ	-10.6232
ᏍᏙᏗᏱ	-10.6248
ᏣᏁ	-10.6254
ᏦᏩᏛ	-10.626
▁ᎢᏣᏟᏂᎬᏁ	-10.6264
ᎵᏍᏔᏁ	-10.6269
▁ᎤᏙᏳ	-10.6269
ᏒᎲᏍᏗ	-10.6273
▁ᎠᎦᏅ	-10.6273
ᎬᎾᎨ	-10.6277
ᏢᏅᎯ	-10.628
▁ᏙᏓᎬ	-10.6281
▁ᏆᎾ	-10.6282
▁ᎤᏩᏁ	-10.6283
▁ᏚᏬ	-10.6288
▁ᎢᏥᎩ	-10.6291
▁ᎬᏩᏍᏓᏩᏗ	-10.6299
▁...	-10.6308
▁ᎠᎦᏙ	-10.6315
ᏂᏴ	-10.6329
▁ᎠᏂᏔᎵᎭ	-10.6345
▁ᎾᏕᏘᏴ	-10.6347
▁ᎢᎸ	-10.6351
ᎶᏏ	-10.6356
ᏥᎶᏏ	-10.6362
ᏁᎲᎩ	-10.6378
ᏅᏃ	-10.6381
ᏓᏁᎮᏍᏗ	-10.6386
▁ᎤᏂᎷᏤᎸ	-10.6387
▁ᏓᏂᎸ	-10.6388
ᏘᏃᎮᎸᎩ	-10.6393
ᏏᏗ	-10.6405
▁ᎤᏬᏂᎯᏍᏗ	-10.6409
ᏓᏅᏖᎴ	-10.641
ᎵᎹ	-10.6413
ᏥᏃᎮᏍᎩ	-10.642
▁ᎯᏁᎸ	-10.6426
▁ᎠᎩᏰᎸᏅ	-10.643
▁ᏙᏉ	-10.6432
ᏍᏓᏁ	-10.6447
ᏁᏅ	-10.6449
ᎾᎵ	-10.6452
ᏗᏍᏔᏁ	-10.6455
ᎾᏩ	-10.6456
ᏏᎾᏌᏂ	-10.6476
ᏍᏚᏗ	-10.6477
ᏦᏢᏙᏗ	-10.6478
▁ᏲᏥ	-10.6482
ᏚᎬ	-10.6482
ᏬᏂᏍᎬ	-10.6487
ᏗᏯ	-10.6521
ᏍᏛᎢ	-10.6523
▁ᎤᏪᏅᏎᏃ	-10.6531
▁ᎠᏌ	-10.6537
ᎯᏳᎲᏍᎦ	-10.6538
▁ᎠᎦᏔᎮ	-10.6557
▁ᎬᏩᎪᏩᏛ	-10.6558
▁ᏥᏕᎦ	-10.6566
▁ᎠᏥᏰ	-10.6576
▁ᎤᏅᏣ	-10.6577
▁ᎠᏁᎶᎯ	-10.6582
▁ᎨᎢ	-10.66
▁ᎤᎩᏍᏗ	-10.6601
▁ᏗᏅ	-10.6607
ᎪᎲ	-10.6618
ᏰᎸᎲ	-10.6629
ᎳᏗᏍᏗ	-10.6641
▁ᏑᎾᎴᏉ	-10.6643
▁ᏗᎧ	-10.6649
ᎩᏍᏙᏗ	-10.6651
ᏓᏱ	-10.6653
▁ᏧᏄᏬ	-10.6656
▁ᏳᏓ	-10.6657
ᎢᏍᏔᏂ	-10.6685
▁ᎢᏳᏂ	-10.6688
▁ᎤᏭ	-10.6695
▁ᏄᏬ	-10.6721
▁ᏳᏪ	-10.6724
ᏰᎸᏗ	-10.6726
▁ᏥᏳᎪ	-10.6734
▁ᎢᎪ	-10.6734
▁ᏗᎩᎦ	-10.675
▁ᎢᏗᎦᏘ	-10.6753
ᏏᏳ	-10.6756
ᏍᎦᏃᎳ	-10.6763
▁ᎢᏣᎵᎮᎵ	-10.677
ᏥᎪᏩᏛᏗᏱ	-10.6771
ᎵᏨ	-10.6771
▁ᏓᎬᎩ	-10.6772
ᎷᏤᎸ	-10.6776
ᎾᏄᎪᏩ	-10.6779
ᏣᏅᎩ	-10.6782
ᏴᎵᎸ	-10.6782
ᏅᏓᏗᏍᏗ	-10.6785
ᏏᎳ	-10.6785
▁ᏗᎩᏲᎯ	-10.6792
▁ᏦᎦ	-10.6792
ᏅᎪᎢᏍᏗ	-10.6793
ᎩᏯ	-10.6794
▁ᎯᏍᎩᎦᏚ	-10.6794
▁ᏱᏣᏓ	-10.68
ᏑᏰᏒ	-10.6805
▁ᎦᏙᎦ	-10.6807
▁ᎠᏘ	-10.6807
ᎷᎯᏍᏗ	-10.6822
ᏁᏉᏥ	-10.6825
ᎳᏛ	-10.6833
▁ᏚᎪ	-10.6833
ᎾᏄᎪᏫᏎᎸ	-10.6837
▁ᎤᏂᎶᏒ	-10.6844
ᏫᏎᎴᎢ	-10.6844
▁ᎤᏩᏒᏍᎩᏂ	-10.6845
ᏁᏟᏴᎾ	-10.6856
▁ᎤᏍᏆᏂᎪᏙᏗ	-10.6862
ᎡᎸ	-10.6863
ᏓᏁᎮ	-10.6864
▁ᏕᏅ	-10.6878
▁ᎤᏁᏅ	-10.688
ᏕᎶᏆᏍᏗ	-10.6889
▁ᎦᏂᏏ	-10.6894
▁ᏥᏂᎬ	-10.6894
▁ᏫᏨᏲᏪᎳ	-10.6896
ᏘᏃᎸ	-10.6901
ᎤᏍᏗ	-10.6909
▁ᏱᏓᎩ	-10.6928
▁ᎤᏰ	-10.6939
ᏲᏍᏙᏗ	-10.6942
ᎷᏨ	-10.6947
▁ᏣᏚᎵᏍᎬ	-10.695
▁ᏔᎵᏚ	-10.6952
▁ᎦᏬᏂ	-10.6957
ᏰᎸᎭ	-10.6974
▁ᏂᎦᎥᎩ	-10.6995
▁ᏗᎨᎦ	-10.7004
▁ᏓᎨᏣ	-10.7017
ᎪᏩᏛ	-10.7019
▁ᏚᏃᎸ	-10.7034
ᎦᏅᎦ	-10.704
▁ᎤᏃᏴ	-10.7042
ᏯᏂᏍᎬ	-10.7051
▁ᏈᎵ	-10.7052
▁ᏧᎦ	-10.7054
ᎵᏙᎴ	-10.706
ᏤᎭ	-10.7068
ᎶᎯᏍᏗ	-10.7071
Ꮌ	-10.7078
▁ᏚᏂᎧᎵ	-10.7091
▁ᏥᏚᏂ	-10.7108
▁ᎤᎧ	-10.7109
▁ᎤᏃᎮᎸ	-10.7123
ᎪᏛ	-10.7128
ᏍᎦᏃᎵ	-10.714
▁ᏗᎦᎴᏅ	-10.7153
▁ᎤᎵᎮᎵᏨ	-10.7155
ᏫᏛᎲ	-10.7155
▁ᏂᏣᏛᏁᎲ	-10.7158
▁ᏕᎦᎳᏅᏛ	-10.7168
ᎴᎣ	-10.7168
▁ᏚᎾᏄᎪᏫᏎᎴ	-10.7168
ᏍᏆᏂᎪᏔᏂ	-10.7173
▁ᎦᎦᎶ	-10.7173
▁ᎠᏐᏴ	-10.7173
▁ᏓᏂᏙᎨ	-10.7174
▁ᎤᏂᏙ	-10.7175
d	-10.7178
▁ᏕᎦᎶᎨᏒ	-10.7178
ᏧᏍᏆᏴᏍᏗ	-10.7184
▁ᎤᏦᏱᎴ	-10.7185
ᏗᎦᎵᎠᏅᎯᏛ	-10.7187
▁ᏭᏂᎶᏎ	-10.7188
▁ᏤᎲ	-10.7188
▁ᎤᏌᎯᎸ	-10.719
▁ᏕᏣᏓᏅᏛ	-10.7191
ᎸᏍᏔᏅ	-10.7192
ᏑᎾᎴ	-10.7192
▁ᎠᏍᏆᎵᏍᎬ	-10.7193
▁ᎧᏁᏌ	-10.7193
ᏛᏁᎸ	-10.7193
▁ᎤᏓᏑᏴ	-10.7194
ᎬᏂᎨ	-10.7194
ᏂᏙᎸ	-10.7195
▁ᎤᎾᏄᎪᏫᏎᎴ	-10.7195
▁ᏂᎨᏎ	-10.7196
▁ᏄᎾᏛᏁᎴ	-10.7198
▁ᎠᏩᏛᏗ	-10.72
▁ᎠᏂᏍᎦᎢᎲ	-10.7205
ᏓᎴᏂᏍᎬ	-10.7212
ᏍᏈᏯ	-10.7212
▁ᏬᎩᎷᏨ	-10.7216
▁ᏂᎦᏅᎯᏒ	-10.7218
▁ᏄᎾᎵᏍᏔᏁ	-10.722
ᏣᏗ	-10.7225
▁ᎠᏆᏣ	-10.7227
▁ᎤᏂᏴᎮ	-10.7227
▁ᎾᏯᏛᎥ	-10.7227
ᏲᏍᏔᏂ	-10.7227
ᎳᏁ	-10.7229
ᏆᏏ	-10.723
▁ᏓᎩᎸᏫᏍᏓᏁᎲ	-10.723
▁ᏚᏩᏂᎦᎸ	-10.7234
▁ᎤᏁᏝᏅ	-10.7235
▁ᏗᏘᏲᎯ	-10.7238
ᏍᏗᏍᎨ	-10.7238
ᎢᏍᏙᏗ	-10.7239
ᏣᎵᏍᏙ	-10.7241
▁ᏧᏭᎪᏙᏗ	-10.7244
▁ᎠᏍ	-10.7245
▁ᎤᏁᎢᏍᏔᏅ	-10.7245
▁ᏂᎦᎵᏍᏔᏅ	-10.7245
▁ᏑᏟᎶ	-10.7246
▁ᎤᏪᏓᏍᏗ	-10.7249
▁ᎤᎾᏂᎩᏒ	-10.7251
▁ᏂᎦᏛᏁᎲ	-10.7251
▁ᎥᏞ	-10.7253
▁ᎦᏃ	-10.7253
▁ᎤᎾᏛᎪᏗ	-10.726
▁ᏚᎸ	-10.7261
ᏙᏓᏆᏓ	-10.7261
ᎦᏘᏕᎯ	-10.7263
▁ᏭᏩ	-10.7266
▁ᎠᏩᎾᎦᎳ	-10.7269
▁ᎤᏁᏉᏨ	-10.7269
▁ᎪᎵᏍᏗ	-10.727
▁ᏥᎦᏘᏏ	-10.727
ᎦᎵᎷᎨᏍᏗ	-10.727
▁ᎠᎵᏏᎾᎯᏍᏔᏅᎯ	-10.727
▁ᎠᏲᏓᏌᎲ	-10.727
▁ᎤᎾᏗᏍᎦᏟ	-10.727
▁ᎤᏩᎭᏂᎴ	-10.727
▁ᏂᎩᏪᏎᎸᎭ	-10.727
▁ᏅᏛᏆᏓᎴᏅᎯ	-10.727
▁ᏅᏧᏓᎴᏅᎲᎾ	-10.727
▁ᏦᏑᏫ	-10.727
▁ᎠᏓᏅᏖᏍᎪ	-10.727
▁ᎨᎴᏏᏱ	-10.727
▁ᏗᏦᏪᎵᏍᎩ	-10.727
▁ᏚᎨᏓᎵᏴ	-10.727
▁ᎠᏐᎥᏍᏙᏗ	-10.727
▁ᎤᏂᎩᎵᏲᎢᏍᏗ	-10.727
▁ᏅᏥᏪᏎᎸᎩ	-10.727
▁ᏏᎵᏆ	-10.727
▁ᎠᎾᏓᏍᎦᎶᎩ	-10.727
▁ᎤᏚᏓᎴᏛ	-10.727
▁ᎢᎳᎩᏳ	-10.727
▁ᎤᎪᎵᏰᎥ	-10.727
▁ᏄᎾᏓᎡᏍᏗ	-10.727
▁ᏣᏓᏲᏁᎸᎩ	-10.727
▁ᎠᏂᏰᎪᎩ	-10.727
▁ᎠᏓᏪᎯ	-10.727
▁ᎤᏛᎴᎮ	-10.727
▁ᎤᏪᏐᏅᏴ	-10.727
▁ᎢᏣᏛᏓᏍᏓ	-10.727
▁ᏕᎦᏅᏙᎬ	-10.727
▁ᏤᏆᎳᏂ	-10.7271
▁ᎧᏄᎦᏟ	-10.7271
▁ᎢᎪᏪᎳ	-10.7271
▁ᎤᏭᏢᏔᏅᎩ	-10.7271
▁ᎦᏗᎨᏂ	-10.7271
▁ᎠᏍᎩᏓᏍᎬ	-10.7271
▁ᎤᎵᏏᏂᏕᏅ	-10.7271
▁ᎤᎵᏲᏗ	-10.7271
▁ᏧᏁᎵᏁ	-10.7271
▁ᎶᎻ	-10.7271
▁ᏗᎧᏃᎩᏍᏙᏗ	-10.7271
▁ᏕᏥᏃᎩᏍᎨᏍᏗ	-10.7271
▁ᎾᎨᎢᏴ	-10.7271
▁ᎠᎾᏓᏍᏓᏩᏗᏙᎯ	-10.7271
▁ᏩᎩᎷᏣ	-10.7271
▁ᏓᏲᏤᏏ	-10.7271
▁ᎭᏰᎵᏍᏗ	-10.7271
▁ᎠᎾᎵᏍᏕᎵᏍᎩ	-10.7271
▁ᏂᎩᏪᏏ	-10.7271
▁ᎠᎾᏓᏤᎵ	-10.7271
▁ᎠᎪᏕᏍᎩ	-10.7271
▁ᏱᏂᎬᏁᎭ	-10.7271
▁ᏕᏥᎧᎿᏩᏗᏙᎮᏍᏗ	-10.7271
▁ᏫᏗᎶᎯ	-10.7271
▁ᏔᏘᏄᎦ	-10.7271
▁ᎠᏦᎳᏅ	-10.7272
▁ᏗᎦᎶᏔᏅ	-10.7272
▁ᏚᎭᏄᏮ	-10.7272
▁ᎠᏓᏲᏁᎮᏍᏗ	-10.7272
▁ᏚᏍᏓᎦᎸ	-10.7272
▁ᎢᏦᎯᏳᏗᏱ	-10.7272
▁ᏕᎪᏪᎴᏍᏗ	-10.7272
▁ᎤᏛᎦᏍᏕ	-10.7272
▁ᏧᏂᏁᏟᏴᏍᏗ	-10.7272
▁ᏓᎦᏛᏁᎵ	-10.7272
ᏘᏯᏍᏓᏁ	-10.7272
▁ᏄᏪᎲᎾ	-10.7273
▁ᏓᏱᎾ	-10.7273
▁ᏧᎾᎬᏩᎶᏗ	-10.7273
▁ᏗᏣᎴᎲᎦ	-10.7273
▁ᎧᏃᎮ	-10.7273
▁ᎡᏥᏅᏏᏓᏍᏗ	-10.7273
▁ᏥᏚᏳᎪᏗ	-10.7274
▁ᎨᏥᏍᏕᎸᏗ	-10.7274
▁ᎢᎬᏛᏁᏗ	-10.7274
▁ᏗᎾᎢᏒ	-10.7274
▁ᏧᏂᎶᎸᏗ	-10.7274
▁ᎦᏂᎩᎸ	-10.7274
▁ᎠᎫᏩᏌ	-10.7274
▁ᎠᏂᎪᎲᎭ	-10.7274
▁ᎤᎬᎥᏍᎩ	-10.7274
▁ᎢᏯᏥᎸᏉᏗ	-10.7275
▁ᏗᎪᏢᏅᎯ	-10.7275
▁ᎬᏬᎯᏳᏅᎩ	-10.7275
▁ᎣᎦᏚᎵᎭ	-10.7275
▁ᎢᏳᏪᏎᎸᎯ	-10.7275
▁ᏍᎩᏍᏓᏩᏚᎦ	-10.7275
▁ᎠᏍᏕᏯᏓ	-10.7276
▁ᎤᏂᎪᏩᏛᏗᏱ	-10.7276
▁ᎯᎸᏉᏓ	-10.7276
▁ᏣᎦᏨᏍ	-10.7276
▁ᎠᏂᎨᏳᏣ	-10.7277
▁ᏥᏣᏛᎩᎭ	-10.7277
▁ᏂᏣᏛᎿᏕᎬᎢ	-10.7278
▁ᎭᏓᏅᎾ	-10.7278
▁ᎢᏥᏯᎡᏍᏗ	-10.7278
▁ᏓᎭᏏ	-10.7278
▁ᎯᏍᎪᎵ	-10.7278
▁ᎢᏣᏚᎵᏍᎨᏍᏗ	-10.7278
▁ᎪᎰᏍ	-10.7278
▁ᎠᏍᎩᏗᏍᎨᎢ	-10.7278
▁ᏣᏙᎳᏅᏍᏗ	-10.7278
▁ᏍᏈᏍᏔ	-10.7278
▁ᏗᎦᎶᎩᏍᎩ	-10.7278
▁ᏗᏣᎧᏅᎦ	-10.7278
▁ᎠᏠᏗᏱ	-10.7278
▁ᎢᏣᎵᎮᎵᎨᏍᏗ	-10.7278
▁ᏂᏴᏁᎸ	-10.7278
▁ᎨᏥᏅᏒᎯ	-10.7279
▁ᏫᏥᎷᏨᎭ	-10.7279
▁ᏇᏗᏂᏱ	-10.7279
▁ᏗᎩᎸᏫᏍᏓᏁᏗᏱ	-10.7279
▁ᎤᎶᏗᏢ	-10.728
▁ᎤᎾᏛᏅᎩ	-10.728
▁ᏭᏕᎵᏨ	-10.728
▁ᏑᏓᎵᏍᎪᎯ	-10.728
▁ᏝᏬᏚ	-10.7281
▁ᎠᏂᎦᏲᏟ	-10.7281
▁ᏧᏂᎸᏫᏍᏓᏁᏗ	-10.7281
▁ᎡᏥᏯᏅᏛ	-10.7281
▁ᎢᏯᏓᏅᏖᏗ	-10.7281
▁ᏰᏙᎭ	-10.7282
▁ᏎᏘ	-10.7282
▁ᏗᏣᏓᎴᏅᏛ	-10.7282
▁ᏧᎷᏫᏍᏔᏁᏗ	-10.7282
▁ᏈᎵᏏ	-10.7283
▁ᎠᎩᎵᎨᏂ	-10.7283
▁ᏍᎪᏁ	-10.7283
▁ᎤᎿᎷᏒᎩ	-10.7283
▁ᎦᏃᏙᏗᏱ	-10.7283
▁ᎤᎾᏓᏙᎵᏍᏓᏁᎸᎩ	-10.7284
▁ᏚᏯᏪᎨ	-10.7284
▁ᎪᎯᎢᏴ	-10.7286
▁ᎢᏨᏃᎮᎮᎸ	-10.7286
▁ᎢᎦᎵᏍᏙᏗᏱ	-10.7287
▁ᏃᎩᏪᏎᎸ	-10.7288
ᏄᏍᏗ	-10.729
▁ᎤᏓᏙᎵᏣᏛ	-10.7291
ᏟᏌᏂ	-10.7291
ᏲᏒᎩ	-10.7291
▁ᎤᎦᏔᏔᏅᎯ	-10.7292
▁ᏓᎾᏕᏲᎲᏍᎬ	-10.7293
▁ᎹᎦ	-10.7294
▁ᏄᏩᏁᎰ	-10.7294
▁ᎤᏃᎯᏳᏅᎯ	-10.7296
▁ᎠᏓᏁᏣᏍᏚᎶᎩᎯ	-10.7296
▁ᏯᏂᎦᏔᎮ	-10.7296
▁ᎢᎦᎦᏓ	-10.7296
▁ᎠᏍᎫᏕᏍᏗᏱ	-10.7297
ᏗᏔᎯ	-10.7298
▁ᎤᏛᏒᎯ	-10.7299
ᏒᏗ	-10.7301
▁ᏓᎧᏅ	-10.7301
▁ᎢᏍᏕᎾ	-10.7301
▁ᎲᏓ	-10.7302
▁ᎠᎦᏔᎯᏳ	-10.7303
▁ᎤᎳᏏᏕᏂ	-10.7303
▁ᎢᏥᏠ	-10.7303
▁ᎤᏓᏴᏎᎢ	-10.7303
▁ᎬᏩᏛᏗ	-10.7304
▁ᏥᏁᎦ	-10.7304
▁ᎪᏪᎴ	-10.7306
▁ᎤᏁᏉᏨᎯ	-10.7306
▁ᎤᏁᏝᏅᎯ	-10.7307
▁ᎤᏪᎧᏁᎢ	-10.7307
▁ᎤᎾᏄᎪᎢᏍᏗ	-10.7307
ᎧᏁᎸ	-10.7308
▁ᏓᏨᏁᎵ	-10.7308
▁ᎤᏃᎯᏳᏅᎩ	-10.7309
▁ᎯᏲᎵ	-10.7309
▁ᎩᎳᎯᏳ	-10.7309
▁ᏇᎵᎩ	-10.731
▁ᏄᎾᎵᏍᏔᏅ	-10.731
▁ᎢᎫᏩ	-10.7311
▁ᏥᏙᎦ	-10.7312
▁ᎠᏂᏃᎮᎭ	-10.7313
▁ᏗᎦᏥ	-10.7315
▁ᎢᏳᏒᎯ	-10.7316
▁ᎤᎾᏛᎪᏗᏱ	-10.7316
▁ᏥᏯᎵᎡᎵᏤ	-10.7316
▁ᎤᏪᏍᎩᎸᎢ	-10.7317
▁ᏫᏥᎦᏛᎢ	-10.7317
▁ᎤᏦᏍᏗ	-10.7317
▁ᏗᎪᏩᏛᏗ	-10.7317
▁ᎤᎪᏩᏛᏗᏱ	-10.7317
▁ᏂᏚᏩᏁᎴᎢ	-10.7318
▁ᎨᎵᏍᎩ	-10.7318
▁ᏧᏓᎵᎢ	-10.7319
▁ᏥᎪᏩᏘᏍᎬ	-10.7321
▁ᎻᎳ	-10.7323
▁ᎡᏓᏍᏗ	-10.7325
▁ᎾᏯᏛᎥᎩ	-10.7325
ᏍᎦᏎᏗ	-10.7326
▁ᎤᎩᏒᎩ	-10.7326
ᏩᏔ	-10.7326
▁ᎤᎾᏂᎩᏒᎩ	-10.7327
▁ᎤᏓᏙᎵᏍᏔᏁᎢ	-10.7328
▁ᎤᏍᏆᏂᎪᏛ	-10.7329
▁ᏗᎾᏓᎪᎾᏗᏍᎬᎢ	-10.733
ᏨᏗ	-10.733
ᏅᏬᏗᏱ	-10.733
▁ᎠᎾᏓᎪᎾᏗᏍᎬᎢ	-10.733
▁ᎠᎦᏍᎩ	-10.733
▁ᎤᏁᎯ	-10.7331
▁ᎦᏓᏙᎵᏍᏗᏍᎬᎢ	-10.7331
▁ᎤᎾᏓᏅᏖᎴ	-10.7332
▁ᎢᎦᎵᎢ	-10.7335
▁ᏥᎬᏩ	-10.7336
▁ᎤᎾᏕᏗ	-10.7339
▁ᎤᏩᏔᏅᎩ	-10.7341
▁ᎤᎾᏂᎩᏎᎢ	-10.7343
▁ᎤᏇᏓᎵᏉ	-10.7345
▁ᎠᎪᎾ	-10.7345
▁ᏥᏰᎸᎢ	-10.7346
▁ᎤᎾᏓᏅᏖᎸ	-10.7348
▁ᎤᏂᏣᏖᏍᏗ	-10.735
ᎴᏅᎲ	-10.7351
▁ᏥᏄᏍᏕ	-10.7354
▁ᎦᏯᎸ	-10.7356
▁ᏚᏩᏂᎦᎸᎢ	-10.7356
▁ᎤᏦᏱᎴᎢ	-10.7356
▁ᎣᎵᏩᏲ	-10.7356
ᎶᎸᏗ	-10.736
ᏓᏛᏍᎩ	-10.736
ᎡᎲ	-10.7361
ᏙᎭ	-10.7362
▁ᎤᎩᏎᎢ	-10.7362
▁ᎠᎢᏒᎩ	-10.7365
▁ᎤᎩᏒ	-10.7367
▁ᎦᏟ	-10.737
▁ᎣᎩᎾᎵᎪ	-10.7371
▁ᎤᏗᏛᎮᎢ	-10.7374
▁ᎤᏲᎢᏴ	-10.7377
▁ᎦᏲᏟᎨ	-10.7383
▁ᎠᏟᏍᏗ	-10.7383
▁ᎤᏪᏴᎢ	-10.7384
▁ᏫᎦᎷᎬ	-10.7384
▁ᏭᏂᎷᏨᎩ	-10.7385
ᏴᎮᎢ	-10.7385
ᏏᏔᏛ	-10.7388
▁ᏣᏗᎭ	-10.7389
ᏕᎶᎰᏌ	-10.739
ᏚᎢᏍᏓᏁᎴ	-10.7391
ᏃᎯᏎᎴ	-10.7391
▁ᏦᎨ	-10.7392
ᏗᏂᏍᎪᏂᎯ	-10.7393
▁ᎢᏣᏓᏅᏖᏍᎬ	-10.7393
▁ᎢᏗᎬᏁ	-10.7398
▁ᎮᎵ	-10.7399
▁ᏕᎦᎧᎲ	-10.7402
▁ᏧᏁᎦ	-10.7403
▁ᎤᏍᎪᏒ	-10.7404
ᎤᏩᏂᎦᎸ	-10.7404
ᎲᏎ	-10.7408
ᏙᎲᎢ	-10.741
▁ᎠᎩᏁᏨᎢ	-10.741
▁ᎢᏨᏗᏍᎬ	-10.7411
ᏂᎦ	-10.7412
▁ᏗᏐᏴ	-10.7413
▁ᎤᏂᎾᏫ	-10.7415
▁Ꮬ	-10.7419
▁ᏂᏕᎬᏁᎲ	-10.742
▁ᏫᏚᏯᏅᎮᎢ	-10.7423
▁ᎯᎦᏔᎲ	-10.7425
▁ᎠᎾᎵᎮᎵᎨ	-10.7427
ᏓᏁᎯ	-10.7427
▁ᎠᏥᎾ	-10.7428
▁ᎤᏄᎪᏤᎢ	-10.7429
▁ᎤᏅᏎᎢ	-10.7432
▁ᎠᏁᎮᏍᏗ	-10.7433
▁ᎾᏛᏁᎲᎢ	-10.7435
▁ᎤᏁᏍᎩᎸ	-10.7438
▁ᎢᏔ	-10.7439
ᎵᏍᎪᎸᏓᏁᏗᏱ	-10.7445
▁ᎤᏩᏔᏁ	-10.7447
▁ᎤᎷᏤᎴᎢ	-10.7449
▁ᏥᏕᏣ	-10.7449
▁ᎤᏁᏍᏔ	-10.7449
▁ᏚᏙᏍᏛ	-10.7453
▁ᏥᏫ	-10.7454
▁ᏧᏁᏗᏱ	-10.7454
▁ᎤᏬᏨ	-10.7456
▁ᎫᎦ	-10.7456
ᏈᏱ	-10.7459
▁ᎡᎾᎢ	-10.7461
ᏛᎦᏅ	-10.747
▁ᏂᏥᏪᏎᎸ	-10.747
▁ᎤᏪᎭ	-10.7472
▁ᎤᏂᏅ	-10.7472
ᎪᎵᏯ	-10.7477
▁ᎤᏬᏂᏎ	-10.7478
ᏧᏂᏲᎯᏍᏗᏱ	-10.7479
▁ᏄᏩᏁᎸᎩ	-10.7481
ᏔᏁᏍᏗ	-10.7483
ᎨᏎᎢ	-10.7484
ᏙᎵᎦ	-10.7491
▁ᏧᏁᏤᎴ	-10.7492
▁ᎤᏕᎸ	-10.7493
▁ᏱᏥᏰᎸ	-10.7497
ᏌᏛᏗ	-10.7512
▁ᏧᎾᏦ	-10.7521
▁ᎤᏂᎪᎲᎩ	-10.7523
▁ᏧᏲ	-10.7525
ᏠᏒ	-10.7531
▁ᎤᏩᏂᎸ	-10.7538
▁ᎢᎩᏁᎸ	-10.7542
▁ᏗᎩᎦᏴᎵᎨᎢ	-10.7543
ᏓᏅᎯᏓ	-10.7545
▁ᏚᏂᎸ	-10.7548
▁ᎢᏣᏓᏅᏖ	-10.7552
▁ᏃᏳ	-10.7552
ᏄᎪᏫᏏ	-10.7557
▁ᏧᏪᏅᏒᎢ	-10.757
▁ᎠᏦᏴᎢ	-10.757
▁ᎤᏍᏓᏱᏕ	-10.7571
▁ᎤᏍᎦᏅᏨᎢ	-10.7571
▁ᎤᏃᏢᏅ	-10.7577
▁ᎾᏏ	-10.7583
ᏏᏐᏗ	-10.7583
ᎵᏍᏙ	-10.7589
ᏢᎾᏁᏗ	-10.7591
▁ᎤᏓᏅᏙᎩ	-10.7594
▁ᎤᎧᎵᎸ	-10.7598
▁ᏕᏣᏙᎥᎢ	-10.7598
ᎵᏍᏓᏴᏗ	-10.7599
ᏟᎶ	-10.76
ᏖᎵ	-10.7605
▁ᏘᏅ	-10.7609
▁ᏃᏒ	-10.7611
▁ᏃᎩ	-10.7612
▁ᎤᎵᏍᏆᏕ	-10.7616
ᏲᏍᏗᏍᎬ	-10.7622
ᏪᏎᏗ	-10.7624
ᏐᏗ	-10.7628
▁ᎢᏨᏲᏪᎳ	-10.7628
ᎪᎳ	-10.7637
▁ᎤᏍᏗᏉ	-10.7637
ᏅᎦᎸᏛ	-10.7643
ᏁᎢᏍᏓᏁᏗ	-10.7645
ᏅᏗᏍᎨᏍᏗ	-10.7646
▁ᎠᏃᎵ	-10.7658
▁ᏂᎬᏁᎸ	-10.7659
ᎧᎾ	-10.7665
ᏫᏍᎩ	-10.7666
▁ᎤᏁᏅᏍᏗ	-10.7666
▁ᏪᏙ	-10.7673
▁ᎾᏥ	-10.7676
ᏲᎦ	-10.7677
▁ᎠᏅ	-10.7688
▁ᎣᏍ	-10.7698
▁ᏗᏍᏆ	-10.7699
ᏲᎯᎲ	-10.7702
▁ᏥᏗ	-10.7704
▁ᎤᏓᏅᏒ	-10.7705
ᏌᎳᏓᏁ	-10.7711
▁ᏄᏪᏎᎸᎢ	-10.7716
ᏂᏌᏂ	-10.772
ᏂᎬᎦ	-10.7722
ᏍᎦᎢᎮᏍᏗ	-10.7724
▁ᎤᏁᏅᏎᏃ	-10.7725
▁ᎢᏲ	-10.7727
▁ᎤᏙᎯᏳᎭ	-10.7736
▁ᏕᎠ	-10.7737
▁ᎠᏂᎸᏉᏗᏍᎨ	-10.7739
▁ᎠᏉᏢ	-10.7743
ᎦᏙᎥᏎ	-10.7743
▁ᏧᏓᎴ	-10.7746
ᏁᏍᎨ	-10.7755
▁ᏦᏏ	-10.7757
ᏰᎲ	-10.776
ᎶᏓ	-10.776
▁ᏗᎬᏩᎾ	-10.776
▁ᎤᎧᎵ	-10.7763
▁ᏤᎳᏗ	-10.7779
ᏉᎯ	-10.7779
ᎤᏍᏓᎦᏴᎯᏓ	-10.778
▁ᏦᏒ	-10.7781
▁ᎠᏰᎵᏒ	-10.7789
▁ᎤᏁᏤᎢ	-10.7794
ᏟᏯ	-10.78
▁ᎤᏁᏤᎴᎢ	-10.7817
ᏥᏁᎸ	-10.7823
ᎳᏅᎩ	-10.7829
s	-10.7838
▁ᎬᏩᏛᏛ	-10.7839
▁ᎤᏙᎯ	-10.7849
ᎪᎵᏂᏗ	-10.785
▁ᎾᏂᎥᎩ	-10.7863
▁ᎢᎤ	-10.7864
▁ᎤᎳ	-10.7871
▁ᎭᏗᏔ	-10.7875
ᏓᏂᎸᎩ	-10.7878
ᏡᏗᏍᎩ	-10.7885
▁ᎨᏍ	-10.7889
▁ᎠᏣ	-10.789
▁ᏓᏔᎴᏒᎢ	-10.7898
▁ᎦᏲᎦ	-10.7913
ᏕᎭ	-10.7921
▁ᎤᎿᎸ	-10.7922
▁ᏚᏁᏤᎴᏃ	-10.7926
▁ᎯᏃ	-10.7928
ᏛᎪᏗ	-10.793
ᏍᏓᏩᏕᎩ	-10.7948
▁ᎡᏍᏗ	-10.7952
▁ᏫᏂ	-10.7955
▁ᎢᎬᏱᏱᏉ	-10.7967
▁ᎠᎩᏍᎦᏅᏨ	-10.7994
ᏅᏁ	-10.7998
ᎴᏒ	-10.7999
▁ᎢᏳᏍᎩᏂᏃ	-10.8012
ᏂᏍᏙᏗ	-10.8013
ᏗᏔᏍᎬ	-10.8016
ᏓᏁᏗᏱ	-10.8018
ᏯᏙ	-10.8022
▁ᏓᏥᏲ	-10.8035
ᎦᏛᎦ	-10.804
▁ᎠᎹᏂ	-10.805
▁ᎠᎾᏗᏍᎨ	-10.8066
▁ᏯᏓᏅᏖ	-10.8072
ᏥᏧᏣ	-10.8076
▁ᎾᏓ	-10.8079
ᎪᏅ	-10.8082
▁ᎠᎫᏴᏗ	-10.8091
▁ᏰᏣ	-10.8095
ᎪᏕᏍᏗ	-10.8097
ᎨᏳᎭ	-10.8104
ᏍᏗᏍᎨᎢ	-10.8106
▁ᎠᎩᎲ	-10.8107
▁ᎤᏍᏛ	-10.8118
▁ᏥᏲ	-10.8123
ᏍᏆᎵ	-10.813
▁ᎠᏓᏅ	-10.8131
▁ᎤᏂᏄᎪᏨ	-10.8138
ᎩᏌ	-10.8142
▁ᎾᎯᏳᎢ	-10.8155
▁ᏰᎵᎦ	-10.8156
ᎷᏥ	-10.816
▁ᏚᏁ	-10.816
▁ᏙᏣ	-10.816
ᏪᏎᎴᎢ	-10.8168
▁ᎦᎾᏄᎪ	-10.8168
▁ᏪᏣ	-10.817
▁ᎤᏂᏏᏗ	-10.8174
▁ᎤᏪᏰ	-10.8179
▁ᎤᏣᏅ	-10.8187
▁ᏯᏛᏅ	-10.8194
ᎦᏎᏍᏕᏍᏗ	-10.821
ᏰᏛ	-10.8217
▁ᎤᎵᏍᏆᎸᏗᏃ	-10.8222
ᏛᏃᎯ	-10.8226
▁ᏥᎦᏔ	-10.8234
ᎸᎮ	-10.8234
▁ᎤᏃᏴᎵ	-10.8236
▁ᎠᎩᏁ	-10.8244
▁ᏗᏣᏁᎶ	-10.8248
▁ᏓᏍᎩ	-10.825
▁ᎬᎾᏬ	-10.8252
ᎦᏍᎪ	-10.8255
ᏂᎩᏍᎬ	-10.8258
ᏂᏆᏘᎯ	-10.8261
▁ᏱᏣᏓᏅᏖ	-10.8262
ᏡᏗᏍᎬᎢ	-10.8264
ᏔᎵ	-10.8278
ᏌᏕ	-10.8278
▁ᎬᏒ	-10.8281
ᎳᏗᏍᎬ	-10.8281
ᏘᎾᏫᏛᎲᎩ	-10.8285
▁ᎠᏍᎩ	-10.8289
ᏢᏗᏱ	-10.8305
...”	-10.831
ᎦᏁᎶᏗ	-10.8333
▁ᎠᏩᏛ	-10.835
▁ᏚᏲᏎ	-10.8354
▁ᎩᏯ	-10.8362
al	-10.8363
ᏍᏓᏩᏛᏒᎩ	-10.8372
ᏓᏁᎲ	-10.8375
▁ᎦᎵᏦ	-10.8381
ᏥᏆ	-10.8395
ᎾᏔ	-10.8403
ᏇᏓ	-10.8408
ᎳᏑᏢ	-10.8419
▁ᎤᎵᏰ	-10.8422
▁ᎤᎵᏏ	-10.8426
ᏘᏍᏗᏍᎩ	-10.8426
▁ᏗᏛ	-10.8435
▁ᎠᏂᏁᎸ	-10.8435
▁ᎠᎵᏰᎢᎵ	-10.845
▁ᏧᏁ	-10.8455
ᎵᏳ	-10.8457
▁ᎠᏍᏆᏂᎪᏙᏗ	-10.8462
▁ᎥᏥ	-10.8464
▁ᎦᎬ	-10.8475
▁ᏂᎩ	-10.8476
ᎦᏘᏴ	-10.8488
ᏁᎸᎭ	-10.8489
ᏬᎢ	-10.849
ᏍᏓᏱ	-10.8491
▁ᎯᏴ	-10.8498
▁ᏓᏳᏂ	-10.8506
ᏓᏑᏰᏍᏗ	-10.8506
▁ᏙᏛᏂ	-10.8507
▁ᏕᎦᏅ	-10.8514
ᏥᎩ	-10.8515
▁ᏄᏍᏛᎩ	-10.8526
ᎩᏴ	-10.8529
▁ᏓᏌ	-10.854
▁ᎠᏆᏓ	-10.8543
ᏴᏍᏗ	-10.8545
ᏓᏎᎪᎩᏍ	-10.8546
ᏎᎮ	-10.855
▁ᏔᏯ	-10.8554
▁ᏂᎦᎥᎢ	-10.8571
ᏣᏛ	-10.8573
▁ᎤᏅᏁ	-10.8575
ᏘᏃᎯᏍᏗᏱ	-10.8579
ᏍᏕᎸᏗᏱ	-10.8581
▁ᏅᏓᎬᏩ	-10.8589
▁ᏗᎩᏍᏗ	-10.8589
▁ᏧᎬᏩ	-10.8597
ᏍᏓᏩᏗᏒ	-10.8613
ᏍᏗᏉ	-10.8614
ᎧᎸ	-10.8625
▁ᏱᎨᏥ	-10.8636
ᏨᎾ	-10.8636
ᏩᏛᎯ	-10.8644
▁ᏂᏯ	-10.8649
ᏍᎦᏨᎯ	-10.865
▁ᏣᏛ	-10.8657
ᎧᎯᏯᏍᏗ	-10.8659
▁ᎤᏂᏍᏆᏂᎪᏎ	-10.8663
ᏲᏏ	-10.8663
▁ᎬᏰᎸ	-10.8666
ᏅᏛ	-10.8676
ᏥᏍᎦᏯ	-10.8688
▁ᎤᎾᏛᏁ	-10.8688
▁ᏂᏕᎦ	-10.8693
ᏂᎪᎲ	-10.8703
ᏍᎦᎳᏁᎸ	-10.8703
▁ᏳᏬᎯᏳ	-10.8705
ᏩᏕᎬ	-10.8708
▁ᎤᏍᏆᎸᎯᏗ	-10.8715
ᎪᎵᏰᎥᎯ	-10.8717
ᎴᏙᏗ	-10.8717
▁ᏚᏳ	-10.872
ᎿᎥᎢ	-10.8721
▁ᎢᏍᏛ	-10.8734
▁ᎤᏄᏪ	-10.8735
▁ᏍᎦ	-10.8736
▁ᎠᏥᎸᏳ	-10.8738
▁ᎠᏚᏓᎴᏍᏗ	-10.8744
ᏓᏂᎸᏤᎢ	-10.8747
▁ᏄᏂᏪᏎ	-10.8747
▁ᎨᏍᏗᏗ	-10.8748
ᏏᏂ	-10.8756
ᎬᏁᎵ	-10.8759
▁ᏧᏁᏨ	-10.8768
ᎳᏂ	-10.8772
ᏪᎶᏗ	-10.8772
▁ᏕᎦᏄᎪᏫᏍ	-10.8774
ᏓᏙᎵᏍᏗᏍᎬ	-10.8783
▁ᎤᏁᎷᎬ	-10.8788
ᏙᎠ	-10.8794
ᏢᏛ	-10.8794
ᏳᎵ	-10.8795
ᎾᏛᎦ	-10.8798
▁ᏙᏓᏥ	-10.8798
▁ᏫᎦᎶᎯ	-10.881
ᏎᎮᏍᏗ	-10.8816
▁ᏄᏛᏁ	-10.8817
▁ᎢᎩᏰᎸ	-10.8822
ᏂᏙᎲ	-10.8826
ᏂᎴ	-10.8832
▁ᏱᎬᎩ	-10.8832
▁ᏕᎦᏄᎪᎬ	-10.8833
ᎬᏅ	-10.8835
ᏘᏄᎦ	-10.8836
▁ᎤᏍᏆᏂᎪᏎ	-10.8836
▁ᎠᏓᏪᎵᎩᏍᎬ	-10.8842
▁ᎣᎦᏛᎦᏅ	-10.8843
▁ᎠᏍᎪ	-10.8843
▁ᎠᎩᏇᏓᎸ	-10.8847
▁ᎢᏣᏓᏙᎵᏍᏗᏍᎬ	-10.8849
▁ᏕᎦᏍᎩᎸ	-10.8849
ᏗᎦᏛᎯ	-10.885
▁ᎤᎾᏂᎩᏎ	-10.8852
▁ᎤᎵᏰᏔᏁ	-10.8852
▁ᏙᏧᎾᏓᏅᏛ	-10.8854
▁ᎤᎶᎨᏒ	-10.8855
ᏫᎵᎻ	-10.8855
ᏄᏓᎴ	-10.8855
▁ᏣᎦ	-10.8856
▁ᏱᏥᎦᏔᎮ	-10.8856
▁ᏂᎦᎵᏍᏗᏍᎪ	-10.8857
▁ᏄᏂᏪᏎᎴ	-10.8857
▁ᎢᏣᎵᎮᎵᎬ	-10.8858
▁ᎦᏁᏥ	-10.8864
▁ᏱᏄᏍᏕ	-10.8864
▁ᏚᏓᏘᎾᎥ	-10.8865
▁ᎤᏬᎯᏳᏒ	-10.8866
▁ᏱᎬᏆ	-10.8873
▁ᎤᏄᏩᎥ	-10.8875
▁ᏈᎬ	-10.8876
ᎾᏄᎪᏫᏎ	-10.8878
▁ᎤᏮᏔᏅ	-10.888
▁ᎠᏂᏍᎦ	-10.888
▁ᏗᎦᏁᎸ	-10.888
▁ᏕᎦᏬᏁᏗᏍᎬ	-10.8881
▁ᎠᏇᏅᏒ	-10.8883
▁ᎬᏩᎾᏕ	-10.8885
▁ᎾᎩᏪᏎᎸ	-10.8886
▁ᏭᏯᏅᎲ	-10.8887
ᎪᎲᏍᏙᏗ	-10.8889
▁ᎠᎩᏩᏛᎲ	-10.889
▁ᏄᏅᏁᎸ	-10.8892
▁ᎥᎩᏙ	-10.8893
▁ᏥᏰᎸ	-10.8896
ᎾᏗ	-10.8896
ᏰᎳᏍᏗ	-10.8899
ᎯᏍᏔᏂ	-10.89
ᎤᎷᏨ	-10.8901
▁ᎤᎵᏦᏛ	-10.8902
▁ᎠᏂᎪᏩᏘᏍᎬ	-10.8904
ᏲᏍᏓ	-10.8905
ᏬᏗᎨ	-10.8909
▁ᎤᎷ	-10.891
▁ᏇᏓᏁᎳᎻ	-10.8911
▁ᏧᏂᎧᎿᏩᏛᏍᏗ	-10.8912
▁ᏗᎫᏍᏙᏍᏗ	-10.8913
▁ᎠᏍᎫᏕᏍᏗ	-10.8913
▁ᏂᏕᎦᏪᏎᎲ	-10.8913
▁ᎤᏬᎯᏳᏅ	-10.8914
ᏲᎱᎯᏎᎸᎯ	-10.8915
▁ᏗᎨᎫᎪᏓᏁᏗ	-10.8918
▁ᏭᎷᏤᎴ	-10.8918
ᎴᏏ	-10.8919
ᎰᏩ	-10.8919
▁ᏕᏗ	-10.8921
ᏏᏔᏗᏍᏗ	-10.8922
▁ᏭᎶᎯᏍᏗ	-10.8923
▁ᎠᏥᏁᏗ	-10.8923
ᏙᎡᏍᏗ	-10.8925
ᏗᎦᎵᏍᏙᏗ	-10.8926
▁ᏗᏣᎸᏫᏍᏓᏁᏗ	-10.8927
▁ᎠᏇᏓᏍᏗ	-10.8928
ᏛᏁᎲᎢ	-10.893
ᎣᏏ	-10.8932
▁ᎤᎾᏗᏔᏍᏗ	-10.8934
ᎾᏌᎾᎩ	-10.8936
▁ᎠᎾᎳᏍᎦᎵᏍᎩ	-10.8937
▁ᎠᏂᏥᏊᏏ	-10.8937
▁ᎠᏬᎭᎵ	-10.8937
▁ᎢᎨᎬᏁᎸᎯ	-10.8937
▁ᎢᎵᎡᏌ	-10.8937
▁ᎤᏍᏔᏲᏒ	-10.8937
▁ᎤᏖᎸᎳᏛ	-10.8937
▁ᎧᎾᏥᏍᏕᏥ	-10.8937
▁ᎫᏫᏍᎫᏫ	-10.8937
▁ᎬᏬᎯᏳᎲᏍᎩ	-10.8937
▁ᎬᏲᏎᎭ	-10.8937
▁ᎰᏢᏔᏅᎭ	-10.8937
▁ᎴᎣᏗᏏᏯ	-10.8937
▁ᎻᏚᏏᎳ	-10.8937
▁ᏂᏦᎵᎬᎾ	-10.8937
▁ᏇᏣᎵᎵ	-10.8937
▁ᏍᏕᏱᏓ	-10.8937
▁ᏓᏇᎪᏔᏅ	-10.8937
▁ᏗᎾᏙᎴᏆᏍᎩ	-10.8937
▁ᏗᏓᎴᏅᏗᏍᎩ	-10.8937
▁ᏣᎦᏑᎲᎢ	-10.8937
▁ᏧᏂᏦᏯᏍᏗ	-10.8937
▁ᎥᏆᎸᎢᏛ	-10.8937
▁ᎯᏌᎳᏛᎦ	-10.8937
▁ᏗᎬᏩᎩᏨᏗ	-10.8937
▁ᏥᏈᎣᏂ	-10.8937
▁ᎤᏂᎵᏅᏨᎯ	-10.8937
▁ᏓᏗᎶᏂ	-10.8937
▁ᎢᏯᏛᏁᎵᏓᏍᏗ	-10.8937
▁ᎤᎵᏃᎯᏴᎯ	-10.8937
▁ᏥᏂᏨᏪᏎᎸᎩ	-10.8937
▁ᏧᎾᏗᎩᏓ	-10.8937
▁ᎢᏥᏇᏓᎸ	-10.8937
▁ᏗᏥᎨᏫ	-10.8937
▁ᎢᏳᏩᎬᏗ	-10.8937
▁ᎠᎵᏏᎾᎯᏍᏙᏗ	-10.8937
▁ᎠᏂᎪᏗᏳ	-10.8937
▁ᎤᏪᏯᎸᏤᎢ	-10.8937
▁ᏚᏕᏲᏁ	-10.8937
▁ᎠᏆᏗᏔᏍᏗ	-10.8937
▁ᎠᎾᎵᏖᎸᎲᏍᎩ	-10.8937
▁ᏍᎪᏂᏗᏢ	-10.8937
▁ᎤᎵᏍᏛᏧᏁ	-10.8937
▁ᏗᎨᏘᏂᏓᏍᏗ	-10.8937
▁ᎹᎺᎵ	-10.8937
▁ᎠᏂᎶᏍᎩ	-10.8937
▁ᎤᏦᎠᏎᏗ	-10.8937
▁ᎪᎯᏳᎲᏍᎨᏍᏗ	-10.8937
▁ᎠᎪᎲᏍᏔᏅᎯ	-10.8937
▁ᎤᏢᏓᎸ	-10.8937
▁ᎠᏟᎶᎥ	-10.8937
▁ᎤᎦᏛᎾᏨᎯ	-10.8937
▁ᏧᏏᏩ	-10.8937
▁ᎦᎶᏣᏗ	-10.8937
▁ᎠᏁᎸᏗᏍᎨᎢ	-10.8937
▁ᎢᎪᏂᏯ	-10.8937
▁ᎤᏙᎳᏅᏍᏗ	-10.8937
▁ᏕᏥᏂᏴᏎᏍᏗ	-10.8937
▁ᏆᏏᎹ	-10.8937
▁ᏗᎩᏲᎱᏒᎯ	-10.8937
▁ᏅᏓᏳᎾᏓᎴᏅᎯ	-10.8937
▁ᎢᏥᏁᎫ	-10.8937
▁ᎾᏂᏍᎦᏅᎾ	-10.8937
▁ᏓᏲᏣᏛᏁᎵ	-10.8937
▁ᎾᏃᎯᏳᎲᏍᎬᎾ	-10.8937
▁ᎠᎾᏓᎭᏲᎯ	-10.8937
▁ᎠᏙᎴᎰᏒᎯ	-10.8937
▁ᎬᏩᏕᏱᏛ	-10.8937
▁ᏗᏂᏃᎨᏂ	-10.8937
▁ᏧᎬᏩᎳᏅᎯ	-10.8937
ᏐᎭᏛ	-10.8937
▁ᏄᎾᏛᏁᎵᏙᎸ	-10.8938
ᎩᏏᏕᎩ	-10.8938
▁ᏧᏈᏯ	-10.8938
▁ᏖᎹ	-10.8938
▁ᎢᎬᏆᏛᏁᏗ	-10.8938
ᏙᎴᏋ	-10.8938
▁ᏭᏕᎵᏤ	-10.8938
▁ᏓᏓᏛᏂ	-10.8938
▁ᏗᏂᏐᎯ	-10.8938
▁ᏱᏥᎪᎵᏰᎣ	-10.8938
▁ᎤᏴᎵᎴ	-10.8938
ᏫᏂᏗᏢ	-10.8938
▁ᎢᏳᎾᏓᎳ	-10.8938
▁ᎤᎦᏃᏮ	-10.8938
▁ᏁᏆᎸ	-10.8938
▁ᏓᎦᏥᏁᎵ	-10.8938
▁ᏗᎬᏩᏂᏰᎯ	-10.8938
▁ᏘᎦᏙᎵ	-10.8938
▁ᏚᏪᎧᏅᎩ	-10.8938
▁ᎤᏆᏛᎩ	-10.8938
▁ᏧᏬᏢᏅᎯ	-10.8938
▁ᏗᎦᎾᏌᎢ	-10.8938
▁ᏚᏭᏢᏔᏅᎩ	-10.8938
▁ᎶᏩᏂ	-10.8938
▁ᏧᎵᎬᏩᏟ	-10.8938
▁ᎠᏆᏟᏂᎬᏁᎸ	-10.8939
▁ᎠᏂᎱᏣ	-10.8939
▁ᏧᎾᎪᏅᏍᏓᎵ	-10.8939
▁ᎥᏃᏥ	-10.8939
▁ᏳᏲᎱᏒ	-10.8939
▁ᎢᏯᏓᏛᏁᎯ	-10.8939
▁ᏩᏥᎳ	-10.8939
▁ᏗᏕᏲᎲᏍᎩ	-10.8939
▁ᏫᏥᏲᎵᎦ	-10.8939
▁ᎠᏂᏃᎮᏍᎨ	-10.8939
▁ᏅᏁᎸᎭ	-10.8939
▁ᎢᏯᏆᎵᏍᏙᏗᏱ	-10.8939
▁ᎤᎾᏚᎵᏍᎩ	-10.8939
▁ᎦᏥᏯᏁᎳᏅᎯ	-10.8939
▁ᎪᎢᏳᎲᏍᎦ	-10.8939
▁ᏅᏓᏳᏅᏏᏛ	-10.894
▁ᎭᏛᏓᏍᏓ	-10.894
▁ᎠᏂᎩᎦᎨ	-10.894
▁ᏗᎩᏴᏫ	-10.894
▁ᏥᏍᎦᎢᎲ	-10.894
▁ᎱᎷᏣ	-10.894
▁ᎤᎾᏙᎴᎰᎯᏍᏙᏗ	-10.894
▁ᎠᏂᎾᏰᏍᎩ	-10.894
▁ᏕᏅᏙᎥ	-10.8941
▁ᎡᏥᏲᎵᎸᎭ	-10.8941
▁ᏕᎦᏰᏌᏛ	-10.8941
▁ᏂᏣᏓᏅᏛᎾ	-10.8941
▁ᎢᏥᎨᏴ	-10.8941
▁ᎤᏃᎯᏳᎯ	-10.8941
▁ᏄᏓᏑᏴᎾ	-10.8941
▁ᏚᏬᏁᏔᏅᎩ	-10.8941
▁ᎢᏤᎵᎭ	-10.8941
▁ᎢᏗᏜ	-10.8941
▁ᏱᏥᏏᎾ	-10.8941
▁ᏗᏍᎩᎧᏁ	-10.8941
▁ᎢᏣᎴᏂᏙᎲ	-10.8941
▁ᏗᏂᎴᏂ	-10.8942
▁ᏗᏥᎸᏫᏍᏓᏁᎯ	-10.8942
▁ᎠᏂᎡᎼᎵ	-10.8942
▁ᎤᏂᏆᏘᏍᏗ	-10.8942
▁ᎤᎧᎵᏨ	-10.8942
▁ᎠᏆᏕᎶᎰᏒ	-10.8942
▁ᏅᏓᏍᏆ	-10.8942
▁ᎤᎸᏉᏔᏁ	-10.8942
ᎵᏖᎸᏂᏍᏗ	-10.8942
▁ᏗᏣᎳᏏ	-10.8943
▁ᎠᎱᎵ	-10.8943
▁ᏗᎭᎾᏬ	-10.8943
▁ᏁᎳᏚ	-10.8943
▁ᏫᏂᏪᏏ	-10.8943
▁ᎢᏧᏖ	-10.8943
▁ᏓᏓᏂᎸᎨᏍᏗ	-10.8943
▁ᏤᎵᎪ	-10.8943
▁ᎠᏯᏄᎵ	-10.8944
ᏡᏔᏂ	-10.8944
▁ᎤᏓᏑᏰᏛ	-10.8944
▁ᎢᎬᎾᏕᏅ	-10.8944
▁ᏫᏥᎦᏘ	-10.8944
▁ᏚᏄᏌᏛ	-10.8944
▁ᏗᏁᏍᎨᏍᎩ	-10.8944
▁ᏚᎿᏍᏕᏢ	-10.8944
▁ᏗᎦᎪᏙᏗ	-10.8944
▁ᎡᎿᎢ	-10.8944
▁ᏦᎨᏥ	-10.8944
▁ᎬᏔᏲᏎᎭ	-10.8945
ᏲᎵᏍᏗᏱ	-10.8945
▁ᏣᏓᏅᏛᎢ	-10.8945
▁ᎠᏄᏬᎩᎯ	-10.8945
▁ᏓᏂᏴᎬᎢ	-10.8945
▁ᎪᏒᏅ	-10.8945
▁ᎢᏨᏲᏪᎳᏁᎭ	-10.8945
▁ᏣᏓᎸᎩ	-10.8945
▁ᏓᏂᏴᎨᏍᏗ	-10.8945
▁ᏭᎩᎶᏫᏎ	-10.8945
▁ᏗᏣᎳᏏᏕᏂ	-10.8946
▁ᏓᏂᏄᏙᎬᎢ	-10.8946
▁ᏚᏚᏓᏛᎢ	-10.8946
▁ᏥᎦᏚᎭ	-10.8946
▁ᎠᏈᎷ	-10.8946
▁ᏧᏲᎯᏍᏗᏱ	-10.8946
▁ᏭᎳᎩᏒ	-10.8946
▁ᎡᏈᎳ	-10.8946
▁ᏂᏥᏪᏍᎬ	-10.8946
▁ᎧᏁᏍᎬ	-10.8946
▁ᎢᏤᏅᏍᏗᏱ	-10.8947
▁ᏓᎾᏠᏱᎲ	-10.8947
▁ᎤᏓᏅᎦᎸᏓ	-10.8947
▁ᎤᏬᏒᏅ	-10.8947
▁ᏧᎸᏫᏍᏓᏁᎸᎯ	-10.8947
▁ᏅᏛᏛᏁᎵ	-10.8947
▁ᎦᏛᎩᎠ	-10.8947
▁ᎬᏯᎵᎡᎵᏤ	-10.8947
▁ᏧᏬᏪᎳᏅ	-10.8948
▁ᏓᏥᏁᎵ	-10.8948
▁ᏇᎵᏏ	-10.8948
▁ᏒᎯᏰᏱ	-10.8948
▁ᎠᏂᎩᎾ	-10.8948
▁ᎡᏚᏥ	-10.8948
▁ᏕᎯᎧᏅ	-10.8948
▁ᎤᏲᎱᏎᎮᏍᏗ	-10.8948
▁ᎤᏅᏪ	-10.8948
▁ᎠᏴᏓᏆᎶᏍᎩ	-10.8949
▁ᏫᏄᏪᏎᎢ	-10.8949
▁ᏗᎦᏁᎲ	-10.8949
▁ᏣᏔᎳᏬᎯᏍᏗ	-10.8949
▁ᏚᏘᏃᎮᎴᎢ	-10.8949
▁ᎦᏓᎷᎪᏗ	-10.8949
▁ᏧᎧᎭᏲ	-10.8949
▁ᏱᏂᎦᎵᏍᏗᎭ	-10.895
▁ᎡᏍᎦᏂᏳ	-10.8951
▁ᎢᏗᏂ	-10.8952
▁ᎤᎵᏦᎯᏛ	-10.8952
▁ᎢᏣᎵᏍᏓᏴᏗᏱ	-10.8952
▁ᎴᎻᎩ	-10.8952
▁ᏗᏟᏍᏙᏗ	-10.8952
▁ᏧᎾᏁᎳᏅᎯ	-10.8952
-“	-10.8953
▁ᏚᏏᏔᏛ	-10.8953
▁ᎤᏬᏪᎳᏅᎩ	-10.8953
▁ᎢᏥᏁᏨ	-10.8953
▁ᎠᏆᏛᏅᎢᏍᏗ	-10.8954
▁ᎠᏆᏓᏅᏖᏛ	-10.8954
▁ᎠᏆᏛᏁᏗᏱ	-10.8955
▁ᎠᏫᏌᏅ	-10.8955
▁ᎤᏢᎦ	-10.8955
▁ᎤᏃᏪᎳᏅ	-10.8955
▁ᎠᏤᏍᏙᎩᎯ	-10.8956
▁ᏑᏓᎵᏧᏈ	-10.8956
▁ᎠᏂᎦᏘᏯ	-10.8956
▁ᏗᏥᎧᎿᏩᏛᏍᏗᏱ	-10.8957
▁ᎦᏰᎵᏍᏗ	-10.8957
▁ᎤᏲᎱᏎᏗ	-10.8957
▁ᏩᏍᏘ	-10.8957
▁ᏚᏪᏴ	-10.8958
▁ᎠᏌᎳᏙᏗ	-10.8958
▁ᎤᎾᏄᎪᏥᎸ	-10.8958
▁ᎤᏁᏅᏒᎩ	-10.8959
▁ᏚᏃᏁᎴ	-10.8959
▁ᎠᏃᏍᏓ	-10.8959
▁ᎠᏋᏔᏅᎯ	-10.896
▁ᎠᏣᎳᎩ	-10.896
▁ᎦᎬᏩᏐᏢ	-10.896
▁ᎤᎸᏌᏗ	-10.8961
▁ᎤᏩᏂᎦᎸᎢ	-10.8961
▁ᏗᎫᏍᏙᏍᏗᏱ	-10.8961
▁ᎦᏁᏥᏱ	-10.8961
▁ᎦᏘ	-10.8962
▁ᎠᏂᏍᎦᏰᎬᏍᏓ	-10.8962
▁ᎤᏍᏆᏂᎪᏔᏁᎢ	-10.8962
▁ᎤᏂᏍᎦᎴᎢ	-10.8962
ᏬᏁᏔᏁ	-10.8963
▁ᎤᏂᏃᎮᏗᏱ	-10.8963
▁ᎤᏂᎾᎥ	-10.8963
▁ᎤᏪᏙᎴᎢ	-10.8963
▁ᏗᎦᏘ	-10.8964
▁ᎢᏣᏛᏁᏗ	-10.8965
▁ᎤᏬᎳ	-10.8965
▁ᎭᏟᏂᎬᏁ	-10.8966
▁ᎾᏥᏪᏎᎴᎢ	-10.8966
ᎵᏓᏍᏗᏱ	-10.8966
▁ᎦᎪᎵᏍᏗ	-10.8966
▁ᏂᏨᏁᎲ	-10.8966
▁ᏧᎾᏛᎾ	-10.8966
▁ᎬᏩᏍᎦᎩ	-10.8966
▁ᎤᏂᏁᏉᏤ	-10.8966
▁ᏂᏚᏅ	-10.8967
ᏁᏉᏣᏘ	-10.8967
▁ᎤᏕᏔᏅᎯ	-10.8968
▁ᎾᏥᎤᏍᏕᏎᎸᎾ	-10.8968
▁ᏱᏂᎦᎩ	-10.8968
▁ᏳᏪᎾ	-10.8969
▁ᎢᏨᏁᏗ	-10.8969
▁ᎤᏛᏅᏗᎦᎳᏫᎢᏍᏗᏱ	-10.897
▁ᏣᏍᏆ	-10.8971
▁ᏤᏣᎧᏃᏗ	-10.8971
▁ᎢᏳᏪᏍᏗ	-10.8972
▁ᎤᎵᏍᎪᎸᏔᏅᎯ	-10.8972
▁ᏥᏄᏍᏛ	-10.8972
▁ᎠᏍᏕᎵᏍᎩ	-10.8973
ᏥᎤᏍᏕᏎᎸᎾ	-10.8973
▁ᎢᏨᏙᏗᏱ	-10.8974
▁ᏣᎾᏫᏱ	-10.8974
▁ᎢᏥᏁᏗ	-10.8976
▁ᏭᏓᏒᏍᏔᏁ	-10.8976
▁ᎤᎾᏅᏗᏱ	-10.8976
▁ᎠᎩᎷᏤᎸᎩ	-10.8976
▁ᎤᏂᏚᎲᎢ	-10.8977
ᏩᏛᎲᏍᏗᏱ	-10.8977
▁ᎢᏣᏁᎳᏅᎯ	-10.8977
▁ᎱᏂᎷᏤ	-10.8977
▁ᎤᏂᏰᎸᎯ	-10.8978
▁ᏭᏓᎪᎾᏛᏛ	-10.8979
▁ᏂᎨᏥᏪᏎᎸ	-10.898
▁ᏍᎦᏰᎬᏍᏔ	-10.898
▁ᏳᏪᎭ	-10.898
▁ᎤᏴᎸᎩ	-10.8981
▁ᎠᏔ	-10.8982
▁ᎤᏓᏅᏍᏗ	-10.8982
ᎦᎶᎨᏒ	-10.8982
▁ᎯᏄᎪᎢ	-10.8984
▁ᏚᏄᎪᏫᏒ	-10.8985
▁ᎡᏥᏁᎸᎯ	-10.8985
▁ᎦᏃᎯᎵᏙ	-10.8985
▁ᎠᎾᏗᏍᎬ	-10.8986
▁ᎤᎦᏔᎲᏎ	-10.899
▁ᏚᏓᏘᎿᎥᎢ	-10.8992
▁ᎤᎾᏄᎪᏫᏍᏗᏱ	-10.8993
▁ᎠᏁᎵᏍᎪ	-10.8993
▁ᎢᏓᏙᎴᎰᎯᏍᏗ	-10.8994
ᏘᏁᏒᎭ	-10.8994
▁ᎤᎾᏓᏟᏌᏅ	-10.8994
▁ᏩᎦᏛᎢ	-10.8994
▁ᏒᏙᏂ	-10.8995
▁ᎤᏍᏕᎸᏗᏱ	-10.8996
▁ᎠᎩᎪᏩᏛᏗᏱ	-10.8997
▁ᎤᏔᏪᏙᏁᎢ	-10.8997
▁ᎤᎩᎵ	-10.8998
▁ᏌᎻ	-10.8999
▁ᎠᎳᏑᎶ	-10.9001
ᎴᏁᎯ	-10.9001
▁ᎤᏅᏙᏗ	-10.9001
ᏓᎵᏓᏍᏗ	-10.9002
ill	-10.9002
▁ᎤᏍᏚᏁ	-10.9003
▁ᏕᎦᎧᎲᎩ	-10.9003
▁ᏧᎾᏍᏗᎦ	-10.9006
▁Ꮌ	-10.9007
▁ᎢᎨᏣᏛᏁᏗ	-10.901
▁ᏧᏪᏥᏛᎯ	-10.9011
▁ᎤᏬᏢᏁᎢ	-10.9012
▁ᏧᏓᎴᏁᎢ	-10.9012
▁ᎤᏍᏓᏩᏗᏙᎯ	-10.9013
ᏰᎵᏎ	-10.9013
▁ᎹᎵ	-10.9014
▁ᎠᎩᏃᎮᎸ	-10.9015
▁ᎦᏁᎮᎢ	-10.9015
▁ᎦᎵᏆᏚ	-10.9016
ᏍᏗᎭ	-10.9016
▁ᏙᎳᏧᎦ	-10.9018
▁ᏙᏌ	-10.902
▁ᎣᎨᏅᏒ	-10.902
▁ᎦᏆᎵ	-10.9021
ᏓᏎᎪᎩ	-10.9022
▁ᎢᎾᏏ	-10.9022
▁ᏥᏅᎵ	-10.9022
▁ᎤᏂᏴᏗ	-10.9023
▁ᎦᏁᏥᎢ	-10.9024
▁ᎤᎵᏰᏔᏁᎢ	-10.9026
▁ᏬᏤ	-10.9026
▁ᎤᏄᏬᏍᏗ	-10.9026
▁ᎤᎾᎴᏅᎲ	-10.9028
▁ᏂᎦᎵᏍᏗᏍᎪᎢ	-10.9028
▁ᏓᏍᏛ	-10.9029
▁ᎠᎦᏅᎩ	-10.9029
▁ᏓᏥᏂ	-10.903
▁ᎢᏍᏕ	-10.9032
▁ᎠᎪᎲᏍᎬ	-10.9033
▁ᏕᎪᏪᎸᎩ	-10.9033
ᏍᏆᎳ	-10.9035
▁ᏭᏴᎸᎩ	-10.9035
▁ᏗᎦᎫᏍᏛᏗᏱ	-10.9036
▁ᏧᏃᎸ	-10.9036
▁ᏥᏯᎥᎢ	-10.9036
▁ᎠᏴᎩ	-10.9037
ᏟᎶᏍᏔᏅ	-10.9038
▁ᎤᏬᎭ	-10.904
▁ᎠᏫᏒᎯ	-10.904
▁ᏂᏣᏛᏁᎲᎢ	-10.9043
▁ᎤᎶᎨᏒᎢ	-10.9047
▁ᏥᏂᎨᎬᏁ	-10.9048
▁ᎦᎵᎷᎨᏍᏗ	-10.9048
▁ᎠᎾᏓᏙᎵᏍᏗᏍᎨ	-10.9049
▁ᏭᎷᏤᎴᎢ	-10.905
▁ᎤᏰᎬ	-10.905
ᏥᏁᎢᏍᏗᎭ	-10.9051
▁ᎠᏇᎵᏒᎩ	-10.9053
▁ᎤᏍᎦᏤ	-10.9055
▁ᎧᏃᎮᏍᎬᎩ	-10.9055
▁ᏓᏟᎶᏍᏛᎢ	-10.9056
ᏢᏂ	-10.906
▁ᏱᏍᏛ	-10.9065
ᏚᏓᎴᏍᏗᏱ	-10.9065
ᎵᏍᎪᎸᏙᏗ	-10.9066
▁ᎤᏂᏴᎮᎢ	-10.9071
▁ᏗᎦᏙᏗ	-10.9071
▁ᎤᏬᏎᎴᎢ	-10.9072
ᏓᏅᎡᎮᏍᏗ	-10.9072
▁ᏂᏗᎨ	-10.9075
ᏅᏂ	-10.9076
▁ᏣᎢᏒ	-10.9076
▁Ꮇ	-10.9076
▁ᏱᏅᎦ	-10.9078
▁ᏚᏂᎪᎲ	-10.908
▁ᎠᎦᏔᎯ	-10.9081
▁ᏓᎧᏁ	-10.9083
▁ᎭᏕᏬ	-10.9083
▁ᏎᎳᎩ	-10.9084
▁ᎤᎾᏙᎴᎰᏒᎩ	-10.9086
ᏍᏗᏰᏗᎭ	-10.9087
▁ᏧᏩᎫᏔᏅᏒᎢ	-10.9087
▁ᎤᏍᏓᎦᎸᎢ	-10.9088
▁ᎤᏃᏢᏗ	-10.9092
ᏓᎩᏍᎨ	-10.9092
ᎵᏎᎲ	-10.9093
▁ᏩᎩᎦ	-10.9098
▁ᏱᏅ	-10.91
▁ᏏᏅ	-10.9103
ᏂᏪᎠ	-10.9103
▁ᏣᎧᏛᎢ	-10.9103
▁ᏥᏂᎦ	-10.9105
▁ᎾᏆᏛᏁᎸᎢ	-10.9105
ᎠᎩᏏᏙᎯ	-10.9105
▁ᎦᏅᎦ	-10.9107
▁ᎬᏩᎷᏤᎴᎢ	-10.9109
▁ᏯᎩᏰᎸ	-10.9109
▁ᎬᎩᏍᏗ	-10.9116
ᏅᏗᏍᎪ	-10.9116
ᎵᏙᎯ	-10.9117
▁ᎡᏙᎲᎩ	-10.9117
▁ᎢᏆ	-10.9118
ᎵᏓᏍᏔᏅ	-10.9118
ᏛᏛᎾ	-10.912
ᏚᎯ	-10.9122
▁Ꮰ	-10.9122
ᏎᏃ	-10.9125
▁ᎠᏂᏁᎬᎢ	-10.9125
▁ᏤᏏ	-10.9128
▁ᎦᏁᎯ	-10.9132
ᏂᏬᏂᎯᏍᏗ	-10.9132
ᎵᏍᎪᎸᏔ	-10.9133
▁ᏧᎾᏗᏔᏍᏗ	-10.9134
▁ᎦᎵᏦᏙᏗ	-10.9135
▁ᏣᏍᎦᏅᏨ	-10.9136
▁ᎠᏆᏛ	-10.9138
▁ᎨᏙᎲᎢ	-10.9139
ᎩᎾᏝᎢ	-10.9139
▁ᏓᏯ	-10.9143
▁ᏗᏍᏚ	-10.9145
▁ᏚᎷᎬ	-10.9147
ᏰᏗ	-10.9148
▁ᏗᎬᎩ	-10.9152
▁ᏓᏫᏒᎢ	-10.9152
▁ᎢᏥᎲᎢ	-10.9152
▁ᎠᎢᏎ	-10.9155
▁ᎬᏩᎦ	-10.9158
ᎵᏍᎪᎸᏓᏏ	-10.9163
▁ᎣᎦᎾ	-10.9164
▁ᎤᎾᎵᎪᏒ	-10.9164
▁ᎤᏃᏢ	-10.9165
ᎩᏳᏍᏈᏛ	-10.9165
▁ᎡᎳᏂᎬᎢ	-10.9171
▁ᏥᎩᎵᏲᎬ	-10.9177
▁ᎾᏛᎦ	-10.918
▁ᎢᏢ	-10.919
▁ᏙᎤ	-10.9192
ᏌᏛᎥᏍᎩ	-10.9195
▁ᎠᎦᎵᏍᎪᎸᏓᏁᎸ	-10.9195
▁ᏙᏓᎸᎢ	-10.9196
ᎸᏍᏗᏱ	-10.9197
ha	-10.9197
▁ᎠᏏᎾ	-10.9198
ᏓᎾᏫᏛᎮ	-10.92
ᏛᏁ	-10.9201
▁ᏇᎳ	-10.9208
ᎯᎲᎢ	-10.921
▁ᎠᏯᎠ	-10.921
ᏆᎴ	-10.9215
▁ᎠᎾᎢᏒᎢ	-10.9216
▁ᎣᏤ	-10.9219
▁ᎠᏍᏆ	-10.9219
ᎷᏤᎸᎩ	-10.9222
ᎵᏦᏩᏛ	-10.923
ᎦᏅᏍᎨᏂ	-10.9232
ᏲᏍᎬ	-10.9237
▁ᎣᏍᏗ	-10.9237
▁ᏅᎩᏃ	-10.9238
▁ᎡᏏ	-10.9241
ᏍᏚᏟᏍᏗ	-10.9245
▁ᏚᏲ	-10.9248
▁ᏓᏓᏁᎸᎢ	-10.9251
▁ᏚᏩᏒ	-10.9253
▁ᎤᎷᏨᎯ	-10.9259
ᏁᏤᏗᏱ	-10.9261
▁ᎦᎵᏣ	-10.9261
▁ᎦᎳᎨᏴᎢ	-10.9264
▁ᏕᎦᏚᎲᎢ	-10.9264
▁ᏂᏣᏛᏁᎸᎢ	-10.9265
▁ᏂᏣᏍᏛ	-10.9269
▁ᎠᏲᎱ	-10.927
▁ᎤᏕᏅᎢ	-10.9271
▁ᏗᎵ	-10.9272
ᏱᏆ	-10.9272
▁ᎤᏂᎯ	-10.9273
▁ᎤᏁᎳᏅ	-10.9276
▁ᏕᎨᏒ	-10.928
▁ᏓᏆᏙᎥᎢ	-10.9281
▁ᎤᎶᏎ	-10.9287
ᎵᏙᎮ	-10.9289
ᏲᎵᎴ	-10.9294
▁ᎤᏓᏅᏖᎢ	-10.9296
▁ᎤᏂᎾ	-10.9297
ᎯᎲ	-10.931
▁ᎠᎾᏛᎩᏍᎨ	-10.9328
▁ᎠᏂᎦ	-10.933
ᏘᏃᎦ	-10.934
▁ᏕᎯᏁᎸ	-10.934
ᏛᏅᎢᏍᏓ	-10.9353
ᎦᏘᏓ	-10.9353
▁ᎤᏑᎸ	-10.9354
▁ᎨᏆ	-10.9357
ᏌᎳᏓᏅ	-10.9361
▁ᎠᏂᏬᏂᏍᎬᎢ	-10.9362
▁ᏏᏆᏏ	-10.9366
ᏁᏤᎸ	-10.9371
▁ᎵᏍᏗ	-10.9374
ᎸᏛ	-10.9375
ᏓᎴᏒ	-10.9377
ᎵᏱᎶᎯᏍᏗ	-10.9385
ᏂᎩᏓ	-10.9387
▁ᎠᎵᏍᏓᏴᏗᏱ	-10.9397
ᏛᎯᏍᏙᏗ	-10.9399
▁ᏣᎬ	-10.9399
ᏲᎰ	-10.9401
▁ᏂᏚᏓᎴ	-10.9401
ᏓᎴᎾᏍᏗ	-10.9405
ᎤᏣ	-10.9409
▁ᎤᏛᎦᏁᎢ	-10.9414
ᏰᎵᏉ	-10.9414
▁ᏂᎬᏁᎮ	-10.9415
ᎳᏍᏓ	-10.9421
ᏳᎳ	-10.9425
▁ᎠᏍᏆᏂᎪᏗᏍᎨ	-10.9425
ᎩᎵ	-10.9426
▁ᎪᏢ	-10.9427
ᏥᏁᎸᎯ	-10.9428
▁ᎢᎭ	-10.9431
ᎾᏄᎪᏫᏍᎨᏍᏗ	-10.9436
ᏯᎡᏍᏗ	-10.9441
ᎵᏍᎦᏍᏙᏗ	-10.9442
▁ᎤᏓᎴ	-10.9449
▁ᏗᏍᏛ	-10.9453
▁ᎦᎸᏍᏗ	-10.946
▁ᎦᎸᎳᏗᎨ	-10.9463
ᏓᏅᏖᏙᏗ	-10.9465
ᏏᏯ	-10.9473
▁ᎦᏳ	-10.9477
▁ᎢᏥᎷᏤᎸ	-10.9481
ᏟᏂᎬᎬ	-10.9481
▁ᎯᏥ	-10.9487
ᎶᏅ	-10.9489
▁ᎤᏕᎵ	-10.9494
▁ᏱᏂᏣᏛᏁ	-10.9498
▁ᏨᏍᎩᏃᎢ	-10.9498
ᎴᎲᎦ	-10.9505
▁ᏃᏉᏗ	-10.9507
ᏅᏤᎢ	-10.9508
▁ᏳᏰᎸ	-10.9513
▁ᎤᏢ	-10.9516
ᏢᏈ	-10.952
▁ᏳᎪ	-10.9521
▁ᏥᎦᏔᎲ	-10.9531
ᎵᏍᏗᏍᎩ	-10.9532
ᎯᏗᏳ	-10.9533
▁ᏄᏅᏁ	-10.9533
ᏅᏍᏓᏕᎸᎩ	-10.9539
▁ᎦᏄᎪᎬ	-10.9545
ᏏᏏ	-10.9547
▁ᎢᎡ	-10.9549
▁ᎪᎯᎩ	-10.955
ᎪᎵᏰᎠ	-10.9564
▁ᏕᎬᏩᏂ	-10.9572
ᎦᏍ	-10.9576
ᏅᏁᎮᏍᏗ	-10.9578
ᎲᏍᎨ	-10.9585
ᎲᏍᎬᎢ	-10.9588
▁ᏧᏃᏢ	-10.9589
ᎰᎸ	-10.9589
ᎵᏦᏛ	-10.9601
ᏴᎦ	-10.9611
▁ᏚᏂᎭ	-10.962
▁ᎾᏛᏁᎰ	-10.9622
▁Ꮦ	-10.9639
▁ᎩᏓ	-10.9642
▁ᏯᏇ	-10.9644
▁ᎤᏂᎬᏫᏳ	-10.9646
ᏙᎮ	-10.9647
▁ᏍᎩᏳ	-10.9647
ᏓᏂᏴ	-10.9656
ᏍᏕᎸ	-10.9657
▁ᏣᎵᏍᎪᎸᏙᏗ	-10.9695
▁ᎠᎾᏘ	-10.9711
▁ᏱᏍᏆ	-10.9712
ᏂᏍᏆᏂᎪ	-10.9714
ᎸᏉᏗᏍᎩ	-10.9717
▁ᎦᏥᏃᏍ	-10.9718
▁ᎤᎪᎲᎢ	-10.9728
▁ᏁᏣ	-10.9746
▁ᏧᎳ	-10.9749
ᏍᎪᎵ	-10.9758
▁ᎠᏁᎲᎩ	-10.9768
▁ᏧᏲᎯᏎᏗ	-10.9771
▁ᏃᎦ	-10.9773
ᏤᎯ	-10.9776
▁ᏭᏍᏗ	-10.9779
ᎪᏩᏘᏍᎪ	-10.978
ᏘᏅᏒᎩ	-10.9787
▁ᏍᎩᏰᎸᏗ	-10.9795
ᏲᎯᏎᏗᏱ	-10.9797
ᎫᏴ	-10.9799
▁ᏧᏁᏤ	-10.9803
▁ᎦᎶᏗ	-10.9829
ᏍᏓᏁᎸᎯ	-10.9832
ᏗᎦᏅᎯᏛ	-10.9834
ᏲᎵᎸ	-10.984
▁ᎠᎪᎢ	-10.9859
▁ᎦᎾᏰ	-10.9863
ᎦᏕ	-10.9866
ᏬᏁᏔᏅ	-10.9867
▁ᎤᎿᏬ	-10.987
ᏌᏁ	-10.9872
▁ᎤᏆ	-10.9874
▁ᎥᎩᎸᏉ	-10.9876
ᎯᎮᏍᏗ	-10.9881
ᏂᎲ	-10.9892
▁ᎠᏫᏃ	-10.9895
ᎪᏎᎭ	-10.9897
ᏓᏁᎸᎯ	-10.9897
ᏥᎾᏄᎪᏫᏏ	-10.9902
▁ᎢᏥᏍᏆᏂᎪ	-10.9917
ᏍᏓᏩᏗᏒᎩ	-10.9923
ᏚᎵᏍᎪ	-10.9924
▁ᏫᏱ	-10.9928
ᏩᏗᏒᎢ	-10.9934
▁ᏣᏕ	-10.9934
ᎳᎭ	-10.9937
ᎲᏍᎨᎢ	-10.9941
▁ᎢᏥᎭ	-10.9944
ᎴᏅᎮ	-10.9945
ᏥᎵ	-10.9949
▁ᏣᎫ	-10.9958
▁ᏗᏥᏁᏟᏴ	-10.9958
▁ᏣᏓᏰ	-10.9962
ᎨᏎ	-10.9971
▁ᎤᎵᎢ	-10.9978
▁ᏱᏙᎩ	-10.9989
ᎩᏍᎨ	-10.9991
▁ᏗᏍᏓ	-11.0002
ᎢᎦᎸᏉᏗ	-11.0004
▁ᎤᏪᏅ	-11.001
ᏥᎦᏔᎲᎾ	-11.0015
▁ᎤᏂᏯ	-11.0018
▁ᏣᏁᎩ	-11.002
▁ᎦᎶᏁᏛᏰᏃ	-11.0047
ᏍᎩᎸ	-11.0049
ᎩᏏ	-11.0072
ᏔᏪᏙ	-11.008
ᏡᎬ	-11.0091
ᏤᎷᎯᏒ	-11.0103
▁ᎡᏙ	-11.0109
ᏥᎦᏔᎭ	-11.0111
ᎨᎯᏓᏍᏗ	-11.0118
ᎵᏍᎪᎸᏙᏗᏱ	-11.0122
ᏤᎦᏈᏃ	-11.0133
▁ᏳᎳ	-11.0146
ᏘᏅ	-11.0164
▁ᎤᏄᎸ	-11.0188
▁ᎾᏯ	-11.019
ᏍᏓᏲ	-11.0192
ᏎᏗᏱ	-11.0197
▁ᏱᎨᏣ	-11.0205
ᏴᏔᏁᎢ	-11.0209
▁ᏫᏙ	-11.0214
▁ᎧᏃ	-11.0216
ᏴᏢ	-11.0218
ᏞᎢ	-11.0219
ᏖᎢ	-11.0225
▁ᎠᏂᏧᏏᏃ	-11.0245
▁ᎠᏏᏴᏫᏉ	-11.0248
▁ᏦᏍᎪ	-11.0252
ᎪᎾᏛ	-11.0254
▁ᎠᎵᏥᏙ	-11.0254
▁ᏄᏩᏁ	-11.0275
ᏣᏛᏂᏏ	-11.0276
▁ᎠᎩᏲ	-11.0281
▁ᎠᏎᏍᎩᏂ	-11.0288
ᏢᏍᎦ	-11.029
ᏕᏅᎯ	-11.0296
ᎩᎨᏳᎯᏳ	-11.0299
▁ᏚᏂᏍᏚ	-11.0307
ᎸᏙᏗ	-11.0312
▁ᎤᏪᏯ	-11.0315
ᏚᏃᏴᎬ	-11.0325
▁ᎠᏂᏉ	-11.0327
ᏍᏆᏂᎩᏗ	-11.0329
ᎬᏩᎶᏗ	-11.0334
ᎮᎾ	-11.0337
ᏫᏍᎪ	-11.0342
ᏧᎬ	-11.0344
▁ᎤᏓᏁ	-11.0346
ᎪᎦ	-11.0355
ᏓᏍᏗᏱ	-11.0358
▁ᎤᏰᎸ	-11.0365
ᏤᏗ	-11.0375
▁ᏂᎦᏪ	-11.0379
ᏍᏛᏗ	-11.0379
▁ᏚᎵ	-11.0384
ᏟᏗ	-11.0391
ᏰᎸᏍᎬ	-11.0406
ᎥᏍᎦ	-11.041
ᎰᏅ	-11.0412
▁ᏱᏛ	-11.0414
ᎪᏩᏘᏍᎬᎾ	-11.0417
▁ᎣᏂᎦ	-11.0425
ᏪᎵ	-11.0427
ᎻᏂ	-11.0435
ᏍᏕᎵᏍᎩ	-11.0438
ᏒᏰᏃ	-11.0441
▁ᎤᎾᏓᏅ	-11.0442
▁ᏛᏆ	-11.0449
ᏓᎳᎩ	-11.0453
ᎳᎩᏍᏗ	-11.0455
ᎧᎿ	-11.0455
ᎵᎻ	-11.0462
ᏎᎸᎢ	-11.0472
ᎾᏄᎪᏫᏍᏗᏱ	-11.0479
ᏍᏕᎾ	-11.0482
▁ᎠᎦᏓ	-11.0489
ᎵᏍᎪᎸᏓᏁ	-11.0491
ᎦᏓ	-11.0501
ᏕᏲ	-11.0503
ᏒᏆᎶᏍᏗ	-11.0513
ᎪᏒ	-11.0515
▁ᎬᏗᏍᎪ	-11.0523
ᎡᎰᎢ	-11.0533
ᎬᏓ	-11.0542
ᏟᏐᏗᏱ	-11.0557
ᎦᏛᏁ	-11.0562
▁ᏇᎵ	-11.0566
ᏁᎳᎩ	-11.057
▁ᏱᏂᎪ	-11.0572
▁ᎤᏍᎩ	-11.0572
ᏍᏚᎢᏍᏗ	-11.0576
▁ᎢᏨᏁ	-11.0577
ᎦᏬᏂᎯᏍᏗ	-11.0581
ᎵᏒ	-11.0582
ᎵᏍᏓᏴ	-11.0582
ᎧᏯ	-11.0585
▁ᏗᏍ	-11.059
▁ᎤᏩᏗ	-11.0591
▁ᎠᏆᏕ	-11.0594
ᏰᏍᏗ	-11.0595
▁ᎢᏥᏍᎦᎾ	-11.0598
▁ᎤᏅᏤ	-11.0605
ᏢᏅᎩ	-11.0609
ᎦᏄᎪᏫᏍᎦ	-11.0611
▁ᏂᎤ	-11.0612
ᎦᏓᎭ	-11.0613
ᏐᏁ	-11.0615
ᏲᎱᎯᏍᏗ	-11.062
ᎧᎵᎢᏍᏗᏱ	-11.0623
ᎵᎰ	-11.0625
▁ᎠᏂᏍᎦᎢᎮ	-11.0634
ᎵᏎ	-11.0636
▁ᏯᎩᎪ	-11.0638
▁ᎤᏄ	-11.0643
▁ᎤᏃᎸ	-11.0653
ᏇᏅᎯ	-11.0655
▁ᎠᏆᏚ	-11.0662
ᏓᏂᎸᎢᏍᏗ	-11.0662
ᎢᏣ	-11.0663
ᏫᏍᎬ	-11.0669
▁ᎪᎵ	-11.0683
ᎦᏔᎮᏍᏗ	-11.0683
ᎧᎵᏎ	-11.0685
ᏴᎮ	-11.0696
ᏯᏅᏗ	-11.0703
ᎬᏩᎶᏓᏁ	-11.0708
ᏆᏠ	-11.0709
▁ᎠᏎᎵ	-11.071
▁ᎹᏓ	-11.0719
ᎵᏍᏓᏏ	-11.0729
▁ᎤᏂᏩ	-11.0732
▁ᏙᎩᏂ	-11.0734
▁ᎤᎾᏦ	-11.0735
▁ᏧᏂᎳᏫ	-11.0735
▁ᎠᏚᎢᏍ	-11.0747
ᏯᏪᎢᏍᏗ	-11.0747
ᏕᎰ	-11.0751
ᏅᏗᏱ	-11.0752
▁ᎤᏁᏙᎸ	-11.0752
▁ᎤᏲᎢᏍᏗ	-11.0754
ᎦᏔᏁᎢ	-11.0754
▁ᎯᏁᎩ	-11.0772
▁ᏓᎦᏥᏯ	-11.0774
▁ᎤᏮ	-11.0777
ᏁᏤᎲ	-11.0777
▁ᎤᎵᏍᏚ	-11.0785
▁ᏤᏈᏛ	-11.0787
ᏆᏕ	-11.0791
▁ᏣᏤᏍᏙ	-11.0797
ᏰᎸᎯ	-11.0799
▁ᎦᏬᏂᏍᎨ	-11.0806
▁ᏙᏓᎧ	-11.0807
ᏍᏓᏁᎴ	-11.0816
▁ᎤᏂᏰᎸᏎ	-11.0816
ᏅᎢᏍᏗᏱ	-11.0818
▁ᏚᏂᏁ	-11.0821
ᏔᏲᏎᎭ	-11.0824
▁ᎾᎩᏪᏒ	-11.0825
▁ᏦᎩᏂ	-11.0826
▁ᏕᏍ	-11.0827
▁ᎦᏴ	-11.083
▁ᎤᏢᎬ	-11.0831
▁ᏫᏚᎧᎾᏁ	-11.0833
▁ᎦᏍᎩᏓᏍᎬ	-11.0833
▁ᎠᏥᏃᏁᎴ	-11.0833
▁ᏙᎩᎸᏫᏍᏓᏁᎲ	-11.0834
ᏁᏅᏍᏗᏱ	-11.0837
▁ᎢᏛᏗᏍᎬ	-11.0837
▁ᎤᏁᎫ	-11.0838
▁ᎠᎾᏛᎩᏍᎬ	-11.0838
▁ᎠᎾᎵᎮᎵᎬ	-11.084
ᎾᏰᎯᏍᏗ	-11.0843
▁ᎤᏃᎯᏳᏒ	-11.0844
▁ᎠᏗᏍᎨ	-11.0845
▁ᏕᎤᎷᎬ	-11.0846
▁ᏂᏓᏕᏘᏴᎯᏒ	-11.0847
▁ᎠᏂᎩᎵᏲᎬ	-11.0847
ᏎᎪᎩᏍᏗ	-11.0848
▁ᏕᏣᎸᏫᏍᏓᏁᎲ	-11.0849
▁ᏗᎾᏓᎪᎾᏗᏍᎬ	-11.0852
▁ᏨᏌ	-11.0853
▁ᎠᏂᎧᎸ	-11.0854
▁ᎠᎩᏍᏛᏗᏍᎬ	-11.0855
▁ᎤᏁᎷᏁ	-11.0856
▁ᎢᏳᎵᏍᏔᏅ	-11.0857
ᎡᏝᏪᎯ	-11.0857
▁ᎠᎾᏕᎲᏍᎬ	-11.0857
▁ᏩᎾᎢ	-11.0857
▁ᎤᏪᎵ	-11.0857
ᎢᏏᎵ	-11.0858
▁ᎯᏁᎬ	-11.0858
▁ᎤᏒᏂᎴ	-11.0859
▁ᎠᎬᏗᏍᎬ	-11.0859
ᏛᎩᏍᎬ	-11.086
▁ᎠᏟᏍᏛ	-11.086
ᎠᏍᎦᏯ	-11.086
▁ᎤᏃᎯᏳᏅ	-11.0862
▁ᎤᏍᏗᏰᏔᏁ	-11.0862
▁ᎠᏓᎾᏅ	-11.0862
ᎠᎳᏂ	-11.0864
▁ᎤᏓᏙᎵᏍᏔᏅ	-11.0865
▁ᏱᏓᏓ	-11.0866
▁ᎠᎧᎵ	-11.0867
ᏴᏔᏂᎸ	-11.087
▁ᎤᎾᏓᏙᎵᏍᏔᏅ	-11.087
▁ᎾᏆᎵᏍᏔᏅ	-11.0873
▁ᎦᏓᏙᎵᏍᏗᏍᎬ	-11.0873
▁ᎪᏙ	-11.0879
ᎷᎩᏍᎩ	-11.0879
▁ᏥᏃᎮᏍᎬ	-11.0882
▁ᏧᎶᏒ	-11.0883
▁ᎯᏌ	-11.0883
▁ᎠᎾᏓᎪᎾᏗᏍᎬ	-11.0884
▁ᏭᏂᎶᏒ	-11.0885
ᏍᏇᏚᎩ	-11.0886
▁ᏅᏓᎦᎵᏍᏙᏗᏍᎬ	-11.0886
▁ᎤᏂᏰᎸᏅ	-11.0887
▁ᏅᏗᎦᎵᏍᏙ	-11.0887
ᏴᏍᏗᏱ	-11.0888
▁ᎤᏯᏅᎮ	-11.0891
ᎩᏓᏟ	-11.0892
▁ᎠᎪᏎ	-11.0893
▁ᎠᏉᏪᎳᏅ	-11.0893
▁ᏧᏓᎴᏁ	-11.0894
▁ᎤᏦᎯ	-11.0895
ᏦᎢ	-11.0897
ᏄᏕᏘᏴᎲ	-11.0899
ᎵᏍᏓᏴᏙᏗ	-11.0899
▁ᏭᏓᎪᎾᏛ	-11.0902
▁ᎢᏯᏅᏁ	-11.0903
ᏴᏤᏂ	-11.0905
▁ᏕᏣᏓᏂᎸᏨ	-11.0907
▁ᏧᎾᏛᏐᏅ	-11.0907
▁ᎠᏂᎯ	-11.0907
▁ᏗᎩᎾᏫ	-11.0908
▁ᏗᎪᏪᎳᏅ	-11.0909
▁ᎢᏳᎵᏍᏔᏂᏓᏍᏗ	-11.0911
ᏥᎾᏝᎥᎾ	-11.0911
ᏛᏗᏍᎩ	-11.0912
▁ᏗᏂᏅ	-11.0912
ᎠᏁᎯ	-11.0913
▁ᎨᏥᏛᏙᏗ	-11.0913
ᏈᎳ	-11.0913
▁ᏭᏂᎶᎯᏍᏗ	-11.0915
▁ᏗᏥᎧᎿᏩᏛᏍᏗ	-11.0916
▁ᏥᏨ	-11.0916
ᏁᎵᏍᎬᎾ	-11.0917
ᏟᏏᏍᎪ	-11.0917
▁ᏓᏛ	-11.0918
▁ᏗᏍᏆᏂᎪᏙᏗ	-11.0918
ᏯᏗ	-11.0918
▁ᏗᎩᏲ	-11.0918
▁ᎦᏅᏆᎶ	-11.0919
▁ᏧᏂᏒᏍᏗ	-11.0919
▁ᎢᏓᎵᎮᎵ	-11.0919
▁ᏣᏍᏆᏂᎪᏙᏗ	-11.0921
▁ᎦᎷᏨ	-11.0921
▁ᏗᎦᎵᏦ	-11.0921
▁ᎤᏂᏃᎮᏗ	-11.0922
ᏨᏁᏗ	-11.0923
ᏙᎥᎯᏍᏗ	-11.0926
▁ᎤᎵᏂᎩᏗ	-11.0927
▁ᎠᎺ	-11.0928
▁ᏍᏋ	-11.0928
ᏍᏕᏓᎵᏴ	-11.0929
ᏠᎾᏍᏛᎾ	-11.0931
▁ᎤᏙᎯᏳᏁ	-11.0932
ᏚᎧᎾᏅ	-11.0932
ᎰᏢᏅᎭ	-11.0933
es	-11.0933
▁ᏅᏓᏳᏓᎴ	-11.0935
ᏍᏓᏩᏛᏍᏗᏱ	-11.0936
dinot	-11.0937
▁ᎠᎰᎵᏆᎹ	-11.0937
▁ᎢᏯᏆᏕᏘᏴᏓ	-11.0937
▁ᎤᎧᏖᏃᎴ	-11.0937
▁ᎤᎬᏩᎳ	-11.0937
▁ᎱᏁᏅᏎ	-11.0937
▁ᎾᎵᏍᏓᏴᎲᏍᎬᎾ	-11.0937
▁ᏂᏣᏛᎿᏕᎨᏍᏗ	-11.0937
▁ᏂᏥᎪᎸᎾ	-11.0937
▁ᏕᏏᎶᏂᎦ	-11.0937
▁ᏗᎦᏃᏣᏝᏍᎩ	-11.0937
▁ᏗᎦᏌᏆᎸ	-11.0937
▁ᏧᏂᎳᎾᎢ	-11.0937
▁ᏧᏩᏗᏔᏯ	-11.0937
▁ᏬᎩᎶᏒᎩ	-11.0937
▁ᏭᎩᏨᏅ	-11.0937
▁ᏱᏅᏎᎦᎩ	-11.0937
▁ᎠᏁᏯᏔᎯ	-11.0937
▁ᎠᏳᎾᎦ	-11.0937
▁ᎤᎾᎵᏍᏔᏴᏗ	-11.0937
▁ᎤᎾᏗᎦᎴᏲᏨᎯ	-11.0937
▁ᎤᏔᎳᏬᏎᎢ	-11.0937
▁ᏂᏥᏪᎠ	-11.0937
▁ᏧᎾᏍᏕᏥ	-11.0937
▁ᎠᎩᏍᏓᏩᏕᎨᏍᏗ	-11.0937
▁ᎤᏔᎴᎦᏒ	-11.0937
▁ᎾᏅᏛᏁᎰ	-11.0937
▁ᏄᎾᏓᏅᏛᎾ	-11.0937
▁ᎤᏓᏩᏗᏍᏙᏛ	-11.0937
▁ᎤᏕᏯᏔᏁᎴ	-11.0937
▁ᏅᏧᎵᏍᏙᏔᏁ	-11.0937
▁ᏍᎩᏁᎲᏏ	-11.0937
▁ᏓᏤᎵᏍᏛ	-11.0937
▁ᎠᎵᏰᎢᎶᎸᎭ	-11.0937
▁ᎤᏁᎳᏫᏎᎸ	-11.0937
▁ᏕᏥᏙᎨᏍᏗ	-11.0937
▁ᏗᎦᏩᏒᎩ	-11.0937
▁ᏗᏔᎳᏗᏍᏗᏱ	-11.0937
▁ᎢᏣᏛᏅᎢᏍᏙᎢ	-11.0937
▁ᎣᏍᏓᏓᏤᎵ	-11.0937
▁ᎨᎢᎾᏂ	-11.0937
▁ᎠᏙᏂᏍᎩ	-11.0937
▁ᎠᏓᏪᎵᎩᏍᎩ	-11.0937
▁ᏥᏂᏥᏪᎭ	-11.0937
ᏁᏉᏣᏖᏍᏗ	-11.0937
▁ᏂᏚᏩᏅ	-11.0937
▁ᏗᏠᏍᎩ	-11.0937
▁ᏛᏥᎷᏥ	-11.0937
▁ᏗᎦᏟᏓ	-11.0937
▁ᏅᏓᏣᏓᎴᏅᎯ	-11.0937
▁ᏙᏓᎫᎪᏓᏁᎵ	-11.0937
▁ᏂᎪᎯᏳᎲᏍᎬᎾ	-11.0937
▁ᏗᎫᎪᏓᏁᎯ	-11.0937
▁ᎤᏓᏥᎾᏍ	-11.0937
▁ᎤᎬᏩᎴ	-11.0937
▁ᏧᎾᎴᏐᏛ	-11.0937
▁ᎤᏍᏔᏩᏛ	-11.0937
▁ᏫᏂᏨᎦ	-11.0937
▁ᎥᎨᏒᎩ	-11.0937
▁ᎠᏂᎶᎻ	-11.0937
▁ᎤᎵᏘᎾᎥ	-11.0937
▁ᎠᏍᏙᏍᎩ	-11.0937
▁ᎢᎬᏩᎾᏛᏁᏗ	-11.0937
▁ᎢᎦᏪᏍᎩ	-11.0937
▁ᎧᎹᎹ	-11.0937
▁ᏥᏕᏣᎪᎲᎩ	-11.0937
▁ᏅᏓᏥᏴᏁᎵ	-11.0937
▁ᏱᏂᎦᏛᏁᎭ	-11.0937
▁ᏴᎦᏥᏛᏓ	-11.0937
▁ᏧᏯᏍᎦ	-11.0937
▁ᏂᎬᏠᏍᎬᎾ	-11.0937
▁ᏣᏃᎮᎸᎩ	-11.0937
▁ᏗᎪᏏᏏᏍᎩ	-11.0937
▁ᏍᎨᏫ	-11.0937
▁ᎤᏂᎾᏰᏎᎢ	-11.0937
▁ᏂᏪᏍᎬᎢ	-11.0937
▁ᏗᏂᎧᎿᏩᏕᎩ	-11.0937
▁ᏗᏓᏂᏱᏍᎩ	-11.0937
▁ᎠᎵᏛᏓ	-11.0937
▁ᏥᏨᏰᎳᏗᏙᎲᎩ	-11.0937
▁ᏤᎿᎠ	-11.0937
▁ᎥᏓᎷᎶᏗ	-11.0937
▁ᏕᎭᏓᏅᎡᎮᏍᏗ	-11.0937
▁ᏗᎾᏓᎾᏌᎲᏍᎩ	-11.0937
▁ᎤᏩᏃᏪ	-11.0937
▁ᎭᏓᏅᏓᏓ	-11.0937
▁ᏱᏕᏍᎬᏏ	-11.0937
▁ᏥᏚᎸᏫᏍᏓᏁᎭ	-11.0937
▁ᏍᎩᏲᎮᏍᏗ	-11.0938
▁ᏂᏕᎤᏍᏕᏍᏗ	-11.0938
▁ᏄᏍᎦᏅᏨᎾ	-11.0938
▁ᎣᎾᏂ	-11.0938
▁ᏅᏓᎬᏯᏛᏁᎵ	-11.0938
▁ᏔᏘᏂᏙᎯ	-11.0938
▁ᏂᎩᏴᏁᎸ	-11.0938
▁ᏂᎨᎵᏍᎬ	-11.0938
▁ᏕᎪᏢᏎᏍᏗ	-11.0938
▁ᏧᎵᎩᏏ	-11.0938
ans	-11.0938
▁ᏗᎾᏂᏏᎲᏍᎩ	-11.0938
▁ᏕᎯᏁᏤᎮᏍᏗ	-11.0938
▁ᏂᏑᏪᏎᎴᎢ	-11.0938
▁ᎤᏄᏬᏍᏕᏍᏗ	-11.0938
ᎵᏍᎪᎸᏗᏍᎨᏍᏗ	-11.0938
▁ᏅᏓᏨᏁᎵ	-11.0938
▁ᏗᏂᏲᎤᎵ	-11.0938
▁ᏭᏪᏙᎸ	-11.0938
▁ᏗᏥᏲᎱᏒᎯ	-11.0938
▁ᏣᎢᏎᏍᏗ	-11.0938
▁ᎰᏌᎾ	-11.0938
▁ᎢᏣᎦᏌᏯᏍᏓ	-11.0938
▁ᏗᏣᏓᎵᎢ	-11.0938
▁ᏄᎾᏛᎾᏕᎬ	-11.0938
▁ᏧᏔᎾᎶ	-11.0938
▁ᎤᏓᎾᏏᏅ	-11.0938
ᏤᏬᎩ	-11.0939
▁ᎠᎩᏍᎦᏅᏥᏙᎸᎢ	-11.0939
▁ᏂᏥᏍᎦᎢᎲᎾ	-11.0939
▁ᎠᎾᏁᎸᏗᏍᎬ	-11.0939
▁ᎤᏓᏍᏛᏗᏍᏗ	-11.0939
▁ᏗᏣᏘᏂᏙᎯ	-11.0939
▁ᏧᎾᏘᏂᏙᎯ	-11.0939
▁ᏧᏁᏅᏒ	-11.0939
ᎸᏂᏗᏍᎩ	-11.0939
▁ᎤᏩᏯᎨᎢ	-11.0939
▁ᏚᏌᎯᎸ	-11.0939
ay	-11.0939
▁ᎤᏂᏃᏁᏗᏱ	-11.0939
▁ᏚᏓᏂᎸᏨ	-11.0939
▁ᎨᎦᎫᏴᏓᏁᏗ	-11.0939
▁ᎬᏩᎾᎦᏌᏯᏍᏗᏕᎩ	-11.0939
▁ᏲᏥᎦᏔᎭ	-11.0939
ᏙᎴᏇ	-11.0939
▁ᎤᏁᎾᎢ	-11.0939
▁ᎤᏃᏢᏔᏅᎩ	-11.0939
▁ᎢᏨᏰᎳᏗᏙᎭ	-11.0939
▁ᎨᎵᏌᏕ	-11.0939
▁ᎤᏩᎾᏕ	-11.0939
▁ᏱᏄᏪᏒ	-11.094
▁ᏙᏛᏛᏔᏂ	-11.094
▁ᏧᎳᏏᏕᏅ	-11.094
▁ᎨᏥᏍᎦᎩ	-11.094
▁ᏂᏤᎲᎾ	-11.094
▁ᎤᏗᏌᏓᏛ	-11.094
▁ᎠᎵᏍᎦᏁᏛ	-11.094
▁ᎢᏣᏓᏅᏟ	-11.094
▁ᎠᎩᏬᏂᎯᏍᏗᏱ	-11.094
▁ᏂᎦᏚᏏᏁ	-11.094
▁ᎠᎾᏟᎲ	-11.094
▁ᎤᏍᏗᎩᏳ	-11.094
▁ᎢᏥᎪᏩᏘᏍᎨᏍᏗ	-11.094
▁ᏂᎦᏪᏍᎪᎢ	-11.094
▁ᎠᏛᏂᏗᏍᏙᏗ	-11.094
▁ᎾᏅᏁᎲ	-11.0941
▁ᏂᏣᏛᏁᎭ	-11.0941
▁ᎨᎦᎵᏍᎪᎸᏓᏁᎸᎯ	-11.0941
▁ᎦᏙᎴᎣᏍ	-11.0941
▁ᏭᏓᏐᎴ	-11.0941
▁ᏩᎵᏰᎢᎶᎯᎭ	-11.0941
▁ᎡᎭᎦᏔ	-11.0941
▁ᏤᏌᏂ	-11.0941
▁ᏂᎦᎾᏰᏍᎬᎾ	-11.0941
▁ᎢᏣᏤᎵᎪᎯ	-11.0941
▁ᎢᏳᏩᎦᏘ	-11.0941
▁ᎢᏰᏨᏁᎸᎯ	-11.0941
▁ᎠᎾᏛᏁᎵᏍᎩ	-11.0941
▁ᎬᎩᏁᏉᏤᏗᏱ	-11.0942
▁ᎤᏓᏴᏛ	-11.0942
▁ᏕᎤᏙᏍᏛ	-11.0942
▁ᏓᏥᏍᏓᏱᏕᎵ	-11.0942
▁ᏓᎩᎸᏫᏍᏓᏁᎸ	-11.0942
▁ᎤᎾᎵᏏᎾᎯᏍᏗ	-11.0942
▁ᏗᏕᎶᏆᏍᎩ	-11.0942
▁ᎡᏣᏅᏏᏓᏍᏗ	-11.0942
▁ᏂᏍᎦᏅᎾ	-11.0942
▁ᎠᎩᏍᏕᎵᏍᎩ	-11.0942
▁ᏣᏃᏍᎩᏒᎩ	-11.0942
▁ᏚᏕᏘᏴᏌᏗᏒ	-11.0942
▁ᎤᏬᏯᏁᏒ	-11.0942
ᏓᏬᏅᏛ	-11.0942
▁ᏗᎧᎿᏩᏕᎩ	-11.0943
▁ᏯᏆᏚᎵᏍᎨ	-11.0943
▁ᎤᏯᏖᎾ	-11.0943
▁ᎤᏛᏒ	-11.0943
▁ᎤᏔᏂᏗᎨ	-11.0943
▁ᏗᎩᏲᎯᏍᏗᏱ	-11.0943
▁ᏣᏂᎧᎳ	-11.0943
▁ᎤᎬᏩᎸ	-11.0943
▁ᏭᏂᎷᏣ	-11.0944
ᏲᎱᏏ	-11.0944
▁ᏧᏂᏲᏏᏍᎩ	-11.0944
▁ᎢᏥᏩᏛᏗᏱ	-11.0944
▁ᎬᏩᏃᎮᏍᎩ	-11.0944
ᎲᏍᏗᏱ	-11.0944
▁ᏧᏂᏴᏍᏕᏍᎩ	-11.0944
ᎵᏛᏓᏁ	-11.0944
▁ᏓᎾᏤᎸ	-11.0944
▁ᎡᏥᎾᏰᏍᎨᏍᏗ	-11.0944
▁ᏗᏎᎯᏍᏗ	-11.0944
▁ᎠᎾᏓᏙᎵᏍᏗᏍᎬ	-11.0944
▁ᎧᏁᎩ	-11.0944
▁ᏧᏚᎪᏔᏅ	-11.0944
▁ᎠᏂᏬᏂᏍᎩ	-11.0944
▁ᎣᏩᏒ	-11.0944
▁ᏛᏓᎴᎲᏍᎬᎩ	-11.0944
▁ᎤᏂᎬᎥᏍᎬ	-11.0945
▁ᏗᏣᎦᏴᎵᎨ	-11.0945
▁ᎡᏤᎾ	-11.0945
▁ᏚᏆᏛ	-11.0945
▁ᎧᏃᎨᏂ	-11.0945
▁ᎠᎩᏃᎮᏍᎩ	-11.0946
▁ᎤᎾᏕᏘᏱᏍᎬ	-11.0946
▁ᏚᏅᏍᏓᏕᎴ	-11.0946
▁ᏳᏓᏬᎠ	-11.0946
▁ᎠᎾᏛᎬᎦ	-11.0946
▁ᏱᏙᎨᏥ	-11.0946
▁ᏣᏓᏴᎳᏔᏍ	-11.0946
▁ᏧᎪᎸ	-11.0946
▁ᏍᎩᎥᏏ	-11.0947
▁ᏙᏓᏰ	-11.0947
▁ᏍᎩᏅᏏᏓᏍᏗ	-11.0947
▁ᏗᏆᎵᎢ	-11.0947
▁ᏲᏨᏗᏍᎨ	-11.0947
▁ᏗᏑᏱ	-11.0947
▁ᎪᏢᏍᎩ	-11.0947
▁ᎠᏥᎸᎨᎳᏍᏗ	-11.0947
▁ᎡᏥᏍᏕᎸᏗᏱ	-11.0947
▁ᎢᏥᎬᏫᏳᎯ	-11.0948
▁ᏥᏄᎵᏍᏔᏅ	-11.0948
▁ᎠᎵᏥᏙᎲᏍᎬ	-11.0948
▁ᎤᏮᏙᏗᏱ	-11.0948
▁ᎪᎵᎬ	-11.0948
▁ᎢᏨᏃᏁᎭ	-11.0948
▁ᏗᎧᏃᎨᏂ	-11.0948
▁ᏣᏃᏎᎰᎢ	-11.0948
▁ᎤᏂᏂᏴᏗᏱ	-11.0948
▁ᎪᏱᏅᏍᏗ	-11.0949
▁ᎬᏁᏤᎭ	-11.0949
▁ᏂᏨᏴᏁᎭ	-11.0949
▁ᏓᎪᏄᎸ	-11.0949
▁ᏗᏨᏲᎯᏎᏗᏱ	-11.0949
▁ᎤᎾᏙᎴᎰᎯᏍᏗᏱ	-11.0949
▁ᎬᎥᏏ	-11.0949
▁ᏭᏴᎮ	-11.0949
▁ᎠᎩᏰᎸᎰ	-11.095
▁ᎠᏂᎦᏲᎵᏳ	-11.095
▁ᏂᎦᎡᏍᏗ	-11.095
▁ᎢᏥᎦᏴᎵᎨ	-11.095
▁ᎦᎶᎪᏗ	-11.095
▁ᎾᏉᎯᏳ	-11.095
▁ᏏᏐᎢ	-11.095
▁ᏭᏅᏥᎴ	-11.0951
▁ᎤᎵᏖᎸᏅᎩ	-11.0951
▁ᎢᏏᎦ	-11.0951
▁ᏚᎵᏍᏚᎢᏎᎢ	-11.0951
▁ᏓᏦᎯᏍᏛ	-11.0951
▁ᎦᏟᎲ	-11.0951
▁ᏖᏏ	-11.0952
▁ᎠᏴᏓᏆᎶᏍᎬ	-11.0952
▁ᏧᏬᎳ	-11.0952
▁ᎬᏩᏔᏲᏎᎸᎩ	-11.0952
▁ᏣᎾᎥᎢ	-11.0953
▁ᏚᎸᏫᏍᏓᏁᎮᏍᏗ	-11.0954
▁ᏧᏕᏲᏅᎯ	-11.0954
▁ᏗᏙᎴᏆᏍᏗ	-11.0954
▁ᏍᎩᎷᏥᏏ	-11.0954
▁ᎡᏣᎫᏴᎡᏗ	-11.0954
▁ᏧᏂᏲᎱᎯᏍᏗᏱ	-11.0954
▁ᎠᎴᏂᏍᎬ	-11.0954
▁ᎠᏇᏲᏅ	-11.0954
ᏃᎯᏎᎲ	-11.0955
▁ᎢᏥᎪᏩᏘᎭ	-11.0955
▁ᎦᎶᏐᏅᎭ	-11.0955
▁ᏂᎦᏥᏴᏁᎸᎭ	-11.0955
▁ᏭᏃᏁᎸᎩ	-11.0956
▁ᏓᎬᎩᎵ	-11.0956
▁ᎢᏥᎷᎩ	-11.0956
▁ᎤᏛᏓᏍᏓᏁᎴ	-11.0956
ᎦᏂᏌᎲ	-11.0956
▁ᏗᎦᏘᎴᎩ	-11.0957
▁ᏄᎾᏓᎴ	-11.0957
▁ᎣᏓᎵ	-11.0957
▁ᏗᎦᎳᏫᎩ	-11.0957
▁ᏫᎨᏥᏯᏅᏛ	-11.0957
▁ᎤᏄᎸᏅ	-11.0957
▁ᏗᏂᏢᏗᏱ	-11.0958
▁ᏥᏂᎦᎵᏍᏗᎭ	-11.0958
▁ᎯᎰᎵ	-11.0958
▁ᎾᏂᏪᏍᎨᏍᏗ	-11.0958
▁ᎤᎾᎵᏃᎮᎴ	-11.0958
▁ᏗᏣᏄᏬ	-11.0958
▁ᎠᏂᏍᏓᏩᏕᎩ	-11.0958
▁ᎠᏓᏬᎯᎳ	-11.0959
▁ᎨᏨ	-11.0959
▁ᏗᎵᏒᏍᏗ	-11.0959
▁ᎦᎸᏉᏗᏍᎨ	-11.096
▁ᏂᎨᏳᏎᏍᏗ	-11.096
▁ᏅᎩᏦᏁ	-11.096
▁ᎠᎦᎾᎦᏘ	-11.0961
▁ᏕᎦᏅᏌᏛ	-11.0961
ᏘᏱ	-11.0961
ᏕᎪ	-11.0961
▁ᏧᏂᎸᏫᏍᏓᏁ	-11.0961
▁ᎤᎵᏃᎮᏔᏅᎢ	-11.0961
▁ᎠᏛᎩᏍᎨᏍᏗ	-11.0961
▁ᎦᏅᏆᎶᏍᏗ	-11.0962
▁ᏚᏘᏅᏒᎩ	-11.0962
▁ᏄᎵᏂᎬᎬ	-11.0962
▁ᏓᏰᏏ	-11.0962
ᏚᎸᏅᏗ	-11.0963
▁ᏗᏆᏓᏅᏛ	-11.0963
▁ᎠᏓᏙᎵᏍᏓᏁᎯ	-11.0963
▁ᎤᏂᎨᏳᎯ	-11.0964
▁ᏘᏯ	-11.0964
▁ᎨᏥᏯᏅᏛ	-11.0964
▁ᎤᎾᏓᏓᏍᎩ	-11.0965
▁ᏗᏲᏍᏙᏗ	-11.0966
▁ᏥᏤᎭ	-11.0966
▁ᎤᎾᏚᎵᎭ	-11.0966
▁ᎾᏅᏁᎭ	-11.0966
▁ᎢᎨᏎᎢ	-11.0967
▁ᏴᎨᏨ	-11.0967
▁ᎠᏩᎾᎦᎳᎯᏳ	-11.0967
▁ᎠᎪᏩᏘᏍᎬ	-11.0968
▁ᎦᏂᎳ	-11.0968
▁ᎢᎨᏨᏁᏗ	-11.0969
▁ᏄᏩᏂᏌᏅ	-11.0969
▁ᎢᏥᎷᏤᏗᏱ	-11.0969
▁ᏰᎵᎦᏯ	-11.097
▁ᎤᎾᏓᏅᏒᎩ	-11.097
▁ᏕᎾᏓᎪᎲᏳ	-11.097
ᏚᎸᏅᎥᏍᎬ	-11.0971
ᏒᎾᏔᏅ	-11.0972
▁ᏫᏚᏂᏯᏅᎲ	-11.0972
▁ᏭᏂᏴᎸᎩ	-11.0972
▁ᎡᏦᎢᏳᏒ	-11.0973
▁ᎤᏍᏓᏲᏒ	-11.0974
▁ᏭᏓ	-11.0974
▁ᎢᏯᏅᏁᎯ	-11.0974
▁ᏣᏓᏅᏖᏍᏗ	-11.0974
▁ᎯᎪᏩᏘᎭ	-11.0974
▁ᎿᏛᏁᎲ	-11.0975
▁ᏚᏂᎧᏁᎢ	-11.0975
▁ᎠᎨᏲᏅ	-11.0975
▁ᏏᏊ	-11.0975
▁ᎡᏈ	-11.0975
▁ᏚᏑᏰᏒ	-11.0975
▁ᏚᎸᏫᏍᏓᏁᎰᎢ	-11.0975
▁ᏥᏍᎦᏅᏤᎸ	-11.0976
▁ᎯᎷᎦ	-11.0976
▁ᎤᏕᎰᎯᏍᏗᏳ	-11.0976
▁ᎠᎩᏠᏫᏍ	-11.0977
▁ᎤᏁᏙᎸᎯ	-11.0977
ᏙᎰᎢ	-11.0978
▁ᏯᏃᏉ	-11.0978
▁ᏚᏪᎧᎲ	-11.0978
▁ᎠᎾᏗᎭ	-11.0978
▁ᎯᏍᎩᏍᎪᎯ	-11.0978
▁ᎤᏍᏉᎵᏱ	-11.0978
▁ᎢᏗᏣ	-11.0979
▁ᎪᎵᏍᏗᏱ	-11.0979
ᎣᏏᏉ	-11.098
▁ᎦᏓᎥ	-11.098
▁ᎤᏛᎪᏗ	-11.098
▁ᏚᎾᎴᏅᎩ	-11.0981
ᏢᏔᏂ	-11.0981
▁ᎬᏩᎪᎮᎢ	-11.0982
▁ᎣᏤᎯ	-11.0982
▁ᎠᎦᏛᏅᎯ	-11.0983
▁ᎤᎯᏐᏓᏁ	-11.0984
▁ᎤᏓᏅᏍᏗᏱ	-11.0984
▁ᎦᏬᏂᎭ	-11.0985
▁ᏣᏰᎯ	-11.0985
ᏍᏉᎸ	-11.0985
▁ᏧᏑᏰᏛ	-11.0986
▁ᏓᎩᏏᎳᏛᎢ	-11.0986
▁ᏚᏬᏢᏁᎢ	-11.0986
▁ᎢᏥᎦᏔᎲ	-11.0987
▁ᎤᎾᎵᏎᎢ	-11.0987
▁ᎤᏓᏔᏅ	-11.0988
▁ᏗᎬᏔᏅᎯ	-11.0988
▁ᏓᏰᏂ	-11.0989
▁ᎤᏰᎸᏒ	-11.0991
▁ᏧᏁᎶᏗ	-11.0992
▁ᎠᏯᏫᏍᎩ	-11.0992
▁ᏦᏍᏛ	-11.0992
▁ᎤᎾᏣᎢ	-11.0992
▁ᎢᎦᎵᏍᏕᎸᏙᏗ	-11.0993
▁ᏗᎦᏚᎲᏍᎩ	-11.0994
▁ᏦᎴᏍᏗ	-11.0995
▁ᎠᏂᏍᏆᏂᎪᏗᏍᎩ	-11.0995
▁ᎠᏇᎷᏅ	-11.0995
▁ᎦᏰᏥᏐᏢ	-11.0998
▁ᎤᏂᏰᎸᎭ	-11.0998
▁ᏂᏚᏂᏪᏎᎴᎢ	-11.0998
▁ᎤᏂᎩᏌ	-11.0998
▁ᎾᎦᎸᎳᏗ	-11.0999
▁ᎤᎸᏁᎢ	-11.0999
▁ᎤᎵᏍᏙᏔᏅ	-11.1
▁ᎾᏆᏍᏗ	-11.1
▁ᎤᏁᏓᏍᏗᏱ	-11.1002
ᎳᏕ	-11.1002
▁ᏭᎪᎮ	-11.1002
▁ᎤᏂᏁᎢᏍᏔᏅ	-11.1002
▁ᎤᎫᏴᎡᏗ	-11.1002
▁ᎠᏰᎸᏒᎩ	-11.1003
▁ᎦᎵᏙᏗ	-11.1003
▁ᎨᎳᏍᏙᏗ	-11.1004
▁ᏕᎤᎸᏫᏍᏓᏁᎲᎢ	-11.1006
▁ᎤᎪᎵᏰᏗ	-11.1006
▁ᏕᎦᏬᏁᏗᏍᎬᎩ	-11.1006
▁ᏄᎵᏍᏓᏁᎸᎢ	-11.1007
▁ᏓᎾᎵᏍᏓᏴᎲᏍᎬᎢ	-11.1007
▁ᏓᏘᏁᎲᎢ	-11.1007
▁ᎤᏁᎷᎬᎩ	-11.1007
▁ᎠᏓᏁᏣᏍᏚᎶᎩ	-11.1007
▁ᎠᏇᏅᏒᎩ	-11.1007
▁ᎠᏂᎷᎩ	-11.1008
▁ᎠᏓᎴᏒᎢ	-11.1008
▁ᏪᎯ	-11.1008
▁ᎤᏓᏅᎡᎴᎢ	-11.1008
▁ᎲᏅᎢ	-11.101
▁ᎧᏃᎮᎭ	-11.101
▁ᎤᎾᏤ	-11.101
▁ᎤᏬᎯᏳᏅᎩ	-11.1011
▁ᎾᏋ	-11.1012
▁ᎢᏥᏔᏲ	-11.1012
ᏅᏓᏛᎩ	-11.1015
▁ᏚᎾᏄᎪᏫᏎᎸ	-11.1018
▁ᏣᏚᎵᏍᎪ	-11.1018
▁ᏚᏂᏍᏘᏰᎬ	-11.1018
ᎾᏛᏁᎭ	-11.102
▁ᏥᏍᎦ	-11.1021
ᎵᏰᏑᏍᏙ	-11.1023
▁ᎠᎧᏘ	-11.1023
ᎳᏍ	-11.1023
▁ᏕᏣᎸᏫᏍᏓᏁᎲᎢ	-11.1025
▁ᎤᎵᎮᎵᏨᎯ	-11.1026
ᏰᏲᎲᏍᎩ	-11.1027
▁ᎠᏂᏍᎦᎢᎮᎢ	-11.1027
▁ᎤᏂᎦᎸ	-11.1028
ᎯᏍᏔᏅ	-11.1028
▁ᏑᏟᎶᏛᏉ	-11.1028
▁ᎡᎶᏗᏏ	-11.103
▁ᏂᏓᏛᏁᎲ	-11.103
ᏛᏗᏍᎪᎢ	-11.1031
▁ᏓᎻ	-11.1031
▁ᏪᏙᎮ	-11.1033
▁ᏂᏕᏨᏁᎸ	-11.1033
ᏣᏉᎯ	-11.1033
▁ᏗᏍᏓᏱ	-11.1035
▁ᏚᏂᏏᏂᏙᎸ	-11.1035
▁ᎨᏍᏓ	-11.1039
ᏂᏃᏁᎴ	-11.1039
ᏅᏓᏗᏍᎨᏍᏗ	-11.1039
▁ᏧᎴᎯᏐᏗ	-11.104
▁ᏁᏨᏁᎸ	-11.1042
▁ᎤᏢᏨ	-11.1043
▁ᎨᏥᏚᎢᏍᏓᏁᎸ	-11.1043
▁ᏧᏂᏲ	-11.1043
▁ᏅᎦ	-11.1043
▁ᏄᏕᏘᏴᎲ	-11.1044
ᎨᏳᏅᎾ	-11.1044
ᎵᏍᏓ	-11.1044
ᏓᏙᎵᏍᏔᏂ	-11.1044
▁ᎤᏂᏂᏴᎮ	-11.1044
▁ᏦᏨ	-11.1045
▁ᎤᎾᏄᎪᏫᏏ	-11.1045
▁ᎢᏣᏕᎶᏆ	-11.1046
▁ᎤᏒᏂᎴᎢ	-11.1046
ᏓᎾ	-11.1048
▁ᎠᎾᏗᏍᎬᎢ	-11.105
▁ᎦᏓᏍᎬ	-11.1051
ᎾᏄᎪᏫᏍᎦ	-11.1053
▁ᎤᏃᏛ	-11.1057
▁ᎵᏳ	-11.1057
▁ᎤᏂᏅᏅ	-11.1059
▁ᎤᏰᎸᏅᎩ	-11.106
▁ᏥᎪᎥᎩ	-11.1061
▁ᎬᏩᎷᏤᎮ	-11.1062
ᎴᏂᏓᏍᏗ	-11.1063
▁ᏌᎾ	-11.1063
ᏓᏂᎧᎿᏩᏕ	-11.1066
▁ᎤᎩᎳ	-11.1068
▁ᎠᏁᎵᏍᎬᎩ	-11.1069
ᏂᏙᎲᎢ	-11.1072
▁ᎤᎾᏄᎪᏫᏎᎴᎢ	-11.1073
▁ᎤᏅᏂ	-11.1074
ᎵᏲ	-11.1077
▁ᎢᏣᏓᏙᎵᏍᏗ	-11.1077
▁ᏭᏂᏴᎮ	-11.1079
▁ᎤᎩᏎ	-11.108
▁ᏂᎨᏎᎢ	-11.1081
ᏰᏟ	-11.1083
ᏏᏱ	-11.1084
ᏳᏓᎴᏏ	-11.1084
▁ᏓᏂᎧᏅᎢ	-11.1084
▁ᎠᏂᏙᎾᎡᎢ	-11.1085
▁ᏔᎵᏍᎪᎯ	-11.1085
▁ᏓᏂᎳᏫᎥᎢ	-11.1085
▁ᏂᏚᏪᏎᎸᎢ	-11.1085
▁ᎤᏂᏴᎲ	-11.1086
▁ᎦᎢᏒᎢ	-11.1086
ᎦᏌᎴ	-11.1086
▁ᏄᏛᏁᎸᎾ	-11.1089
ᏃᏅᎯ	-11.1089
ᎳᏅᏛ	-11.109
▁ᎡᎳᏪᏉ	-11.109
ᏙᏢᎾ	-11.1091
▁ᎦᎶᏍᎬ	-11.1092
▁ᎤᏪᎧᏅ	-11.1095
▁ᏚᏲᎯᏎᎴ	-11.1096
ᏪᏢᏗ	-11.1098
▁ᏄᏂᏪᏎᎸ	-11.11
▁ᏱᏗᏓ	-11.1101
▁ᎡᎵᏍᎬᎢ	-11.1103
▁ᎤᏂᎸ	-11.1105
ᏕᎸ	-11.1106
ᎩᏍᎪᎢ	-11.1106
ᏀᎢ	-11.1107
ᏛᏅᎢᏍᏕ	-11.1109
▁ᏦᎢᏉ	-11.1109
▁ᏧᏬᎸᎢ	-11.111
▁ᏚᏜᏅᏛ	-11.111
ᏪᏣ	-11.1112
▁ᎠᎼᎯ	-11.1113
▁ᎠᎾᎵᏥᏙᎲᏍ	-11.1114
▁ᎤᏢᏗ	-11.1115
▁ᏣᏁᎵ	-11.1115
▁ᏄᎵᏍᏔᏁᎴ	-11.1116
ᎨᎾ	-11.1119
▁ᏐᎯ	-11.1119
ᏲᎦᏛᏅ	-11.1121
▁ᎦᏄᎸᏒᎢ	-11.1122
▁ᏕᏨᏅ	-11.1122
ᏙᏱ	-11.1123
▁ᎠᏚᎢᏍᏛᎢ	-11.1126
ᏍᏕᎵ	-11.1126
ᏅᏓᏗᏍᎬ	-11.1128
▁ᎤᏩᎨᏫᏎ	-11.113
ᏂᎬᎬ	-11.113
▁ᎢᏍᎩ	-11.1131
▁ᎤᏛᎦ	-11.1134
▁ᏅᏔ	-11.1136
▁ᎢᏧᏓᎴ	-11.1136
▁ᏗᎦᏘᏯ	-11.1138
▁ᎠᏂᎵ	-11.1139
▁ᎠᏂᏙᎾᎥᎩ	-11.1139
▁ᏥᏕᎭ	-11.1141
ᏅᎡᎵ	-11.1144
▁ᏥᎦᎶ	-11.1144
ᏔᎳᏬᎯᏍᏗ	-11.1145
▁ᎤᏔᏲᎸ	-11.1145
▁ᏚᏂᎸᏫᏍᏓᏁᎮ	-11.1148
▁ᏣᎩᏍᏗ	-11.1151
▁ᏣᏉᎩ	-11.1151
▁ᎦᏁᎲᎩ	-11.1156
▁ᎤᏪᎯᏍᏓᏁ	-11.1156
ᏙᎩᏯᏍᏗ	-11.1158
▁ᎤᏂᏏ	-11.1159
▁ᏚᏅᏎᎢ	-11.116
▁ᎤᎾᏓᏅᏖ	-11.1162
▁ᏂᎨᏒ	-11.1167
▁ᏄᎾᏛᏁᎸᎢ	-11.1167
ᏴᏛ	-11.117
▁ᎤᏜᏅᏛᎢ	-11.1171
▁ᎤᏂᏄᎪᏨᏃ	-11.1172
ᏘᏍᎩ	-11.1172
▁ᎤᏂᏲᎭ	-11.1174
ᎦᏍᎦᏂᏗᏢ	-11.1175
ᏚᎪᏓᏁᏗ	-11.1176
▁ᎧᏃᎮᏍᎬᎢ	-11.1177
▁ᎠᎩᏍᎨᏍᏗ	-11.1177
▁ᎣᎦᎵᎪ	-11.1177
▁ᏩᏚ	-11.1178
▁ᏱᏙᎨ	-11.1179
▁ᎢᏥᏍᎦᏅᏨ	-11.1183
▁ᎯᏍᏚ	-11.1185
▁ᎤᏪᎷᎬ	-11.1186
▁ᎤᏕᏗ	-11.1186
▁ᎨᏛᎢ	-11.1187
ᏠᏱᎭ	-11.1191
▁ᎦᏅᎬᎢ	-11.1192
▁ᏣᎪᏩᏘᏍᎪ	-11.1194
▁ᏱᏗᏗ	-11.1194
▁ᎤᏅᏏᏛ	-11.1196
ᏴᎯᎮᏍᏗ	-11.1196
ᏄᏬᏍᏗ	-11.12
ᎦᏅᏓᏗᏍᏙᏗ	-11.1204
ᎷᎬ	-11.1204
ᎵᏑᏫᏓ	-11.1207
▁ᏕᎨᎦᎸ	-11.1209
▁ᏱᏓᎾ	-11.1211
▁ᏩᎾᎢᏒ	-11.1213
▁ᎢᏍᏆ	-11.1214
ᏓᏬᎠ	-11.1214
▁ᎤᏂᏣᏖᏰᏃ	-11.1215
▁ᎤᎨᏳ	-11.1215
ᎦᎵᏍᎪ	-11.1221
▁ᏓᎪ	-11.1223
ᏥᏄᎪᏫᏍᏗ	-11.1228
ᏂᏴᎲ	-11.1229
ᏥᎶᏍᏔᏅ	-11.1229
ᏣᏘᏃᎵ	-11.1229
▁ᎠᏍᏆᎸ	-11.1232
▁ᎢᏥᏍᏆ	-11.1233
▁ᎤᏪᎯ	-11.1233
ᏣᎸᏉᏗᏍ	-11.124
▁ᎤᏬᎯᏳᏁ	-11.1241
▁ᏗᏦᎸ	-11.1242
ᏆᏂ	-11.1242
▁ᎤᎶᏗ	-11.1242
▁ᎠᏆᎧᏛᎢ	-11.1245
▁ᎠᏂᏙᎾᎥᎢ	-11.1246
▁ᎠᏌᏃ	-11.1247
ᎦᏘᎴᏅ	-11.1251
▁ᎤᏰᏤᎢ	-11.1252
ᎩᎪᏩᏛᏗᏱ	-11.1253
Ꮶ	-11.1258
▁ᎢᏨᏴ	-11.1261
▁ᎨᎬ	-11.1266
▁ᎠᏰᏙᎳᏛᎢ	-11.1267
▁ᎠᏍᏚᎢᏍ	-11.1268
▁ᎤᏁᏅᏎᎢ	-11.1271
▁ᏚᎴᏅᎩ	-11.1273
ᏕᎸᎩ	-11.1273
▁ᏟᏗ	-11.1283
▁ᎦᏁᎲᎢ	-11.1284
▁ᏳᏂᏰᎸ	-11.1286
ᎵᏂᎩᏛ	-11.1286
▁ᎤᎯᏍᏗᏱ	-11.1286
ᏰᎬ	-11.1289
ᎵᏂᎩᏗᏳ	-11.129
▁ᎤᏁᎵᏍᏗ	-11.1292
ᎵᏍᎩ	-11.1298
▁ᎤᏍᎪᏍᏗ	-11.1299
▁ᏫᏯ	-11.1301
▁ᎤᏁᏤᎸᎯ	-11.1302
▁ᎢᏳᎾᎵᏍᏔᏅ	-11.1302
▁ᏓᏕᏲᎲᏍᎨ	-11.1304
ᎦᏍᏙᏗ	-11.1306
▁ᏫᏓᎦ	-11.131
▁ᎤᏴᏍᏗᏱ	-11.1312
▁ᏮᏓᏲ	-11.1313
ᏑᏫᏓ	-11.1316
ᏙᎦ	-11.1316
▁ᎩᏂ	-11.132
▁ᎥᎴ	-11.1329
▁ᎢᎦᏛᏍᎩᏂ	-11.1334
▁ᎤᏂᏣᏘᏰᏃ	-11.1336
▁ᎤᎵᏘᏒ	-11.1339
▁ᏚᎧᎿᏅᏃ	-11.1339
▁ᎦᏬᏂᏍᎬᎩ	-11.1341
▁ᎨᏥᏁᏤᎸ	-11.1343
▁ᎤᏂᎲᎢ	-11.1347
ᏬᏣ	-11.135
ᏠᏯ	-11.1351
▁ᎢᎩᏴᏁᏗ	-11.1352
▁ᏕᎦᏁᎲ	-11.1354
ᏍᎦᎳᏁ	-11.1354
▁ᎠᏁᎵᏗ	-11.1356
ᏨᏛ	-11.1362
ᎯᏉ	-11.1367
▁ᎤᏃᏴᎬᎢ	-11.1369
▁ᎢᏨᏯᎵᏥᏙᏁᎸ	-11.137
▁ᎠᎦᏛᏅ	-11.1371
▁ᎤᎷᏤᎸ	-11.1378
▁ᏚᏭᏢ	-11.1385
▁ᏗᏓᎴᏂᏍᎬᎢ	-11.1386
▁ᏕᎨᎦᏛ	-11.1388
▁ᎠᎢᏒᏃ	-11.1391
ᎸᏎ	-11.1393
ᏤᎴ	-11.1393
ᏥᏯᏅᏛ	-11.1398
▁ᏪᏥ	-11.1398
ᏌᎲ	-11.1406
ᏛᏂᏏ	-11.1408
▁ᎦᎪᎨ	-11.141
ᎲᏒ	-11.1419
▁ᏚᏂᎩᏒ	-11.1424
ᏲᎯᏎᎸᎯ	-11.1428
▁ᏏᎻᏯᏂᏃ	-11.1428
ᏂᏏᏅᎯ	-11.1429
▁ᎤᎾᏓᏅᏛ	-11.1431
▁ᎤᏓᎴᏅ	-11.1436
▁ᎤᏂᏁᏨᏃ	-11.1437
▁ᎮᎵᏍᎬ	-11.144
▁ᎤᎾᏓᏃᏴᎵᏍ	-11.1442
ᏙᎾ	-11.1442
▁ᏕᎤᏙᎥᎢ	-11.1448
▁ᏔᎳ	-11.1449
ᎾᏗᏅᏗ	-11.1462
▁ᎨᎥ	-11.1463
ᏴᏙᏗᏱ	-11.1467
▁ᎤᏕᏘᏴᏌᏗᏒᎢ	-11.1468
▁ᎠᏩ	-11.1469
ᎨᏓ	-11.1473
ᏍᏓᏁᎭ	-11.1473
▁ᎠᏆᏓᏅᏖᎸ	-11.1475
ᏓᏛᏁᎮᏍᏗ	-11.1477
ᎵᏙᎸ	-11.148
▁ᎥᏆ	-11.1483
ᏌᎥ	-11.1484
ᏴᎳ	-11.1485
ᏴᎢ	-11.1496
ᏛᏗᏱ	-11.1502
ᏐᎸ	-11.1504
▁ᏗᎦᎦ	-11.1509
ᏥᎦᏔ	-11.1513
ᏎᎦ	-11.1515
▁ᏳᎸ	-11.1516
▁ᏗᎦᎸᏫᏍᏓᏁᏗᏱ	-11.1519
▁ᏧᏂᏰᎸ	-11.1523
ᏚᎵᏍᎬ	-11.1524
▁ᏨᏔᏅ	-11.1527
ᏩᏍᎬ	-11.1536
ᏁᏟᏴᏛ	-11.1537
▁ᏚᏂᎬ	-11.1543
ᏍᏚᎲᎦ	-11.1547
▁ᎦᎶᎯᏍᏗᏳ	-11.1547
ᏍᏓᏯ	-11.155
ᏥᏯᏅᏗ	-11.1554
ᎦᏖᏃᎲ	-11.1555
▁ᏱᏚᎾ	-11.1555
ᏫᏒᎯ	-11.1555
ᏓᎢᏅᏒᎩ	-11.1555
▁ᎤᏲᎱᏒᎩ	-11.1566
▁ᏕᎯᏴ	-11.1568
ᎪᎲᎩ	-11.1585
ᎠᏤ	-11.1587
ᏛᏅᎯ	-11.1597
ᏍᏔᏅᎾ	-11.1604
ᎫᏓᎴ	-11.1605
ᏛᎦᏁᎰᎢ	-11.1609
ᏲᎢᏳ	-11.161
▁ᎤᏲᎯ	-11.1616
▁ᎠᏆᏙ	-11.1621
ᏍᎦᎾᎯᏳ	-11.1622
▁ᏣᎵᏍᎦᏍᏙᏗ	-11.1627
▁ᏓᎨ	-11.1629
▁ᎤᏪᎷ	-11.1635
ᏩᏛᏗᏱ	-11.1641
ᏁᎦ	-11.1642
▁ᎠᏂᏫᎾᎨ	-11.1646
▁ᎦᏅᎢ	-11.1657
ᏥᏍᎦᏨᎯ	-11.1658
ᏓᏁᏟᏴᏍᏗ	-11.1661
ᏍᎦᎢᏍᏗ	-11.1665
▁ᎠᏥᏅ	-11.1668
ᏓᎴᏅᎯ	-11.1668
▁ᏓᏥᏩᏛᎯ	-11.1669
ᏣᏓᏙᎵᏍᏗ	-11.1675
▁ᎤᏂᏅᏁ	-11.1676
▁ᎢᎩᏛ	-11.1679
▁ᎤᏃᎮᏗ	-11.1683
ᏔᏂᏓᏍᏗ	-11.169
▁ᏧᎾᏓᎴᏅ	-11.169
▁ᏫᏄ	-11.1691
ᏂᏪᏏ	-11.1693
ᏢᎾ	-11.1694
ᏣᎾᏄᎪᏫᏎᎸ	-11.1703
▁ᎢᏥᏴ	-11.1703
▁ᏎᏗ	-11.1706
▁ᎤᎾᏓᏅᏖᏗ	-11.1709
▁ᏫᏓᏥ	-11.1709
▁ᎤᏁᏗ	-11.1712
ᎴᏛ	-11.1717
ᏂᏟ	-11.1718
▁ᎤᎵᏏᎬᎢ	-11.172
▁ᎠᏁᏟ	-11.1726
ᏗᏍ	-11.1732
ᏢᏈᏍᏗᏱ	-11.1739
ᎾᏗᏅᏎ	-11.1741
▁ᏱᏘ	-11.1741
ᎩᎸᏙᏗ	-11.1748
ᎮᎵ	-11.1749
ᏴᎲ	-11.1758
▁ᎠᏐ	-11.1763
▁ᎬᏩᎵ	-11.1769
ᏃᎯᏍᏗ	-11.1772
ᏰᎸᏍᎦ	-11.1776
ᏆᏟ	-11.179
ᎳᏕᏗ	-11.1795
ᎦᏘᎴᎩ	-11.1799
▁ᎤᏍᏕᎸᎲ	-11.1799
▁ᎠᏞ	-11.18
ᏍᏚᏟ	-11.1803
▁ᎬᏓ	-11.1806
▁ᎤᏂᎷᏤᎴ	-11.1809
▁ᎣᏍᏕ	-11.1812
ᏲᎮᎢ	-11.1817
ᎥᏍᎨᎢ	-11.182
ᎾᏰᏍᎨᏍᏗ	-11.1827
ᏂᏓᏍᏗ	-11.1843
▁ᎫᏓ	-11.1844
▁ᏗᏥᏲᎯᏍᏗ	-11.1845
ᏕᎪᎢ	-11.185
▁ᏕᏣᏂᏴ	-11.1859
▁ᎤᎷᏨᎢ	-11.1866
ᎪᏍᎬ	-11.1873
▁ᎬᏔᏅ	-11.1882
ᏃᎮᎮᎸ	-11.1885
▁ᏧᏂᏅ	-11.1893
ᎾᏕᏘᏴᏛ	-11.19
▁ᎣᎩᎾᎵ	-11.1902
ᎯᏍᏗᏍᎬ	-11.1902
ᎵᎸ	-11.1911
▁ᏱᏚᏳᎪ	-11.1915
▁ᏕᏤ	-11.1915
ᏁᏪᏎᎢ	-11.192
▁ᎤᎦᏙᏍᏕ	-11.1924
ᎪᏔᏅ	-11.1926
ᏓᏁᎴ	-11.1931
ᎵᏍᏓᏴᎲᏍᎦ	-11.1932
ᎦᎶ	-11.1939
ᏚᏓ	-11.1946
▁ᎦᏃᏍᎩ	-11.1948
ᏗᏔ	-11.1956
▁ᎣᏥᏁ	-11.1956
ᎩᏎᎢ	-11.1958
ᏓᎾᏅ	-11.1963
ᏲᎢ	-11.1965
ᏚᎩ	-11.1987
ᎩᏍᏆᏂᎪᏔᏅ	-11.1998
▁ᏂᎦᏪᏎ	-11.2001
▁ᏗᎦᏚ	-11.2004
▁ᎡᏉ	-11.2007
ᏰᎸᎾ	-11.2008
ᏌᎡ	-11.2008
ᎵᏘᏎᎢ	-11.2022
ᏁᏤᎸᎭ	-11.2024
▁ᏍᎩᏉ	-11.2024
ᏍᏙᏰ	-11.2025
▁ᏚᏲᎯᏎᎸ	-11.2026
▁ᎤᎾᏚᎵᏍᎨ	-11.2027
▁ᎨᎪᏎ	-11.2032
▁ᎨᎾ	-11.2033
▁ᏥᏩᎾᎦ	-11.2035
ᏓᏅᏛ	-11.2053
ᏥᎶᏍᏗ	-11.2054
▁ᎢᏣᏓᏅᏛ	-11.2058
▁ᏂᎪᎯ	-11.2059
▁ᏦᎠ	-11.206
▁ᎦᏙᎨᏃ	-11.2071
▁ᏱᏙᏥ	-11.2072
ᏓᎿᏫ	-11.208
▁ᏓᏅ	-11.2086
ᏣᎦᏌᏯᏍᏗᏕᎩ	-11.2089
▁ᏍᎩᏍᏓᏩᏕ	-11.2097
ᏂᏏᏍᎨᏍᏗ	-11.2102
ᏓᎨᏳᏗ	-11.2102
▁ᏘᏂ	-11.2108
▁ᎠᏍᏓᏱᏛ	-11.211
ᏏᎸ	-11.2116
▁ᏫᏍᏗ	-11.2116
ᏓᏴᏎ	-11.2126
ᎵᏙᎲᎢ	-11.2126
▁ᎠᏂᎪᏩᏘᏍᎨ	-11.2127
▁ᏥᏩ	-11.2128
▁ᎤᎪᏅ	-11.2133
▁ᎦᏲ	-11.2137
▁ᎠᏑᏴ	-11.2144
▁ᎢᏦᎵᏍ	-11.2148
▁ᏧᎾᏙ	-11.2149
▁ᎤᎾᎵᎪᏎ	-11.216
ᏗᏗᏱ	-11.2168
▁ᎭᎵᏍ	-11.2169
ᏄᏩ	-11.2174
ᏓᏅᏛᎵ	-11.2174
▁ᎠᏆᏓᏅ	-11.2176
ᏄᎪᏨᎩ	-11.2179
▁ᎤᎮᏍᏗ	-11.2183
ᏥᎪᏩᏔ	-11.2186
▁ᎤᏯᏅ	-11.219
ᏍᏓᏁᎮ	-11.2194
▁ᎥᏝᏍᎩᏂ	-11.22
▁ᏓᏘ	-11.2203
ᏠᏏ	-11.2209
▁ᏅᏩᎾᏓᎴᎢ	-11.2209
▁ᏱᏂᎬᏂ	-11.2216
ᏙᎲ	-11.2218
ᎵᎮ	-11.2219
▁ᏱᎦᎷ	-11.2219
ᏅᏒᎾ	-11.2231
ᏍᏆᎵᏍᎬ	-11.2236
ᏆᎶ	-11.2238
ᏆᎳ	-11.2243
▁ᎤᏂᏍᏚ	-11.2248
ᏂᎯ	-11.225
ᏅᏁᏗᏱ	-11.225
▁ᏨᏆ	-11.2252
ᎵᏍᏕᎸ	-11.2254
ᎯᏍᏓᏁᎸ	-11.2258
ᏙᎴᎰᏒ	-11.226
▁ᏂᎦᏛᏉ	-11.2261
ᏂᏱᏍᎬ	-11.2268
▁ᏙᎯᏱᏉ	-11.2268
▁ᏩᏆ	-11.2268
ᏓᏥ	-11.2272
ᎨᏥᏁᏗᏱ	-11.2272
ᏛᏅᎩ	-11.2274
▁ᎢᏥᏁ	-11.2278
ᎦᏁᎳᏅᎯ	-11.2279
ᎪᏍᏓᏯ	-11.2281
ᏨᎭ	-11.2281
ᎩᏍ	-11.2283
ᏓᏲ	-11.2286
ᎦᏘᏅ	-11.2288
ᏬᏁᏙᏗ	-11.2295
▁ᏗᎦᎨ	-11.2295
▁ᎪᎱ	-11.2297
ᎲᏍᎪ	-11.23
▁ᏴᎦᏥ	-11.23
ᏥᏓ	-11.2303
▁ᎠᏆᏓᏅᏖ	-11.2308
▁ᎤᎸᎢ	-11.2315
▁ᏱᏅᏩᏍᏗ	-11.2316
▁ᎤᏂᎧᎵ	-11.2319
ᏎᎵᏙᏗ	-11.2326
ᏁᎸᏗᏍᎬ	-11.2327
▁ᏳᏓᏑ	-11.2329
▁ᎡᏥᏁ	-11.2337
ᏔᎴᏒ	-11.2337
ᏪᏏ	-11.2338
ᏥᏍᏔᏅ	-11.234
ᏁᎶᏕᏍᏗ	-11.2352
ᏂᎦᏔᎲᎾ	-11.2354
ᏕᎨ	-11.2358
ᏦᎯ	-11.2361
▁ᎤᏓᎨᏳ	-11.2363
ᎦᏘᏲ	-11.2367
▁ᎠᏂᎪᎵᏰᏍᎨ	-11.2371
ᎶᏃ	-11.2383
▁ᎤᎵᎪ	-11.2385
ᏓᏛᏁᏗ	-11.2403
ᏍᏕᎸᎯᏙᎯ	-11.2411
ᏣᏓᏅᏔ	-11.2414
ᏁᏌ	-11.2429
▁ᏳᎵᏍᏓᏴ	-11.2433
ᎵᏍᏕᎵᏍᎬ	-11.2434
ᏲᏙᏗ	-11.2438
ᎸᏅᎯ	-11.2441
▁ᏭᎶ	-11.2442
ᏎᎴᎢ	-11.2449
▁ᎠᏍᏚ	-11.2457
ᎧᏂᏍᎬ	-11.2458
▁ᏥᏍᎦᎾ	-11.246
▁ᏳᏲ	-11.246
ᏂᏪᏎ	-11.2475
ᏚᎲ	-11.2483
ᏍᏗᏍᎪᎢ	-11.2485
ᏲᏍᏔᏅ	-11.2488
▁ᎢᏗᎦ	-11.2494
ᎴᏗᏱ	-11.2495
ᏍᏕᎢ	-11.2497
ᏤᎮ	-11.2499
ᏲᏒ	-11.2504
▁ᎠᏂᏲ	-11.2504
ᏍᏓᏩᏕᏏ	-11.2517
▁ᎠᏰᎵᏉ	-11.254
ᎳᏁᎸᎯ	-11.254
ᏍᏆᏂᎪᏓᏁᏗ	-11.2542
▁ᎤᏄᎪᏫᏎ	-11.2542
▁ᏩᏂᎷ	-11.2544
ᏗᏅᏗ	-11.2549
▁ᎠᎾᎵᎮᎵ	-11.2558
ᏯᏅᎮ	-11.256
ᏤᏅ	-11.2574
ᏓᏑᏴ	-11.2576
▁ᏗᎦᎸ	-11.2583
▁ᏗᏑᏫ	-11.2593
ᏚᏓᎴ	-11.2596
ᏁᎢᏍᏗᏍᎬ	-11.2598
ᏝᏁ	-11.2599
ᎵᏍᎦᎸ	-11.2616
▁ᏧᎴᏗ	-11.2618
ᏍᏙᎢ	-11.262
ᏁᎩ	-11.2622
▁ᎬᏛᎪ	-11.2645
▁ᎤᏂᏩᏛ	-11.2646
ᎫᏴᏗᏱ	-11.2647
ᏣᎷᏤᏗᏱ	-11.2648
▁ᏕᎦᏥ	-11.2654
ᏙᎵᎪ	-11.2654
▁ᏕᎤᏲ	-11.2659
ᏝᎥ	-11.2662
▁ᏯᏆᏓ	-11.2675
ᎨᎯᏙᎸ	-11.2676
ᎳᏫ	-11.2676
▁ᎬᏩᎵᎪᏁ	-11.2683
ᏓᏛᏁᎵ	-11.2686
▁ᎤᏩᏎ	-11.2687
▁ᏧᎿᏬ	-11.2688
ᏒᎦᎸ	-11.2706
ᏓᏙᎵᏍᏓᏏ	-11.2707
ᏓᏗᏍᏗ	-11.2719
ᎯᏍᏗᏍᎪ	-11.2727
ᎵᏍᏆᏙᎾ	-11.273
ᎵᏏᏂ	-11.2739
ᏓᏘᏂᏙᎯ	-11.2743
▁ᎠᎩᎨᏳᎯ	-11.2743
▁ᎦᎷᎶ	-11.2746
ᏂᏢᏗᏱ	-11.2752
ᎾᎡ	-11.2753
▁ᎤᎾᎵᏍᏓᏴ	-11.2754
ᎸᏫᏍᏓᏁᎰᎢ	-11.2759
ᏂᎵ	-11.2764
ᏓᏯᏂᏍᎪ	-11.2766
ᎪᏩᏘᏍᎬ	-11.2782
ᎹᏂ	-11.2789
▁ᏕᎨᏣ	-11.2789
ᎴᎲ	-11.2792
▁ᎢᏥᏍᎦᏅ	-11.2794
ᎣᏁ	-11.2798
ᏓᏬᏍᏗ	-11.2802
▁ᏈᏂ	-11.2806
▁ᏚᎾᎵᎪ	-11.2808
ᏌᏅ	-11.2808
▁ᎤᏩᏙ	-11.2818
ᏁᎵᏍᎬ	-11.2821
▁ᏯᏛ	-11.2822
ᎵᎭ	-11.2824
▁ᏕᎦᏘ	-11.2844
▁ᏘᏁ	-11.2848
▁ᎠᏂᎴ	-11.285
ᏦᏒ	-11.286
ᏌᏛᎢ	-11.2862
▁ᏗᎦᎾ	-11.2868
ᏂᎦᏛ	-11.2875
ᏅᏩᏍᏗᏉ	-11.2877
ᏍᏛᎩ	-11.2883
ᏠᎠᎯ	-11.2886
ᎸᏍᏙᏗᏱ	-11.2887
ᏲᎮᏗ	-11.2897
▁ᏄᎵᏍ	-11.29
▁ᎠᏤᎸᏍ	-11.29
ᏥᎾᏄᎪᏫᏎᎸ	-11.2902
ᏚᎵᏍᎨ	-11.2904
ᎳᏏᏕᏂ	-11.2912
ᏛᎩᎠ	-11.2916
ᎪᎨ	-11.2923
▁ᎠᏂᏯᏫᏍᎩᏃ	-11.2925
ᏍᏆᏂᎪᏓ	-11.2928
ᎯᏰ	-11.293
ᎪᎵᏰᏍᎬᎢ	-11.293
▁ᏓᎵ	-11.2932
ᏃᎮᏗ	-11.2935
as	-11.2939
ᏁᏟᏴᏍᏗ	-11.2941
ᏲᎱᎯ	-11.2943
ᎧᏔᎭ	-11.2945
ᏏᏙ	-11.2949
▁ᏗᎪᏪᎶ	-11.295
▁ᎡᏣᏑᏰ	-11.2954
▁ᏗᎩᎦᎨ	-11.2958
ᏛᏁᎰ	-11.2958
ᎷᎨᏍᏗ	-11.2959
▁ᎤᏐᏅᎢ	-11.2962
ᏂᏍᎨᏍᏗ	-11.2963
ᎵᏬ	-11.2968
▁ᏂᏥᏪᏎ	-11.2971
▁ᏥᎠ	-11.2976
ᏍᎦᏯ	-11.2977
ᏤᏪ	-11.2978
▁ᏫᏯᏅ	-11.2983
▁ᎠᏗᏔᏍ	-11.2989
▁ᏧᏅᏏ	-11.2994
▁ᏕᏥᏯ	-11.3001
ᏲᎲᏍᎩ	-11.3005
▁ᏆᏏ	-11.3005
ᎡᎲᎢ	-11.3005
ᎦᏛᎩ	-11.3006
ᎫᎩ	-11.3006
▁ᎤᎷᏨᏃ	-11.3011
ᏍᎦᏅᏨᎢ	-11.3012
▁ᏧᎵᏰ	-11.3018
ᏐᏢ	-11.3022
ᏛᏛᎲᏍᎦ	-11.3027
▁ᏱᏚᏓ	-11.3052
▁ᏳᏃᏴ	-11.3055
ᎾᏗᏍᎪᎢ	-11.3057
ᎪᎵᏰᏍᎨᎢ	-11.3058
▁ᎠᎩᏁᎸ	-11.3079
ᏣᎴᏛ	-11.308
▁ᎤᏝ	-11.3081
ᏂᏍᏔᏅ	-11.3083
▁ᎠᏂᏯᎥ	-11.3084
▁ᎠᏴᏉ	-11.3085
ᏨᏍᏗᏱ	-11.309
ᏆᏓ	-11.3096
ᏒᏉ	-11.31
ᎮᎸ	-11.3104
▁ᎦᏄ	-11.3107
ᏘᏃᎯᏍᏗ	-11.311
ᏍᏚᎩᏒ	-11.3114
▁ᏧᏂᏲᎰ	-11.3115
ᏫᏎᎢ	-11.3115
▁ᏂᏣᎵᏍᏓᏁ	-11.3117
ᏏᏅᏍᏗ	-11.3128
ᎦᎵᎰ	-11.3131
ᏕᏣᏙ	-11.3134
ᏅᏏ	-11.3136
▁ᎾᏥᎸᏉ	-11.3139
ᏍᎬᎾᏉ	-11.3141
▁ᏂᎦᏥᏴᏁ	-11.3143
ᏢᎭ	-11.3143
ᏍᎦᏅᎾ	-11.3151
ᏛᏛᏅ	-11.3153
▁ᎠᏆᏓᏅᏔ	-11.3158
ᏄᏪᏎ	-11.3161
ᏎᎰᎢ	-11.3163
ᏲᎯᏏ	-11.3169
▁ᏅᎵᏌᎵ	-11.317
ᏄᎪᏫᏒᎯ	-11.3171
ᏁᎩᏎᎢ	-11.3174
ᏅᏙ	-11.3186
ᎠᎩᎷᏨ	-11.3189
ᏝᏅ	-11.319
ᎸᏉᏓ	-11.319
▁ᏝᏍ	-11.3191
ᏍᏗᏍᎪ	-11.3191
▁ᏯᏥ	-11.3192
ᏥᏲᏍᏙᏓᏁ	-11.3195
▁ᏯᎦᏓ	-11.3197
▁ᎤᏑ	-11.3201
▁ᎠᏓᏍᏕᎵ	-11.3201
ᏚᏓᏲᏎ	-11.3204
▁ᎠᏂᎡ	-11.3205
ᏴᏔᏅᎩ	-11.3208
Ꮐ	-11.3213
▁ᏧᏓᎴᏅ	-11.3224
ᏫᏗ	-11.3225
ᎴᎬ	-11.3233
▁ᏁᏩᏔᎵ	-11.3236
ᏳᏩᏅ	-11.3237
▁ᏓᎭ	-11.3238
ᎾᏄᎪᏫᏒ	-11.3239
▁ᎩᎳᎢ	-11.3241
▁ᎯᏰ	-11.3242
▁ᏓᏟᎶᏍᏗ	-11.3251
▁ᏚᎾᏓᏅ	-11.3253
▁ᎤᎵᏦ	-11.3256
ᏗᏍᏗᏍᎩ	-11.326
ᏝᏁᎢ	-11.326
▁ᏭᏭᏍ	-11.3264
▁ᎠᎾᎵᏍᏓᏴᎲᏍᎬ	-11.3266
▁ᏚᏩᏛᎲ	-11.3272
ᏲᏍᏗ	-11.3273
ᏑᏯᎩ	-11.3273
▁ᎬᏩᏃᎯᏳ	-11.3275
ᏓᎴᎲᎦ	-11.3275
ᎿᏩ	-11.3275
▁ᎤᏂᏧᏈᏍ	-11.3278
▁ᏕᎪᏢᏒ	-11.328
ᎦᏌᏯᏍᏙᏗ	-11.328
▁ᏩᏌ	-11.3281
ᎩᏍᏓ	-11.3282
ᏗᏢᏍᏙᏗ	-11.3285
ᎪᏩᏗᏍᎬ	-11.3285
▁ᎤᏲᏍᏔᏅ	-11.3294
ᏓᏅᏖᏍᎨ	-11.3296
ᏧᏔᏅ	-11.3299
Ꮊ	-11.3301
▁ᏅᏩ	-11.3302
▁ᎤᏂᏩᏒ	-11.3311
ᏩᏗᏍᎬ	-11.3315
ᏙᎴᎰᏎ	-11.3317
ᏪᏎᎸᎩ	-11.3322
ᎯᏛ	-11.3324
▁ᎤᎵᏍᏙ	-11.3325
▁ᎠᏛᏅᎢᏍᏗ	-11.3326
ᏍᎪᏒ	-11.3326
▁ᎤᏂᎩ	-11.3326
ᎠᏂ	-11.3327
▁ᏕᎧᏅ	-11.333
▁ᏂᏓᏙᏓᏈᏒ	-11.3333
▁ᎾᎬᏁᎴ	-11.3333
ᏍᏓᏁᏗ	-11.3335
▁ᏚᏄᏩᎥ	-11.3336
ᏚᏲᏎ	-11.3336
▁ᏂᏚᏍᏕ	-11.3338
▁ᎤᏙᏢᏒ	-11.3341
▁ᏓᏂᏍᏓᏲᎯᎲ	-11.3342
▁ᎦᎵᎡᎵᎬ	-11.3343
▁ᏕᏣᎸᏫᏍᏓᏁᎸ	-11.3343
▁ᎤᏃᎯᏳᏁ	-11.3344
▁ᎤᎾᏅᏁ	-11.3346
ᎤᏨᏉᏗ	-11.3347
▁ᏧᎶᏎ	-11.3347
ᎢᏗᎦᏘ	-11.3349
ᎤᏂᎷᏤᎢ	-11.3349
▁ᏕᎤᎸᏫᏍᏓᏁᎲ	-11.3349
▁ᏚᏍᎫᏓᏛ	-11.335
▁ᏄᎵᏍᏓᏁᎸ	-11.335
▁ᏂᏣᏓᎨᏳᏒ	-11.335
ᏒᎮᏱᏣ	-11.335
▁ᎤᎵᏖᎸᏁ	-11.335
▁ᏚᏓᏘᎿᎥ	-11.3351
▁ᎤᏔᏪᏙᏁ	-11.3351
ᏍᏆᏂᎪᏔᏅ	-11.3351
ᎧᏃᎮᏛ	-11.3352
ᎢᏥᏈᏱ	-11.3352
▁ᏱᏄᎵᏍᏔᏁ	-11.3352
▁ᎤᏓᏙᎵᏍᏔᏁ	-11.3352
ᎦᎵᎡᎵ	-11.3352
ᎠᎬᏱ	-11.3353
▁ᎠᏥᏰᎸᎾᏁ	-11.3354
▁ᎤᏪᏍᎩᎸ	-11.3354
▁ᏚᏄᎪᏔᏅ	-11.3354
▁ᎠᎵᏥ	-11.3356
▁ᏓᎾᎵᏍᏓᏴᎲᏍᎬ	-11.3357
▁ᎤᎴᏂᏙᎴ	-11.3357
▁ᏚᏂᏢᎬ	-11.3358
▁ᎾᏂᏪᏍᎨ	-11.3359
▁ᎢᏣᏚᎵᏍᎬ	-11.3359
▁ᏂᏚᏩᏁᎴ	-11.336
▁ᎤᏓᏅᎡᎴ	-11.336
▁ᎤᏂᎭ	-11.3361
▁ᏫᏥᎦᏛ	-11.3361
ᏇᎵᏥ	-11.3362
▁ᏚᏭᎪᏔᏅ	-11.3362
▁ᎢᏥᏁᎬ	-11.3362
ᏍᏓᏴᎲᏍᎩ	-11.3363
ᎵᎨᏂ	-11.3364
▁ᎤᏍᎩᏓᏒ	-11.3365
▁ᎾᏂᎡ	-11.3365
▁ᎠᏥᏃᎮᏍᎬ	-11.3366
▁ᏑᏟᎶᏛ	-11.3367
ᏍᏓᏩᏛᏎ	-11.3368
ᏠᎯᏍᏓ	-11.3369
▁ᎡᏌ	-11.337
▁ᎢᏨᏰᎳᏗᏙᎲ	-11.337
▁ᎤᏍᏓᏱᏛ	-11.3371
▁ᏱᏂᎨ	-11.3372
ᏘᏅᏍᏔᏁᎢ	-11.3373
ᏥᏃᎯᏎᎸ	-11.3374
▁ᎠᏄᎯᏍᏗᏍᎬ	-11.3375
ᏚᏓᏕᏫᏒ	-11.3376
ᏫᏍᎪᎢ	-11.3377
ᎵᏍᎪᎸᏗᏍᎬ	-11.3377
▁ᎦᏅᎪᎢ	-11.3377
▁ᏓᏂᏙᎬ	-11.3378
▁ᎤᏑᎵᎪᏨ	-11.3378
ᏉᎡᏗ	-11.3379
▁ᏥᏬᏂᏍᎬ	-11.338
▁ᏚᏂᏲᎱᏒ	-11.338
ᏍᏉᎵᏱ	-11.3381
▁ᎤᏓᏅᏁ	-11.3383
▁ᏂᎦᎵᏍᏗ	-11.3384
ᎦᏘᏗᏍᏗᏱ	-11.3386
ᏍᎩᏓᏎᎢ	-11.3388
ᎡᏃ	-11.339
ᎵᎷᎬ	-11.339
▁ᎲᏅ	-11.3391
▁ᏚᎾᎴᏅ	-11.3392
▁ᏣᏁᏨ	-11.3392
▁ᏗᏓᎾᏅ	-11.3393
ᎫᎫ	-11.3393
▁ᎠᏆᎴᏅ	-11.3394
▁ᎣᎦᏣᏅ	-11.3395
▁ᏓᏅᏗᏍᎬ	-11.3396
ᏓᏂᎸᎨᏍᏗ	-11.3396
▁ᎤᏍᏓᏩᏛᏎ	-11.3398
ᎩᏍᏓᏩᏕ	-11.34
▁ᏱᏥᎪᏩᏘ	-11.3401
ᎯᏢᎾ	-11.3403
▁ᏗᏘᏂᏙ	-11.3403
ᎸᏉᏔᏂ	-11.3404
ᏖᏍᎬᎢ	-11.3404
▁ᏓᏰᏣ	-11.3405
▁ᏱᏣᏚᎵ	-11.3405
ᎾᎾᏛᏁᎰ	-11.3406
ᏖᎸᏂ	-11.3406
▁ᎢᏨᏲᏎ	-11.3407
▁ᎦᏁᎮ	-11.3407
▁ᏦᎩᎾᏫ	-11.3411
▁ᎤᎩᎵᏲᎢᏍᏗ	-11.3412
▁ᏓᏍᏓ	-11.3412
▁ᎡᎩᏍᏕᎸᏗ	-11.3413
▁ᏗᎬᏩᎸᏌ	-11.3414
ᏒᎲᏍᎦ	-11.3414
▁ᎢᏳᏩᏂᏐᏗ	-11.3415
ᏁᎵᏎᎢ	-11.3415
▁ᎢᏣᏓᏅᎦᎸ	-11.3416
ᏓᏂᎵᎨ	-11.3416
▁ᏱᏙᎬ	-11.3418
ᏓᏓᏍᎬ	-11.3419
ᎸᏍᎦ	-11.3423
▁ᎤᏁᏍᏓ	-11.3423
▁ᎠᏉᎯᏳ	-11.3423
▁ᏗᎧᏃᎨ	-11.3424
▁ᏣᏁᎮ	-11.3424
ᏌᎳᏛ	-11.3425
ᏍᏆᏂᎪᏗᏳ	-11.3426
▁ᎤᏍᎦᎴ	-11.3426
▁ᎤᏪᎧᎲ	-11.3427
▁ᏗᎦᏤᎵ	-11.3428
▁ᎢᏣᎵᏍᏓᏴᏗ	-11.3428
▁ᏥᎪᏩᏛ	-11.343
▁ᎠᏛᎩᏍᎨ	-11.3431
▁ᏂᎦᎵᏍᏔᏂ	-11.3431
ᏃᎵᏤ	-11.3432
ᏄᏬᎡᎢ	-11.3433
▁ᎤᏬᏢᏁ	-11.3433
▁ᏂᏚᎵᏍᏔᏅ	-11.3433
▁ᎡᏥᎦᏙᎥ	-11.3434
ᏙᎴᏆᏍᏗ	-11.3434
▁ᏓᏰᏙᎳᏛ	-11.3435
ᏔᏍᎩᏍᎩ	-11.3435
ᏩᏙᎯᏯᏛ	-11.3435
ᏦᏎᎭ	-11.3435
ᎵᏍᏘᏂᎸ	-11.3435
ᏓᏅᏓᏗᏍᏗᏍᎩ	-11.3436
▁ᎠᏓᎴᏒ	-11.3436
▁ᏂᏓᎾᏓ	-11.3436
▁ᏂᏦᎯᏳ	-11.3437
▁ᏓᏂᎶᏄᎮᏍ	-11.3437
ᏓᎾᏕᏒᎲᏍᎪᎢ	-11.3437
ᏧᎪᏓᏏ	-11.3437
▁ᎠᏂᎢᏏᎺᎵ	-11.3437
▁ᎠᏍᏕᏱᏛ	-11.3437
▁ᎢᏍᎪᏂᏗᏢ	-11.3437
▁ᎤᎾᏓᎪᎾᏙᏗ	-11.3437
▁ᎤᎾᏗᏍᎦᏢ	-11.3437
▁ᎤᏩᎬᏘᎶᏓ	-11.3437
▁ᎤᏩᎾᏓᎴ	-11.3437
▁ᎥᏖᎣᎩ	-11.3437
▁ᎺᎮᎴᎵ	-11.3437
▁ᏁᏥᏪᏎᎸᎭ	-11.3437
▁ᏂᏓᏁᏢᏛᎾ	-11.3437
▁ᏂᏗᎬᏩᏓᎴ	-11.3437
▁ᏂᏧᏪᏎ	-11.3437
▁ᏄᏃᎯᏳᏅᎾ	-11.3437
▁ᏒᏗᏩᏟ	-11.3437
▁ᏓᎱᏃᎲ	-11.3437
▁ᏓᎾᏦᎭᏱᎲ	-11.3437
▁ᏓᏂᎳᏍᏓᎳᏩᏗᏒᎢ	-11.3437
▁ᏓᏊᎪᏔᏅ	-11.3437
▁ᏓᏓᏂᏌᎲ	-11.3437
▁ᏗᎧᏃᎩᏛ	-11.3437
▁ᏗᎾᎵᏦᎯᏛ	-11.3437
▁ᏗᏙᎳᏅᏍᏗ	-11.3437
▁ᏙᏛᎾᏓᏡᏔᏂ	-11.3437
▁ᏥᏂᏥᏪᎠ	-11.3437
▁ᏥᏓᎩᎸᏫᏍᏓᏁᎭ	-11.3437
▁ᏥᏕᎭᏘᏁᎭ	-11.3437
▁ᏧᎵᎦᎸᏓ	-11.3437
▁ᏮᏘᎶᏏ	-11.3437
▁ᏮᏘᏯᏅᎯ	-11.3437
▁ᏯᏙᎴᎰᏍᎦ	-11.3437
▁ᏱᎡᏦᎢᏳ	-11.3437
▁ᏱᏂᏓᎦᎵᏍᏔᏂ	-11.3437
▁ᏱᏓᎴᏂᏙᎭ	-11.3437
▁ᏱᏣᏁᎢᏍᏔᏁᏍᏗ	-11.3437
▁ᏱᏫᏣᏴᎸ	-11.3437
▁ᎤᎩᏠᏫᏎ	-11.3437
▁ᎤᎾᎵᏃᎯᏴᎯ	-11.3437
▁ᎤᎾᏙᏓᏉᏅ	-11.3437
▁ᎨᏥᎦᏘᏗᏍᏗ	-11.3437
▁ᏂᎦᏗᎹᏏ	-11.3437
▁ᏄᏛᎿᏕᎬ	-11.3437
▁ᏆᎻᏈᎵᏱ	-11.3437
▁ᏌᎷᏱ	-11.3437
▁ᏍᎩᏍᏕᎳ	-11.3437
▁ᏗᏝᏗᏍᏗᏱ	-11.3437
▁ᏛᎾᏛᎦᏂ	-11.3437
▁ᏧᏓᏅᏓᏗᏍᏙᏗᏱ	-11.3437
▁ᎠᏓᏅᏖᎸ	-11.3437
▁ᎢᎬᏩᏛᏛᏁ	-11.3437
▁ᎤᏂᏃᎮᏛ	-11.3437
▁ᎤᏪᏟᏌᏁ	-11.3437
▁ᎹᎻᎵ	-11.3437
▁ᏂᏚᎾᏁᎶᏛᎾ	-11.3437
▁ᏓᎦᎫᏴᎯ	-11.3437
▁ᏓᏍᏗᏰᏗᏍᎬ	-11.3437
▁ᏓᏟᏰᎵᏙ	-11.3437
▁ᏕᎦᎧᎮᏍᏗ	-11.3437
▁ᏘᏰᎸᏂ	-11.3437
▁ᏙᏗᎾᎵᏍᏓᏴᎲᏍᎬ	-11.3437
▁ᏚᏂᏐᏨ	-11.3437
▁ᏥᎪᎵᏰᏍᎬ	-11.3437
▁ᏧᎾᏂᏏᏗᏱ	-11.3437
▁ᏨᏓᏯᎢ	-11.3437
▁ᏳᎵᏃᎯᏰ	-11.3437
▁ᏧᎾᏓᏂᎸᎢᏍᏗᏱ	-11.3437
ᎩᏪᏎᎲᎩ	-11.3437
ᎵᏍᎨᏗᏴ	-11.3437
▁ᎡᎻᎳ	-11.3437
▁ᎢᎦᏗᏍᎦᎶᏗᏱ	-11.3437
▁ᏁᏓᏈ	-11.3437
▁ᏂᏨᏴᏁᎸ	-11.3437
▁ᏚᏂᎧᎮᏍᏗ	-11.3437
▁ᎤᏩᏨᏴ	-11.3437
▁ᎩᏅᎪᎢ	-11.3437
▁ᏁᎨᏒᎾ	-11.3437
▁ᏬᎩᏅᏍᏔᏅᎩ	-11.3437
▁ᏯᎵᏖᎸᎮᏍᎬᎾ	-11.3437
▁ᏄᏍᏆᏂᎩᏛ	-11.3437
▁ᏯᏓᏅᏍᎬᎾ	-11.3437
▁ᎠᏓᏴᎳᏛᏍᎩ	-11.3437
▁ᎠᏥᏅᏩᏅᎢ	-11.3437
▁ᎢᏖᎳ	-11.3437
▁ᏂᏪᏎᎸᎭ	-11.3437
▁ᏕᎷᎨ	-11.3437
▁ᏣᏔᎳᏬᏍᎬ	-11.3437
▁ᏯᏎᎦᎩ	-11.3437
▁ᎪᎶᏁᏛ	-11.3437
▁ᏚᏟᏂᏆᏅᏁ	-11.3437
ᎦᎭᎾᏅ	-11.3437
▁ᏥᏄᏩᏁᎸ	-11.3437
▁ᎬᏩᏴᎸᎯ	-11.3437
▁ᏓᏑᏫᏍᎬ	-11.3437
▁ᏥᏕᏣᎸᏫᏍᏓᏁᎭ	-11.3437
▁ᏫᎬᏲᏪᎳᏏ	-11.3437
▁ᎠᏲᏓᏝᎲᎢ	-11.3437
▁ᏁᏍᏗᏪᏎᎸᎭ	-11.3437
▁ᎠᎦᏔᏛᏍᎩ	-11.3437
▁ᎡᏗᏂᏱ	-11.3437
▁ᎤᏪᏯᎸᏅᎩ	-11.3437
▁ᎠᏍᎫᏕᏒ	-11.3437
▁ᏛᏂᎾᏄᎪᏥ	-11.3437
▁ᏩᏇᏙᎸ	-11.3437
▁ᎢᏦᎵᎩ	-11.3437
▁ᎤᏂᏔᎳᏬᏍᎬᎢ	-11.3437
▁ᎫᏰᏉ	-11.3437
▁ᏱᏗᏣᏰᎸᏁᎢ	-11.3437
▁ᎤᎵᏌᎵᏓᏁ	-11.3437
▁ᏧᏄᏩᎢ	-11.3437
▁ᎢᏳᎾᏛᎾᏕᎩ	-11.3437
ᏬᏁᏗᏍᎪ	-11.3437
▁ᎥᏇᎵᏎᎸ	-11.3437
▁ᏌᎶᎻ	-11.3437
▁ᏓᎶᎨ	-11.3437
▁ᎤᏕᏒᏂᎸᎯ	-11.3437
▁ᎣᎨᏙᎸ	-11.3437
▁ᎤᏩᏂᎦᏢ	-11.3437
▁ᏓᏥᏯᏓᏙᎵᏍᏓᏁᎵ	-11.3437
▁ᏙᏛᎾᎴᏂ	-11.3437
▁ᏙᏓᏥᏲᎱᏏ	-11.3437
▁ᎠᎾᎵᏍᎩᏍᎬ	-11.3437
▁ᏂᏕᎦᎵᏍᏗᏍᎨ	-11.3437
▁ᏂᏗᎨᏥᎾᏝᎥᎾ	-11.3437
▁ᏂᏦᎯᏳᎲᏍᎬᎾ	-11.3437
▁ᏯᏂᎷᎬᎾ	-11.3437
▁ᎠᏂᎷᏨᎭ	-11.3437
▁ᏗᎨᎦᏛᏅᎯ	-11.3437
▁ᎦᏄᎾᏓᎴᎩ	-11.3437
▁ᏙᎩᎾᏦᏒ	-11.3437
▁ᎦᎵᏒᏍᏗᏍᎬ	-11.3437
ᎾᏓᏡᎩ	-11.3437
▁ᎢᏣᏛᏁᎸᎯ	-11.3437
▁ᏗᏐᏂ	-11.3437
▁ᏚᎵᏃᎮᏔᏁᎢ	-11.3437
▁ᎢᏣᏓᏟᏌ	-11.3437
▁ᎢᎬᏂᎮᏍᏗ	-11.3437
▁ᎠᎩᏬᏂ	-11.3437
▁ᏱᏨᏰᎵᏎᎭ	-11.3437
▁ᎤᎬᏍᏕᎵ	-11.3437
▁ᏅᏓᏳᎵᏍᎪᎸᏔᏅᎯ	-11.3437
▁ᏗᎾᏓᏙᎵᏍᏓᏁᎯ	-11.3437
▁ᏂᏕᏣᏛᏁᎮᏍᏗ	-11.3437
▁ᎢᏣᏄᏬᏍᏕᏍᏗ	-11.3437
▁ᎪᏢᏅᎥᏍᎩ	-11.3437
▁ᏙᏓᏳᏲᏏ	-11.3437
▁ᏍᎩᏯᏛᎦᏁᎸᎯ	-11.3437
▁ᎩᎵᏯᏗ	-11.3437
▁ᏄᎾᏓᏛᎩ	-11.3437
ᎨᏅᏴ	-11.3437
▁ᎩᏂᏙᏓ	-11.3437
▁ᎡᏗᎸᏉᏓ	-11.3437
▁ᎤᎾᎵᏍᏓᏴᏁᏃ	-11.3437
▁ᎤᏓᏁᏟᏴᏍᏓᏁᎴ	-11.3437
▁ᏍᎩᏯᏅᏓᏗᏍᎨᏍᏗ	-11.3438
▁ᏕᎫᏓᏛ	-11.3438
▁ᏚᎾᎭᏄᏮ	-11.3438
▁ᏗᎾᏓᏲᏁᎯ	-11.3438
▁ᏗᏂᎬᏓᎨᏂ	-11.3438
▁ᎠᏲᎤᏟ	-11.3438
ᎯᏣᏛᎦᏍᏓ	-11.3438
▁ᎤᏁᎢᎸᏗ	-11.3438
▁ᎠᎩᎵᏬᎢᏍᏗ	-11.3438
▁ᎤᎿᎷᏎ	-11.3438
▁ᏓᏆᏓᏂᎸᎨᏍᏗ	-11.3438
▁ᏴᎨᏥᎪᏩᏛ	-11.3438
ᏠᏯᏍᏗᏍᎨᏍᏗ	-11.3438
▁ᎤᏂᏬᏂᏒ	-11.3438
▁ᏅᏛᏂᏪᏏ	-11.3438
ᏍᏕᎸᎲᎩ	-11.3438
▁ᏗᎩᏂᏴᏗᏱ	-11.3438
▁ᎠᏥᏅᏩᏅᎯ	-11.3438
▁ᎠᏛᎩᏍᎩ	-11.3438
▁ᏫᏓᎨᏙᎵ	-11.3438
▁ᎾᏆᏛᏁᎵᏙᎸ	-11.3438
▁ᏫᏄᎾᎵᏍᏓᏏ	-11.3438
▁ᏗᎦᏃᏙᏗᏱ	-11.3438
ran	-11.3438
▁ᏓᎬᏅᏏ	-11.3438
▁ᏯᏂᎷᎩ	-11.3438
ᎬᏲᎵᎭ	-11.3438
▁ᎠᏂᏁᏉᎨ	-11.3438
▁ᎤᏬᏪᎶᏗ	-11.3438
▁ᎬᏍᎦᏅᏤᎸ	-11.3438
▁ᏧᎾᏓᏅᏬᏗᏱ	-11.3438
▁ᏗᎪᏏᏐᏗ	-11.3438
▁ᎤᎦᏌᏛᎢ	-11.3438
▁ᎠᏂᏍᏆᏂᎪᏗᏍ	-11.3438
▁ᎬᏩᏂᏅᏫᏍᏔᏂᏙᎯ	-11.3438
▁ᏃᎦᏛᏅ	-11.3438
▁ᏓᏂᏂᏓᏛ	-11.3438
▁ᎠᏍᎦᏲᎯ	-11.3438
▁ᏕᎬᏩᏠᏎᎢ	-11.3438
▁ᏧᏭᏓᎴᏍᏗᏱ	-11.3438
▁ᏚᏃᎩᏎ	-11.3438
▁ᏣᏁᎫ	-11.3438
ᎬᏩᏳᎪᏗ	-11.3438
▁ᏣᎩᏯᎠ	-11.3438
▁ᏂᏨᏁᎮᏍᏗ	-11.3439
▁ᎢᏁᎾ	-11.3439
▁ᎠᎩᎩᎬ	-11.3439
▁ᏗᎫᏓᏙᏗ	-11.3439
▁ᏓᏍᏆᏚᎸ	-11.3439
▁ᎡᎶᏂᎵ	-11.3439
▁ᏚᎩᏒᎩ	-11.3439
▁ᎪᏢᏛᎩ	-11.3439
ᏛᏍᎦ	-11.3439
▁ᎤᏂᏲᎴ	-11.3439
▁ᎠᎾᏟᏃᎮᏍᎬ	-11.3439
▁ᎤᏂᎦᎾᏍᏓ	-11.3439
▁ᏫᏲᏪᎳᏏ	-11.3439
▁ᏚᏁᏅᏒ	-11.3439
▁ᎠᏟᎢᎵ	-11.3439
▁ᏗᏂᎦᏘᎴᎩ	-11.3439
▁ᏗᎩᏣᏗ	-11.3439
▁ᏭᏓᏓᎩᏅᏎ	-11.3439
▁ᏦᎨᏅᏒ	-11.3439
▁ᏛᏂᎪᎯ	-11.3439
▁ᎠᏆᎵᏥᏙᏗᏱ	-11.3439
▁ᏗᏗᏰᎸ	-11.3439
▁ᏘᎹᏂ	-11.3439
▁ᎢᏍᏗᏙᏓ	-11.3439
▁ᏕᏣᏓᎨᏳᏎᏍᏗ	-11.3439
▁ᏫᎦᎢᏒ	-11.3439
▁ᏚᏙᏓᏈᏒ	-11.3439
▁ᏣᎵᏍᏓᏴᏗ	-11.3439
ᏲᎦᏛᏁᏗ	-11.3439
▁ᏚᎵᎬᏩᏢ	-11.3439
▁ᏱᏓᎨᏏ	-11.3439
ᏓᏒᏍᏓ	-11.3439
▁ᏱᏓᏲᎩ	-11.344
▁ᏭᏕᏁᎢ	-11.344
ers	-11.344
▁ᎤᎸᏫᏒ	-11.344
▁ᎣᏣᎵᎡᎵᏤ	-11.344
▁ᎠᏂᏍᏆᏂᎪᏍᎨ	-11.344
▁ᏑᏕᏘᏴ	-11.344
▁ᏕᏣᎧᎿᏩᏗᏙᎮᏍᏗ	-11.344
▁ᎠᏓᎦᎵᏍᏓᏗᏍᎩ	-11.344
▁ᎢᎬᏩᏍᏗᎭ	-11.344
▁ᎢᏥᎩᎵᏲᎬᎢ	-11.344
▁ᏓᏅᏩ	-11.344
▁ᏙᏓᎬᏁᎵ	-11.344
▁ᎤᏍᏔᎦ	-11.344
▁ᏚᎪᏄᎶᏎ	-11.344
▁ᎬᏩᏂᏍᏓᏩᏗᏙᎯ	-11.344
▁ᏗᎤᏁᏤ	-11.344
▁ᏌᎪᏗ	-11.344
ᏏᏀᎥ	-11.344
▁ᎱᎷᏨ	-11.344
▁ᏗᏓᏅᏫᏍᎩ	-11.344
▁ᏗᏓᏙᏕᏍᏗᏍᎩ	-11.344
▁ᏧᏪᎷᏁ	-11.344
ᏈᎪᎵ	-11.344
▁ᏧᏅᎨᏫ	-11.344
▁ᏕᎦᎵᏦᏛ	-11.3441
▁ᏗᏂᏙᎬ	-11.3441
▁ᎤᏅᏂᏍᏗᏱ	-11.3441
▁ᏥᏍᎦᏅᎩ	-11.3441
▁ᎤᏂᎧᎲ	-11.3441
▁ᎠᎩᏲᎱᎯᏍᏗᏱ	-11.3441
ᎾᏞᎬ	-11.3441
▁ᎠᏑᏫᏍ	-11.3441
▁ᎢᏥᎧᎵᏣ	-11.3441
▁ᎤᏁᎵᏨ	-11.3441
▁ᏄᏂᎪᎸᎾ	-11.3441
▁ᎤᎾᏓᏛᏅᎯ	-11.3441
▁ᎢᏣᎵᏍᏓᏴᏗᏍᎨᏍᏗ	-11.3441
▁ᏓᎦᎾᏄᎪᏫᏏ	-11.3441
▁ᎤᏓᏅᏘᏌᏅ	-11.3441
▁ᏗᎬᏯᏠ	-11.3441
▁ᎢᏥᎦᏛᏂᏙᎯᏉ	-11.3442
▁ᎬᏬᎳᏕᏍᎬ	-11.3442
▁ᎭᏠᎠᎯ	-11.3442
▁ᏗᏂᏁᎵᏛ	-11.3442
▁ᏗᎩᏙᏓ	-11.3442
▁ᏂᏓᎾᏤ	-11.3442
▁ᏓᎬᎷᏤᎵ	-11.3442
▁ᏅᏯᏗᎦᎪᏗᏱ	-11.3442
▁ᏁᏓᏂᎵ	-11.3442
▁ᏂᏗᏣᏓ	-11.3442
▁ᎤᎾᏨᏓᎵ	-11.3442
▁ᏗᏍᎩᏲᎯᏏ	-11.3442
▁ᎤᏣᏪᏐᎸᏍᏕ	-11.3442
▁ᎣᎩᎵᏦᏩᏛ	-11.3442
▁ᏳᏲᎱᏎᎸ	-11.3442
▁ᏦᏚᎯ	-11.3442
▁ᏅᏓᏳᎶᎯᏍᏗᏱ	-11.3442
▁ᏗᎨᏥᏲᎯᏎᎸᎯ	-11.3442
▁ᎠᎵᏍᏆᏓ	-11.3442
▁ᏧᏬᏪᎳᏁ	-11.3443
▁ᎢᏣᏕᏗᏱ	-11.3443
▁ᎡᏣᏙᎵᎩ	-11.3443
▁ᎠᎾᏔᏍᎩᏍᎩ	-11.3443
▁ᎨᏥᎩᎵᏲᎢᏍᏙᏗᏱ	-11.3443
▁ᎠᏥᏂᏌᏁ	-11.3443
▁ᏗᏂᏃᎩᏍᎩ	-11.3443
▁ᎨᏯᏔᎯ	-11.3443
▁ᏂᎨᏨᏁ	-11.3443
▁ᎤᏗᏩᏒᎯ	-11.3444
▁ᏗᏥᏅᏏᏓᏍᏗ	-11.3444
▁ᎾᎩᎲᎾ	-11.3444
▁ᎢᏓᎻ	-11.3444
▁ᏱᏥᏯᎠ	-11.3444
▁ᏗᏜᏍᏔᏅᎯ	-11.3444
▁ᏧᎦᏌᏬᎸ	-11.3444
▁ᎧᏃᏍᎦ	-11.3444
▁ᎠᎦᏙᎥᎯᏍᏙᏗ	-11.3444
▁ᎠᎵᏣᏙᎲᏍᎩ	-11.3444
ᎦᎫᏍᏓᎥ	-11.3444
▁ᏧᏙᏍᏙᏗ	-11.3444
ᏂᏅᎪᎠ	-11.3444
▁ᎢᏳᏩᎪᏗ	-11.3444
ᎾᎵᏍᏓᏁᏗ	-11.3444
▁ᏕᎰᏢᏅᎭ	-11.3444
▁ᎯᏌᏙᏯ	-11.3444
▁ᏍᎩᏲᏍᏓ	-11.3444
▁ᏧᏬᏪᎶᏗ	-11.3444
▁ᏥᏥᎪᏩᏘᎭ	-11.3445
▁ᏥᏃᏍᎦ	-11.3445
▁ᏓᏕᏏ	-11.3445
▁ᎪᎭᏗ	-11.3445
▁ᎢᏗᎬᏁᎸᎯ	-11.3445
▁ᎠᏂᏏᎾᏌᏅ	-11.3445
▁ᎤᎾᏓᏅᏓᏕᎢ	-11.3445
▁ᏧᎾᏨᏍᏗᏱ	-11.3445
▁ᎤᎾᎵᏍᏓᏴᏁᎢ	-11.3445
▁ᎤᏯᏪᏐᎴ	-11.3445
▁ᎤᏄᎩᏣᏁ	-11.3445
▁ᏳᏃᎵᏤ	-11.3445
▁ᎠᏗᏔᏍᎨᏍᏗ	-11.3445
ᏂᎸᎬᎾ	-11.3445
▁ᎤᎩᏢ	-11.3445
▁ᎰᎯᏳᎲᏍᎦ	-11.3445
▁ᏕᎬᏆ	-11.3446
▁ᎠᏥᎶᎥ	-11.3446
ᏚᎧᎾᎾ	-11.3446
▁ᎣᎩᎷᏤᎸ	-11.3446
▁ᎠᎳᏍᎦᎵᏍᎩ	-11.3446
▁ᎠᏓᏴᏍᏔᎩᏍᎩ	-11.3446
▁ᎤᏁᏐᎠᏒᎩ	-11.3446
▁ᏂᎦᏖᏍᏗ	-11.3446
▁ᎬᏩᏂᏴᏗᏱ	-11.3446
▁ᎴᎹᎩ	-11.3446
▁ᎠᏓᏛᏗᏍᎩ	-11.3446
▁ᏂᏚᏂᏪᏎᎸᎩ	-11.3446
▁ᏣᏍᎦᎸᎩ	-11.3446
▁ᎤᎾᏛᏅᎢᏍᏗ	-11.3446
▁ᏍᏊᏓᎳᎩ	-11.3446
▁ᏗᏂᎾᏕᎩ	-11.3446
▁ᏯᏆᏛᏁᎸ	-11.3446
▁ᎬᏩᎾᏰᏍᎩ	-11.3447
▁ᎣᎩᏅᏏᏓᏍᏗ	-11.3447
▁ᏚᏭᏓᏔᏅᎩ	-11.3447
▁ᎭᎴᎲᎦ	-11.3447
▁ᎠᏖᎵᏙᎩᎯ	-11.3447
ᎦᎸᎲᎩ	-11.3447
▁ᎢᏣᎵᏏᎾᎯᏍᏗ	-11.3447
▁ᏯᏕᎶᎰᏍ	-11.3447
▁ᎬᏍᎦᎵ	-11.3447
▁ᏫᏥᎶᎯ	-11.3447
▁ᏧᏄᎪᏔᏅ	-11.3447
▁ᏧᏂᏄᎪᏫᏍᏗᏱ	-11.3447
▁ᏗᎦᎫᏍ	-11.3447
▁ᎢᏥᏴᏍᏗᏱ	-11.3448
▁ᏚᏂᏚᎲ	-11.3448
▁ᏗᏣᎵᏂᎩᏗᏳ	-11.3448
▁ᎬᏩᏄᎯ	-11.3448
▁ᎭᎦᏌᏯᏍᏓ	-11.3448
▁ᎻᏗᏂᏱ	-11.3448
▁ᎠᏍᏆᏂᎪᎯᏍᏗ	-11.3448
▁ᎡᏥᎨᏳᎢ	-11.3448
ᏍᏓᏱᏗᏍᏗᏱ	-11.3448
▁ᎤᎵᏨᏓᏆᏛ	-11.3448
▁ᎦᏌᎴᏅ	-11.3448
▁ᏚᎭᏁᎦᎸ	-11.3448
▁ᎢᏯᏋᏁᏗᏱ	-11.3448
▁ᏣᏰᎸᏅ	-11.3448
▁ᏧᏌᎨ	-11.3448
▁ᏥᏥᏯᎠ	-11.3448
▁ᎤᎾᏛᏅᎢᏍᏔᏁ	-11.3448
ᎫᏓᎴᏍᎩ	-11.3449
▁ᎬᎩᏁᏤᎸᎯ	-11.3449
▁ᎤᏔᏲᎴ	-11.3449
▁ᏣᏛᎦᏅᎢ	-11.3449
▁ᎤᏓᎪᎵᏰᏗ	-11.345
▁ᎤᏁᏍᏔᎳ	-11.345
▁ᎠᏥᏂᏌᏅ	-11.345
ᏗᎦᎴᏲᏤ	-11.345
▁ᎤᏙᏯᏅᎯᏛ	-11.345
▁ᏱᎰᏣ	-11.345
▁ᏄᏟᏂᎬᎬ	-11.345
ᏓᏅᏛᎳ	-11.345
▁ᏱᎦᏬᏂᎭ	-11.345
▁ᎣᏥᏃᎮᏍᎩ	-11.3451
▁ᎤᏂᏍᏆᏂᎪᏔᏅ	-11.3451
▁ᎠᏓᏬᏍᏗ	-11.3451
▁ᏗᎦᏃᎸᏗᏍᎬ	-11.3451
▁ᎤᏓᏅᏓᏕᎢ	-11.3451
▁ᎤᎾᎵᏓᎩᏛ	-11.3451
▁ᏅᏧᏪᏎᎢ	-11.3451
▁ᎠᎩᏅᏏᏓᏍᏗ	-11.3452
▁ᎤᏓᏱᎴᎢ	-11.3452
▁ᏳᎷᏨ	-11.3452
▁ᎤᏓᏅᎡᎸᎩ	-11.3452
▁ᏥᏐᎯ	-11.3452
▁ᏥᏯᎥ	-11.3452
ᏕᏲᏅᎯ	-11.3452
▁ᎤᏂᎾᏰᎯᏍᏗ	-11.3452
▁ᎥᎦᏥᎪᎥᎩ	-11.3452
▁ᏒᎦᎾᏲᎪ	-11.3452
▁ᏭᏩᏅᏓᏕ	-11.3452
▁ᏅᏋᏁᎸ	-11.3452
▁ᏧᎾᎵᏍᏓᏴᏗᏱ	-11.3453
▁ᎣᎦᏚᎵᏍᎬ	-11.3453
▁ᎦᎬᏩᏐᏢᏕᎢ	-11.3453
▁ᏕᎩᎸᏫᏍᏓᏁᎲ	-11.3453
▁ᏫᎤᎶᏎᎢ	-11.3453
▁ᏕᎦᏃᏣᎸ	-11.3453
ᏓᏘᎾᎥ	-11.3453
▁ᏧᏏᎳᏛᏙᏗ	-11.3453
ᏪᏎᎸᎯ	-11.3453
▁ᏁᏪᏎᎴᎢ	-11.3453
▁ᎠᏁᎷᎲᏍᎨ	-11.3453
▁ᏓᎩᏲᎯᏎᎸ	-11.3453
▁ᎤᏍᏆᏂᎩ	-11.3453
▁ᎬᏃᏓ	-11.3454
ᎨᏳᎯ	-11.3454
▁ᎢᏥᏯᎥᎢ	-11.3454
▁ᎢᏥᎦᏔᎰ	-11.3454
▁ᏂᎦᏪᎠ	-11.3454
ᏅᏓᏥᏪᏎᎵ	-11.3454
▁ᎤᎾᏓᏍᏔᏴ	-11.3454
▁ᎤᏩᏇᏅᏔᏁ	-11.3455
▁ᎢᏣᏛᎪᏗᏱ	-11.3455
▁ᏧᏄᎪᏙᏗᏱ	-11.3455
▁ᎢᏳᏂᏪᏍᏗᏱ	-11.3455
ᏍᏔᏁᎰ	-11.3455
▁ᎭᏙᎴᎰᎯ	-11.3455
▁ᏓᏍᎩᏁᎵ	-11.3455
▁ᏂᎬᏩᏂᏪᏎ	-11.3455
▁ᎤᎧᎭᏲᏛ	-11.3455
▁ᏗᎵᏍᎪᎸᏔᏅᎯ	-11.3455
▁ᎯᏥᏧᏣ	-11.3455
ᏌᎩᏒ	-11.3456
▁ᎣᎪᎯᏳ	-11.3456
▁ᎤᏠᎩ	-11.3456
▁ᏳᎨᏳᎭ	-11.3456
▁ᎦᎸᏍᏙᏗ	-11.3456
▁ᎤᏚᏥ	-11.3456
▁ᏗᎵᏍᏚᎶ	-11.3456
▁ᎫᎭᏟ	-11.3456
▁ᎶᏔᏂ	-11.3456
▁ᏥᏄᎾᏍᏗ	-11.3456
▁ᎢᏥᎷᏨᎭ	-11.3456
▁ᎣᎦᎵᎪᏅ	-11.3456
ᎤᏁᏨ	-11.3457
▁ᏱᏂᏣᏛᏁᎸ	-11.3457
▁ᏧᏂᎷᏫᏍᏔᏁᏗ	-11.3457
▁ᎠᎵᎮᎵᏤᏗ	-11.3457
ᏂᏴᏗᏱ	-11.3457
▁ᎠᏆᏡᏗᏍᎩ	-11.3457
▁ᎤᎾᎵᏍᏓᏴᏅᎯ	-11.3457
▁ᎠᏔᏲᎯᎮᏍᏗ	-11.3457
▁ᎠᎦᎫᏴᎡᏗ	-11.3457
▁ᎦᏃᏥ	-11.3457
▁ᎠᏛᎯᏍᏗᏍᎩ	-11.3457
▁ᎤᏤᏥᏍᏗ	-11.3457
▁ᎠᏗᏍᎦᎶᏗ	-11.3457
▁ᎾᎾᏛᏁᎮᏍᏗ	-11.3457
▁ᏧᎵᏏᎬ	-11.3457
▁ᎤᏂᏰᏨ	-11.3458
▁ᏧᏏᎳᏛᏗ	-11.3458
▁ᎤᏇᏓᏢ	-11.3459
▁ᏭᏘᏅᏍᏔᏁᎢ	-11.3459
▁ᎤᎧᏲᏓ	-11.3459
▁ᎤᏓᏴᎳᏔᏅ	-11.3459
▁ᏥᏲᎵᎩ	-11.3459
▁ᏭᏴᏍᏗᏱ	-11.3459
▁ᏚᏪᏐᏤ	-11.3459
▁ᎤᏪᏙᎵᏤᎢ	-11.3459
▁ᎦᎷᎩ	-11.346
▁ᏚᏲᎵᎸ	-11.346
▁ᎤᏁᎳᏗᏍᏗᏱ	-11.346
▁ᎤᏓᎷᎸ	-11.346
▁ᏕᏛᏅ	-11.346
▁ᎤᏘᏅᏎ	-11.346
▁ᏱᏄᏩᏁᎰ	-11.346
▁ᎤᏎᎦᏨᎯ	-11.346
▁ᎠᏲᎱᏍᎨᏍᏗ	-11.346
▁ᏫᏗᏥ	-11.346
▁ᏓᏞᏍᏗ	-11.346
▁ᏱᏣᏞ	-11.3461
▁ᎬᎭᏃ	-11.3461
▁ᎦᎾᏄᎪᏥᎸᎭ	-11.3461
▁ᎤᏂᏁᎢᏍᏗᏱ	-11.3461
▁ᎡᏥᎦᏔᎭ	-11.3461
▁ᎡᎦᏔ	-11.3461
▁ᎨᏥᏰᎸᎯ	-11.3462
▁ᎣᏏᏊ	-11.3462
▁ᏕᎦᎶᏛ	-11.3462
▁ᎠᏂᏐᏢᎢᏍᏗᏍᎩ	-11.3462
▁ᏫᏓᏆᎧᎾᏅᎩ	-11.3462
▁ᏚᏅᏩᏅᎩ	-11.3462
▁ᎤᎩᎵᏲᎢᏍᏗᏱ	-11.3462
▁ᎤᏩᎾᏬᏒ	-11.3462
▁ᎤᎵᏌᎳᏓᏁ	-11.3462
▁ᏤᏏᏂ	-11.3462
▁ᎾᏅᏁᎰ	-11.3462
▁ᏧᏍᎩᏃ	-11.3463
▁ᎤᎾᏓᏅᏍᏗᏱ	-11.3463
▁ᏂᏕᎲᏁ	-11.3463
▁ᏚᏌᎳᏓᏅ	-11.3463
▁ᏗᎦᏰ	-11.3463
▁ᏚᏂᏲᏎ	-11.3463
▁ᎢᏣᏙᎴᎰᎯ	-11.3463
▁ᎡᏥᏁᎸ	-11.3464
ᏘᏓ	-11.3464
▁ᎠᏨᏏᏰᏗ	-11.3464
▁ᏗᎪᏍᏓᏯ	-11.3464
▁ᎠᏤᎷᎯᏍᏗ	-11.3464
▁ᎠᏂᎦᏘᏴ	-11.3464
ᏒᏁᎰ	-11.3465
▁ᏱᎾᏛᎦ	-11.3465
▁ᎮᎮᏍᏗ	-11.3465
▁ᎪᏍᏔᏴ	-11.3466
▁ᏗᎧᎿ	-11.3466
▁ᏥᎧᏍᎨᏂ	-11.3466
ᏩᏘᏍᎩ	-11.3466
▁ᎤᎾᏠᎾᏍᏛ	-11.3466
▁ᎤᏁᏟᏔᏅ	-11.3466
▁ᏗᏍᏕᎵᏍᎩ	-11.3466
▁ᏗᎦᏰᏍᏗ	-11.3466
▁ᎤᏍᏚᏅ	-11.3468
▁ᎠᎫᏤᎵ	-11.3468
▁ᏧᏍᎪᎸ	-11.3468
▁ᎬᏩᏂᏴᎲᎩ	-11.3468
▁ᎠᏥᎤᏍᏕᏎ	-11.3468
▁ᎠᏲᏍᎩ	-11.3468
▁ᎠᏗᏅᏓ	-11.3469
▁ᏱᏓᏚ	-11.3469
▁ᎯᏍᎩᏍᏆ	-11.3469
ᏌᎳᏙᏗᏱ	-11.347
▁ᎫᎭᎳ	-11.347
▁ᎠᏍᏓᏱᏗᏍᎩ	-11.347
▁ᏚᎵᏰ	-11.347
ᏍᎩᏰᎵᏎᎮᏍᏗ	-11.3471
ᏐᏍᏙᏗ	-11.3471
▁ᎣᎦᏓᏅᏔᏩᏕ	-11.3471
▁ᏗᏒᏆᎶᏍᏗ	-11.3471
▁ᎠᎩᏁᏤᎸᎩ	-11.3471
▁ᎠᏗᏔᏍᎦ	-11.3471
▁ᏌᏆᏯ	-11.3471
▁ᏧᏍᏕᎸᏗᏱ	-11.3472
▁ᏣᎾᏗᎭ	-11.3472
▁ᎤᎬᏍᎪᎸᏁ	-11.3473
▁ᎠᏂᏣᏗ	-11.3473
▁ᏗᎬᏩᏁᎶᏗ	-11.3473
▁ᎤᏪᎷᏅ	-11.3473
▁ᎠᏆᏕᏗᏱ	-11.3473
▁ᎠᎵᎮᎵᎪ	-11.3474
▁ᏫᏗᎩ	-11.3474
▁ᎤᎬᎭᎷᏴ	-11.3474
▁ᏣᎦᏙᎥᎯᏍᏗᏱ	-11.3474
▁ᎠᏕᎸᏓᎶᏂᎨ	-11.3474
ᎾᏝᎥᎾ	-11.3474
▁ᏦᏍᏓ	-11.3474
ᏦᎦᏓᎵ	-11.3474
▁ᏍᎩᎨᏳᎯᏳ	-11.3475
▁ᏚᎾᏓᏂᎸᏨ	-11.3476
▁ᎢᏣᏂᎩ	-11.3476
▁ᏣᏍᎦᎩ	-11.3476
▁ᎠᎾᏓᏩᏛᎯᏙᎢ	-11.3476
▁ᎤᏅᏓᏗᏗᏒᎢ	-11.3476
▁ᏓᏓᏁᎳᏗᏒᎢ	-11.3476
▁ᏗᏆᏓᎴᏅᎢ	-11.3476
▁ᏚᏚᎪᏔᏅᎢ	-11.3476
▁ᏚᏠᏒᏎᎢ	-11.3476
▁ᎠᏩᏘᏍᎪᎢ	-11.3476
▁ᎧᏁᎨᎢ	-11.3476
ᏓᏙᎵᏍᏓᏁᎭ	-11.3476
▁ᎤᏓᏏᏁᎢ	-11.3476
▁ᏕᎤᎴ	-11.3477
▁ᏧᎾᏄᎪᏫᏎᎴᎢ	-11.3477
▁ᏕᏣᏓᏘᎾᎥᎢ	-11.3477
▁ᎤᏂᏌᏛᏗ	-11.3477
▁ᏚᎾᏄᎪᏫᏎᎢ	-11.3477
▁ᎤᏛᎦᏍᏔᏁᎢ	-11.3478
▁ᏗᎦᎵᏦᏛᎢ	-11.3478
▁ᎦᎶᏂ	-11.3478
▁ᎤᎵᏏᎾᎯᏍᏗ	-11.3479
▁ᏂᎨᏐᎢ	-11.3479
▁ᏔᏔ	-11.3479
▁ᎠᏍᏆᏂᎪᏛ	-11.3479
▁ᎠᏍᎦᎢᎮᏰᏃ	-11.3479
▁ᏳᏫᎦ	-11.3479
▁ᏕᏥᎳᏫᎩ	-11.3479
▁ᎠᏥᏯᏅᎲ	-11.348
▁ᎠᏂᎦᏔᎮᏍᏗ	-11.348
▁ᏥᏚᏁᏤᎴ	-11.348
▁ᏄᏁᎩᏴ	-11.348
▁ᎣᏤᎲᎢ	-11.3481
▁ᎤᏂᏲᎸᎩ	-11.3481
▁ᎤᎾᏗᏔᏍᏗᏱ	-11.3481
▁ᎢᎬᏴ	-11.3481
▁ᏬᏥ	-11.3482
ᏛᏂᏗᏍᏕᏍᏗ	-11.3482
▁ᎠᏥᏍᏛᏗᏍᏙᏗ	-11.3482
▁ᏥᏃᎪᎢ	-11.3482
▁ᎾᏆᎵᏍᏓᏁᎸᎩ	-11.3482
▁ᏗᎦᏘᏍᏗ	-11.3483
▁ᏓᏛᎯᏍᏗᏍᎪ	-11.3483
▁ᎮᏙᎭ	-11.3483
▁ᎤᎾᏄᎪᎢᏍᏗᏱ	-11.3484
▁ᏧᏛᏒ	-11.3484
ᏥᏐᏅᏅ	-11.3484
▁ᎢᎬᏩᏅᏁ	-11.3484
▁ᏂᎤᏍᏗ	-11.3484
ᏯᏛᏁᎮᏍᏗ	-11.3484
▁ᏧᏅᎪᏤ	-11.3485
▁ᎠᎩᏰᎯ	-11.3485
▁ᎤᏁᏉᎢᏍᏗᏱ	-11.3485
ᎧᎲᏍᏗᏱ	-11.3486
ᏗᏩᏛᎯ	-11.3486
ᎬᎭᎷᏰᎢ	-11.3486
▁ᏚᎾᏔᏅᎩ	-11.3486
▁ᏓᏥᎷᏥ	-11.3487
ᏔᏍᏗ	-11.3487
▁ᎠᏓᏅᏙᎩᎯ	-11.3487
▁ᎤᏂᎶᏐᏅ	-11.3487
▁ᎠᏂᎵᎾ	-11.3487
▁ᎤᏁᏙᎴᎢ	-11.3488
▁ᏗᎻᎾ	-11.3489
▁ᏮᏓᏥ	-11.3489
▁ᎦᏆᏛ	-11.3489
▁ᏙᏣᏓ	-11.3489
▁ᎤᎾᏁᎶᏔᏅ	-11.349
ᏂᎳᏕ	-11.349
▁ᎪᎹᎵᏱ	-11.3491
▁ᎨᏥᏍᏕᎸᏗᏱ	-11.3491
ᏙᏔᏅᎩ	-11.3492
▁ᏗᏁᎶᏗ	-11.3493
▁ᏂᏚᏛᏁᎸ	-11.3493
▁ᏯᎩᏰᎸᎭ	-11.3493
ᏅᏍᏔᏅᎯ	-11.3493
▁ᏳᏛᎦ	-11.3494
▁ᎠᏂᎦᏔᎯᏳ	-11.3494
ᏒᏓ	-11.3494
▁ᎠᏓᏁᎳ	-11.3494
ᏴᏈᏛᏅ	-11.3495
▁ᏚᏂᏲᎱᏒᎩ	-11.3495
▁ᏚᏙᎠ	-11.3495
ᎷᏨᎾ	-11.3496
▁ᎬᎨᏳ	-11.3496
▁ᎣᎦᏛᎦᏅᎯ	-11.3497
▁ᎤᏪᏁ	-11.3497
▁ᏄᏪᎡᎢ	-11.3497
▁ᎠᎩᎸᏙᏗ	-11.3497
▁ᎣᎦᏣᏅᎩ	-11.3498
▁ᎤᏪᏓᏍᏗᏱ	-11.3499
▁ᎤᏁᎸᏙᏗ	-11.3499
▁ᎤᎾᎵᎪᎲ	-11.35
▁ᎤᎾᎴᏅ	-11.35
▁ᏚᏲᏍᏔᏅ	-11.35
▁ᎡᏣᏙ	-11.35
ᎪᎥ	-11.3501
▁ᎤᏍᎩᏓᏎᎢ	-11.3502
▁ᎾᏆᏛᏅᎢ	-11.3502
▁ᎤᏔᎳᏬᏍᎬᎢ	-11.3502
▁ᎣᏥᏬᏂᏍᎬ	-11.3502
▁ᏚᏪᏲᏁᎢ	-11.3502
▁ᎤᎾᏛᎦ	-11.3502
▁ᎤᏛᏛᏅᎩ	-11.3503
▁ᎣᎦᏤᎵᎦ	-11.3503
▁ᎤᎾᏛᏓᏍᏛ	-11.3503
ᏛᏛᎲᏍᎨᏍᏗ	-11.3503
ᏃᎯᏎᏗ	-11.3503
▁ᎤᏁᎳᏛᎢ	-11.3504
▁ᎠᏫᎾᎨᏍᏗ	-11.3504
▁ᎤᎧᎵᎢᏍᏗᏱ	-11.3504
ᏥᏂᎨᏂ	-11.3505
▁ᏥᏧᏏ	-11.3505
▁ᏥᏤᎾ	-11.3505
▁ᎮᏙᎲᎢ	-11.3505
▁ᏕᏥᎧᏅ	-11.3506
▁ᏭᎶᏒᏍᏛ	-11.3506
▁ᎤᏂᏰᎸᏗ	-11.3506
▁ᎩᏥ	-11.3507
▁ᏧᏂᏍᏓ	-11.3507
▁ᏕᏓᏓᎪᎲᏳ	-11.3507
▁ᎡᏓᏍᏗᏱ	-11.3508
▁ᎯᎩᏍᎪ	-11.351
▁ᏤᏙᎭ	-11.351
▁ᎢᎳᎻ	-11.351
▁ᎢᏥᏍᏆᏂᎪᏙᏗᏱ	-11.351
▁ᎤᎾᏣ	-11.351
ᎨᎮᎩ	-11.3511
ᏎᎯ	-11.3511
▁ᎤᎵᏏᏅ	-11.3511
▁ᏗᏤᏅᏒ	-11.3511
▁ᎤᎵᏓᏍᏔᏅ	-11.3511
▁ᎢᏓᎵᎮᎵᎩ	-11.3511
▁ᎤᏓᏙᎵᏍᏔᏅᎩ	-11.3511
▁ᎤᏃᎮᎸᎯ	-11.3512
▁ᎠᏁᎨ	-11.3512
▁ᏧᏄᏬᏍᏗ	-11.3513
ᎷᏤᎴᎢ	-11.3514
▁ᎤᏞ	-11.3514
▁ᏱᎦᏔᎭ	-11.3514
▁ᎦᎵᎡᎵ	-11.3514
▁ᎤᏢᎬᎩ	-11.3515
▁ᏗᏣᎵᎢ	-11.3515
▁ᏣᏠᎾᏍᏗ	-11.3515
▁ᎤᏩᎫ	-11.3515
▁ᏚᏭᎪᏔᏁᎢ	-11.3515
▁ᏓᏘᏁᎲ	-11.3515
ᎯᏐᏗ	-11.3516
▁ᎩᎦᎨᏍᏛᏱ	-11.3517
▁ᎬᏩᏍᏛᏗᏍ	-11.3518
▁ᏚᏪᏟᏌᏅ	-11.3518
▁ᎦᏐ	-11.3518
▁ᎤᏂᏍᏆᏂᎪᏙᏗᏱ	-11.3519
▁ᎪᎵᎩ	-11.3519
▁ᎯᎲᎦ	-11.352
ᏓᏁᎸᎭ	-11.352
ᏲᏁᎦ	-11.3521
ᎩᎦᏘᏛ	-11.3521
▁ᏅᏓᏍᎩ	-11.3521
▁ᏗᏂᏁᎯ	-11.3522
ᎦᎿᏩ	-11.3522
▁ᎤᏂᏄᎪᏤᏃ	-11.3522
ᎿᎷᏒ	-11.3522
▁ᎠᏲᏍᏙᏗ	-11.3522
▁ᎠᎩᏲᏏᏍᎬ	-11.3523
▁ᏕᏦᏕᏍᏗ	-11.3524
▁ᎠᏯᏫᏍ	-11.3524
▁ᎣᎦᏗᏔᏍᏗ	-11.3524
ᏬᎥᎯ	-11.3525
ᏱᎵᏙᎸ	-11.3526
▁ᏳᏁᎭ	-11.3527
▁ᎠᎩᎾᏫᏱ	-11.3527
▁ᏧᎶᏎᎢ	-11.3528
▁ᏓᏰᏙᎳᏛᎢ	-11.3528
ᏅᏬᏒ	-11.3528
▁ᎤᏍᏓᏩᏛᏎᎢ	-11.3528
▁ᎠᏥᏍᏕᎸᏗᏱ	-11.3529
▁ᏣᏁᏨᎢ	-11.3529
▁ᎤᎵᏖᎸᏁᎢ	-11.3529
ᎦᏔᎲᏍᎬ	-11.353
▁ᎢᏨᏁᏗᏱ	-11.3531
ᏲᏓᎬ	-11.3532
▁ᎤᏰᎸᏒᎩ	-11.3532
▁ᎪᏢᏗᏱ	-11.3532
▁ᎡᏓᏓᏙᎵᏍᏓᏁ	-11.3532
▁ᏧᏓᎴᏅᎢ	-11.3533
▁ᎠᏔᎴ	-11.3533
▁ᏳᏛᎾ	-11.3533
▁ᏕᎨᏥᏲ	-11.3533
▁ᏥᏕᏥ	-11.3534
ᏁᏔᏁ	-11.3535
▁ᎢᎨᎦ	-11.3536
▁ᎤᏲᏍᏔᏅᎯ	-11.3537
▁ᎢᏳᏅᏂ	-11.3537
▁ᏃᎦᏍ	-11.3539
▁ᎤᎾᏛᏓᏍ	-11.3539
▁ᏱᏕᎬ	-11.3541
ᎦᏔᎿᎢ	-11.3542
ᎧᏁᏗ	-11.3542
▁ᎤᏍᎦᎴᎢ	-11.3543
▁ᏧᏪᎳ	-11.3544
▁ᎢᏥᏰᎸᎭ	-11.3545
▁ᎤᏬᏢᏗᏱ	-11.3545
ᏣᏓᏅᏛᎾ	-11.3546
▁ᎦᎶᏛ	-11.3547
ᏕᏍᎩ	-11.3547
ᎵᏍᎪᎸᏓᏁᎰ	-11.3547
▁ᎠᏂᎦᏔᎭ	-11.3548
▁ᎤᎾᏓᏅᏖᎸᎩ	-11.3549
▁ᎤᏂᏴᎲᎩ	-11.3549
▁ᏧᏓᎵ	-11.3549
▁ᏑᏓᎨ	-11.3549
▁ᏯᎵ	-11.355
ᎤᏙᎯᏳᎭ	-11.3551
▁ᏇᎯ	-11.3551
ᎪᏢᏔᏅᎯ	-11.3553
▁ᎤᏩᏂᎸᎩ	-11.3553
▁ᏂᏓᏕᏘᏴᎯᏒᎢ	-11.3554
▁ᏓᎩᎸᏫᏍᏓᏁᎰ	-11.3554
▁ᏗᏆᏄᏬ	-11.3554
▁ᎤᎾᏍᎪᏎ	-11.3555
▁ᏦᏕ	-11.3556
▁ᏚᏂᎲᎢ	-11.3556
▁ᎤᏗᎴᎲᏍᎬ	-11.3557
ᎬᏂᏛ	-11.3558
▁ᏥᎸᏉᏗ	-11.3558
▁ᎤᏢᎬᎢ	-11.3559
▁ᎦᎾᏄᎪᏫᏍᎪ	-11.3559
▁ᎭᏫ	-11.3559
▁ᎤᎾᎵᏥᏙᏅ	-11.356
▁ᎣᏏᏉᏍᎪ	-11.356
▁ᏚᏬᏏᏌᏁ	-11.356
▁ᎦᎵᏦᏅ	-11.356
▁ᎢᏧᏍᏗ	-11.3561
▁ᎤᏑᎶ	-11.3561
ᏛᏙᏗᏱ	-11.3561
▁ᎢᏯᏋᏁ	-11.3562
▁ᎤᎾᎳᏍᎦ	-11.3562
▁ᎱᏂᎷ	-11.3563
▁ᏴᎬᎾ	-11.3564
ᏁᏤᎮᏍᏗ	-11.3564
▁ᎠᎦᏑᏰ	-11.3565
ᎶᎦ	-11.3566
▁ᎤᏂᏅᏅᎢ	-11.3566
ᏂᏬᏂ	-11.3567
ᏜᏗᏍᏗ	-11.3568
ᏎᎵᏔᏁ	-11.3569
▁ᎠᎾᏓᏅ	-11.3569
▁ᎤᏂᏁᏨᎯ	-11.3569
▁ᎬᏩᏕ	-11.3569
▁ᏰᎮᏍᏗ	-11.357
▁ᎧᎾᏍ	-11.357
▁ᎦᎶᏍᎨ	-11.357
▁ᏫᏚᎷᏤᎴ	-11.3571
▁ᏧᎧ	-11.3572
▁ᎬᏩᏛᏛᏅᎩ	-11.3573
▁ᎠᏓᎶᏂᎨ	-11.3574
▁ᎤᏛᏗᏱ	-11.3574
▁ᎾᎾᏛᏁᎲᎾ	-11.3574
▁ᎢᏨᏰᎵᏎ	-11.3575
ᏢᏁᎢ	-11.3575
ᏌᎻ	-11.3576
ᎵᎮᎵᏍᏙᏗ	-11.3576
▁ᎤᏬᎯᏨᏃ	-11.3576
▁ᎠᏎᎪᎩᏍ	-11.3576
▁ᏌᏉᎯᏳ	-11.3577
ᏂᏁᏨ	-11.3577
▁ᎠᏇᎵᏍᏗ	-11.3577
ᏑᎶᏗ	-11.3578
ᎤᏅᏗ	-11.3578
▁ᏣᎦᎴ	-11.3579
▁ᏧᏍᎦ	-11.3579
▁ᏗᎪᎦ	-11.3579
▁ᎤᎩᎸᏗ	-11.358
▁ᎠᎩᏇᏓᎸᎢ	-11.358
▁ᏕᎦᏍᎩᎸᎢ	-11.358
▁ᎤᏁᏙᎸᎢ	-11.3581
▁ᏚᎷᎬᎢ	-11.3582
ᎯᏰᎢ	-11.3582
▁ᎤᏕᎶᎰᎯᏍᏗ	-11.3584
▁ᎢᏳᏲ	-11.3584
▁ᎤᎶᏏ	-11.3585
▁ᎢᏣᎵᎮᎵᎬᎢ	-11.3585
▁ᏑᎾᎴᎢᏳ	-11.3586
ree	-11.3586
▁ᎤᏬᎯᏳᏒᎢ	-11.3587
▁ᏄᏂᏪᏎᎴᎢ	-11.3588
ᏥᎳᏫᏎᎲ	-11.3588
▁ᏚᏯᏍᏗ	-11.3588
▁ᏗᎦᏁᎸᎢ	-11.359
ᏓᏫᏍᎦᎨ	-11.359
▁ᏕᎦᎸᎢ	-11.3591
▁ᎤᏚᏓᎳ	-11.3592
▁ᎤᏯᏅᎮᎢ	-11.3592
▁ᏥᏂᏣᏛᏁᎸ	-11.3593
▁ᎤᏔᎷᎩᏍᎬ	-11.3593
▁ᎠᎵᏍᏇᏚ	-11.3594
▁ᎠᎩᏍᎦᏅᏨᎢ	-11.3595
ᏛᏅᎢᏍᏗᏍᎨ	-11.3596
ᏩᏛᎮᎢ	-11.3597
▁ᎤᏬᏂᏒᎩ	-11.3597
▁ᏥᏂᎩ	-11.3598
▁ᏆᎷ	-11.3599
ᏍᏓᏁᎵ	-11.3599
▁ᏗᎹ	-11.3601
▁ᎧᏄ	-11.3601
▁ᎤᎩᎸᎩ	-11.3601
ᎯᎰᎢ	-11.3602
▁ᎠᏆᎴᏂᏙᎸ	-11.3602
▁ᎤᏦᏍᏔᏁ	-11.3602
ᏥᎸᏉᏔᏅᎯ	-11.3603
ᏓᏢᎩ	-11.3606
ᏏᎳᏗ	-11.3606
▁ᎢᏣᎦᏔᏅᏎ	-11.3606
ᏰᏨ	-11.3606
▁ᏄᎾᎵᏍᏔᏁᎢ	-11.3607
▁ᏓᎩᎸᏫᏍᏓᏁᎲᎢ	-11.3607
▁ᎯᎦᏔᎲᎢ	-11.3608
▁ᎠᏁᎬ	-11.3608
▁ᎠᏆᏛᎦᏅᎯ	-11.3609
▁ᎦᏯᎸᎢ	-11.3611
▁ᎤᏂᏃᎮᎸᎩ	-11.3612
▁ᏚᏇ	-11.3612
▁ᏧᏄᏬᎢ	-11.3613
▁ᎾᏆᏛᏁᎸᎩ	-11.3613
▁ᎠᏂᏍᎦᎩ	-11.3614
▁ᏧᎦᎴᏅ	-11.3614
ᏴᏅᎮ	-11.3614
▁ᏪᏙᎲ	-11.3615
ᏒᏙᏂ	-11.3616
ᏲᎯᏎᎸ	-11.3617
ᎵᏲᎩ	-11.3617
ᎥᏍᎪᎢ	-11.362
ᎦᎨᏗᏳ	-11.3621
ᏰᎸᏗᏱ	-11.3623
▁ᎤᏭᏓᎸᏤ	-11.3624
▁ᏣᏓᏁᏗ	-11.3625
ᏌᏁᎢ	-11.3627
▁ᏂᏓᏅ	-11.3627
ᏄᎪᏫᏒᎭ	-11.3627
▁ᎤᏍᏚᎢᏒᎩ	-11.3628
▁ᎤᎾᏚᎵᏍᎬᎩ	-11.3628
▁ᏥᏂᏥ	-11.3628
▁ᎠᎪᎵᏰᏍᎩ	-11.363
▁ᎤᎵᏍᏆᎵ	-11.3631
▁ᏚᎴᎯᏌᏅᎢ	-11.3632
▁ᏗᏥᎦᏴᎵᎨᎢ	-11.3633
▁ᎠᏂᎦᏴᎵᎨᎢ	-11.3633
▁ᎤᏯᎠ	-11.3633
▁ᎬᏩᏓ	-11.3633
▁ᏧᎦᏴᎵᎨᎢ	-11.3633
ᏕᏯᏙᏗ	-11.3633
▁ᎤᏁᎳᎩᏉ	-11.3634
ᏂᏓᏅᏁᎰ	-11.3634
▁ᎣᎳ	-11.3635
▁ᎤᏂᎷᏨᎯ	-11.3635
▁ᎤᏰᎸᏎᎢ	-11.3635
▁ᎤᏓᏰ	-11.3635
▁ᏧᏂᏥ	-11.3635
▁ᏤᎦ	-11.3636
▁ᎤᎵᏍᏆᏗᏍᏗᏱ	-11.3636
▁ᎤᎦᏔᎲᏒᎩ	-11.3637
▁ᎢᏕᎲᎢ	-11.3638
▁ᎣᏁᎯ	-11.3638
▁ᏗᎯᏍᏗᏱ	-11.364
▁ᎠᏈ	-11.3641
▁ᏚᏂᏅᏨ	-11.3647
ᏗᎣᏈ	-11.3647
▁ᏓᎾᏗᏔᏍᎨ	-11.3649
▁ᏈᎵᎩᏱ	-11.365
▁ᎤᏬᎴᎢ	-11.3653
▁ᎤᏚᎢᏍᏔᏅᎢ	-11.3654
▁ᏗᏧᎬ	-11.3654
ᏓᏎᎪᎩᏍᏗᏱ	-11.3656
ᎥᏍᎪ	-11.3656
▁ᎨᎦᎵᏥᏙᏁ	-11.3656
ᏪᏒᎩ	-11.3657
ᎵᏂᎪᎯᏍᏗᏍᎩ	-11.3657
ᏫᏏ	-11.366
ᎩᎳᎾᎳᏗᏍ	-11.3662
▁ᎤᎵᏦᎯ	-11.3662
ᏢᏫᏍᏙᏗ	-11.3662
▁ᎢᏯᏛᏁᏗᏱ	-11.3665
ᏯᏂᏍᎬᎢ	-11.3665
▁ᎦᏗᎭ	-11.3666
▁ᏕᏣᎴ	-11.3667
▁ᏣᏅ	-11.3668
ᏍᏆᏂᎪᏛ	-11.3669
▁ᎤᏂᏁᎯ	-11.367
▁ᏣᏍᏓ	-11.367
▁ᎠᏓᎴᏂᏍᎪ	-11.367
▁ᎤᏪᎵᏒ	-11.3672
▁ᎤᎵᏍᏓᏴᏗᏱ	-11.3672
▁ᏚᎸᏫᏍᏓᏁ	-11.3673
ᎵᏍᎪᎢ	-11.3673
ᏂᏍᏓᏩᏚᎦ	-11.3674
ᎵᏰᏗᎭ	-11.3675
▁ᎠᏝ	-11.3675
ᏛᏓᏍᏓᏁᎵ	-11.3676
▁ᏓᎬᏩᎵ	-11.3683
▁ᎢᏳᎾᎵᏍᏓᏁᏗᏱ	-11.3683
ᏯᏛᏂᏏ	-11.3685
▁ᏕᎦᏚᏩᏗᏒᎢ	-11.3685
▁ᎢᎶ	-11.3686
▁ᎤᏰᎸᏅᎢ	-11.3686
▁ᎡᎪᎢ	-11.369
▁ᎤᏩᏓ	-11.369
▁ᏭᏴ	-11.3691
or	-11.3693
▁ᎤᎾᏓᏅᎦᎸ	-11.3698
▁ᏥᏂᎦᏪᏍᎪ	-11.3698
ᏑᏰᏎ	-11.3699
▁ᎠᎦᎸ	-11.3699
▁ᏧᏭᏓ	-11.37
▁ᏧᏁᏗ	-11.37
▁ᎠᏍᏆᏂᎪᏍᎨ	-11.3701
▁ᏃᎴᏍᏉ	-11.3701
▁ᏕᎮ	-11.3702
ᏟᏌ	-11.3703
ᏕᏗᏴ	-11.3703
ᏨᏒᎩ	-11.3705
▁ᎠᏂᎦᎵ	-11.3707
ᏍᏓᏱᏕ	-11.3709
▁ᏧᏂᏁ	-11.3709
▁ᎪᏛᎢ	-11.371
ᏩᏯ	-11.3713
▁ᏗᎨᏛ	-11.3715
ᏂᎨᏒᎾ	-11.3715
▁ᎤᏪᎾ	-11.3716
ᎬᏁᏗ	-11.3716
ᏅᎯᏒ	-11.3721
▁ᏥᏁᎸᎢ	-11.3722
▁ᏥᏚᎾ	-11.3724
ᎯᎠᎾ	-11.3728
ᎤᎬᏫᏳ	-11.3729
▁ᎠᏟᏍᏕ	-11.3729
▁ᏗᎦᎴᏴ	-11.373
▁ᎥᎩᏂᏐᏗ	-11.3731
▁ᎤᏭᏢᏅ	-11.3732
▁ᏚᏂᏯᏪ	-11.3734
▁ᎠᏲᏟᎨ	-11.3736
▁ᏅᏩᏍᏗ	-11.3736
▁ᏗᏎᏍᏗ	-11.3737
▁ᎨᏣᎵᎮᎵ	-11.3742
ᏥᏉᎳ	-11.3743
▁ᎤᏣᏗ	-11.3745
▁ᎤᏂᏍᏆᏂᎪᏎᏃ	-11.3747
ᏁᎦᎸ	-11.3747
ᎾᎾᏛᏁᎭ	-11.375
▁ᏳᏰᎸᏁ	-11.3752
▁ᎠᏍᎦᏅᏨᎢ	-11.3752
ᏁᏉᎢᏍᏗᏱ	-11.3753
ᏙᏙᏱ	-11.3753
▁ᏭᏏᎳᏛᏁ	-11.3754
▁ᏆᎩ	-11.3755
▁ᎦᏥᏯᎵᏥᏙᏁ	-11.3757
▁ᏳᎾᎵᎪ	-11.3763
▁ᏱᏁ	-11.3764
ᎨᏫᏍᏗ	-11.3765
ᎶᏙᏗ	-11.3766
▁ᏗᏄᏬᏍᏗ	-11.3767
ᎵᏂᏆᏅᏁ	-11.377
ᏲᎯᏎᏗ	-11.3772
▁ᎠᏔᎸ	-11.3772
ᎧᏁᎸᎾ	-11.3773
ᏕᎭᏲ	-11.3775
▁ᎠᏯᎥᎢ	-11.3778
▁ᎤᎵᏍᏙᏗ	-11.3785
▁ᎠᎩᎷᏤᎸ	-11.3787
▁ᎢᏳᏂᏨ	-11.3788
▁ᏣᏓᏡᏗᏍᎪ	-11.3788
ᏓᏛᏁᎸ	-11.379
▁ᏧᎾᏄᏬᎢ	-11.3792
▁ᎧᏃᎲᏍ	-11.3792
▁ᏧᏂᏗᏱ	-11.3796
ᏚᏚ	-11.3798
▁ᎥᏝᏍᏗ	-11.38
▁ᏚᏄᏮ	-11.3802
▁ᎠᏌᏅ	-11.3805
▁ᏭᏩᏌᏙ	-11.3807
ᎩᎷᏫ	-11.3808
▁ᎨᏙ	-11.3808
▁ᏣᏯ	-11.3811
▁ᎢᏨᏯᏅᏓᏗᏍ	-11.3814
ᏓᎢᏅᏎᎢ	-11.3815
ᏂᏴᎮ	-11.3817
▁ᏏᏉ	-11.3818
ᎪᏯᏛ	-11.3823
ᏍᎪᎯᏧᏈ	-11.3823
ᏲᏍᏙᏓᏁᏗ	-11.3823
▁ᎤᏇᏓᎸᎢ	-11.3824
ᏓᏂᏐᏗᏱ	-11.3825
ᏂᎢᏛ	-11.3825
ᏠᎠᏒ	-11.3826
ᏍᏆᎶ	-11.3827
▁ᏓᏰᎵ	-11.3828
▁ᏓᏍᏆᎵᏍ	-11.3829
▁ᎦᎾᎸ	-11.3829
▁ᎤᏍᏘ	-11.3829
▁ᏴᎾ	-11.3831
▁ᏂᏥᏍᎦᏅ	-11.3833
▁ᎠᎩᎪᎵᏰ	-11.3838
ᏩᏗᏙᎯ	-11.384
▁ᏓᏄ	-11.384
ᏚᏅᏏᏴ	-11.3842
▁ᏧᏩᏔᏁ	-11.3846
ᏲᎤᎵ	-11.3847
ᎶᏔᏅ	-11.3847
ᏓᏂᏙᎦ	-11.3848
▁ᏍᎩᎵ	-11.3848
ᏐᎾ	-11.3849
▁ᎤᎾᎥ	-11.385
▁ᎣᏣᎵᏍᎦᏍᏙ	-11.3851
▁ᎣᏣᎵᏥᏙᎲᏍ	-11.3854
ᏥᏍᏛᏗᏍᏙᏗ	-11.3857
▁ᏰᎮ	-11.3857
ᏨᏯ	-11.386
ᏥᏛᎯ	-11.3861
▁ᏕᎦᏛᎢ	-11.3864
▁ᏓᏳᏓᎴᏅᎩ	-11.3866
▁ᏧᏂᎦᏐᎠ	-11.3866
ᏛᎦᏁᎴ	-11.3866
ᏲᏎᎮᏍᏗ	-11.3869
ᏥᎸᏉᏔᏅ	-11.3869
▁ᎤᎵᏁᏨᎢ	-11.3871
ᏩᏍᎦ	-11.3872
▁ᏂᏕᎦᏪᏎ	-11.3873
▁ᎦᎸᎢ	-11.3873
ᏌᏙᏴ	-11.3875
ᎸᏉᏙᎢ	-11.3877
ᎷᏏ	-11.3884
ᏂᏅᏏᏓᏍᏗ	-11.3884
▁ᏓᏃᏢ	-11.3886
ᏁᏉᏤᏗᏱ	-11.3887
▁ᎠᏍᎦᏂᏍᎩᏂ	-11.389
▁ᎠᏄᏬᏍᏗ	-11.3892
ᎾᏄᎪᏫᏎᎸᎯ	-11.3892
ᎪᏩᏗᎭ	-11.3893
ᎶᏌ	-11.39
▁ᎤᏪᏍᏓᏁ	-11.39
ᏆᎧᎿᏅᎩ	-11.3901
▁ᏭᏯᏅᎮᎢ	-11.3903
ᏓᏯ	-11.3904
ᏍᏚᎩᏎ	-11.3908
ᏅᏔᏅᎢ	-11.3913
▁ᏉᏏ	-11.3913
▁ᏍᏊ	-11.3914
▁ᎯᎬ	-11.3916
▁ᎠᏂᏛ	-11.3916
ᎪᎵᎬᎾ	-11.3918
ᎷᏥᎸ	-11.3919
▁ᎤᏓᏣ	-11.3919
▁ᏚᏂᎨ	-11.3919
▁ᏬᎩᏂ	-11.3921
ᏂᏆᏘᎮᏍᏗ	-11.3922
▁ᏱᎦᎨᏎ	-11.3923
▁ᎤᏅᏏᏴᎢ	-11.3925
▁ᎤᎨᏓᎵᏴᎢ	-11.3925
▁ᎧᎳᏩᏗᏒᎢ	-11.3925
▁ᎢᏗᏓᏛᏁ	-11.3927
ᏍᏗᏰᎬ	-11.393
▁ᏚᎾᏓᎸ	-11.3931
ᎦᏉ	-11.3932
ᏓᏅᏬᏗ	-11.3936
▁ᎢᏏ	-11.394
▁ᎨᎦᏎᎸ	-11.3941
ᎦᏙᎥᏒᎯ	-11.3942
ᏇᎵᏎ	-11.3942
▁ᏕᎬᏕ	-11.3946
▁ᎤᏎᎵ	-11.3947
ᏖᏃᎯ	-11.3949
▁ᏓᏍᏆᏂᎪᏗ	-11.3954
▁ᎦᏙᎩ	-11.3956
▁ᏅᏓᎩ	-11.3957
▁ᎢᏴᏓ	-11.396
▁ᎤᏲᎴᏃ	-11.3962
▁ᎢᏥᏔᏲᎯ	-11.3969
ᎵᎪᎯ	-11.397
▁ᎤᏛᏛ	-11.3974
ᏃᎮᏍᎨᏍᏗ	-11.3976
ᏍᎩᏯᏅᎡᎸ	-11.3983
▁ᏫᎬᏩᏴ	-11.3985
▁ᎤᎯᏍᏗ	-11.3987
ᏢᏔ	-11.3989
ᎴᏫᏍᏔᎾ	-11.3991
▁ᎬᏗᏍᎬᎩ	-11.3992
ᎾᏚᎦ	-11.3994
ᏂᎾᏫ	-11.3995
ᎪᏩᏔ	-11.3995
▁ᎠᏂᏃᎮᏍᎬᎢ	-11.3995
▁ᏧᎾᎦ	-11.3996
ᏓᏁᎲᎩ	-11.4
▁ᎢᏥᎪᎵᏰ	-11.4002
▁ᏓᏓᎿᏩᏍᏛᎢ	-11.4006
▁ᎢᎦᎦᏛᎢ	-11.4007
ᎪᎲᏍᏔᏁ	-11.4012
▁ᏩᏴᏍᏗ	-11.4017
▁ᎤᏁᎴᎢ	-11.4019
▁ᏚᏪᎧᎮ	-11.4019
ᏍᏚᎲᏍᎪᎢ	-11.4023
ᎩᏚᎢᏍᏓᏁᎸ	-11.4025
ᎧᏁᏍᏗ	-11.4026
▁ᎠᎦᏔᎲᎩ	-11.4028
▁ᎤᏬᏒ	-11.4028
▁ᎢᏣᏓᏄᏴ	-11.4031
▁ᎤᏛᎯᏍᏗ	-11.4032
ᎶᏄᎮᏍᎩ	-11.4034
ᏚᎵᏍᎬᎢ	-11.4035
ᏲᎯᏎᎴ	-11.4036
ᏃᏎᎭ	-11.4042
ᎦᏙᎥᎯᏍᏗ	-11.4057
ᎨᏴ	-11.4057
ᎾᎷᏒ	-11.406
▁ᏕᎦᎸ	-11.4061
ᎬᏍᎪᎸ	-11.4066
▁ᎣᏓ	-11.408
ᏓᎬᏩᏍᏓᏩᏛᏛ	-11.4089
ᏄᏛᏗ	-11.409
ᏗᏍᎬᎩ	-11.409
▁ᎡᎬ	-11.4094
▁ᎤᎾᏨᏎ	-11.4103
▁ᎤᏂᏰᎸ	-11.4103
ᎵᎢᏍᏗ	-11.4105
ᏓᏤᎵᏛ	-11.4105
ᏓᏌᎳᏗᏍᎨᏍᏗ	-11.4109
▁ᏧᏐ	-11.4112
▁ᎠᏂᎦᏔᎲᎩ	-11.4113
▁ᏭᏅ	-11.4118
▁ᎠᏂᎷ	-11.4119
ᏪᏛ	-11.4121
ᏪᏎᎮᏍᏗ	-11.4123
▁ᎣᎬᏙᏗ	-11.4124
▁ᎦᎵᏍᏓ	-11.4125
ᏛᏂᏗᏍᏗ	-11.4128
ᏰᎵᎯᏍᏗ	-11.413
▁ᎬᏩᏃᎵᏍ	-11.4132
▁ᏫᎵ	-11.4136
ᎦᏔᎯᏳ	-11.4141
▁ᏗᏯᏖ	-11.4142
ᏯᎩᏍᏗ	-11.4144
ᎬᏁᎲ	-11.4152
▁ᏕᎨᎦᏬᏍ	-11.4157
ᎷᏤᎸᎭ	-11.4158
▁ᎤᏙᎴᎰᏒᎩ	-11.416
▁ᏕᏥᎾ	-11.4162
▁ᎤᏤᎵᎦᏯ	-11.4165
▁ᎤᏩᏯ	-11.4166
▁ᎤᏣᏙ	-11.4167
ᏄᏍᏛ	-11.417
▁ᎤᏓᏣᎦᎸ	-11.4175
ᎦᎸᎢᏛ	-11.4176
▁ᏍᏆᏂ	-11.4178
ᏗᏍᏗᏱ	-11.4183
ᎦᏚᎩᏱ	-11.4188
ᏍᏗᏂ	-11.4195
▁ᏣᏍᎦᏅᎪ	-11.4196
ᏓᏁᎢ	-11.4199
ᏍᏆᏂᎪᏗᏍᎩ	-11.4203
▁ᎤᏂᎪᎲᎢ	-11.4205
ᏝᎡ	-11.4207
▁ᎠᏗᏍᎩ	-11.4207
▁ᎤᏤᎵᎪ	-11.4209
▁ᏩᏂ	-11.4211
▁ᏭᏚ	-11.4212
▁ᏚᎧᎵ	-11.4213
ᏍᎦᏅᏨᎯ	-11.4213
▁ᏴᎦᎬ	-11.422
ᏄᎪᎨᏍᏗ	-11.4227
ᏩᏂᎦᎸ	-11.4229
▁ᏴᏗ	-11.423
ᏗᏉ	-11.4231
ᏓᏅᏖᏍᏗ	-11.4234
ᎦᏔᏙᎥ	-11.4238
ᏴᏁᏗᏱ	-11.4239
▁ᎤᏂᎦ	-11.424
▁ᏱᏥᏍᏆᏂᎪ	-11.4241
▁ᎠᏅᏗᏍᎪ	-11.4242
▁ᎠᎡ	-11.4244
ᏍᏛᏅᎯ	-11.4245
▁ᏚᏒ	-11.4245
ᏳᎶᏗ	-11.4245
▁ᏧᏩᏒ	-11.4253
ᏲᎮᎸ	-11.4254
ᏛᏁᎯ	-11.4259
ri	-11.426
ᏫᏒᏗ	-11.4262
▁ᏥᏨᏲᏎ	-11.4263
ᏏᎳᏛᏗ	-11.4265
▁ᎤᏂᏲᎮ	-11.4268
ᏚᏓᎳᎡ	-11.427
▁ᏱᏥᏩᏛ	-11.4274
ᏉᏂ	-11.4275
▁ᏗᎧᎾ	-11.4277
ᏈᏴᎡ	-11.4281
▁ᎠᎾᏓᏅᏖ	-11.4296
ᎥᏍᎬᎢ	-11.4298
▁ᎠᏊ	-11.43
▁ᎡᏍᎩ	-11.4305
ᎾᎥᎢ	-11.4307
▁ᎬᏆᏓᏅ	-11.4309
▁ᏧᎾᎵ	-11.431
ᎵᏏᎾᎯᏍᏗ	-11.4315
▁ᏕᎦᏅᎦᎵ	-11.4333
ᏄᎪᏫᏍᏗᏱ	-11.4333
▁ᏚᎴᏁᏃ	-11.4335
ᎶᏘ	-11.4337
ᏁᏟᏴᏒ	-11.4339
ᏥᎷᎩ	-11.4346
▁ᎠᏑᏰ	-11.4351
▁ᎠᏛᏁᎵᏍ	-11.4353
▁ᎢᎩᎧ	-11.4353
▁ᎡᎳᏪᏱᏉ	-11.4355
▁ᎢᏤᏙᎯ	-11.4359
▁ᎤᏍᏆᏂᎪ	-11.4362
ᏛᏅᎢᏍᏔᏅᎯ	-11.4365
▁ᎠᏓᏅᏍᎨ	-11.4365
▁ᎦᏂᏴᏗ	-11.4372
ᎮᏗ	-11.4374
▁ᎦᏥᏲ	-11.4375
▁ᏴᏫᏯ	-11.4376
▁ᎢᏳᏓ	-11.4378
ᏍᏉᏟ	-11.4382
ᏂᏯᏪᏨ	-11.4384
ᏣᏅᏔ	-11.4384
▁ᏘᎩ	-11.439
ᏃᎮᏗᏱ	-11.4395
ᏨᏍᏛ	-11.4396
▁ᎤᏨ	-11.4397
ᎵᏍᏚᎶ	-11.4408
▁ᎥᎬᏩ	-11.4415
▁ᏕᏣᎵ	-11.4416
ᏗᏍᏙᏗ	-11.4422
▁ᎬᏪ	-11.4427
▁ᏱᏂᎦ	-11.4427
▁ᎣᎩᎭ	-11.4438
▁ᎠᏎᏛ	-11.444
ᏍᏗᏰᏔᏅᎩ	-11.4443
▁ᎢᏦᎯᏳᎲᏍ	-11.4451
ᏄᎵ	-11.4451
▁ᏄᎾᏍᏛᎢ	-11.4452
ᎦᏔᎰᎢ	-11.4455
▁ᎦᎶᎯᏍᏗᎢ	-11.4459
▁ᏓᎧᎿᏩᏗ	-11.4461
▁ᎤᏩᎧ	-11.4464
ᎤᏙ	-11.4465
▁ᎤᎵᏦᏔᏅ	-11.4465
ᎵᏙᎲ	-11.447
ᎨᏳᏒ	-11.447
ᏩᏛᎯᏙ	-11.4473
▁ᎠᎨᏳ	-11.4475
ᏣᏛᏅᎢᏍᏓᏁ	-11.4477
ᏟᏍᏙᏗ	-11.4481
▁ᎤᏚᎵᏍᎬᎢ	-11.4484
ᏥᏯᏂᏍᎨᏍᏗ	-11.4485
ᏏᎾᏏ	-11.4486
▁ᎤᏍᏓ	-11.4486
▁ᎤᎾᏑ	-11.4496
▁ᎠᏯᏦ	-11.4502
▁ᎢᏨᏰ	-11.4503
ᏲᎮᎸᎩ	-11.4507
▁ᏗᎦᎴ	-11.4508
ᎾᏗᏅᏓ	-11.4509
ᏅᏅᎢ	-11.451
▁ᏭᏗᏅ	-11.4511
ᏢᎬ	-11.4511
▁ᎢᏣᏠᏯᏍᏙᏗ	-11.4515
▁ᎤᏲᏏᏍᎨ	-11.4516
▁ᎬᏩᏍᏓ	-11.4517
▁ᎠᎩᏍᏆᏂᎪ	-11.4518
ᏂᎷᏥ	-11.4522
▁ᏥᎦᏃ	-11.4524
▁ᎤᎾᏄᎪᏨ	-11.4525
ᎳᏗᏍᏛ	-11.4527
ᎾᏡᏗᏍᎬ	-11.4529
▁ᎤᏴᎸ	-11.4534
ᏣᎵᎮᎵᎦ	-11.4536
▁ᏴᏛ	-11.4539
▁ᏂᏚᎵᏍᏔ	-11.454
▁ᎢᏝ	-11.4545
▁ᏓᏆᎴ	-11.4546
▁ᏗᎦᏍᎩᎶ	-11.4555
▁ᎠᏓᎾᏏᏂ	-11.4558
ᎸᏏ	-11.4558
▁ᏗᏂᏁ	-11.456
ᎦᎴᏔᏂ	-11.4561
ᏩᏂᎳ	-11.4562
ᎫᎢᏍ	-11.4566
ᏃᎮᏍᎬ	-11.4571
▁ᏂᎬᏪᏎ	-11.4573
▁ᏓᎴᎲᏍᎬ	-11.4575
ᎬᏩᏂᎪᏩᏛ	-11.458
▁ᏗᎧᎿᏩ	-11.4584
▁ᎠᎪᎵᏰᏍᎬ	-11.459
ᏚᎸᏌᏛ	-11.459
▁ᎣᏤᎵ	-11.4591
ᎴᏫᏍᏔᏅ	-11.4594
ᏲᎱᏍᎦ	-11.4596
ᎵᎪᏁᎸᎯ	-11.46
▁ᎤᎸᏕ	-11.4601
▁ᏂᎬᎩ	-11.4602
ᎶᏍᎬ	-11.4609
ᏰᎮᏍᏗ	-11.4614
ᏍᎦᏍᏓᏁᏗᏱ	-11.4619
ᏂᎦᎥ	-11.4622
ᏩᎯᏍᏔᏅᎯ	-11.4628
ᎾᎫᏴᏗ	-11.4632
▁ᎤᏰᎶᎢᏍᏔ	-11.4632
ᏓᏑᏲ	-11.464
▁--	-11.4643
ᏗᎤᏨᏎ	-11.4644
▁ᏕᏧᎪ	-11.4646
ᏥᏅᏍᏗ	-11.4657
ᎪᎲᏍᎬ	-11.4659
ᏃᏴᎵᏍᏗ	-11.4663
▁ᎤᏂᏐ	-11.4667
ᏫᏎᎸᎯ	-11.467
ᏏᎳᏛ	-11.4672
▁ᎮᏙ	-11.4673
▁ᏱᏭᏂ	-11.4678
▁ᏱᏤ	-11.4684
ᎵᏍᏗᏍᎬ	-11.4686
▁ᏚᎾᏠᎯᏍ	-11.4693
ᏥᏪᏏ	-11.4693
ᏎᎪᎩᏒ	-11.4698
ᏂᎥ	-11.4699
▁ᎤᎾᏚᎸ	-11.47
ᏥᏴᏔᏂ	-11.4703
▁ᏯᏂᎦᏔ	-11.4709
ᏙᏔᏁᎢ	-11.4713
ᎯᎮ	-11.4715
▁ᏱᏨᏯ	-11.4727
ᏲᏎᎢ	-11.4727
▁ᎠᎩᎾᎥ	-11.473
ᏥᏌᎳᏙᏗ	-11.4733
▁ᎤᏢᎨ	-11.4734
ᎦᏌᏯᏍᏗᏍ	-11.4738
▁ᏁᎵ	-11.4742
ᎾᏰᏍᎦ	-11.4743
▁ᎤᎾᎴᏅᏗ	-11.4744
▁ᎨᏥᏁᎸ	-11.4754
▁ᎤᏢᏁ	-11.4759
ᎡᎾ	-11.4759
ᏟᎶᏍᏗ	-11.4765
ᏪᏎᎵ	-11.4766
▁ᏂᏚᏪ	-11.4767
▁ᏱᏩ	-11.4768
ᎦᎷᎦ	-11.4769
▁ᎠᏓᏲᏁ	-11.4771
ᏞᏒ	-11.4778
ᎨᏓᎵ	-11.4778
▁ᎤᏂᏍᏆᏛ	-11.4786
ᎵᏥᏙᏁᎸ	-11.4786
▁ᎥᏍᎩᏃ	-11.4787
ᏓᏁᎸᎩ	-11.479
▁ᏣᏢ	-11.4802
▁ᎬᏟ	-11.4805
▁ᏫᎦᎾᏄᎪ	-11.4805
▁ᏧᏪᏲ	-11.4814
ᏣᏲᎭ	-11.4823
ᎪᎰ	-11.4827
ᏥᏁᎰᎢ	-11.485
ᏃᎮᏍᎩ	-11.485
▁ᎤᏂᏁᏤ	-11.4855
ᏣᎦᏎᏍᏕᏍᏗ	-11.4872
▁ᏧᏪᎧᏁ	-11.489
▁ᏗᏣᏓᎨᏳ	-11.4893
▁ᏦᎯᏍ	-11.4893
▁ᏗᏯ	-11.4897
▁ᎠᏍᏗᎩ	-11.4901
ᎵᏙ	-11.4905
▁ᏚᏙᏪ	-11.4907
▁ᏚᏫ	-11.4911
ᏅᏙᏗ	-11.4916
ᏄᎶᏔᏅ	-11.4919
ᏂᎩᏍᏔᏁ	-11.4931
ᏙᎭᏴ	-11.4943
ᏑᎶ	-11.4947
ᎦᎶᎯᏍᏗᏱ	-11.4957
ᎵᏍᏔᏅᎯ	-11.4962
ᏥᏲᎢᏎ	-11.4966
ᎷᏅ	-11.4967
ᏍᎩᎲᏏ	-11.4969
ᎯᎵᏓᏍᏗ	-11.4973
ᎧᏃᏗ	-11.498
ᎬᏗᎭ	-11.4981
▁ᎠᏓᏰ	-11.4986
ᏘᎭ	-11.4987
ᏄᎪᏤ	-11.4987
▁ᎠᏓᎴ	-11.4989
▁ᏘᏲ	-11.499
▁ᏱᎦᏰ	-11.5011
ᏴᏙᏗ	-11.5021
ᏂᏓᎿᏫ	-11.5026
ᏂᏍᎦᎩ	-11.5026
▁ᎢᏥᏁᎸ	-11.5031
▁ᎠᏂᏩᏛ	-11.5035
ᏔᏲᎯᎰ	-11.5036
ᏓᏓᎸ	-11.5037
ᎾᎵᏍᏓᏴᏗ	-11.5038
ᏓᏥᎶ	-11.5046
ᏘᏂᏒ	-11.505
▁ᎤᎾᏂᏢ	-11.505
ᏘᏍᎬ	-11.5054
ᏯᎡ	-11.5062
ᏲᎲᏍᎬ	-11.5064
ᏲᎰᏎᏗ	-11.5069
▁ᏱᎦᏓ	-11.5071
ᎮᏙᎸ	-11.5074
▁ᏗᏂᎳ	-11.5075
▁ᎠᏌᎹᏗ	-11.5078
▁ᎦᏙᏉ	-11.5079
▁ᏂᏚᎾ	-11.508
ᎸᏅᎩ	-11.5086
ᏂᏆᏘᎭ	-11.5089
▁ᎤᏛᏓᏍ	-11.5092
ᏲᎯᎮ	-11.5093
▁ᎢᎦᏛᏉ	-11.5094
▁ᏫᏘ	-11.5102
ᏗᎹ	-11.5107
ᏩᎾᎦᎳᎯᏳ	-11.5112
▁ᏂᏚᏂ	-11.5116
▁ᏰᏙᎮ	-11.512
▁ᎤᎾᏣᏅ	-11.5124
ᏃᎿ	-11.5125
▁ᎠᎩᏍᎩ	-11.5127
ᏁᏙᎮ	-11.5128
ᏚᎶ	-11.5129
ᏁᎲᎾ	-11.5133
ᏳᎵᏍᏙᏗ	-11.5138
▁ᎭᎢ	-11.5141
▁ᎨᏥᏅ	-11.5145
▁ᏯᎭ	-11.5146
▁ᎤᏂᎧᎵᏨ	-11.5153
ᏰᎵᏏ	-11.5155
ᏘᎷᎦ	-11.5156
▁ᏕᎬᎩ	-11.5158
ᏂᏪᏍᎨ	-11.5159
ᏓᏅᏙ	-11.5166
▁ᎠᎦᎵᏍ	-11.517
da	-11.5178
▁ᏧᏓᏅᎦᎸ	-11.5182
ᎻᎦ	-11.5186
ᎦᏘᎴᎦ	-11.5186
▁ᏭᎷᏤᎸ	-11.5188
ᎶᏒᎯ	-11.519
ᏨᎦ	-11.5214
ᎪᎯᏳ	-11.5222
ᏤᎳ	-11.5228
ᎤᎾᏣᏁ	-11.5229
ᎦᎷᎬ	-11.5237
▁ᎠᎱ	-11.5242
ᏂᏱᏍᎨ	-11.5242
ᏌᏬᎸ	-11.5243
ᎶᎯᏎᎸ	-11.5243
▁ᏕᏧᎪᏗ	-11.5243
ᎵᏍᎪᎸᏓᏁᎸ	-11.5246
ᏙᎯᏉ	-11.5248
ᎳᏑᎶ	-11.5257
ᎦᏲᎵᏳ	-11.5258
ᏐᏢᎢᏍᏙᏗᏱ	-11.5266
▁ᎤᎴᎾ	-11.5266
▁ᎤᎫᏴ	-11.5266
ᏲᏂ	-11.5268
ᎪᏗᏱ	-11.5271
▁ᎦᏛᏅ	-11.5273
▁ᎤᏑᏰ	-11.5277
ᎩᏐᏅ	-11.5284
▁ᏕᎦᏕ	-11.529
ᏩᏛᎲᎾ	-11.5291
ᏓᏅᏘ	-11.5294
ᏂᏙᎴ	-11.5295
ᎪᏩᏘᏍᎪᎢ	-11.5297
ᏅᏗᏍᎬ	-11.5301
ᎦᎵᏍᏙᏗᎭ	-11.5302
ᏍᎪᎸᏨ	-11.5308
▁ᎡᏥᎾᏰ	-11.5322
ᎵᏍᏓᏴᏙᏗᏱ	-11.5327
ᏓᏓᏱ	-11.5331
ᏃᏴᎬ	-11.5332
ᏨᏁᏍᏗ	-11.5333
▁ᏭᏢ	-11.5343
ᏥᏩᎯᏍᏔᏅᎯ	-11.5347
ᏲᎮᎴᎢ	-11.5348
▁ᏕᏥᎧ	-11.5356
▁ᎤᏍᏓᏩᏗᏒ	-11.5359
ᎨᎯᏒ	-11.5361
▁ᎭᎿ	-11.5365
▁ᏥᎶ	-11.5368
ᏙᎥᎢ	-11.5373
ᏰᎸᏎ	-11.5374
ᏂᏓ	-11.5385
ᏙᏛ	-11.54
ᏪᎳᏅ	-11.5403
▁ᏫᏕ	-11.5407
ᏂᏲᎱ	-11.5411
ᎵᏖᎸᎲᏍᎦ	-11.5413
ᏟᎭ	-11.5416
▁ᏧᎾᏚᎪᏓᏁᏗ	-11.5417
ᏏᏔᏕᎢ	-11.5427
▁ᎠᏐᏢᎢᏍᏙᏗ	-11.5438
▁ᎢᎯᏯ	-11.544
▁ᎡᏥᎸ	-11.5443
ᎵᏂ	-11.5444
ᎷᏤᏗ	-11.5448
▁ᎠᏂᎸ	-11.5449
ᎦᎴᏍᏗ	-11.5452
ᏓᏟᏴ	-11.5468
ᎡᎪᎢ	-11.5474
ᏅᎡᎯ	-11.5477
ᎩᎡᏗ	-11.5479
▁ᎣᎩᏃᎮ	-11.5486
ᏌᎾ	-11.5487
▁ᎤᏙᏯᏅᎯᏕ	-11.5488
ᏓᏁᎲᎢ	-11.5489
▁ᏅᏓᏣ	-11.5493
▁ᎦᎵᏗ	-11.5496
ᏍᏗᏰᏔᏁ	-11.5496
▁ᎤᏬᎯᏳᎯ	-11.5499
▁ᎠᏆᏗ	-11.55
▁ᎦᏛᎩ	-11.5505
▁ᏧᏂᎯᏍᏗ	-11.5506
ᎦᏙᏍᏔᏁᎢ	-11.5523
▁ᏗᏠᎯᏍ	-11.5524
▁ᎢᎾᎨᏉ	-11.5528
▁ᏧᏓᏴᎳ	-11.5531
ᎴᏔᏂ	-11.5532
ᏩᏓ	-11.5539
▁ᎢᏥᎨᏳ	-11.5543
ᏈᎵ	-11.5543
ᏂᎦᎸ	-11.5546
ᏴᏓᏆᎶᎥᎩ	-11.5547
▁ᎤᏛᏛᏁᎢ	-11.5549
ᏄᏪ	-11.5549
▁ᎾᏁ	-11.5557
▁ᎤᏰᎢ	-11.5568
ᏄᏣ	-11.5574
ᏓᏁᎲᎾ	-11.5577
▁ᎤᏁᎢ	-11.5587
ᏎᎵᏛ	-11.5588
▁ᏔᎴ	-11.5589
ᎤᏨᏎ	-11.5595
ᎾᏛᎩᏍᎪ	-11.5599
ᎡᎰ	-11.5604
▁ᎠᏚ	-11.5606
ᎯᎠᏃ	-11.5611
▁ᎢᏥᏰ	-11.5612
ᏇᏗ	-11.5614
▁ᎦᎴ	-11.5616
ᎾᎻ	-11.5621
ᏍᏓᏁᎸ	-11.5622
ᏛᏎ	-11.5622
ᏐᏅᎢᏍᏔᏅᎯ	-11.5627
ᏰᏅ	-11.5637
▁ᏖᎾ	-11.5639
ᎴᏅᏓ	-11.564
ᏯᏅᎯ	-11.5643
▁ᏍᎩᏲᏎ	-11.5645
▁ᎤᏂᎷᏤᏃ	-11.5646
▁ᏱᏄ	-11.5647
▁Ꮆ	-11.5651
ᏏᎳᏛᏙᏗ	-11.5651
ᏓᏅᏓᏗᏍᏔᏅ	-11.5664
ᎷᏯᏍ	-11.5665
▁ᏱᏚᏁ	-11.5666
ᎵᏍᏔᏁᎢ	-11.5668
ᏣᎳᎩ	-11.5671
ᎶᏂ	-11.5674
ᏂᎨᏥᏪᏎᎴ	-11.5677
ᏓᏅᏔ	-11.5686
ᏘᏌ	-11.569
▁ᎦᏥᏁᏗ	-11.5692
ᏱᏢᏗ	-11.5698
ᏲᎲ	-11.5699
ᏣᎵᏍᏗᎭ	-11.5707
▁ᏗᏥᏴ	-11.5709
▁ᎤᎾᎪᎸ	-11.5713
ᏒᏁ	-11.5713
▁ᏥᏯᏓᏙᎵᏍᏓᏁ	-11.5713
▁ᏭᏂᏴ	-11.5715
▁ᏗᎦᏓᎨᏳᎯ	-11.5715
▁ᏫᏔ	-11.5716
ᎩᏍᏕᎸᏗᏱ	-11.5718
▁ᏕᎯᏯ	-11.572
▁ᏕᎦᏓ	-11.5724
▁ᏯᏆᏓᏅᏔ	-11.5724
ᏌᎳᏙᏗ	-11.5731
ia	-11.5736
▁Ꮚ	-11.574
ᎵᏙᎸᎢ	-11.574
ᏅᏍᏔᏁᎢ	-11.5747
▁ᎬᏍᎦᎳ	-11.576
ᏚᏩᏂᎦᎸ	-11.576
le	-11.5761
▁ᏭᏕ	-11.5766
ᏗᏔᏍᎪᎢ	-11.5769
ᎳᏅᏓᏕ	-11.5773
▁ᎢᏍᎪ	-11.5775
▁ᎢᏨᏁᎸ	-11.5777
▁ᎠᎩᏃᎮ	-11.579
▁ᎪᎶ	-11.5796
▁ᏧᏙᏢ	-11.5803
▁ᏗᏣᎶ	-11.5805
ᎵᏍᎪᎸᏔᏅᎯ	-11.5806
▁ᏫᎨᏙ	-11.5807
▁ᎤᏔᏲ	-11.5808
▁ᏓᏲᏣ	-11.5809
▁ᎤᎪᎳ	-11.5811
▁ᏥᏭ	-11.5816
ᏂᎰ	-11.5823
▁ᎨᏥᏯᏅᏗ	-11.5823
▁ᏥᎪᏩᏘ	-11.5825
ᏯᏫᏍᎨᏍᏗ	-11.5826
▁ᏓᎩᏯ	-11.5828
▁ᏥᎯ	-11.5829
ᏯᎩᏍᎬ	-11.5835
ᏗᏎᎢ	-11.5838
ᏤᎴᏍᏗ	-11.5838
ᏒᏂᎸ	-11.584
▁ᎭᏏ	-11.5842
▁ᏫᎷᏥ	-11.5845
▁ᏕᎪᏢ	-11.5845
▁ᏓᎩᎧ	-11.5854
ᎯᏍᏔᏁ	-11.5864
▁ᎦᎳᏅᏛ	-11.5866
ᎪᎥᎯ	-11.5868
▁ᏔᎫᏴ	-11.5871
ᏣᎦᎸ	-11.5871
ᏣᏯ	-11.5872
▁ᎠᎩᏍᎦ	-11.5874
ᎧᎭᏲᏔ	-11.5877
▁ᎨᏥᏯᏅ	-11.5881
ᏥᎪ	-11.5884
ᏃᎯᎮ	-11.5896
▁ᏆᏂ	-11.5897
ᏩᏘᏍᎨᏍᏗ	-11.5899
▁ᎤᏣᏘᏂᏉ	-11.5902
ᎿᎢᏳ	-11.5903
▁ᎤᏤᏪ	-11.5905
ᎯᏍᏙᏗᏱ	-11.5915
ᎪᏢᏙᏗ	-11.5916
ᏣᎪᏩᏛᏗᏱ	-11.5924
▁ᎣᎩᏴ	-11.5929
ᎬᏩᏟ	-11.593
ᏓᏛᏁᎭ	-11.5938
ᏏᏍᎨ	-11.5944
▁ᎤᎴᏗ	-11.5956
ᏛᏅᎢᏍᏔᏅᎩ	-11.5966
ᎵᎮᎵᏍᏗᏱ	-11.5971
▁ᏧᏭᎪ	-11.5979
▁ᎤᏪᎧᏁ	-11.5979
▁ᎤᏣᏁ	-11.5981
ᎠᏙ	-11.5981
ᏍᏔᏴ	-11.5982
ᏂᏴᎭ	-11.5983
ᎪᎲᎯ	-11.5984
ᏄᏮᎢ	-11.599
ᎧᎲᎦ	-11.6006
ᏪᏥ	-11.6017
ᏓᏅᏛᎢ	-11.6018
ᏯᎪ	-11.6023
ᎦᏔᎲᏍᏗᏱ	-11.6023
ᏔᏲᎯᎲ	-11.6024
ᏳᎸᏉᏗ	-11.6027
ᏆᏤᎵ	-11.6029
ᏍᎦᏅᏤᎮᏍᏗ	-11.6032
▁ᎤᏅᎢᏍᏗ	-11.6037
ᏪᎢ	-11.6047
ᎵᎥᏂᎸ	-11.6049
▁ᎤᏔᎶ	-11.6049
ᏗᏒᏍᏗᏱ	-11.6054
▁ᎠᏨ	-11.6055
ᏅᏛᎾ	-11.6058
▁ᏙᎬ	-11.6059
▁ᏱᏣᏁ	-11.6061
▁ᎣᏂᎩ	-11.6062
ᏓᏕᏲᎲᏍᎨᏍᏗ	-11.6066
ᎿᎥᎾ	-11.6071
ᎪᏩ	-11.6072
▁ᏗᎦᎵ	-11.6073
▁ᏫᎬᎩ	-11.6076
▁ᎤᏁᏉᏤ	-11.6078
ᎦᏔᎲᎩ	-11.6083
▁ᏛᏣ	-11.6086
ᏆᎸ	-11.6087
ᎸᎥᏍᎬ	-11.6089
▁ᎧᏬ	-11.609
▁ᏫᏓᏗ	-11.6095
ᎪᏩᏘᏍᎨᏍᏗ	-11.6096
ᏥᏁᎴ	-11.6099
ᎾᏛᏁᎰᎢ	-11.61
▁ᎤᎦᎾᏬ	-11.6105
ᏅᏬᏗ	-11.6105
▁ᏧᏔᏂ	-11.6107
ᏑᎸᏓ	-11.6112
▁ᏧᏂᏯ	-11.612
ᎡᎸᎢ	-11.6128
▁ᏗᏍᎩᏯ	-11.6129
▁ᎠᎦᏞ	-11.6133
ᎦᎵᏍᏓ	-11.6137
ᎡᎮᏍᏗ	-11.6138
ᎦᎸᏉᏗᏳ	-11.6147
▁ᎢᏳᎵᏍᏓᏁ	-11.6149
ᏓᏓᎴᏓ	-11.6151
ᏍᏓᏩᏕᏅ	-11.6154
ᏣᏁᎳ	-11.6158
▁ᎤᏂᏥᎸ	-11.6166
ᏨᏓ	-11.6168
ᏂᏣᏔ	-11.6169
ᏏᏔᏗ	-11.6172
ᏥᎪᏩᏗᎭ	-11.6172
ᎠᏉᎯᏳᎭ	-11.6173
ᏓᏑᏴᎢ	-11.6178
▁ᏙᏓᏓ	-11.6181
▁ᎦᏂᎵ	-11.6183
ᎨᏥᎾᏌᎢ	-11.6184
▁ᎢᏯᎾᏛᏁ	-11.6185
ᎲᏍᏗ	-11.6185
▁ᎢᎠᏓ	-11.6186
▁ᎠᏥᎪ	-11.6187
▁ᎢᏳᎯ	-11.6189
ᏐᎯ	-11.619
ᏅᏩᏅ	-11.6194
▁ᎤᏲᎰᏎ	-11.6194
ᏟᏍᏔ	-11.6195
▁ᎠᏓᏂ	-11.6195
▁ᏨᏙᏗ	-11.6196
▁ᎢᎤᏁᏅ	-11.6198
ᏍᏘᏰ	-11.6201
ᏍᏓᏱᏗ	-11.6201
▁ᏚᏂᎾ	-11.6206
ᏓᏅᏘᏐ	-11.6209
ᏓᏍᎦ	-11.6211
▁ᏚᏂᎸᏫᏍᏓᏁ	-11.6215
ᏲᏢᎾᏁ	-11.623
ᎵᏍᎨᏍᏗ	-11.6231
▁ᎦᏇᏅ	-11.6235
▁ᎤᏲᎱᏎ	-11.6238
ᎾᏛᏅ	-11.6244
ᏲᎱ	-11.6245
▁ᏧᏭ	-11.6245
ᏩᏛᏔᏅ	-11.6246
ᏃᏴᎵᏍ	-11.6251
▁ᏴᎦᏰ	-11.6254
▁ᏚᎾᏁᎶ	-11.6256
▁ᏩᎪᏩᏛ	-11.6257
▁ᎢᏥᎨᏳᎯ	-11.6258
ᏍᏘᏰᎬᎢ	-11.6261
▁ᏓᎾᏓᏅ	-11.6262
ᎬᎭᎷᏴ	-11.6263
ᏩᏛᎯᎵ	-11.6267
ᏲᎲᎢ	-11.6267
ᏅᎲᎭ	-11.6269
ᏏᏁᎩ	-11.6272
ᎵᎥᏂᎴ	-11.6273
▁ᏯᎦ	-11.6274
▁ᏅᏩᏓᎴᎢ	-11.6277
▁ᏤᎵ	-11.6285
▁ᏯᏰ	-11.6289
▁ᎤᏂᎾᏗᏅ	-11.629
ᏥᏁᏤᎸ	-11.6292
ᏙᏥᏩᏛᎲᎩ	-11.6294
▁ᏓᎴᏅ	-11.6295
ᎤᏙᏓ	-11.6301
ᏍᏈᏗ	-11.6303
ᎮᎸᎩ	-11.6304
▁ᎠᏁᎵ	-11.6306
ᏢᏍᎪᎢ	-11.6308
ᏯᏅᎲᎭ	-11.6311
▁ᏬᎩ	-11.632
ᏗᎵᏍᎪᎸᏙᏗ	-11.632
▁ᏪᎮ	-11.6321
▁ᎤᎾᎵᏍ	-11.6328
ᎳᏗᏓᏍᏗᏱ	-11.6328
▁ᎤᏚᏒ	-11.6334
ᎦᎵᏍᏙᏗᏍᎨᏍᏗ	-11.634
ᎣᎵ	-11.6344
▁ᏥᎾᏆ	-11.6346
ᏐᏴᎢ	-11.6352
▁ᎫᏢ	-11.6356
ᏴᏗᏱ	-11.6356
ᏣᏛᎦᏁ	-11.6357
ᎯᏴᎩ	-11.6365
ᎩᎳᏩ	-11.6365
ᏩᏁᎦ	-11.6373
ᏲᏞᎯ	-11.6375
▁ᏩᏓ	-11.6376
ᏜᏏᏛᎡ	-11.6377
ᏪᎭ	-11.6378
ᏃᎮᎵ	-11.6378
ᎶᎨᏒᎢ	-11.6379
ᏙᎴᎢ	-11.639
ᏍᏓᏩᏛᏛ	-11.6391
ᎨᏎᏍᏗ	-11.6396
ᏃᎯᏰ	-11.6396
ᎦᏙᏍᏙᏗ	-11.6397
▁ᏛᎬ	-11.6402
ᏓᏍᏕᎸᏗ	-11.6404
▁ᎯᎦᏘ	-11.6408
ᏓᏨᏯᏍᏗ	-11.6409
▁ᏥᏅᏗᎦᎵᏍᏙᏗ	-11.6415
ᏂᏂᏌᏁᎢ	-11.6416
ᏅᏓᏗᏍᏗᏱ	-11.6416
▁ᎬᏩᏁ	-11.6419
ᏤᎰ	-11.642
▁ᏕᏨᏯ	-11.6421
ᎾᏣᎥ	-11.6422
ᎠᏍ	-11.6424
ᎩᎷᎯᏍᏗᏱ	-11.6427
ᎡᏒ	-11.6431
ᏟᏍᏗᏍᎪᎢ	-11.6431
ᏪᏎ	-11.6435
ᏯᎴ	-11.6441
▁ᎨᎯ	-11.6442
▁ᏤᎳ	-11.6443
ᏘᏁᎪ	-11.6446
ᏲᎢᏎᎴ	-11.6446
ᏔᏕᎩ	-11.6451
▁ᎠᏏᎾᏌᏅ	-11.646
▁ᏧᏢᏫ	-11.6465
▁ᏓᏳᎾ	-11.6465
ᏓᎴᏍᎨᏍᏗ	-11.647
ᏁᏣ	-11.6471
ᎦᏍᎩᎶᎩ	-11.648
▁ᎠᏩᏔ	-11.6482
ᎲᎯ	-11.6482
ᏒᏂᏍᏗᏱ	-11.6484
▁ᏩᎩᏴ	-11.6495
▁ᎡᏦ	-11.6501
ᎬᏫᏳ	-11.6506
▁ᏂᏗᎬ	-11.6508
ᏍᏔᏁᎴ	-11.6509
ᏂᏱᏍᎩ	-11.6509
ᎦᏌᏯᏍᏗᏕᎩ	-11.6514
ᎷᏤᎵ	-11.6515
▁ᎢᏥᎧᎵᎢ	-11.6518
ᏅᏛᎢ	-11.6524
ᎾᏣᎡᎢ	-11.6527
▁ᏙᏓᎦᏥ	-11.6531
▁ᎣᏣᏓ	-11.6535
▁ᎦᏅᏬ	-11.6536
ᏍᏕᎵᏍᎪ	-11.6543
ᏓᏴᎳᏔ	-11.6544
▁ᏕᏣᏓᏠ	-11.6546
▁ᎤᎾᏓᏟᏌ	-11.6552
ᏖᎸᎮᏍᎬ	-11.6553
▁ᎬᏣ	-11.6555
▁ᎤᏂᏁᏗ	-11.6557
▁ᎯᏍᏆ	-11.656
▁ᏂᏨᏪᏎ	-11.6561
▁ᏗᏓᎯ	-11.6562
▁ᎣᏨᏗ	-11.6565
▁ᎯᎦᏔᎭᏍ	-11.6566
ᎵᏰᎢᎶ	-11.6568
ᏑᏩ	-11.6569
▁ᏗᎻ	-11.657
▁ᏱᏓᏆ	-11.6573
▁ᎤᏃᎱ	-11.6574
▁ᎣᎩᏙ	-11.6576
▁ᏱᏓᏥ	-11.6576
ᏛᏓᏍᏔᏂ	-11.6579
ᏓᏡᏗᏍᎪᎢ	-11.6579
ᏴᎳᏒ	-11.6584
▁ᎠᏥᎸᏉᏙᏗ	-11.6589
ᎾᏓᏗᏍᎪ	-11.659
▁ᏥᏂᎦᎵᏍᏗ	-11.6592
▁ᎠᏫᏒ	-11.6592
▁ᏳᏂᎬ	-11.6597
▁ᎤᏔᎷᎩᏍ	-11.6598
▁ᏅᏩᏍᏕ	-11.6599
ᎨᎮ	-11.66
▁ᎠᎧ	-11.6602
▁ᎠᎾᏗᏒᎯ	-11.6606
▁ᎤᏬᎯᏨ	-11.6609
▁ᏳᏙ	-11.6609
ᎵᏙᎰ	-11.6615
ᏳᎦ	-11.6616
ᎸᏉᏙ	-11.6619
▁ᎢᏯᎦ	-11.6619
ᎴᏂᏓᏍᏗᏱ	-11.662
▁ᎠᎩᏰ	-11.6621
▁ᎾᏆᎵᏍᏓᏁᎸ	-11.6621
▁ᏚᏂᏣ	-11.6622
ᎶᎥ	-11.6623
▁ᎣᏍᏗᏁ	-11.6624
ᏁᎩᏏ	-11.6625
ᎨᎳᏍᏙᏗ	-11.6626
ᎦᎸᎢ	-11.6628
ᎾᏛᏁᎲ	-11.6634
ᎦᏅᎦᎵᎭ	-11.6636
ᏓᏇ	-11.6636
▁ᎤᏁᏙ	-11.6641
ᏯᏅᎡᎵ	-11.6642
ᏡᎬᎢ	-11.6645
ᏲᎲᏍᎨᏍᏗ	-11.6648
ᎵᏍᏓᏴᏁ	-11.6648
ᎺᎵ	-11.6651
▁ᎢᏓᏙᎴᎰᎯ	-11.6653
ᏎᎲ	-11.6653
▁ᎤᏍᏆᏃᏴ	-11.6655
ᏍᎩᏰᏲᎲ	-11.6655
ᏓᎦᎶᏐᏂ	-11.6656
ᎰᏂ	-11.6661
ᏗᎨᎴ	-11.6661
▁ᏚᎾᎵ	-11.6663
ᎵᏬᏤ	-11.6663
ᏍᎦᏰᎬᏍᏔ	-11.6663
ᎮᎵᎠᏍᎪ	-11.6663
ᏰᎢᎵᏙᎲᎢ	-11.6664
▁ᎤᏗᏍᎦᏢ	-11.6667
▁ᎤᎵᏍᎪᎸᏔᏁ	-11.6667
▁ᎠᎩᎪᏁᎸ	-11.6667
▁ᎤᏂᎶᏎ	-11.6667
▁ᏚᏂᎧᎲ	-11.6667
▁ᎤᏓᏙᏎᎴ	-11.6667
▁ᏓᎾᏓᏅᏖᏍᎬ	-11.6667
▁ᏳᏂᎪᎮ	-11.6667
▁ᎤᏅᏍᎦᎴ	-11.6668
▁ᎠᏂᎦᏔᎮ	-11.6669
ᏙᏓᏈᏕᎾ	-11.6669
ᎦᏧ	-11.667
▁ᎲᏗᏍ	-11.667
▁ᎢᏨᏬᏁᏔᏅ	-11.6671
▁ᏫᏚᏳᎪᏛ	-11.6672
ᏁᏤᎴᎢ	-11.6673
▁ᏗᏤᏍᏙ	-11.6673
ᏕᏓᏓᎪᎲᏳ	-11.6673
ᎩᎦᎨᏍᏛᏱ	-11.6673
▁ᏩᏂᎦᏛ	-11.6673
▁ᎢᏣᏓᏁᏟᏴᏏᏒ	-11.6676
▁ᏥᎦᎷᎪ	-11.6676
▁ᏗᎦᎸᏫᏍ	-11.6676
ᏗᎦᎪᏗᏱ	-11.6676
▁ᎠᎾᎢᏎ	-11.6677
▁ᎠᏐᏢᎢᏍᏗᏍᎬ	-11.6679
ᏄᎵᏍᏓᏁᎴ	-11.6679
▁ᎤᏔᎳᏬᏍᎬ	-11.668
▁ᎠᏋᏔᏅ	-11.668
▁ᎤᏂᏂᎬᏎᎲ	-11.6681
ᏓᎩᎸᏫᏍᏓᏁᎲ	-11.6681
▁ᏚᏪᎧᏁᎴ	-11.6682
ᎠᏡᏗᏍᎩ	-11.6682
▁ᏂᏚᏂᏪᏎᎴ	-11.6683
▁ᏚᏂᏂᏴᎮ	-11.6683
▁ᏂᎨᎬᏁᎸ	-11.6683
ᎤᏬᏚᏨ	-11.6684
ᎤᏓᏅᏒ	-11.6685
▁ᏓᎩᏏᎳᏛ	-11.6685
ᎦᎾᏄᎪᏫᏍᎪ	-11.6685
ᏣᏄᏏ	-11.6685
ᏁᎶᏙ	-11.6685
ᏧᏂᎸᏫᏍᏓᏁᎯ	-11.6685
ᎬᏂᏳᏉ	-11.6685
▁ᏥᏄᎵᏍᏔᏁ	-11.6685
▁ᏥᏧ	-11.6686
▁ᎠᎩᏩᏒ	-11.6686
▁ᎤᏄᏮ	-11.6686
ᎵᏱᎶᎸ	-11.6687
▁ᎤᎾᎦᏙᏍᏕ	-11.6687
▁ᎤᏂᏇᏓᎸ	-11.6687
ᏧᏪᏥ	-11.6688
▁ᏚᏠᏱᎴ	-11.6688
ᏅᏨᎩ	-11.6689
ᎠᎳᏑᎶ	-11.6689
▁ᎤᏁᎸᏔᏁ	-11.669
▁ᏄᏕᏘᏴᎮ	-11.669
ᎡᎳᏂ	-11.669
▁ᏚᏫᏞᏫᏒ	-11.669
ᏗᏂᎦᏘᏯ	-11.6691
ᏗᎦᏚᎲ	-11.6692
ᎣᏏᏉᏍᎪ	-11.6692
▁ᎢᎬᏬ	-11.6692
▁ᎢᏥᎪᎲ	-11.6692
ᎤᏔᎷᎩᏍᎩ	-11.6693
▁ᏂᎬᏩᏪᏎᎴ	-11.6693
ᎪᏪᎴ	-11.6695
▁ᎾᎾᏛ	-11.6695
ᎯᏙᎲ	-11.6697
ᏌᏙᎭ	-11.6698
ᏯᏫᏍᏗ	-11.6698
ᎵᏍᏙᏔᏅ	-11.6698
▁ᎠᎵᏍᏓᏴᎲᏍᎬ	-11.6699
ᏧᏙᎢᏛ	-11.6699
ᏐᏈᎵ	-11.6699
▁ᎣᎨᏅ	-11.67
ᎠᎨᏴ	-11.6701
ᎪᎵᏰᏍᎨᏍᏗ	-11.6702
▁ᎾᏆᏛᏅ	-11.6703
▁ᎤᏂᏚᎲ	-11.6703
ᎪᏪᎸᎢ	-11.6705
▁ᎦᏃᎪ	-11.6705
ᎣᎯᏍᏙᏗ	-11.6706
▁ᎤᎵᏍᏇᏚ	-11.6706
▁ᏚᏬᏢᏁ	-11.6706
ᎵᏂᎪᎯᏍᏗ	-11.6707
▁ᎠᏒᏛ	-11.6707
ᎤᏛᏁᎢ	-11.6707
ᏬᎯᏳᏁ	-11.6707
▁ᏚᏪᏲᏁ	-11.6708
ᎦᎵᏉᎩ	-11.6708
▁ᎤᏪᏙ	-11.6709
ᏫᏂᏴ	-11.671
▁ᏥᏄᏪᏒ	-11.6711
▁ᏗᎧᏃᎮ	-11.6711
▁ᏓᎪᎲᏍ	-11.6711
ᎾᏗᏔᏍᏗ	-11.6711
▁ᏩᎩᎶᏒ	-11.6712
▁ᏥᏂᏣᏛᏁ	-11.6713
ᏥᏅᏬᏗ	-11.6713
ᎦᏪᏍᎬᎩ	-11.6713
▁ᏚᏂᎳᏫᏨ	-11.6713
▁ᎠᎩᏍᎪ	-11.6713
▁ᏓᎩᎪᎲ	-11.6714
ᏆᎧᎿᏅ	-11.6714
▁ᎠᏛᏍᎨ	-11.6715
▁ᎤᏬᏘ	-11.6716
▁ᎤᏁᎢᏍᏔᏁ	-11.6716
▁ᏕᏥᎳᏫ	-11.6716
ᏲᎰᏒ	-11.6718
▁ᏕᏦ	-11.6718
▁ᏧᎾᏓᏡ	-11.6719
ᏅᎪᏨ	-11.6721
ᏰᏫᏒ	-11.6721
▁ᎤᏃᎯᏳᏗ	-11.6722
ᏗᎧᎿᏩᏛᏍᏗ	-11.6722
ᎤᏟ	-11.6723
▁ᎤᎾᏠᏤ	-11.6724
ᎬᏂᎨᏒ	-11.6724
ᏖᏆᎶ	-11.6726
ᏒᏗᏱ	-11.6727
▁ᏥᏍᏚᏂᎩᏍᏗ	-11.6727
▁ᏗᏂᎳᏫ	-11.6727
▁ᏂᏣᎵᏍᏔᏅ	-11.6728
ᏂᎪᎵᏰᎥ	-11.6728
▁ᏄᏅᏁᎴ	-11.6728
ᏂᏐᏢᎢᏍᏙᏗ	-11.6728
ᏁᎢᏍᏔᏁ	-11.6728
ᎵᏍᎪᎸᏓᏁᏗ	-11.6729
ᏓᏙᎵᏍᏗᎭ	-11.6729
▁ᏭᏂᏃᏁ	-11.6729
ᎶᏄᎮᏗᏱ	-11.673
ᎵᏍᏙᏰᏗ	-11.673
▁ᏭᏂᏴᎸ	-11.673
ᎨᎳᏗ	-11.6731
ᎩᏠᏫᏍ	-11.6731
ᎪᏫᏎ	-11.6731
▁ᏧᏳᎪ	-11.6733
▁ᏫᎬᏆ	-11.6733
ᏲᎱᏒᎯ	-11.6735
▁ᏂᎦᎵᏍᏙ	-11.6735
▁ᏗᎬᏩᏁᎶ	-11.6736
▁ᎤᏘᏴ	-11.6736
▁ᎠᏉᎸ	-11.6736
▁ᎦᎾᏄᎪᏥᎸ	-11.6737
ᎦᏓᎡᎢ	-11.6737
▁ᏱᏚᎾᏓ	-11.6738
ᏂᏪᏍᎬ	-11.6739
▁ᎾᏎᎵ	-11.674
ᎦᏍᎦᏂ	-11.674
▁ᏂᏚᏩᏁ	-11.674
▁ᎡᎩᏁᎸ	-11.6741
▁ᏗᎵᏰ	-11.6741
▁ᎤᏁᎵᏒ	-11.6741
▁ᎤᎾᏘᏅᏍᏗ	-11.6741
▁ᏓᎾᎵ	-11.6742
ᎧᏍᎨᏂ	-11.6743
▁ᎢᏣᏓᏤᎵ	-11.6743
▁ᏥᏄᎵᏍᏔ	-11.6743
ᎿᎷ	-11.6744
ᏄᏩᎢᏴ	-11.6744
▁ᎢᏯᎩᏪᏍᏗ	-11.6744
▁ᏭᏂᎷᎯᏍᏗ	-11.6745
▁ᎢᏳᏂᏪᏍᏗ	-11.6745
▁ᏧᏄᎪᏙᏗ	-11.6745
▁ᎢᏳᏪᏅᏍ	-11.6745
ᏁᎨ	-11.6745
▁ᎠᏆᎵᎮᎵᏍᏗ	-11.6746
▁ᎦᏅᎪ	-11.6746
ᎦᏓᏅᏓᏗ	-11.6746
▁ᏇᏗᏂ	-11.6747
▁ᏫᏨᎷᏤᏗ	-11.6747
ᏡᏔᏅ	-11.6747
ᏴᏍᏕᏍ	-11.6747
▁ᎣᎦᎵᏍᏓᏴᏗ	-11.6748
▁ᏗᎨᏥᎢᏍᏗ	-11.6748
▁ᎤᎾᏄᎪᏫᏍᏗ	-11.6749
▁ᏗᎦᎳᏫᎢᏍᏗ	-11.6749
ᏕᏠᏆᏍᎩ	-11.6749
▁ᏧᏍᏆᏅ	-11.6749
▁ᎠᏰᏙᎳ	-11.675
ᏲᎱᏎ	-11.675
▁ᏗᎩᎸᏫᏍᏓᏁᏗ	-11.675
▁ᎠᏛᏃ	-11.675
▁ᎤᎾᏓᏡ	-11.6751
▁ᏧᎬᏩᏟ	-11.6751
▁ᎾᏕᏘ	-11.6751
ᏯᎦᏔᏂ	-11.6751
▁ᎠᏥᏙᎵᏍᏗ	-11.6752
ᏍᏚᎢᏎ	-11.6752
▁ᎢᏳᎾᎵᏍᏙᏗ	-11.6753
▁ᎭᏕᎶᎰ	-11.6753
ᏍᏔᏯ	-11.6753
▁ᎠᎵᏍᏕᎵᏍᎬ	-11.6753
▁ᎠᏍᏆᎸᎲ	-11.6754
▁ᏕᎫᎪᏓᏁ	-11.6755
▁ᏚᎸᏫᏍᏓᏁᎮ	-11.6755
▁ᎠᏍᎦᎢᎮ	-11.6755
ᎿᏍᏕᏢ	-11.6755
▁ᏕᎾᏓᎪ	-11.6755
▁ᎠᏫᎾᎨ	-11.6755
ᏃᎮᎮᎴ	-11.6756
ᏣᎳᏁ	-11.6756
ᏯᏘᏃᎮᎸ	-11.6756
ᏪᎳᏅᎯ	-11.6756
ᎨᏳᏣ	-11.6757
ᎨᏅᏕ	-11.6758
ᏁᏓᏥᏛ	-11.6759
▁ᎾᏆᎵᏍᏔᏁ	-11.6759
▁ᏓᏕᏲ	-11.676
ᎵᏍᏓᏴᎾᏁᏗ	-11.676
ᎡᏆ	-11.6761
ᎧᎿᏩᏗᏓ	-11.6761
▁ᏒᎯᏰ	-11.6761
▁ᏕᎨᏥᏰ	-11.6762
ᏅᏍᏓᏕᎴ	-11.6762
▁ᎤᏓᏴᏎ	-11.6763
ᏜᏏᏛᎡᎲᎾ	-11.6763
i	-11.6764
▁ᎤᎭᎸᏂ	-11.6764
ᎦᏛᏂᏙᎯᏉ	-11.6764
▁ᎢᏣᏛᎦᏅ	-11.6764
ᏝᏪᎯ	-11.6764
ᎨᏢᏔᏅᎭ	-11.6765
ᎹᎵ	-11.6765
ᏕᏯᏔᏁᎮ	-11.6766
▁ᎤᏪᎧ	-11.6766
ᏣᎵᎡᎵᏤᏗ	-11.6766
ᏗᏌᏓᏕ	-11.6766
▁ᏕᎬᎦᎿᏩᏗᏙ	-11.6767
in	-11.6767
▁ᎨᏣᎵ	-11.6767
▁ᏣᎾᏗ	-11.6767
ᎪᏅᏍᏓᎵ	-11.6768
ᏛᏛᎲᎦ	-11.6768
ᎤᏍᏕᏎᎸᎯ	-11.6768
ᏄᎪᎢ	-11.6768
ᎪᏪᎵ	-11.6769
ᏢᏈᏍᏙᏗ	-11.6769
ᎵᏍᏔᏴᎲᏍᎬ	-11.6769
ᎵᏏᎾᎯᏍᏛᎾ	-11.6769
ᏳᎪᏛᎾ	-11.6769
li	-11.677
▁ᏩᎾᎦᎳ	-11.677
hi	-11.677
ᏍᏚᎢᎡᎸ	-11.677
▁ᎠᏂᎩᎵᏲ	-11.677
ᏑᎶᏨᎯ	-11.677
▁Co	-11.677
▁ᏚᏢᏫᏎᎴ	-11.677
aire	-11.677
ichael	-11.677
reland	-11.677
ᎦᏨᏩᏍᏙᏗᏱ	-11.677
ᎶᏄᎲᎵ	-11.677
ᎿᎸᏍᏗᏍᎨᏍᏗ	-11.677
ᏂᏍᏋᎦ	-11.677
ᏍᏕᎵᏌᏕᏒᎭ	-11.677
ᏓᏓᎾᏁᎶᏂᎨ	-11.677
ᏔᏕᎶᎰᏏ	-11.677
ᏚᎸᎡᎸᎩ	-11.677
ᏩᏛᎱᎦ	-11.677
ᏯᏓᏂᎸᏥ	-11.677
▁ᎠᎵᏱᎵᏒᎢ	-11.677
▁ᎠᎾᎵᏍᏓᏴᏂᏙᎮ	-11.677
▁ᎢᎡᏍᏕᎵᏌᏕ	-11.677
▁ᎢᏍᏙᏎᎸᎭ	-11.677
▁ᎢᏨᏰᎳᏗᏙᎸ	-11.677
▁ᎢᏰᎬᏁᎸᎯ	-11.677
▁ᎣᎦᏛᏅᎢᏍᏗ	-11.677
▁ᎤᎧᏲᏐᏅ	-11.677
▁ᎤᎳᏍᏚᏒ	-11.677
▁ᎤᎾᏓᏄᏴᏗ	-11.677
▁ᎤᏁᏄᎳᏍᏔᏁᎢ	-11.677
▁ᎤᏂᏔᎳᏬᏒᎩ	-11.677
▁ᎤᏄᏖᏎ	-11.677
▁ᎤᏍᎫᏓᏁᎦᎸ	-11.677
▁ᎤᏗᏍᎦᏝ	-11.677
▁ᎦᏌᏁᎾᏛ	-11.677
▁ᎦᏖᏌᏗ	-11.677
▁ᎨᏤᎳᏗᏙᎮᏍᏗ	-11.677
▁ᎬᏩᏓᏡᏫᏍᏔᏅᎩ	-11.677
▁ᎬᏬᏍᏔᏅᎯ	-11.677
▁ᎭᏓᎦᏖᏙᎢᏍᎨᏍᏗ	-11.677
▁ᎮᏏᎦᏯ	-11.677
▁ᎵᏆᏗᎻ	-11.677
▁ᎻᏗᏯᏂ	-11.677
▁ᏂᎠᏂᏪᎭ	-11.677
▁ᏂᎦᎸᏉᏗᏍᎬᎾ	-11.677
▁ᏂᎧᏪᏍᎬᎩ	-11.677
▁ᏂᏓᎷᎸᎥᏍᎬᎾ	-11.677
▁ᏂᏓᏓᏂᎸᎬᎾ	-11.677
▁ᏂᏗᎦᎵᏍᏔᏂ	-11.677
▁ᏂᏥᏪᏍᎪᎢ	-11.677
▁ᏄᏂᎦᏙᎥᏒᎾ	-11.677
▁ᏅᏓᎨᏥᏅᏏᏛ	-11.677
▁ᏅᏓᏍᏛᏴᏁᎵ	-11.677
▁ᏅᏩᏍᏗᏗᏎᏍᏗᏉ	-11.677
▁ᏈᏯᏏᏱᏆ	-11.677
▁ᏍᏆᏎᎵᏓᏁᎸᎢ	-11.677
▁ᏍᏆᏎᎵᏓᏏ	-11.677
▁ᏐᎣᏁᎵᏁ	-11.677
▁ᏓᎦᏥᏁᏉᎢ	-11.677
▁ᏓᎪᏄᎶᏏᏙᎮᏍᏗ	-11.677
▁ᏓᎵᏖᎸᏂᏙᎮᏍᏗ	-11.677
▁ᏓᎾᏦᏍᎬ	-11.677
▁ᏓᏂᏍᏔᏲᎯᎲ	-11.677
▁ᏓᏂᏏᎳᏛᎥᏍᎨ	-11.677
▁ᏓᏆᏚᏫᏍᏔᏅᎩ	-11.677
▁ᏓᏓᏬᏍᏗᏍᎬᎩ	-11.677
▁ᏓᏛᎯᏍᏓᏁᎮᏍᏗ	-11.677
▁ᏔᏓᏅᏗᏍᏓ	-11.677
▁ᏕᎦᎶᎴᎬᎢ	-11.677
▁ᏕᏥᏅᎪᎥᏗᏍᎨᏍᏗ	-11.677
▁ᏕᏥᏅᏫᏍᎨᏍᏗ	-11.677
▁ᏗᎧᏃᏩᏛᏍᏗ	-11.677
▁ᏗᎩᎸᏫᏍᏓᏁᎯ	-11.677
▁ᏗᎩᏄᎪᏨ	-11.677
▁ᏗᏓᏙᏪᏙᎥ	-11.677
▁ᏙᏓᎨᏥᏲᎯᏎᎵ	-11.677
▁ᏙᏗᏂᏁᎸᎢ	-11.677
▁ᏙᏛᎩᎸᏫᏍᏓᏁᎵ	-11.677
▁ᏚᎧᏙᏍᏕ	-11.677
▁ᏚᎾᏁᏢᏔᏅᏒᎢ	-11.677
▁ᏚᏂᎦᏘᎸᏎ	-11.677
▁ᏚᏂᏖᎸᏁ	-11.677
▁ᏚᏃᏣᎶᏤ	-11.677
▁ᏠᏆᎹ	-11.677
▁ᏣᏗᏫᏍᏓ	-11.677
▁ᏥᏅᏓᎦᎵᏍᏔᏂ	-11.677
▁ᏧᎦᏎᏍᏗᏕᎩ	-11.677
▁ᏧᎾᏕᏠᏆᏍᏗ	-11.677
▁ᏧᏃᏕᏍᏗᏍᎩ	-11.677
▁ᏮᏓᎦᎶᏏ	-11.677
▁ᏯᏓᏬᏍᎨᏍᏗ	-11.677
▁ᏱᏄᎵᏍᏔᏃ	-11.677
▁ᏱᏙᎬᏩᎸᏫᏍᏓᏏ	-11.677
▁ᏱᏚᏓᏌᏝᎮᏍᏗ	-11.677
▁ᏱᏚᏪᏘᎸ	-11.677
▁ᏱᏨᏲᏪᎳᏁᎭ	-11.677
▁ᏳᎾᏛᏅᎢᏍᏗ	-11.677
▁ᏳᏍᎦᏅᏨ	-11.677
▁ᏴᎬᏂᎷᎩ	-11.677
ᎵᏰᏑᏍᏚᏬ	-11.677
▁ᎠᎦᏘᏗᏍᏙᏗ	-11.677
▁ᎠᎵᏔᏬᏍ	-11.677
▁ᎠᏂᏫᏄᏣ	-11.677
▁ᎠᏍᏈᏅ	-11.677
▁ᎤᏓᎵᏁᎯᏕ	-11.677
▁ᎬᏩᏛᎡᎴᏍᏗ	-11.677
▁ᏂᏚᎿᏍᏕᏢᎾ	-11.677
▁ᏙᎦᏠᏒᎩ	-11.677
▁ᏚᎾᏠᏱᎴᎢ	-11.677
▁ᏩᏂᎦᏖᎢ	-11.677
▁ᏱᏚᏛᏓᏍᏓᏁᎴᎢ	-11.677
ᏥᏍᎩᏅᏛᎯ	-11.677
▁ᎠᎩᏔᏕᎩᎠ	-11.677
▁ᎠᎾᎵᏙᎩᏯᏍᎩ	-11.677
▁ᎠᎾᏓᏌᎩᏙᎲ	-11.677
▁ᎠᏂᎫᏌᏩᎩ	-11.677
▁ᎢᏍᏉᏎᎭ	-11.677
▁ᎤᎦᏑᎲᎢ	-11.677
▁ᎤᎦᏛᎴᎯᏍᏗᏱ	-11.677
▁ᎤᎾᏓᏙᎵᏍᏓᏁᎴ	-11.677
▁ᎤᏓᏏᏂᏕᏅ	-11.677
▁ᎤᏦᏔᎮ	-11.677
▁ᎬᏩᏄᎸᏗ	-11.677
▁ᏂᏥᏲᎯᏍᏗᏍᎬᎾ	-11.677
▁ᏇᏣᏱᏗ	-11.677
▁ᏍᎩᏯᏅᏓᏗᏍᎬᎢ	-11.677
▁ᏍᎩᏲᎢᏳᎲᎦ	-11.677
▁ᏑᎧᏔ	-11.677
▁ᏕᏦᏢᎯᏏ	-11.677
▁ᏗᎩᎧᏁᎸᎯ	-11.677
▁ᏗᎾᏓᏬᏍᎩ	-11.677
▁ᏣᏍᏕᏅᏨ	-11.677
▁ᏥᏂᏴᏁᎭ	-11.677
▁ᏥᏓᎾᏕᏲᎲᏍ	-11.677
▁ᏦᎧᏔᏂ	-11.677
▁ᏧᎾᏓᏟᏴᏗ	-11.677
▁ᏨᏓᎬᏯᏎᎮᎵ	-11.677
▁ᏫᏙᏓᏨᏯ	-11.677
ᏍᏇᎵᏰᏗ	-11.677
▁ᎠᎩᏲᎱᏏᏗ	-11.677
▁ᎠᎻᏗᏏ	-11.677
▁ᎠᎾᏓᎩᎡᎯ	-11.677
▁ᎠᏇᏙᏅ	-11.677
▁ᎠᏓᏅᏖᏍᎩ	-11.677
▁ᎠᏥᏂᏌᎲ	-11.677
▁ᎢᏨᏂᏌᏛ	-11.677
▁ᎢᏯᏂᏪᏍᎩ	-11.677
▁ᎤᏉᏔᏗ	-11.677
▁ᎤᏖᎸᏁ	-11.677
▁ᎤᏙᎴᎱ	-11.677
▁ᎬᏩᎵᏃᎮᏔᏁ	-11.677
▁ᎯᏯᏛᎥᎦ	-11.677
▁ᏄᎵᏁᏨ	-11.677
▁ᏄᎸᏉᏔᏅᎾ	-11.677
▁ᏍᎩᎨᏳᎭᏧ	-11.677
▁ᏓᎦᏓᏅᏏ	-11.677
▁ᏓᎬᏯᎫᏴᎡᎵ	-11.677
▁ᏓᏍᏆᎸᎮᎬᎢ	-11.677
▁ᏕᏓᎧᏂᏍᎬ	-11.677
▁ᏗᏂᎭᏲᎯ	-11.677
▁ᏙᏧᏁᏅᏒ	-11.677
▁ᏣᏂᎦᏴᎵ	-11.677
▁ᏥᏂᎦᏛᏁᎭ	-11.677
▁ᏦᎩᎦᏴᎵᎨᎢ	-11.677
▁ᏩᏐᏝ	-11.677
▁ᏱᏄᏓᎠ	-11.677
ᏍᏇᏲᎲᎦ	-11.677
ᏤᏲᎲᏍᎦ	-11.677
▁ᎠᏓᏍᏕᎸᏓ	-11.677
▁ᎤᎵᏍᎦᏎ	-11.677
▁ᎤᏂᏍᏛᏛᎯ	-11.677
▁ᎤᏓᏁᏟᏴᏍᏔᏁᎴ	-11.677
▁ᎤᏲᏏᏌᏁᎢ	-11.677
▁ᎪᎸᏌᏛᏗ	-11.677
▁ᏂᏚᎾᏑᎴᎲᎾ	-11.677
▁ᏅᏓᏲᏣᏛᏁᎵ	-11.677
▁ᏍᏇᎵᏎᏗᏱ	-11.677
▁ᏕᎱᎪ	-11.677
▁ᏗᎦᎸᏉᏔᏅᎯ	-11.677
▁ᏗᎧᏃᎩᏓ	-11.677
▁ᏗᎾᎵᏍᏓᏴᏂ	-11.677
▁ᏗᏂᏏᎲᏍᎩ	-11.677
▁ᏗᏲᎳᏅᎯ	-11.677
▁ᏚᏟᎶᏍᏓᏁᎸᎩ	-11.677
▁ᏥᏫᏗᎨᎦᏘᏅᏍᏔᏁ	-11.677
▁ᎠᎩᏔᎳᏬᏍᎬ	-11.677
▁ᎢᏨᏁᏤᎸᎢ	-11.677
▁ᎢᏲᎦᏛᏁᏗᏱ	-11.677
▁ᎤᏁᎳᎥᎯ	-11.677
▁ᎤᏃᎱᎦᏅ	-11.677
▁ᎤᏩᎢᏎᎸᎯ	-11.677
▁ᎾᏂᏴᎬᎾ	-11.677
▁ᏄᎪᎸᎾ	-11.677
▁ᏙᏛᏂᏲᎯᏎᎵ	-11.677
▁ᏧᏕᏲᏗᏱ	-11.677
▁ᎠᎩᎳᏫᏍᏗᏱ	-11.677
▁ᎡᎵᏍᏓᎦ	-11.677
▁ᎤᏕᏯᏔᏁᎸ	-11.677
▁ᏕᎬᏗᏰ	-11.677
▁ᏫᎷᏨᎭ	-11.677
ᏗᎨᏥᏰᎪᎢ	-11.677
▁ᎡᏣᏁᎳᏁᎸ	-11.677
▁ᏄᎵᏍᏚᎸᎾ	-11.677
▁ᏴᎨᏦᎯᏳᎲᎦ	-11.677
ᏓᏅᏖᏔᏂ	-11.677
ᏓᏓᎴᏔᏂ	-11.677
▁ᎠᏂᏇᎵᏏ	-11.677
▁ᎢᏣᏛᎿᏕᎩ	-11.677
▁ᎤᏍᏆᎷᎪ	-11.677
▁ᎻᎴᎳ	-11.677
▁ᏈᏥᏱ	-11.677
▁ᏍᎩᎦᏘᏰᏍᏗ	-11.677
▁ᏕᎱᏓ	-11.677
▁ᏚᏂᎵᏬᏨᎩ	-11.677
▁ᏚᏍᏕᎸᎯᎸ	-11.677
▁ᏚᏬᏑᎴ	-11.677
▁ᏚᏰᎵᎯᏍᏔᏁ	-11.677
▁ᏩᏓᏁᏟᏴᏍᏓ	-11.677
▁ᏫᏴᎨᏥᎷᎩ	-11.677
▁ᏬᎩᏃᎸᎩ	-11.677
▁ᎠᏆᏙᎴᎰᎯᏍᏗᏱ	-11.677
▁ᏓᎾᏗᏔᏍᏗᏍᎨ	-11.677
▁ᏭᏪᏙᎴᎢ	-11.677
per	-11.677
ᎯᎬᏍᎪᎸᎥᏍᎨᏍᏗ	-11.677
▁ᎢᏓᎢᏎᏍᏗ	-11.677
▁ᎤᎾᏗᏒᎸ	-11.677
▁ᎤᏚᏣᎳᏅᎩ	-11.677
▁ᏂᏚᎾᎵᏂᎬᎬ	-11.677
▁ᏄᎵᏍᏔᏂᏙᎴ	-11.677
▁ᏙᏓᏰᏣᏬᏍᏔᏂ	-11.677
▁ᏦᏓᎻ	-11.677
▁ᏮᏓᎦᏙᎴᎣᏏ	-11.677
▁ᎠᎫᏴᎡᏗᏱ	-11.677
▁ᎡᏦᎯᏳᎲᏍ	-11.677
▁ᎤᎾᏕᏯᏔᏁᎴᎢ	-11.677
▁ᎤᏂᏖᎸᏅ	-11.677
▁ᏗᏋᏅ	-11.677
▁ᏚᎵᏘᎾᎥ	-11.677
▁ᏥᎨᏳᎠ	-11.677
▁ᏧᎳᏏᏗᏱ	-11.677
▁ᎣᏌᏯ	-11.677
▁ᎤᎾᎵᏛᏔᏅ	-11.677
▁ᎤᏙᏣᎸᎢ	-11.677
▁ᎨᎩᏍᎦᎩ	-11.677
▁ᎯᏅᎦᎸ	-11.677
▁ᏂᏙᏓᎦᏪᏎᎵ	-11.677
▁ᏍᏓᎵᎢ	-11.677
▁ᏗᏂᏍᏔᏲᎯ	-11.677
▁ᏩᎦᏘᏅᏍᏙᏗᏱ	-11.677
ᎩᏲᎱᏎᎲᎩ	-11.677
▁ᏚᏰᎵᏒ	-11.677
▁ᏥᏚᏃᎱᎦᏁ	-11.677
▁ᎢᏥᎪᎵᏰᎥᎭ	-11.677
▁ᎤᎾᏣᏪᏐᎸᏍᏙᏗᏱ	-11.677
▁ᎤᏬᎦᏒ	-11.677
▁ᎾᏂᎦᏔᎾᎥᎾ	-11.677
▁ᏣᎷᎯᏍᏗᏱ	-11.677
ᎣᏍᏛ	-11.677
▁ᎠᏂᏃᏟᏙ	-11.677
▁ᎠᏕᏘᏱᏍᎬ	-11.677
▁ᎢᎩᏇᏓᎸ	-11.677
▁ᎦᏨᏩᏍᏔᏅᎯ	-11.677
▁ᎬᏩᎪᎵᏰᏍᎬ	-11.677
▁ᏗᎬᏩᎾᏛᎪᏙᏗ	-11.677
▁ᏙᎩᎾᏗᏔᎲ	-11.677
▁ᏦᎯᏳᎭ	-11.677
▁ᏂᏙᏓᎬᏁᎵ	-11.677
▁ᏄᏂᏍᎦᏅᏨᎾ	-11.677
▁ᏓᏱᏓᎵ	-11.677
▁ᎢᏣᏛᎩᏍᎨᏍᏗ	-11.677
▁ᎤᎾᏕᎶᏆᏍᏗᏱ	-11.677
▁ᎠᎶᎻ	-11.677
▁ᏓᏍᏕᎵᏍᎬᎩ	-11.677
▁ᏓᏤᏅᎡᎵ	-11.677
▁ᏕᎯᏯᏁᎶᏕᏍᏗ	-11.677
▁ᏧᏁᎩᏳ	-11.677
▁ᏳᏂᏬᏂᏌ	-11.677
ᏬᏁᏓ	-11.677
▁ᎤᏎᎵᏓᏁᎴᏃ	-11.677
▁ᎤᏅᏘᏛ	-11.677
▁ᏕᎧᏃᎮᏍᎬ	-11.677
▁ᏚᎳᏫᏛ	-11.677
▁ᏧᏄᎪᏤᎢ	-11.677
▁ᎠᎵᏃᎮᏗᏍᎬᎢ	-11.677
▁ᎠᏂᎾᎷᏍ	-11.677
▁ᏱᏅᏓᎦᎵᏍᏙᏓ	-11.677
▁ᏂᏨᎾᏛ	-11.677
ᏓᎴᏴᏗᏍᎩ	-11.677
ᏨᏉᏛᎾ	-11.677
▁ᎢᏣᏛᎩᏍᎬᎢ	-11.677
ᎩᎵᏲᏥᏙᎸᎢ	-11.677
ᎱᏢᏔᏅᎭ	-11.677
ᏲᎱᎯᏎᎴᎢ	-11.677
▁ᎤᏓᏦᎯᏯ	-11.677
▁ᎾᎾᏓᏛᏍᎬᎾ	-11.677
▁ᏗᏧᎪᏗᏍᎩ	-11.677
▁ᏛᏓᎸᎢ	-11.677
▁ᎧᏁᏉᏥᏎ	-11.677
▁ᏗᎾᏓᏙᏕᏍᏗᏍᎩ	-11.677
▁ᏧᏃᏑᎴᏗ	-11.677
ᏙᏥᎵᏦᏛᎦ	-11.677
▁ᎤᎾᏘᏍᏙᏗᏱ	-11.677
▁ᏅᏓᏨᏴᏁᎵ	-11.677
▁ᎣᏥᏯᎥ	-11.677
▁ᎤᎾᏓᏓᏍᎩᏌᎲ	-11.677
▁ᎦᎨᏥᏐᏢ	-11.677
▁ᏄᎾᏙᏓᏈᏒ	-11.677
▁ᏯᏥᏯᏝ	-11.677
ᏍᏚᎢᏏ	-11.677
▁ᎠᎬᏔᏅᏛ	-11.677
▁ᎠᏐᏢᎢᏍᏗᏍᎨᏍᏗ	-11.677
▁ᎠᏰᎴᎩ	-11.677
▁ᎤᏗᏛᎲᎩ	-11.677
▁ᏕᎨᎦᏨᏍᏔ	-11.677
▁ᏚᎾᎵᏯᏍᏚ	-11.677
▁ᏛᎵᏛᏔᏂ	-11.677
▁ᏄᎵᏌ	-11.6771
▁ᎠᏂᏂᎩᎸ	-11.6771
▁ᎠᏃᏢᏅᎥᏍᎩ	-11.6771
▁ᏄᏂᏧᏈᏍᏕᏍᏗ	-11.6771
▁ᏅᏗᎦᏪ	-11.6771
▁ᏧᎾᏛᏒᎯ	-11.6771
▁ᎠᏍᏚᎢᏛ	-11.6771
▁ᏛᎬᏯᏘᏃ	-11.6771
ᏨᏯᏛᏛᏂ	-11.6771
▁ᏗᎬᏩᏂᏯᎢ	-11.6771
▁ᏧᎧᏃᏗᏱ	-11.6771
▁ᏃᎩᏪᏒᎩ	-11.6771
▁ᏅᏗᏛᏁᎵᏒ	-11.6771
▁ᎠᎩᏁᏉᏤ	-11.6771
▁ᎠᏂᏁᎢᏍᏗᏍᎩ	-11.6771
▁ᎤᏟᏃᎮᏔᏁᎢ	-11.6771
▁ᏂᎨᏣᏛᏁᎮᏍᏗ	-11.6771
▁ᏓᏳᏂᏄᎪᏨᎩ	-11.6771
▁ᏥᏄᎾᏍᏛᎢ	-11.6771
▁ᏧᎵᏠᏯᏍ	-11.6771
▁ᎦᏴᏓᏗ	-11.6771
▁ᏒᎦᏙᎯ	-11.6771
▁ᎤᏍᏘᏰᎩ	-11.6771
▁ᎦᏢᏍᎩ	-11.6771
ᏣᏓᏅᎡᎸ	-11.6771
▁ᎤᏆᎶᎦ	-11.6771
▁ᏂᎦᎷᎶᎬᎾ	-11.6771
▁ᏕᎦᏕᏲᎲᏍᎬ	-11.6771
▁ᏣᎦᏥᎶᏍᏔᏅ	-11.6771
ᏕᏯᏔᏁᎭ	-11.6771
▁ᏣᎪᏎᎰᎢ	-11.6771
▁ᎠᎵᏱᎶᎸᎭ	-11.6771
▁ᎾᏆᎵᏍᏓᏁᎵᏕᎬ	-11.6771
▁ᏅᏓᏥᏯᏛᏁᎵ	-11.6771
▁ᎧᏂᎨᏂ	-11.6771
▁ᏗᎩᎪᎶᎯ	-11.6771
▁ᏚᎵᏥᏙᏁᎴᎢ	-11.6771
▁ᎤᏄᏬᎥᎯ	-11.6771
▁ᏙᎩᏃᏢ	-11.6771
▁ᏰᏦᏎᎮᏍᏗ	-11.6771
▁ᎦᏅᏃᏫ	-11.6771
▁ᏗᎫᎪᏗᏱ	-11.6771
ᏍᏚᎢᎡᎴ	-11.6771
▁ᎢᏨᏁᏤᎭ	-11.6771
▁ᏄᏓᏅᏛᎾ	-11.6771
▁ᎡᏣᏁᏍᎨᎲᎯ	-11.6771
▁ᎠᏆᎵᏂᎬᎬᎢ	-11.6771
▁ᎡᏣᎵᎡᎵᏤᎮᏍᏗ	-11.6771
▁ᎤᎾᎵᏍᏓᏴᏃᏅ	-11.6771
▁ᏓᏂᎾᏌᏛ	-11.6771
▁ᏗᏥᏅᏍᎨᏂ	-11.6771
▁ᏙᏘᏲᎢ	-11.6771
▁ᎠᎩᏔᏕᎩᏍᎬ	-11.6771
▁ᎢᏨᏯᏅᏓᏗᏍᏗᏍᎬᎢ	-11.6771
▁ᎠᎵᏍᏆᏛᎭ	-11.6771
▁ᎢᏣᎵᏂᎬᏁ	-11.6771
▁ᏂᎦᎵᏍᏔᏂᏙᎮᏍᏗ	-11.6771
▁ᏧᏓᏅᎵᏰᏓ	-11.6771
▁ᏙᏂᏍᎩ	-11.6771
ᏧᎾᏚᎩᏎ	-11.6771
▁ᎹᏈᎳ	-11.6771
▁ᎾᏓᏛᏁᎲᎢ	-11.6771
▁ᏂᏕᎦᏅᎯᏒᎩ	-11.6771
ᏓᏂᏲᎰᏍᎪ	-11.6771
▁ᎢᏥᎾᏫ	-11.6771
▁ᎤᏂᎾᏰᏒᎩ	-11.6771
▁ᏄᎾᏓᏁᏟᏴᏎᎢ	-11.6771
▁ᏄᏲᎱᏒᎩ	-11.6771
▁ᎠᏆᏍᎦᏱ	-11.6771
ᎾᎪᏄᎸ	-11.6771
▁ᏓᎳᎳ	-11.6771
▁ᏗᏓᎪᏗᏍᎩ	-11.6771
▁ᎤᏓᏅᏓᏛᎢ	-11.6771
▁ᏥᏓᏓᏂᎸᎪᎢ	-11.6771
ᎳᏫᏎᎮᏍᏗ	-11.6771
ᎳᏫᏎᏗ	-11.6771
▁ᎾᏂᎦᏔᎿᎥᎾ	-11.6771
▁ᏫᏨᏲᎵ	-11.6771
▁ᏗᏠᏗ	-11.6771
▁ᏘᏍᏓᏩᏚᎦ	-11.6771
▁ᎢᏏᎳᎻ	-11.6771
▁ᎢᏳᎾᎵᏍᏔᏁᏗ	-11.6771
▁ᏫᏚᎾᏘᏃᎮᎸᎩ	-11.6771
ᎬᏲᏎᏗ	-11.6771
▁ᏕᎤᎸᏫᏍᏓᏁᎸ	-11.6771
▁ᎾᏐᏂ	-11.6771
▁ᎤᎧᎵᏦᏅ	-11.6771
▁ᎦᏃᎯᎸᏍ	-11.6771
▁ᏛᎩᏲᎵ	-11.6771
▁ᎠᏍᎪᎩᏍᎬ	-11.6771
▁ᎠᏁᏦ	-11.6771
▁ᎤᎾᏦᏍᏔᏁ	-11.6771
▁ᏁᏙᎲᎾ	-11.6771
▁ᏅᏓᏳᏪᏒᎩ	-11.6771
▁ᏧᎾᎳᏏᏕᏄᎶᏗ	-11.6771
▁ᏫᏚᏂᏴᏍᏗᏱ	-11.6771
ᎫᎪᏓᏁᏗ	-11.6771
▁ᎠᏂᏲᎵᎮ	-11.6771
ᏥᏲᎤᎯ	-11.6771
▁ᏬᏥᎦᏛ	-11.6771
ᎳᏍᏕᎵᏴᏌ	-11.6771
ᏢᏥᏰᏍ	-11.6771
▁ᎤᏍᎦᎢᏓ	-11.6771
▁ᎠᏆᏁᎳᏫᏎ	-11.6771
▁ᏥᎾᏂᎥ	-11.6771
▁ᏱᏩᏍᏔ	-11.6771
▁ᏧᎾᎳᏏᏕᏅ	-11.6771
▁ᎤᏪᏣᏄ	-11.6771
▁ᎠᎪᏩᏘᏍᎩ	-11.6771
▁ᎤᏅᏫᏍᏗᏍᎩ	-11.6771
▁ᏅᏧᏪᏎᎴᎢ	-11.6771
ᏃᏣᏝ	-11.6771
▁ᏳᏍᏆᎸ	-11.6771
▁ᎤᏁᏢᏔᏅᏒᎢ	-11.6771
▁ᎠᎨᎾᏂ	-11.6771
▁ᏍᎩᏯᏛᏓᏍᏓᏏ	-11.6771
▁ᏧᎵᏍᏆᎵ	-11.6771
ᏪᏎᎢ	-11.6771
ᏗᎩᏴᎩ	-11.6771
▁ᎤᏗᎴᎲᏍᎨᎢ	-11.6771
▁ᎢᏣᏛᏓᏍᏗᏍ	-11.6771
ᏓᏲᎵᏍᏗ	-11.6771
▁ᎤᎵᏒᏍᏔᏁᎢ	-11.6771
ᎵᎯᎮᎢ	-11.6771
▁ᎤᏃᏴᎳᏒ	-11.6771
▁ᎠᎾᏓᎸᏉᏗᏍᎩ	-11.6771
ᎩᏍᏚᎲᎩ	-11.6772
▁ᏕᎦᎦᏙᏍᏛ	-11.6772
▁ᏚᏂᏎᎪᎩᏎ	-11.6772
▁ᏍᏗᎩᏓ	-11.6772
▁ᎬᏩᏍᏆᏗᏍ	-11.6772
▁ᎠᏍᏆᎾᎸ	-11.6772
▁ᏏᏗᎻ	-11.6772
▁ᎠᎢᏗᏢ	-11.6772
▁ᎤᎾᏁᎳᏛ	-11.6772
▁ᏓᏳᏠᎠᏒᎩ	-11.6772
▁ᏥᎦᏙᎦ	-11.6772
▁ᎢᎨᏓᏍᏗᏱ	-11.6772
▁ᎢᏥᎪᏙᏍᎨᏍᏗ	-11.6772
▁ᎢᎪᎯᏳᏒ	-11.6772
▁ᏚᏂᏲᏏᏍᎬ	-11.6772
▁ᏧᏲᏍᏔᏅᎯ	-11.6772
▁ᎠᏉᎵᏨ	-11.6772
▁ᎢᏨᏲᎵᎦ	-11.6772
ᎩᎵᏲᎨᏍᏗ	-11.6772
▁ᎣᏣᏓᏅᏟ	-11.6772
▁ᏂᏗᏨᎦ	-11.6772
ᏍᎦᎳᏤ	-11.6772
▁ᏗᏓᏟᎶᏍᏔᏅ	-11.6772
ᎭᏄᏫ	-11.6772
▁ᎠᏓᏅᏬᎯᏍᏗᏍᎩ	-11.6772
▁ᎤᎯᏌᏛ	-11.6772
▁ᏕᎤᏲᎯᏎᎴᎢ	-11.6772
▁ᏚᏥᎸᏒ	-11.6772
▁ᏭᏗᏢᏍᏔᏅ	-11.6772
▁ᎢᏣᏓᏅᏓᏓ	-11.6772
▁ᏓᏥᎾᏄᎪᏫᏎᎵ	-11.6772
▁ᏕᎭᏘᏁ	-11.6772
▁ᏚᏩᎢᏢ	-11.6772
▁ᎢᏥᏁᎢᏍᏗᏱ	-11.6772
▁ᎢᏥᏲᎮᏍᏗ	-11.6772
▁ᎥᎩᏂᎵ	-11.6772
▁ᎤᏓᏅᎵᏰᏓ	-11.6772
▁ᎾᎾᎵᏍᏗᎭ	-11.6772
▁ᏱᎯᎦᏔᎮ	-11.6772
▁ᎠᏎᎵᏛᏍᎬ	-11.6772
▁ᏕᎦᏆᏛ	-11.6772
▁ᎤᏂᏲᎢᏎᎸᎯ	-11.6772
▁ᎡᏥᎸᏉᏗᏍᎨᏍᏗ	-11.6772
▁ᎠᎩᏁᎫ	-11.6772
▁ᎠᏯᏂᎭ	-11.6772
▁ᎠᏉᎯᏳᎲᏍᎨᏍᏗ	-11.6772
▁ᎥᏆᏬᏍᏙᏗ	-11.6772
▁ᏚᏂᎳᏫᏦᎴ	-11.6772
▁ᎤᏰᎸᏐᎢ	-11.6772
▁ᎤᎾᎵᏍᏔᏴᏅ	-11.6772
▁ᎤᏂᏄᎪᎢᏍᏗ	-11.6772
▁ᏳᏂᏃᎮᎸ	-11.6772
▁ᎠᎾᎵᏍᏓᏴᎲᏍᎩ	-11.6772
ᎬᏑᎶᏙᏗ	-11.6772
▁ᎠᎩᏁᎢᏍᏔᏅ	-11.6772
▁ᏌᎳᏓᏱᎵ	-11.6772
▁ᏫᏍᎩᏩᎯᏏ	-11.6772
▁ᎠᏓᏓᏱᎮᏍᏗ	-11.6772
▁ᎠᏧ	-11.6772
▁ᏫᏚᎵᏍᏘᏂᎸ	-11.6772
ᏟᎶᏍᏔᏂ	-11.6772
▁ᎣᎦᏂᎩᏒᎩ	-11.6772
▁ᏫᎬᎷᏤᏗᏱ	-11.6772
▁ᏅᏓᏳᎾᏄᎪᎢᏍᏗ	-11.6772
▁ᏦᏥᏰᎸ	-11.6772
▁ᎫᏘᏍᎬ	-11.6772
▁ᏱᎦᏂᏆᏘᎭ	-11.6772
ost	-11.6772
▁ᏚᎾᏂᏏᏁᎢ	-11.6772
▁ᎠᎾᎵᏍᏔᏴᎲᏍᎬ	-11.6772
▁ᏓᏰᏥᎪᎢ	-11.6772
▁ᏗᎾᏓᎯᎯ	-11.6772
▁ᏕᏣᏏᎳᏛ	-11.6772
▁ᏫᏓᏂᎷᎦ	-11.6772
▁ᎢᏍᎩᎪᏩᏘᏍᎨᏍᏗ	-11.6773
▁ᎤᎾᏁᎶᏔᏁ	-11.6773
▁ᏓᏉᏙᎥ	-11.6773
ᏕᎰᏍᎬᎾ	-11.6773
▁ᏓᏆᎭᏄᏮ	-11.6773
er	-11.6773
▁ᎦᎾᏜᎢ	-11.6773
ᏰᎦᏟ	-11.6773
ᏲᎱᏒᎾ	-11.6773
▁ᎤᏛᎯᏍᏔᏅ	-11.6773
▁ᎢᏨᏍᏓᏩᏕᏅ	-11.6773
▁ᏌᏗᏏ	-11.6773
▁ᏅᏛᎴᏅᏛ	-11.6773
▁ᏧᎾᎭᎾᏬ	-11.6773
ᎠᏎᏗ	-11.6773
▁ᎠᏆᏛᏐᏅᎯ	-11.6773
▁ᎤᏁᏍᎨᎴ	-11.6773
ᏦᎣᏍᏙᏗ	-11.6773
▁ᏄᏯᎩ	-11.6773
ᎶᏄᎮᎸᎩ	-11.6773
▁ᏓᏘᎭᏁᎲ	-11.6773
▁ᏓᏳᏗᏩᏏ	-11.6773
▁ᎤᏛᎸᎮ	-11.6773
▁ᏗᏓᏠᏍᏗ	-11.6773
▁ᎤᏓᏬᎡ	-11.6773
ᎵᏍᏓᏁᎵᏕᎬ	-11.6773
▁ᎣᎦᏁᎳᎩ	-11.6773
▁ᏐᏆᎵ	-11.6773
▁ᏫᏗᏍᎩᏯᏅᏏ	-11.6773
ᏣᎦᏎᏍᏓ	-11.6773
▁ᏙᏓᏲᏣ	-11.6773
▁ᎢᎫᏓᎴᏍᏗᏱ	-11.6773
▁ᎢᎨᎳᏗᏙᎭ	-11.6773
▁ᎢᏣᏓᏄᎸᏗ	-11.6773
▁ᏱᏍᎩᎪᏩᏘᏍᎨᏍᏗ	-11.6773
▁ᎠᏍᏙᏓ	-11.6773
▁ᎢᎤᏂᎷᏨ	-11.6773
▁ᏳᏓᏅᏒ	-11.6773
▁ᎣᏦᎯᏳᎲᏍᎦ	-11.6773
▁ᏕᎦᏯᎸ	-11.6773
▁ᎢᏰᏨᏁᏗᏱ	-11.6773
▁ᎭᎵᏍᏓᏴᎲᎦ	-11.6773
▁ᏳᏥᏍᎪᎸ	-11.6773
▁ᎠᏉᎯᏳᎲᏍᎩ	-11.6773
▁ᏥᏂᎬᏁᎭ	-11.6773
▁ᏱᏂᎬᏩᏍᏗᏉ	-11.6773
▁ᎢᏣᏗᏔᏍᎨᏍᏗ	-11.6773
▁ᏙᏥᏲᎦ	-11.6773
▁ᏗᏂᏂᎨ	-11.6774
▁ᏧᏟᏴ	-11.6774
▁ᎤᏩᏴᏒ	-11.6774
▁ᎢᎪᎯᏳᏅ	-11.6774
▁ᎠᏆᏎᎵᏙᏔᏅ	-11.6774
▁ᎡᎳᏆᏘ	-11.6774
▁ᏴᎨᏤ	-11.6774
▁ᏚᎾᏠᏱᎸᎩ	-11.6774
▁ᎢᏳᎾᏓᎵ	-11.6774
▁ᏗᎬᏩᏂᎾᏝᎢ	-11.6774
▁ᏕᏥᏁᏤᎮᏍᏗ	-11.6774
ᎵᏍᏔᏁᏍᏗ	-11.6774
▁ᎠᎦᏘᏅᏍᏗᏱ	-11.6774
▁ᎤᎵᏏᏂᏕᎾ	-11.6774
▁ᏥᏥᏃᎮᎭ	-11.6774
▁ᎤᏗᎦᎵᏍᏙᏗᏍᎨ	-11.6774
▁ᏂᏥᎾᏰᏍᎬᎾ	-11.6774
▁ᎤᎾᏓᏅᎡᎸᎩ	-11.6774
▁ᏯᎩᎸᏉᏗ	-11.6774
ᏍᏓᏩᏕᎦ	-11.6774
▁ᏚᏰᎵᏏᏙᎴᎢ	-11.6774
▁ᎠᏆᏣᏅᏓᏕ	-11.6774
▁ᏥᎩᎵᎵ	-11.6774
▁ᏴᏗᏓᎴᎲᏍᎦ	-11.6774
▁ᏍᏆᏕᏁᎸ	-11.6774
▁ᎡᏣᏓᏅᏛᎵ	-11.6774
▁ᎤᏙᎵᏍᏙ	-11.6774
▁ᏚᏍᏚᏤ	-11.6774
ᎨᎲᏒᎩ	-11.6774
▁ᏚᏂᏃᎸᎩ	-11.6774
▁ᎦᎸᎳ	-11.6774
▁ᎢᎬᏴᏁᏗᏱ	-11.6774
▁ᏕᏣᏓᏅᏖᏍᏗ	-11.6774
▁ᏓᎾᎴᎯᏌᏅ	-11.6774
▁ᎤᏩᏃᏫᏍ	-11.6774
ᎥᏍᎩᏱᎩ	-11.6774
▁ᏕᏣᏓᎨᏳᏒ	-11.6774
▁ᏗᎦᏅᏆᎶ	-11.6774
▁ᏕᏣᎸᏫᏍᏓᏁᎮᏍᏗ	-11.6774
▁ᎠᎦᏘᏱ	-11.6775
▁ᏥᏗᎧᎸᎪ	-11.6775
ᎾᏣᏪᏐᎸᏍᏙᏗ	-11.6775
▁ᎢᏥᏫᏅ	-11.6775
▁ᏭᎦᏔᎲᏍᏔᏅ	-11.6775
▁ᎤᎩᎴᏍᏗ	-11.6775
▁ᎦᏓᏙᎵᏍᏗᏍᎨᏍᏗ	-11.6775
▁ᎠᎾᏙᎴᎰᏍᎨᏍᏗ	-11.6775
▁ᎢᏗᎬᏓ	-11.6775
▁ᏥᎨᎳᏗᏙᎮ	-11.6775
▁ᏯᏬᏅ	-11.6775
▁ᎠᏱᏍᎨᏍᏗ	-11.6775
▁ᏌᎵᎹ	-11.6775
▁ᏚᏃᎯᏳ	-11.6775
▁ᏭᎵᏰᎢᎶᎸ	-11.6775
▁ᏍᎩᏯᏓᏅᏏ	-11.6775
▁ᎠᏕᏄ	-11.6775
▁ᎢᏥᏂᎬᏎᎲᎢ	-11.6775
▁ᎹᏚ	-11.6775
▁ᏓᏳᏍᏕᎸᎯ	-11.6775
ᏓᏚᎪᏓᏁᎭ	-11.6775
▁ᎢᎬᎾᏕ	-11.6775
▁ᏭᏂᎧᏁ	-11.6775
▁ᎦᎶᏐᏅ	-11.6775
▁ᎠᏕᎰᎯᏍᏗ	-11.6775
▁ᎤᏃᏒᏅ	-11.6775
▁ᏗᏣᏠᏱᎸᎩ	-11.6775
▁ᎦᏁᏐᎠᏍᎬ	-11.6775
▁ᎨᏣᎵᏍᏕᎸᏙᏗ	-11.6775
▁ᏗᎬᏣᏝᏅ	-11.6775
▁ᎤᎾᏂᎩᏍᏗ	-11.6775
▁ᏧᏪᏲᏅᎯ	-11.6775
▁ᏫᏨᏲᏪᎳᏁᏗᏱ	-11.6776
▁ᏗᎦᎾᎯᏍᏙᏗ	-11.6776
ᏗᏫᏎᏗ	-11.6776
▁ᏚᏂᏐᏈ	-11.6776
ᏓᏄᏴᏛᎾ	-11.6776
▁ᏗᏤᎵᏏ	-11.6776
▁ᎠᏥᏌᎳᏓᏅ	-11.6776
▁ᏥᎾᏬ	-11.6776
▁ᏚᏅᏫᏍᏔᏅ	-11.6776
▁ᏩᏎᎯ	-11.6776
▁ᎢᏣᏣᏪᏐᎸᏍᏓ	-11.6776
ᏗᏔᏍᏔᏁ	-11.6776
▁ᏗᏂᏂᏙᎯ	-11.6776
ᎩᎩᎡᎵ	-11.6776
▁ᏤᏥᎤᏍᏕᏎᏗᏱ	-11.6776
▁ᏅᏩᏛᏁᏍᏗ	-11.6776
▁ᎢᏨᏲᎢᏳ	-11.6776
▁ᏧᎾᏁᎳᏗᏍᏗᏱ	-11.6776
▁ᎢᏳᏥᎶᏓ	-11.6776
▁ᎣᎩᎾᏟᏃᎮᎸ	-11.6776
ᏃᏪᎳᏁ	-11.6776
▁ᏋᏗᏱ	-11.6776
▁ᎠᎬᏂᏗᏳ	-11.6776
▁ᏥᏄᏪᏎᎴᎢ	-11.6776
▁ᎤᏴᏍᏕᏍᎩ	-11.6776
▁ᏄᏓᎨᏒ	-11.6776
▁ᎢᏣᏛᎪᏗ	-11.6776
▁ᎯᏁᏒᎭ	-11.6777
▁ᎢᏣᏓᏯᏫᏍᎨᏍᏗ	-11.6777
▁ᏫᏄᏒ	-11.6777
▁ᏫᏄᏩᏁᎴ	-11.6777
▁ᏧᏓᎴᏅᏔᏅᎯ	-11.6777
▁ᎢᏨᏯᏛᏁᏗᏱ	-11.6777
▁ᎢᏨᏅᎵ	-11.6777
▁ᏕᏨᏰ	-11.6777
▁ᎠᎦᏬᎥ	-11.6777
▁ᏄᎾᏍᏕᏍᏗ	-11.6777
▁ᎤᏍᏆᏄ	-11.6777
▁ᏚᎾᎵᏂᎬᎬ	-11.6777
▁ᎦᏁᎵᏛ	-11.6777
▁ᏂᎦᏁᎲᎾ	-11.6777
▁ᏗᏣᏚᏙ	-11.6777
ᏢᏈᏍᎦ	-11.6777
▁ᏧᏬᏢᏙᏗ	-11.6777
▁ᏛᎨᏥ	-11.6777
▁ᎤᏍᏆᎸᎯᏗᏒᎩ	-11.6777
▁ᏳᏲᏤᎢ	-11.6777
ᏍᎦᏞᎢ	-11.6777
▁ᎮᎲ	-11.6777
▁ᎤᏓᏅᏓᏛᎩ	-11.6777
▁ᏥᏚᏙᎠ	-11.6777
ᏍᏕᏓᎵᏴᏌ	-11.6777
▁ᎡᏙᏙᏱ	-11.6778
▁ᎤᏂᏏᏁᎢ	-11.6778
▁ᎤᏂᏑᎵᎪᏤ	-11.6778
ᏙᎰᏎ	-11.6778
▁ᏅᏓᏳᏄᎪᏨᎯ	-11.6778
▁ᏱᏙᎦᏰ	-11.6778
▁ᏍᎩᏂᏌᏅᎭ	-11.6778
▁ᎯᏫᏅ	-11.6778
ᎶᏅᎮᎸ	-11.6778
ᏅᎪᏣ	-11.6778
▁ᎠᏅᏍᎬᎢ	-11.6778
▁ᎢᏤᎳᏗᏙᎭ	-11.6778
▁ᎢᏳᏪᏍᏘ	-11.6778
▁ᏣᎾᏓᎾᏏᏂᏙᎭ	-11.6778
▁ᏍᎩᏯᏘᏃᎮᎸᎭ	-11.6778
▁ᏥᎦᎷᎯᏍᏗᎭ	-11.6778
st	-11.6778
ᏎᏒᎮ	-11.6778
▁ᏂᏥᏪᏒᎭ	-11.6778
▁ᏥᏯᎵᎪᏁᎯ	-11.6778
▁ᎬᎩᎷᏤᏗᏱ	-11.6778
▁ᎾᎾᏓᏁᏟᏴᏏᏒ	-11.6778
▁ᎣᏣᏓᏙᎵᏍᏓᏁ	-11.6778
▁ᏱᏦᎵᎦ	-11.6778
ᏴᎳᏎᎢ	-11.6778
▁ᏕᏨᏁᏍᏗ	-11.6778
▁ᏦᏥᎦᏔᎭ	-11.6778
▁ᏱᏄᏩᏁᎸ	-11.6778
▁ᎡᏦᎢᏳᏗᏱ	-11.6778
▁ᎢᏦᎯᏳᏅ	-11.6778
▁ᎾᏥᏪᏎᎸ	-11.6778
▁ᎡᏥᏯᎡᏍᏗ	-11.6778
▁ᎤᎵᏍᏚᎸᎩ	-11.6778
▁ᎠᏂᎵᏫ	-11.6779
▁ᎧᏁᎦ	-11.6779
▁ᎨᏥᏁᎢᏍᏗᏍᎬ	-11.6779
▁ᎬᏃᏌᏍᏗ	-11.6779
▁ᎤᎾᏜᏏᏛᎡ	-11.6779
▁ᎠᎩᏁᎢᏍᏗᏱ	-11.6779
▁ᎤᏂᏴᏔᏂᎯᏍᏗᏱ	-11.6779
▁ᏦᏞᏍᏗ	-11.6779
▁ᎠᏆᏛᏛᏅ	-11.6779
ᎾᏓᏙᎵᏍᏗᏍᎪᎢ	-11.6779
▁ᎢᏨᎪᏩᏛᏗᏱ	-11.6779
▁ᏱᏥᏩᏘᎭ	-11.6779
▁ᏱᏣᏰᎸᏅ	-11.6779
▁ᏱᎾᏥᎸᏉᏙ	-11.6779
▁ᏚᏃᎸᏎᎢ	-11.6779
▁ᏫᎯᎶᎯ	-11.6779
▁ᎨᎪᏢᏅᎯ	-11.6779
▁ᏧᏂᎵᎡᎾ	-11.6779
▁ᎰᎯᏳᎲᎦ	-11.6779
▁ᏯᏆᏛᎦ	-11.6779
▁ᎤᏰᏥᏍᎩ	-11.6779
▁ᎬᏩᏂᏴᎮᎢ	-11.678
ᎴᏔᏅᎢ	-11.678
▁ᎢᏥᎷᎨᏍᏗ	-11.678
▁ᏂᎪᎵᎬᎾ	-11.678
ᏥᏍᏓᏱᏕᎸ	-11.678
▁ᏥᏰᎸᎥ	-11.678
▁ᎥᎩᏍᏕᎸᏗᏱ	-11.678
▁ᎤᎵᏍᏆᏙᏅ	-11.678
▁ᏱᎦᏕᎣᏍᎦ	-11.678
ᏯᏓᏅᏏ	-11.678
▁ᏧᏂᏲᎱᎯᏍᏗ	-11.678
▁ᎢᏨᎷᏤᏗᏱ	-11.678
▁ᏱᎾᏛᏁᎮ	-11.678
▁ᎠᎦᎸᏥ	-11.678
▁ᎯᏲᏎᎸ	-11.678
▁ᏂᏯᏛᏂᏏ	-11.678
▁ᏕᏨᏗᏍᎨᏍᏗ	-11.678
▁ᎢᎦᏓᏃ	-11.678
▁ᏯᏲᎱᎯ	-11.678
▁ᎠᏆᏙᎴᎰᏒ	-11.678
▁ᎠᏯᏖᏂ	-11.678
▁ᎯᏲᏍᏗᏍᎩ	-11.678
▁ᏕᏥᎸᏉᏕᏍᏗ	-11.678
▁ᎤᏂᏯᏙᎴ	-11.678
▁ᏗᎦᏅᏍᏙᏗ	-11.678
▁ᎤᏬᎯᏳᎯᏍᏛ	-11.678
▁ᏣᏍᏉᏂᎪᏗ	-11.678
▁ᎢᏯᏆᎵᏍᏓᏁᏗ	-11.678
▁ᏥᎦᏁᎭ	-11.678
▁ᎤᎾᏓᏅᏔᏩᏕ	-11.6781
▁ᎠᎩᎾᏄᎪᏫᏎᎸᎩ	-11.6781
ᏓᏐᎴ	-11.6781
▁ᏕᎦᎶᏍᎬ	-11.6781
▁ᎠᎩᎸᏗᏍᎩ	-11.6781
▁ᎠᎾᏓᏁᏟᏴᏏᏒ	-11.6781
▁ᎦᏓᏆᏟ	-11.6781
▁ᎪᏢᏍᎦ	-11.6781
▁ᏕᎨᏥᎵᎥᏂ	-11.6781
▁ᏖᏒ	-11.6781
▁ᎭᏓᏙᎵᏍᏗᏍᎬ	-11.6781
▁ᏣᏓᏅᏖᏗᏱ	-11.6781
▁ᎠᎵᎮᎵᏤᎰᎢ	-11.6781
▁ᎢᏨᎥᏏ	-11.6781
ᏠᎯᏍᏗᏱ	-11.6781
▁ᏧᏂᎦᏯᎷᏗ	-11.6781
▁ᏚᏂᎵᏦᏛ	-11.6781
▁ᎤᎾᏓᏙᎵᏍᏙᏗᏱ	-11.6781
ᏠᏱᎸᎩ	-11.6781
ᏅᏮᎦ	-11.6781
▁ᎠᎩᏟᏲ	-11.6781
▁ᏄᏛᏁᎵᏙᎸ	-11.6781
▁ᏧᎵᏏᏅᏓ	-11.6781
▁ᏕᎯᎦᏔᎭ	-11.6781
▁ᏳᏣᏅ	-11.6782
▁ᏳᎴᏫᏍᏔᎾ	-11.6782
▁ᎠᏆᏎᎵᏔᏅ	-11.6782
▁ᎤᏓᏴᏒᎩ	-11.6782
ᎦᏎᏍᏔᏅ	-11.6782
▁ᏧᏓᏂᎸᎢᏍᏗᏳ	-11.6782
▁ᎢᏣᏗᏔᏍᏗᏱ	-11.6782
▁ᎤᎶᎩᎳ	-11.6782
▁ᎦᏃᏙᏗ	-11.6782
▁ᎤᎾᏓᏕᏒᏓ	-11.6782
▁ᏗᎨᎪᏍ	-11.6782
▁ᎠᏑᎲᏍᎦ	-11.6782
▁ᎢᏣᏓᏅᏓᏗᏍᏗᏱ	-11.6782
▁ᎤᎱᏍᏕᏎᎴ	-11.6782
▁ᏥᎦᏘᏏᏗᏢ	-11.6782
▁ᎤᎵᏍᎫᏮ	-11.6782
▁ᎤᎵᏍᏛᏧᏅ	-11.6782
▁ᎤᎵᏬᎢᏍᏗ	-11.6782
▁ᎤᏅᎦᎳᎲ	-11.6782
▁ᎤᏯᏍᏚᏎᎢ	-11.6782
▁ᎤᏁᏍᎨᎲᎢ	-11.6782
▁ᎤᏂᏲᏍᏙᏗᏱ	-11.6782
ᎶᎩᎯ	-11.6782
▁ᎤᏰᏣ	-11.6782
▁ᎠᏔᏍᎩᏍ	-11.6782
ᏐᏈ	-11.6782
▁ᎣᏣᎢᏒ	-11.6782
▁ᏚᏓᏬᎥ	-11.6782
ᎪᎲᏍᏔᏂ	-11.6782
▁ᎢᏣᎴᏂᏓᏍᏗᏱ	-11.6782
ᎦᏏ	-11.6783
ᏓᎾᏌᎲᏍᎩ	-11.6783
ᎵᏔᏕ	-11.6783
▁ᎤᏟᎶᎥᎩ	-11.6783
▁ᎢᎬᏩᏂᎩᏍᏔᏁ	-11.6783
ᏧᎧᎸᏨ	-11.6783
▁ᏧᏂᏍᏚᏗ	-11.6783
▁ᏥᏁᏣᏛᏁ	-11.6783
▁ᏥᎦᏘᏯ	-11.6783
ᎱᏩ	-11.6783
▁ᏥᎦᏡᎦ	-11.6783
ᏬᎯᎵᏴᏍᏓᏁ	-11.6783
▁ᎯᏃᎮᏍᎩ	-11.6783
ᏃᎲᎳ	-11.6783
▁ᏫᏂᏣ	-11.6783
▁ᎾᏆᎵᏍᏔᏁᎸ	-11.6783
▁ᏗᏑᏫᏍᎩ	-11.6784
▁ᏤᏣᏛᏅᎩ	-11.6784
▁ᏂᎬᏩᏍᏛ	-11.6784
▁ᎢᏥᎷᏤᏗ	-11.6784
▁ᎣᎦᏅᏅᎩ	-11.6784
ᏋᏕᏨ	-11.6784
▁ᏙᏛᎠᎴ	-11.6784
▁ᎨᏥᏛᎦ	-11.6784
▁ᏗᎦᏁᎶ	-11.6784
▁ᎤᏩᎦᏘ	-11.6784
▁ᏭᏗᏅᏎ	-11.6784
▁ᏳᏩᏛᎮᎢ	-11.6784
▁ᎠᏯᎣᎢ	-11.6784
▁ᎤᎾᏓᏄᎸᏗ	-11.6784
▁ᏁᏨᏁ	-11.6784
ᏤᏙᎭ	-11.6784
▁ᏗᏓᏘᏍᏗ	-11.6784
▁ᏅᏛᏁᎵ	-11.6784
▁ᎢᏳᎾᏕᏘᏴᏛ	-11.6784
▁ᎤᏁᏌᏴ	-11.6784
▁ᎤᎭᏄᏮ	-11.6785
▁ᏚᏄᎪᏫᏎ	-11.6785
▁ᏫᏚᎧᎾᏅ	-11.6785
ᎫᏈ	-11.6785
▁ᎤᎬᎭᏓ	-11.6785
▁ᎤᏴᏍᏕᏓ	-11.6785
▁ᏓᎪᏩᏘᏍᎬ	-11.6785
▁ᏧᎭᎾᏬ	-11.6785
▁ᎡᏤᎵᏎ	-11.6785
ᎦᏑ	-11.6785
▁ᎤᏗᏩᏒᎩ	-11.6786
ᏩᏍᏗᎭ	-11.6786
▁ᎠᎾᎵᎲᎢ	-11.6786
▁ᎹᏌ	-11.6786
▁ᎢᏥᎦᏔᎯᏳ	-11.6786
▁ᏧᏪᏲᎲᏍᎩ	-11.6786
▁ᎠᏥᎸᎨᎳᏍᏙᏗ	-11.6786
▁ᏱᏦᎯᏳᎲᎦ	-11.6786
▁ᎢᏥᎪᏩᏛ	-11.6786
▁ᎠᏆᏢᏈᏍᏗᏱ	-11.6786
▁ᏣᏱᎵᏙᎯ	-11.6786
▁ᎠᏂᏯᏙᎯᎯ	-11.6786
▁ᎬᏩᏂᏍᎦᎩ	-11.6786
▁ᎣᎾᏫᏱ	-11.6786
▁ᏂᏍᎩᏴᏁᎸ	-11.6786
▁ᎤᏂᎪᎵᏰᏗᏱ	-11.6786
▁ᎡᎩᏩ	-11.6786
▁ᏍᎩᏩᎯ	-11.6786
▁ᎦᏃᎱᎩᏍᎨ	-11.6786
ᏕᎶᏆᎡ	-11.6786
▁ᏄᏛᏁᎳ	-11.6787
▁ᏧᏪᏙᎵᏍᏗᏱ	-11.6787
▁ᎥᏘᏍᎩ	-11.6787
▁ᏚᏯᏅᎮᎢ	-11.6787
ᏯᏠᎢᏍᏓᏁᎵ	-11.6787
ᏓᎾᏫᏛᏗ	-11.6787
▁ᏚᏍᏚᎢᏎ	-11.6787
▁ᏥᏚᎦᏒᏍᏙ	-11.6787
ᎾᏟᏃᎮᎸ	-11.6787
▁ᏫᏂᎬᎦ	-11.6787
▁ᎠᎫᏣ	-11.6787
▁ᎬᏩᏍᏚᎢᏍᏗ	-11.6787
▁ᏧᎾᏔᎾ	-11.6787
▁ᎣᏥᏬᏂ	-11.6787
▁ᎭᏅᏓᏓ	-11.6787
▁ᏓᏆᎴᎸ	-11.6787
▁ᏫᏥᏤᎢ	-11.6787
▁ᏩᏲᎯ	-11.6788
▁ᎦᏓᏫᏔᏅ	-11.6788
▁ᎠᎵᏍᎩᏍᏗ	-11.6788
ᏚᏁᎢ	-11.6788
▁ᏗᏣᏏᎳᏛᏗ	-11.6788
▁ᎠᏂᎪᏩᏘᏍᎩ	-11.6788
▁ᏧᏩᎿ	-11.6788
▁ᎤᏰᎾᎥ	-11.6788
ᏥᏰᎸᏂ	-11.6788
▁ᎠᏓᎦᏘᏕᎯ	-11.6788
▁ᎢᏣᏓᏅᏙ	-11.6788
▁ᎢᏣᏙᎴᎰᎯᏍᏗᏱ	-11.6788
▁ᏧᏂᎶᏒ	-11.6788
▁ᏒᏍᎦ	-11.6789
▁ᏱᎨᏩ	-11.6789
▁ᎢᎩᏍᏕᎵᎭ	-11.6789
▁ᏫᎾᏛᎦ	-11.6789
▁ᎠᏂᏍᎦᏰᎬᏍᏔ	-11.6789
▁ᎯᎦᏔᎮᏍᏗ	-11.6789
▁ᏗᎦᏚᏗᏱ	-11.6789
▁ᎦᏃᏟ	-11.6789
▁ᎤᎾᏓᏙᎵᏍᏗ	-11.679
ᎾᏕᎨ	-11.679
ᏓᏨᎾᏄᎪᏫᏎᎵ	-11.679
▁ᏧᏴᎴ	-11.679
▁ᏑᏥᎶ	-11.679
▁ᏤᏙᎸᎢ	-11.679
▁ᎤᏍᏆᎸᎮ	-11.679
ᏣᏘᏃᎸᎭ	-11.679
▁ᏙᎨᏥ	-11.6791
▁ᎠᎩᏃᎮᏍᎬᎢ	-11.6791
▁ᏥᏕᏙᎭ	-11.6791
ᎴᎳᏛᏅ	-11.6791
ᏏᏏᏍᎩ	-11.6791
▁ᎠᏆᏅᏛ	-11.6791
▁ᎤᏂᎷᎯᏍᏗ	-11.6791
▁ᎾᏑᎵᎪᎬᎾ	-11.6791
▁ᎨᏣᏓᏑᏴ	-11.6791
▁ᎡᏤᏲᏅᎢ	-11.6791
▁ᎢᏕᎮᏍᏗ	-11.6791
▁ᎢᏨᏁᎢᏍᏗᏍᎬᎢ	-11.6791
▁ᎬᏁᏤᎲᎢ	-11.6791
▁ᏓᎪᏄᎴᎢ	-11.6791
▁ᏚᏃᏪᎸᎢ	-11.6791
▁ᏚᏪᏣᎦᎸᎮᎢ	-11.6791
▁ᏧᏁᏢᏔᏅᏒᎢ	-11.6791
▁ᎤᎾᏓᏁᏟᏴᏒᏒᎢ	-11.6791
▁ᏄᏍᏗᏕᎬᎢ	-11.6791
▁ᏧᎾᏄᎪᏤᎢ	-11.6791
▁ᎤᏓᏅᏔᏕᎢ	-11.6791
▁ᏯᏃᎯᏳᎲ	-11.6791
▁ᎤᎸᏖᎴ	-11.6791
▁ᏗᏣᎵᏂᎪᎯᏍᏙᏗᏱ	-11.6791
▁ᎻᏌ	-11.6791
ᎧᎲᏍᎩ	-11.6791
ᏕᏠᏆᎥ	-11.6791
▁ᎠᎦᏬᎡᎢ	-11.6791
▁ᏭᎷᎯᏍᏗ	-11.6792
▁ᎬᏩᎨᏳᎯ	-11.6792
▁ᎦᏐᏂ	-11.6792
ᏇᏓᏍᏗ	-11.6792
▁ᎤᎾᏁᏢᏔᏅᏒᎢ	-11.6792
▁ᎯᎶᏁᎥᎭ	-11.6792
ᏥᏍᎦᎢᎭ	-11.6792
▁ᎢᏤᏙᎮᏍᏗ	-11.6792
▁ᏱᏥᏩᏘᏍᎪᎢ	-11.6792
▁ᎤᏚᎢᏍᏓᏁᎸ	-11.6792
ᏍᏓᏩᏕᎪᎢ	-11.6792
▁ᏕᎬᏩᏘᏃᎮᎴᎢ	-11.6792
▁ᏭᏅᎪᏤ	-11.6792
▁ᏥᏓᎩᏂᏴ	-11.6793
ᏝᎲᎦ	-11.6793
▁ᎢᎦᎵᏍᏓᏁᏗ	-11.6793
▁ᏕᎭᏕᏲᎲᏍᎬᎢ	-11.6793
▁ᎦᎳᎨᏰ	-11.6793
▁ᏭᎳᏛ	-11.6793
▁ᏅᏛᎾᎵᏍᏔᏂ	-11.6793
▁ᏓᎾᎵᏍᏓᏴᎲᏍᎨᎢ	-11.6793
▁ᏙᏓᏳᎸᏫᏍᏓᏁᎵ	-11.6793
▁ᏭᏙᎯᏳᎲ	-11.6793
▁ᎤᎾᏁᎳᏗᏍᏗᏱ	-11.6793
▁ᏅᏓᎦᏛᏁᎵ	-11.6793
▁ᏓᎪᏪᎳᏂ	-11.6793
▁ᏨᏗᎦᏚᎭ	-11.6793
▁ᎠᎻᎳᎻ	-11.6793
▁ᏫᎤᏂᎶᏎᎢ	-11.6793
▁ᎧᏃᎨ	-11.6793
▁ᏓᏂᎧᎿᏩᏗ	-11.6793
▁ᎰᎵᏈ	-11.6793
▁ᏃᎦᏛᏁᎸ	-11.6793
▁ᏓᏰᏥᏁᎵ	-11.6794
▁ᏚᏄᏬᎡᎢ	-11.6794
▁ᏍᎩᏁᏥ	-11.6794
ᎵᏯᎻ	-11.6794
▁ᎤᏂᏁᎢᏍᏗ	-11.6794
▁ᎤᏂᏛᏗᏍᎩ	-11.6794
▁ᎤᎸᏁ	-11.6794
▁ᏧᎦᏙᏍᏙᏗ	-11.6794
▁ᏧᎾᏓᎵ	-11.6794
▁ᏫᎷᎩ	-11.6794
▁ᏗᏌ	-11.6794
ᏂᏆᏘᎸ	-11.6794
▁ᏚᏂᎵᏬᏤᎢ	-11.6795
▁ᏫᏗᎦᏘ	-11.6795
▁ᏧᏂᏣᏔ	-11.6795
▁ᏂᏚᏂᎨᏳᏒ	-11.6795
▁ᎪᎵᎦᏓ	-11.6795
▁ᏣᏫᏎᎢ	-11.6795
▁ᏚᏅᏩᏁᎢ	-11.6795
▁ᎤᏓᏙᎵᏣᏘ	-11.6795
▁ᎤᎬᎥᏍᎬ	-11.6795
▁ᏧᏂᎷᏤᎸ	-11.6795
▁ᏗᏩᎾᎨ	-11.6795
ᎪᏪᎸᎾ	-11.6796
▁ᎤᎦᏔᏔᏁᎢ	-11.6796
▁ᎠᏆᏓᏅᏖᏙᏗ	-11.6796
▁ᏱᎾᏰᏍᎨᏍᏗ	-11.6796
▁ᎢᏍᏛᏯ	-11.6796
▁ᎤᏌᎨ	-11.6796
▁ᏚᎦᏔᏍᏔ	-11.6796
▁ᏳᎵᏬᏨ	-11.6796
▁ᏅᎩᏗᏂᏅᏌᏗ	-11.6796
▁ᏱᏄᎾᏍᏗ	-11.6796
▁ᎹᎳ	-11.6796
▁ᎤᏴᏨ	-11.6796
▁ᏯᏖᎾ	-11.6796
▁ᎣᎦᎵᏍᏓᏴᏗᏱ	-11.6796
ᏂᎦᏛᏁᎰᎢ	-11.6796
▁ᎢᏯᎩᏪᏍᏗᏱ	-11.6796
▁ᎠᏓᏍᏕᎵᏍᎩ	-11.6796
ᏮᏕᏨ	-11.6797
▁ᏚᏯᏙᎮᎴ	-11.6797
▁ᎠᏲᏍᏗᏍᎪ	-11.6797
▁ᎠᏓᏏᏎ	-11.6797
▁ᎨᏥᏃᎮᏍᎬᎢ	-11.6797
▁ᎢᏳᏩᏁᏗ	-11.6797
▁ᏗᎨᏥᏰᎯ	-11.6797
▁ᎢᏳᏅᏁᎯ	-11.6797
▁ᎠᏂᎪᏩᏗᏍᎬ	-11.6797
ᏴᎯᏓ	-11.6797
▁ᎭᎵᏘ	-11.6797
▁ᎤᎧᎭᏲ	-11.6797
▁ᎭᏓᏅᏖᎭ	-11.6797
▁ᎤᏴᎴᎢ	-11.6797
▁ᎠᏂᏃᎲᏍᎨ	-11.6798
▁ᎤᏗᎦᎵᏍᏙᏗᏍᎨᏍᏗ	-11.6798
▁ᏓᏎᎯ	-11.6798
▁ᎬᏩᏕᎰᎯᏍ	-11.6798
▁ᎤᏂᎿᎥᎢ	-11.6798
▁ᏩᏥᎳᎨ	-11.6798
▁ᎤᏗᎴᎬ	-11.6798
▁ᏕᎯᏬᏁᏗᏍᎬ	-11.6798
▁ᎤᎾᎳᏍᏓᎡᏗ	-11.6798
▁ᏚᏅᏴ	-11.6798
▁ᎠᎭᎾᏬ	-11.6798
▁ᏄᎾᎵᏍᏔᏁᎲ	-11.6798
▁ᎠᎵᏰᎢᎶᎦ	-11.6799
▁ᎬᎫᏍ	-11.6799
▁ᏗᎾᏟ	-11.6799
▁ᎯᎷᏨ	-11.6799
▁ᏱᏅᏗᎦᎵᏍᏙᏗᏍᎨ	-11.6799
▁ᎦᎵᏦᏩᏛ	-11.6799
▁ᎨᏥᏙᎵᏍᏗ	-11.6799
ᏛᏅᎢᏍᏓᏁᏗᏱ	-11.6799
▁ᎢᏳᏏᏗ	-11.6799
▁ᎠᏆᏤᎵᎪᎯ	-11.6799
▁ᎤᏂᎧᎭᏲ	-11.6799
▁ᏱᏅᏗᎦᎵᏍᏙᏗᏍᎨᏍᏗ	-11.6799
▁ᎦᎬᏙᏗ	-11.6799
▁ᏗᎦᏁᎯ	-11.68
ᎦᏂᏍᎬ	-11.68
▁ᎡᎵᎻ	-11.68
ᎵᏍᏆᏗ	-11.68
▁ᎤᎾᏓᏅᏍᏗ	-11.68
ᎩᏩᏛᎲᎩ	-11.68
ᏂᏍᏚᎩ	-11.68
▁ᎢᏥᎩᎬ	-11.68
▁ᎤᏍᏗᎩᎨ	-11.68
▁ᏳᏪᎵᏎ	-11.68
▁ᏗᎦᏥᏯ	-11.68
▁ᎠᎵᏍᏓᏴᎲᏍᎩ	-11.6801
▁ᏚᏑᎦᏢ	-11.6801
▁ᎠᏃᏎᎮ	-11.6801
▁ᎠᏯᏛᎥ	-11.6801
ᏗᎦᏔᏫᎢᏍᏗᏱ	-11.6801
▁ᎦᎭᏛ	-11.6801
▁ᎣᎩᎪᎲᎯ	-11.6801
ᏕᎰᏏ	-11.6801
▁ᏧᏌᎴᏅ	-11.6801
▁ᏱᏂᏙ	-11.6801
▁ᎦᎷᎨᏍᏗ	-11.6802
▁ᎤᏬᎯᏤ	-11.6802
▁ᏣᏂᏃᎮᎭ	-11.6802
▁ᎤᏲᎱᏏᏕᎾ	-11.6802
▁ᎤᏬᏍᎩᎵ	-11.6802
▁ᏗᏣᏘᏄᎦ	-11.6802
ᏄᏬᎥᎭ	-11.6802
▁ᏗᎦᏆᏘ	-11.6802
▁ᎤᎵᏏᎲᏎ	-11.6802
▁ᎠᏆᎵᎮᎵᏍᏗᏱ	-11.6803
▁ᎨᎪᏣᎴᏛ	-11.6803
▁ᏧᏓᏂᎸᎢᏍᏗ	-11.6803
ᏓᎵᏅᏟ	-11.6803
▁ᏱᏥᎪ	-11.6803
▁ᎠᏆᎵᎮᎵᏨᎩ	-11.6803
▁ᏄᏪᎵᏍ	-11.6803
▁ᏓᏐᏴᎢ	-11.6803
▁ᏫᏥᎶᎢ	-11.6803
▁ᎤᏗᏍᎦᎶᏗ	-11.6804
▁ᎤᎵᏛᏔᏁᎢ	-11.6804
▁ᎯᎷᎩ	-11.6804
▁ᎢᏗᎹ	-11.6804
▁ᎤᏣᎢᏒ	-11.6804
▁ᏗᏍᏆᏂᎪᏗᏍᎩ	-11.6804
▁ᎤᏩᏓᎴ	-11.6804
▁ᏫᏚᏩ	-11.6804
▁ᎢᎳᏍᏓ	-11.6804
▁ᎠᎾᎵᏥᏙᎲᏍᎦ	-11.6804
▁ᏄᏦ	-11.6804
ᎦᎧᎲᏍᎨᏍᏗ	-11.6804
▁ᏚᎪᏓᏁᎯ	-11.6804
▁ᎡᏥᏲᎭ	-11.6804
▁ᏚᏬᎥᎩ	-11.6804
▁ᏓᎫᏩ	-11.6804
▁ᎤᎾᎦᏙᏍᏛ	-11.6804
▁ᏳᏲᎰ	-11.6805
▁ᏓᏃᏎᎰ	-11.6805
▁ᎣᏥᏃᎮᎭ	-11.6805
▁ᏗᎦᏅᎬ	-11.6805
▁ᎦᎧᎮ	-11.6805
▁ᎠᏒᏛᏓ	-11.6805
▁ᎠᏍᏆᎸᎲᎭ	-11.6805
ᏓᎤᎦ	-11.6805
▁ᎠᏕᏲᎲ	-11.6805
ᏕᏁᎵ	-11.6806
▁ᎤᎵᏦᏔᏁᎢ	-11.6806
▁ᏙᏛᏁᎵ	-11.6806
ᏍᏆᏃᏴᎪ	-11.6806
▁ᎢᎶᏂ	-11.6806
ᏥᎾᏝᎢ	-11.6806
▁ᏗᎬᏩᏂᏐᏢ	-11.6806
▁ᏳᏗᏔ	-11.6806
ᏂᏆᏘᎲ	-11.6806
▁ᏙᏓᏨ	-11.6806
▁ᎭᏑ	-11.6806
ᏟᏂᎬᏁᎰ	-11.6807
▁ᎠᏟᏃᎮᏙᏗ	-11.6807
▁ᎤᎿᏬᎡ	-11.6807
ᎦᏓᎴᏅᎯ	-11.6807
▁ᏱᏥᏁᎦ	-11.6807
▁ᎤᎸᏓᎸᎥᏍᎩ	-11.6807
▁ᏦᎩᎾᏫᏱ	-11.6807
▁ᎠᏓᏬᏍᏗᏱ	-11.6807
ᎶᏇ	-11.6807
▁ᎠᎦᏐ	-11.6807
▁ᎠᏃᏢᏍᎬ	-11.6807
▁ᏖᏒᎭ	-11.6807
▁ᎤᎾᏤᎸᎯ	-11.6807
▁ᏚᏂᏴᎲ	-11.6807
▁ᎤᏒᎦᎸᎩ	-11.6807
▁ᎠᏂᏔᏲᎯᎮᏍᏗ	-11.6807
ᏖᎳᏛ	-11.6808
▁ᏍᎩᏁᎮᏍᏗ	-11.6808
ᎯᏄᎪᎢ	-11.6808
▁ᏳᏇᏗ	-11.6808
▁ᏘᏅᎵ	-11.6808
▁ᎡᎳᎻ	-11.6808
▁ᏗᎨᎦᎦᏅᏗ	-11.6808
ᎵᏂᎪᎯᏍᏙᏗᏱ	-11.6808
▁ᎤᎵᏍᏓᏴᏅ	-11.6808
▁ᎤᎾᎦᏎᏍ	-11.6808
▁ᏆᏙ	-11.6808
▁ᎠᏯᏨᏗ	-11.6808
▁ᏣᏣᏪᏐᎸᏍᏙᏗ	-11.6809
▁ᏚᏙᎡᏍᏗ	-11.6809
▁ᏱᎦᏗᎭ	-11.6809
▁ᏓᏨᏍᏛ	-11.6809
▁ᏱᏄᎵᏍᏓ	-11.6809
ᏅᏓᎨᏨᏁᎵ	-11.6809
▁ᏄᏓᏛᏁᎴ	-11.6809
ᏚᏓᎸᏙ	-11.681
▁ᏗᎦᏐᎯ	-11.681
▁ᎠᏥᏍᏚᏗ	-11.681
ᏴᎳᏏ	-11.681
▁ᏝᏬ	-11.681
▁ᏳᏰᎸᏅ	-11.681
ᏓᏁᏏ	-11.6811
ᏱᎵᏕᎲᎢ	-11.6811
▁ᏣᏁᏤᏗᏱ	-11.6811
▁ᎤᎾᎵᏍᏓᏴᏅᎩ	-11.6811
▁ᎢᏨᏃᏁᎸᎯ	-11.6811
ᎧᎿᏩᏛᎡ	-11.6811
▁ᎠᏂᎶᏍᎬ	-11.6811
▁ᏙᏨᏗᏍ	-11.6811
▁ᎤᎵᎥᏂᎸ	-11.6812
ᎳᏑᎳᎩ	-11.6812
▁ᎤᎵᏍᎪᎸᏓᏁᎸᎩ	-11.6812
▁ᎤᏍᏚᏞ	-11.6812
▁ᎦᏰᏣ	-11.6812
▁ᎢᏣᏓᏁᎮᏍᏗ	-11.6812
▁ᎤᏁᎷᏅ	-11.6812
ᏛᏂᎸᏉᏔᏂ	-11.6812
▁ᏓᏟ	-11.6812
▁ᎾᎾᎵᏍᏗᏍᎪ	-11.6812
▁ᏥᏍᎩᏯ	-11.6813
▁ᎠᎺᏉ	-11.6813
▁ᎬᏁᏤᎸᎢ	-11.6813
▁ᎻᎵ	-11.6813
▁ᎬᏩᏡᏗᏍᎬᎢ	-11.6813
▁ᏚᏖ	-11.6814
ᏓᏕᎵᏎ	-11.6814
▁ᏫᎦᎶᏍᎬ	-11.6814
ᎤᏰᎸᏗ	-11.6814
▁ᎤᏯᎷᎦ	-11.6814
▁ᏣᎷᏨ	-11.6815
▁ᎡᎩᏍᏕᎸᏗᏱ	-11.6815
▁ᎤᏂᏍᎦᎢᏍᏗ	-11.6815
▁ᏥᏚᎾᏚ	-11.6815
▁ᏓᎩᎧᎭ	-11.6815
ᏆᎴᎳ	-11.6816
▁ᏂᏥᏴ	-11.6816
▁ᎤᏩᏂᎴᎢ	-11.6816
ᏐᏲ	-11.6816
▁ᏩᏴᎭ	-11.6816
▁ᎠᏛᏁᎮᏍᏗ	-11.6817
ᏥᏰᎵᏒ	-11.6817
▁ᎡᏥᏯᏅᎲ	-11.6817
ᏗᎨᎳᏍᏙᏗ	-11.6817
▁ᏱᏓᎩᏯ	-11.6817
ᏓᏁᎴᎢ	-11.6817
▁ᏥᎨᎲ	-11.6817
ᏅᎬᏛ	-11.6817
▁ᎦᎷᎪᎢ	-11.6818
▁ᎤᎪᎵᏰᏗᏱ	-11.6818
ᏐᎯᏍᏗ	-11.6818
▁ᏄᏓᏪᏎᎴ	-11.6818
ᎨᎦᏛᏅᎢᏍᏓᏁᎸ	-11.6818
▁ᎠᏌᏍᏛ	-11.6818
▁ᎾᏂᏪᎭ	-11.6818
▁ᏣᏰᎸᏗ	-11.6818
▁ᏥᎧᎸ	-11.6818
▁ᎠᎦᏍᎦ	-11.6818
▁ᏕᎨᏥᏂ	-11.6818
▁ᎤᎾᏓᏅᏖᏛ	-11.6818
▁ᏓᏁᎶᏛᎩ	-11.6818
▁ᏄᎵᏍᏓᏁᎲ	-11.6818
▁ᏭᏓᎾᏫᏛᎮ	-11.6818
ᏍᏆᏗᏍᏗᏍᎩ	-11.6819
▁ᎤᎾᏚᎸᏅᏗ	-11.6819
▁ᎤᏍᏆᏗᏍᏗᏱ	-11.6819
▁ᎨᏥᏛᏙᏗᏱ	-11.6819
▁ᎩᎦᎨᎠᏗᏔᏍᏗ	-11.6819
▁ᎦᎳᎩ	-11.6819
▁ᎤᏬᏝ	-11.6819
▁ᎤᎦᏌᏯᏍᏗᏕᎩ	-11.6819
▁ᏴᏧ	-11.6819
ᏕᏙᎲᎩ	-11.682
▁ᎠᎵᏌᎳᏗᏍᎬ	-11.682
ᎭᏄᏩ	-11.682
▁ᏄᏃᎯ	-11.682
▁ᎤᏂᏂᎩᏛ	-11.682
▁ᎤᏓᏅᏖᏗᏍᎨᎢ	-11.682
▁ᎢᏳᏂᏁᎫᏥ	-11.682
ᏣᎦᏔᎲᏛ	-11.6821
▁ᏧᏂᏒᏍᏗᏱ	-11.6821
▁ᏍᏔᎵ	-11.6821
ᎧᏔᏁ	-11.6821
▁ᏗᎤᎷᏨ	-11.6821
▁ᎤᏲᎰᏒ	-11.6821
▁ᏧᎦᏅ	-11.6821
▁ᎦᏢᏗ	-11.6822
▁ᎤᎾᏨᏏ	-11.6822
ᏥᏯᏫᏍᎬ	-11.6823
▁ᎤᏂᎪᎵᏰᎥ	-11.6823
▁ᎤᏅᎪᏨ	-11.6823
▁ᏱᏍᎩᏃᎯᏎ	-11.6823
ᏓᏙᎵᏣᏘᏳ	-11.6823
▁ᎢᏣᏓᏅᏓᏛ	-11.6824
▁ᎤᎾᏎᎸ	-11.6824
▁ᏚᏂᏂᏴᎲ	-11.6824
▁ᎣᎩᏍᎦᏅᏨᎢ	-11.6824
▁ᎤᏂᏲᎸᎯ	-11.6824
▁ᏥᏄᏍᏙ	-11.6825
ᎦᎪᎯᏳᏗ	-11.6825
ᏓᏁᎶᏗ	-11.6825
▁ᏱᏣᏚᎵᎭ	-11.6825
ᎰᎻ	-11.6825
▁ᎦᏥᎪᎥ	-11.6826
ᏩᎵ	-11.6826
▁ᎣᏥᏁᎦ	-11.6826
▁ᏕᏥᎨᏳᏒ	-11.6826
▁ᏗᎪᏢᏙᏗ	-11.6826
▁ᏚᏑᏰᏎ	-11.6826
▁ᎠᏅᏬᎳᏕᏍ	-11.6826
▁ᎤᏗᏔᎮᎢ	-11.6828
▁ᏄᎾᏛᎿᏕᎬᎢ	-11.6828
▁ᏕᎦᎸᏫᏍᏓᏁᎸᎢ	-11.6828
▁ᏥᏮᎦᏙᎢ	-11.6828
▁ᎤᏬᏁᏔᏅᎢ	-11.6828
▁ᏇᏓᏁᎳᎻᏱ	-11.6828
▁ᏧᏂᎧᎿᏩᏛᏍᏗᏱ	-11.6828
▁ᏂᏣᎵᏍᏓᏁᎲᎢ	-11.6828
ᏱᎵᏓᏍᏗᏱ	-11.6828
▁ᎠᎩᏰᎸᏗᏱ	-11.6828
▁ᎤᏁᎳᏫᏎᎲᎢ	-11.6828
▁ᏨᏓᎸᎢ	-11.6828
▁ᏂᏥᏃᎯ	-11.6828
▁ᎢᏣᎵᎪᎯ	-11.6829
ᏘᏅᏍᏗᏱ	-11.6829
▁ᎤᎾᏏᏁ	-11.6829
▁ᏣᏛᏁᎸ	-11.6829
ᏅᏨᎾ	-11.6829
▁ᏭᏩᎦᏘᏗᏒᎢ	-11.6829
▁ᏓᏂᏬᏂᏍᎬᎢ	-11.683
▁ᎤᏩᏛᏛ	-11.683
▁ᎤᏁᎲ	-11.683
ᎵᏐᏍᏗ	-11.683
ᏴᏔᏅ	-11.6831
▁ᏂᏣᎵᏍᏔᏅᎩ	-11.6831
▁ᏚᏂᎳᏫᏨᎩ	-11.6831
▁ᏚᎸᏫᏍᏓᏁᎭ	-11.6831
▁ᎢᏣᎢᏒᎢ	-11.6831
ᏅᎥᏏ	-11.6831
▁ᎦᎴᏂᏙᎲ	-11.6831
ᏌᏛᏅᎩ	-11.6831
▁ᏥᏄᏪᏒᎩ	-11.6831
▁ᎯᎩᏒ	-11.6832
▁ᏧᎶᎯᏍᏗ	-11.6832
▁ᎴᏈ	-11.6832
ᎾᏍᏆᎶᏍ	-11.6832
▁ᎤᏓᏅᏖᏗᏍᎬ	-11.6832
▁ᎠᏥᏍᏙᏗ	-11.6832
▁ᏚᏬᏁᏔᏁᎢ	-11.6832
▁ᎤᏁᎵᏒᎩ	-11.6832
▁ᎤᎵᏍᏕᎸ	-11.6833
▁ᏓᏍᏔᏅᏅ	-11.6833
▁ᎠᎦᎸᎢᏛ	-11.6833
▁ᏚᎾᏓᏡᎬ	-11.6833
ᏫᏗᏍᎩ	-11.6833
▁ᎤᎾᏓᏴᎳᏛ	-11.6833
▁ᏓᎩᎪᎲᎩ	-11.6833
▁ᏫᏚᎾᎧᎿᏅ	-11.6833
▁ᎠᏂᏲᎯᎲ	-11.6833
▁ᎤᎾᎵᏖᎸᏅᎩ	-11.6833
▁ᏓᏂᏐ	-11.6833
▁ᏕᎩᎸᏫᏍᏓᏁᎸ	-11.6833
▁ᏥᏍᏓᏱ	-11.6834
▁ᎠᏓᎴᏂᏍᎩ	-11.6834
ᏍᏚᎶᏙᏗ	-11.6834
ᎤᏂᏃᏕᏅ	-11.6834
ᏏᏕᏅ	-11.6834
▁ᎤᏗᏞᎦ	-11.6835
▁ᏚᏁᏒ	-11.6835
▁ᎬᏩᎾᏝᎢ	-11.6835
▁ᏗᏣᎸᏫᏍᏓᏁᏗᏱ	-11.6835
▁ᎠᎹᏢᏗ	-11.6835
▁ᎬᏬᏎᎸᎩ	-11.6835
▁ᎬᏩᏂᎪᏩᏛᏗ	-11.6835
▁ᏴᏛᎾ	-11.6835
ᎦᏛᎴᏒ	-11.6836
ᎵᏍᏙᏗᏱ	-11.6836
ᎪᎲᏍᏔᏅ	-11.6836
▁ᏍᎩᏃᎯᏏ	-11.6836
▁ᎠᏲᏁᎦ	-11.6836
▁ᎤᏍᎫᏕ	-11.6836
ᎠᏗᏒ	-11.6837
▁ᏫᏚᎧᎿᏅ	-11.6837
ᏤᎵᎯᏍᎪ	-11.6837
▁ᏗᏗᏙᏗ	-11.6837
ᏏᏔᏗᏍᏗᏱ	-11.6837
▁ᏤᏆᏂ	-11.6837
▁ᎪᏍᏛᏂᏍᏗ	-11.6838
▁ᏭᏂᎦᏐᎠ	-11.6838
▁ᏱᏚᎸᏫᏍᏓᏁ	-11.6839
▁ᎦᏬᏂᏍᏗ	-11.6839
▁ᎢᏣᏓᎳ	-11.684
▁ᎤᏅᏁᎸ	-11.684
▁ᎠᎵᏍᏓᏴᎲᏍᎦ	-11.6841
▁ᎤᎾᎷᏒ	-11.6841
▁ᎤᏍᏚᎩᏎ	-11.6841
▁ᏧᎪᏅ	-11.6842
▁ᎤᏂᏔᏲᏎᎴ	-11.6843
▁ᎤᎾᏓᏅᎦᎸᏛ	-11.6843
▁ᎠᎾᏙᎴᎰ	-11.6843
ᏥᏅᎦᎸᎡ	-11.6843
▁ᏂᏣᏛᏁᎲᎾ	-11.6844
▁ᎠᏓᏲᏁᏗ	-11.6844
▁ᎪᏪᎳᏅ	-11.6844
ᏂᏪᏍᎨᎢ	-11.6844
▁ᏕᎫᎪᏗᏍᎬ	-11.6845
▁ᎤᏓᎢᏅ	-11.6845
▁ᎤᏂᏲᎰᎢ	-11.6845
▁ᎤᏓᏓᏍᎬ	-11.6846
▁ᎤᏛᏗᏕᎨ	-11.6846
▁ᎠᏂᎷᎬ	-11.6846
▁ᏥᏫᎾ	-11.6846
▁ᎡᏥᏍᎦᏅᏤ	-11.6846
▁ᏚᏰᎵᎯᏍᏔᏅ	-11.6847
▁ᏫᏚᏠᏎ	-11.6847
▁ᏍᎩᏯᏅᏛ	-11.6847
▁ᏳᏚᎵᏍᎬᎾ	-11.6847
▁ᎠᎾᏕᎲᏍᎨ	-11.6848
▁ᏗᎪᏪᎳᏅᎯ	-11.6848
▁ᎮᏙᎲ	-11.6848
▁ᏚᎾᏙ	-11.6848
▁ᎨᏥᏰᎸᎢ	-11.6849
ᎵᎲᏲᎵ	-11.6849
ᏍᏙᏗᏍᎨ	-11.6849
▁ᎠᏓᎨᏗᏱ	-11.685
▁ᏭᏍᏆ	-11.685
▁ᏣᏴᏍᏗ	-11.685
▁ᎠᎩᏰᏨ	-11.685
ᏠᎠᏒᎩ	-11.685
▁ᎢᏣᎨᏳᏅ	-11.6851
▁ᏱᏙᎨᏗ	-11.6851
▁ᏱᏍᎩᏃᏁᎴ	-11.6851
▁ᎤᎾᎵᏍᎪᎸᏔᏅ	-11.6851
ᏯᏛᏅ	-11.6851
▁ᏕᏚ	-11.6851
▁ᎤᎾᎵᏍᎪᎸᏔᏅᎯ	-11.6851
▁ᏚᏟᎶᏍᏓᏁᎴᎢ	-11.6852
▁ᎢᏳᏪᏍᏗᏱ	-11.6852
▁ᎤᏂᏃᎴ	-11.6852
ᏙᎯᏳᎲᎦ	-11.6852
▁ᎤᏴᏥ	-11.6853
▁ᎣᏥᎩᎵᏲᎬ	-11.6853
▁ᎤᏓᏍᏕᎸᏗ	-11.6854
▁ᎪᎯᏍᏗᏍᎩ	-11.6854
▁ᏩᎩᎶᏒᎩ	-11.6854
▁ᎤᏂᎪᏁ	-11.6854
▁ᎤᎦᏘᏗᏍᏗᏱ	-11.6854
ᏍᏔᏩᏕ	-11.6855
▁ᏱᎾᎩ	-11.6855
▁ᎠᏆᏕᏗ	-11.6855
▁ᎠᏟᏂᎬᏁ	-11.6855
ᏨᏌ	-11.6855
▁ᏤᏅᏍᏗᏱ	-11.6855
▁ᎤᏞᎩ	-11.6855
▁ᎭᏗᏛ	-11.6855
▁ᎢᎵᎻ	-11.6856
▁ᎤᎾᏁᎶᏔᏅᎩ	-11.6856
▁ᎠᎪᏢᏅ	-11.6856
▁ᎤᏲᏍᏔᎾ	-11.6857
▁ᏫᎲᎦ	-11.6857
▁ᎾᎾᏛᏁᎮ	-11.6857
▁ᏥᏅᏗᎦᎵᏍᏙᏗᏍᎨ	-11.6858
▁ᎤᎦᎿᏂ	-11.6858
ᏰᎢᎸᏍᏗᏱ	-11.6858
▁ᏳᏬᎵᏤ	-11.6858
▁ᏕᏥᎵᎷ	-11.6859
▁ᏱᏂᎬᎦ	-11.6859
ᏣᏘᏃᎯᎮᏍᏗ	-11.6859
ᏏᏙᎴ	-11.6859
▁ᏲᎩᎾ	-11.686
▁ᎠᏂᏁᏉᏍ	-11.6861
ᏚᎾᏚᏫᏍᏔᏁᎢ	-11.6862
▁ᎪᏙᎯ	-11.6862
▁ᎤᎾᎵᏖᎸᏅ	-11.6863
▁ᎤᏅᏕᏨ	-11.6863
▁ᏓᏂᏅᎬ	-11.6863
▁ᏧᏔᎾ	-11.6863
▁ᏗᏓᎨ	-11.6863
▁ᎧᏁᏉᎨᎢ	-11.6864
▁ᎤᏫᏒ	-11.6864
ᏂᏐᏗ	-11.6864
▁ᏯᏛᎦ	-11.6865
▁ᎠᏯᎡᎢ	-11.6865
▁ᎤᎵᏠᏯᏍᏛ	-11.6865
▁ᏳᏰᎸᎭ	-11.6866
▁ᎠᎾᎢᏎᎢ	-11.6866
▁ᏥᏙᏓᎦ	-11.6866
▁ᎤᎩᏓᏟ	-11.6866
▁ᎤᏘᏃᎴᎢ	-11.6866
ᏡᎦ	-11.6867
▁ᎤᏁᎢᏍᏔᏁᎢ	-11.6867
▁ᎠᏂᏱᏙ	-11.6867
ᏘᏁᎪᎢ	-11.6867
▁ᎤᏍᏗᏰᎬ	-11.6867
▁ᎢᏣᏓᏁᏟᏴᏏᏒᎢ	-11.6868
▁ᏥᏄᎵᏍᏔᏁᎢ	-11.6869
ᏴᏜ	-11.687
▁ᏱᏂᏣᎵᏍᏓᏁ	-11.687
▁ᏥᎦᎷᎪᎢ	-11.687
▁ᏧᎦᎿᏁ	-11.6871
ᏛᏓᏍᏓᏁᏗᏱ	-11.6871
▁ᎤᏁᏉᏤᎢ	-11.6871
▁ᏧᏂᏁᏗᏱ	-11.6872
ᎰᎯᏍᏗ	-11.6872
▁ᏕᎨᎶ	-11.6873
ᏚᏪᎧᏁᎢ	-11.6873
▁ᏙᏓᏈᏕᎾ	-11.6873
▁ᏗᏘᏲᎯᎯ	-11.6873
▁ᎤᏪᎲᎢ	-11.6874
▁ᎠᎿᎥᎢ	-11.6875
▁ᎠᏥᏁᏗᏱ	-11.6875
▁ᎠᏐᏢᎢᏍᏗᏍᎬᎢ	-11.6876
ᎦᎴᏂᏙᎭ	-11.6876
ᎷᎳ	-11.6876
ᏥᏍᏕᎵᏍᎬ	-11.6876
▁ᎤᎾᏖ	-11.6876
▁ᏣᏍᏆᏂᎪᏙᏗᏱ	-11.6877
▁ᏄᏅᏁᎴᎢ	-11.6877
▁ᏑᎠ	-11.6877
▁ᎤᏪᎷᎩ	-11.6877
▁ᏥᏫᎯ	-11.6877
▁ᎠᎾᎵᏥᏙᎲᏍᎩ	-11.6877
▁ᎠᏋᏂ	-11.6878
▁ᎤᏁᎸᏔᏁᎢ	-11.6878
▁ᎬᏩᎯᏍᏗᏱ	-11.6878
▁ᎤᏂᏲᏍᏔᏁ	-11.6878
▁ᎤᏍᏆᎸᎭ	-11.6879
▁ᎣᎯᏍᏗ	-11.6879
▁ᏱᎦᎷᎩ	-11.6879
ᎶᏒᏍᏙᏗᏱ	-11.6879
▁ᎤᏃᏢᏅᎯ	-11.688
▁ᏗᏄᎪᏗᏍᎩᏱ	-11.688
▁ᎤᏍᏆᏂᎪᏔᏅ	-11.688
▁ᏧᏬᏢᏁ	-11.688
ᎾᏍᏉ	-11.6881
▁ᏤᎪᎢ	-11.6881
▁ᏄᎾᎵᏍᏓᏁᎲ	-11.6882
▁ᏕᎪᏢᏒᎩ	-11.6882
▁ᏓᏂᏍᎦᎢ	-11.6883
▁ᏂᏓᏅᏁᎲ	-11.6883
▁ᎤᏪᏘᏁᎢ	-11.6883
▁ᎤᎾᏏᏅ	-11.6883
▁ᎡᏣᏛᎦᏁᎸ	-11.6883
ᎮᏗᏱ	-11.6884
ᏌᏙ	-11.6884
▁ᎠᏍᏆᎵ	-11.6884
▁ᎠᏂᎱ	-11.6884
ᏥᏯᏁᎶᏗ	-11.6885
▁ᎤᏲᎱᎯᏎᎸᎯ	-11.6885
▁ᏗᎧᏅ	-11.6886
▁ᎤᎾᎵᏗᎩ	-11.6886
▁ᏚᏅᏒᎩ	-11.6887
▁ᏂᎦᏅᏅ	-11.6887
▁ᏙᎧ	-11.6887
▁ᏗᎪᏒ	-11.6887
▁ᏥᏚᏲᏎ	-11.6888
▁ᏫᏚᏯ	-11.6888
▁ᏗᏌᏂ	-11.6889
▁ᎦᎶᏐᎲᏍ	-11.6889
▁ᏳᏁᏐ	-11.6889
▁ᎦᏓᏅᏖᏍᎪ	-11.6889
▁ᏚᏪᏯ	-11.6889
▁ᏱᏅᏩᏍᏗᏗ	-11.6889
▁ᎭᎧ	-11.689
▁ᎠᎩᏍᏚ	-11.689
▁ᎾᎬᏁᎸᎭ	-11.6891
▁ᏧᎸᏉᏗ	-11.6891
▁ᏂᏓᎬ	-11.6891
▁ᎠᏲᏍᏗᏍᎬ	-11.6892
▁ᏍᏆᏛᎦᏁ	-11.6892
ᎦᏥᏲᏎᎸ	-11.6893
ᏘᎶᏛ	-11.6893
▁ᏱᏮ	-11.6893
▁ᎤᎷᏤᎸᎯ	-11.6893
ᏰᎵᏎᏗ	-11.6893
▁ᎤᏓᏅᏙᎩᎯ	-11.6893
▁ᎢᏧᏓ	-11.6894
ᏏᎳᏕ	-11.6894
▁ᏚᏟᎶᏍᏓᏁᎴᏃ	-11.6894
▁ᎢᎦᏅᎯᏛ	-11.6895
▁ᎮᎲᎢ	-11.6895
ᏕᎬᏲᎯᏏ	-11.6896
▁ᎠᏯᎡᏍᏗ	-11.6896
ᎦᏬᏍᎪᎢ	-11.6896
ᎵᏍᏓᏴᎾᏁᏗᏱ	-11.6897
▁ᏚᏂᏃᎩᏒ	-11.6898
ᏘᏳ	-11.6898
▁ᎢᎬᏩᎷᏤᎴ	-11.6898
▁ᎤᎾᏟᎶᎥ	-11.6899
▁ᏧᎪᏄᎶ	-11.6899
▁ᎠᎵᏍᏓᏴᎲᏍᎬᎢ	-11.6899
▁ᏧᏂᎷᏤ	-11.69
ᏓᏡᏗᎭ	-11.69
ᎪᎸᏏ	-11.69
▁ᎢᎬᏩᏁᏗᏱ	-11.6902
▁ᏚᏆᎵ	-11.6902
ᎷᎸᏁ	-11.6902
▁ᎯᏴᎭ	-11.6902
▁ᎠᏂᎫ	-11.6903
▁ᏚᏂᏢᎬᎢ	-11.6903
▁ᏕᏣᎸᏫᏍᏓᏁᎸᎢ	-11.6903
▁ᎤᏅᏎᏍᏗ	-11.6903
▁ᏚᏍᎫᏓᏛᎢ	-11.6903
▁ᎠᏄᎯᏍᏗᏍᎬᎢ	-11.6903
ᏁᏡᏅ	-11.6904
▁ᏚᏭᎪᏔᏅᎢ	-11.6904
▁ᎤᏃᎯᏳᏁᎢ	-11.6904
▁ᏚᏄᎪᏔᏅᎢ	-11.6904
▁ᏗᏓᎾᏅᎢ	-11.6904
▁ᏓᏰᏍ	-11.6904
▁ᏓᏅᏗᏍᎬᎢ	-11.6904
▁ᏫᎬᏍᏗ	-11.6905
ᏪᏒᏛ	-11.6905
▁ᎤᎩᏥ	-11.6905
▁ᏓᏂᏍᏓᏲᎯᎲᎢ	-11.6906
▁ᎠᏥᎢᏍᏗᏱ	-11.6906
▁ᎠᏒᎨᏍᏗ	-11.6906
▁ᎢᎤᎷᏤ	-11.6906
▁ᎠᏁᏙᎮᏍᏗ	-11.6907
ᏚᎢᏍᏓᏁ	-11.6907
▁ᎤᏮᏔᏅᎩ	-11.6907
▁ᎠᏛᏍᎨᎢ	-11.6907
ᏍᏔᏁᏍᏗ	-11.6908
ᏍᏔᏁᏗ	-11.6908
ᏐᏅᏤᎸᎩ	-11.6908
▁ᏬᏱ	-11.6909
▁ᎠᏓᎴᏂᏍ	-11.6909
▁ᎠᎩᏢᎬ	-11.6909
ᏂᏙᎸᎯ	-11.6909
▁ᏛᏨ	-11.691
▁ᎢᏳᏍᏗᏓᏂ	-11.691
ᎭᎵᏙᎩ	-11.6911
ᏔᏁᎸᎯ	-11.6911
ᏗᏔᎲᎭ	-11.6911
ᎵᏣᏙ	-11.6911
ᏓᏨᏁᎵ	-11.6913
ᎦᏌᏬᎢ	-11.6914
▁ᎢᏲᎩ	-11.6914
ᏛᏂᎲ	-11.6915
▁ᎤᏕᏘᏱᏍᎬ	-11.6915
ᎧᎪ	-11.6915
▁ᏄᏅᏁᎸᎩ	-11.6916
▁ᏧᎪᏩᏛᏗ	-11.6916
▁ᎠᎾᎵᏍᏓᏴᏗᏍᎬ	-11.6917
▁ᏚᎾᏦᏎ	-11.6917
▁ᏗᎦᎷᏫᏍᏔᏁ	-11.6917
ᎳᏗᏍᎪ	-11.6918
▁ᏤᏥᏃ	-11.6918
ᏩᏘᎭ	-11.6919
▁ᏗᎦᏲᏥ	-11.692
▁ᏂᎦᏪᏏ	-11.6921
▁ᏧᎾᏄᏬᏍᏗ	-11.6921
▁ᎠᎩᏂᎬᏎᎲ	-11.6922
▁ᎣᎩᎦᎵᏍᏓᏗᏍ	-11.6922
▁ᎤᏄᏮᎢ	-11.6922
ᏣᏛᎩᎭ	-11.6922
▁ᏗᎪᏱ	-11.6923
ᏯᏅᎮᎢ	-11.6924
▁ᎠᏆᎫᏴ	-11.6924
▁ᏧᏴᏫ	-11.6925
▁ᏓᏕᏲᎲᏍᎨᎢ	-11.6925
▁ᏗᎧᏃᎩᏍᏗᏱ	-11.6925
ᏅᏆᎶ	-11.6925
ᏂᏴᎲᎩ	-11.6925
▁ᏭᏯᏅᎲᎩ	-11.6925
▁ᎦᏌᎴ	-11.6926
▁ᎤᏥᏍᏛ	-11.6926
▁ᎠᏂᎦᎾ	-11.6926
▁ᎠᏯᏙᎵ	-11.6927
▁ᎤᏃᏴᎩ	-11.6927
▁ᏗᎧᎵᎢ	-11.6928
ᏂᏕᏅ	-11.6928
ᏓᏁᎰᎢ	-11.6928
▁ᎤᏅᏓᏛ	-11.6929
▁ᎠᏆᏚᎸᎲ	-11.6929
▁ᎤᎦᎾᏬᏍᎬ	-11.693
▁ᏕᎨᏥᏅᏩ	-11.693
▁ᏓᏂᎳᏫᎬ	-11.693
ᏍᏛᏗᏍᏗ	-11.693
▁ᏥᏂᎦᎵᏍᏗᏍᎪ	-11.693
▁ᎠᎩᏁᎸᎯ	-11.6931
▁ᎤᏂᏃᏁᎴ	-11.6931
ᎨᎬᏁᎵ	-11.6931
▁ᏂᏣᏪᏎᎸ	-11.6931
▁ᏚᏪᎧᏁᎢ	-11.6933
▁ᎪᎯᏳᏙᏗ	-11.6933
▁ᎤᏍᏕᏓᎵᏴ	-11.6934
▁ᏣᏂᏅᎩ	-11.6934
ᎵᏥᏙᏁᎲᎢ	-11.6934
▁ᎤᏃᎮᎸᎩ	-11.6935
▁ᏱᎬᏅ	-11.6935
ᏢᏔᎮ	-11.6935
▁ᎢᏣᏓᏅᏛᎢ	-11.6936
▁ᎠᏥᎦᏘᏗᏍᏗᏱ	-11.6936
ᏓᏛᎢ	-11.6936
▁ᎠᎵᎬ	-11.6936
▁ᎤᏍᎩᏓᏒᎢ	-11.6937
▁ᎤᏓᏅᏁᎢ	-11.6937
ᎦᏄᎳᏥ	-11.6937
ᏴᏎᎸᎩ	-11.6937
ᏓᏂᏱ	-11.6938
▁ᎠᏍᎧ	-11.6939
ᏑᏢᏛ	-11.694
▁ᎠᎾᏓᏅᏖᎵᏙ	-11.6941
▁ᎤᏍᏘᎬ	-11.6941
▁ᎠᎾᏕᎲᏍᎬᎢ	-11.6941
▁ᎤᏪᎴ	-11.6942
▁ᎤᏃᎯᏳᏒᎢ	-11.6942
▁ᎤᏅᏥ	-11.6942
▁ᎤᏂᎾᏗᏅᏎ	-11.6942
▁ᏕᎶ	-11.6942
▁ᏣᎩᏎ	-11.6944
▁ᎤᏰᏟ	-11.6944
▁ᏗᎪᏍᏓᏱ	-11.6944
▁ᎨᏥᎸ	-11.6946
▁ᎠᎩᏍᏛᏗᏍᎬᎢ	-11.6946
▁ᎡᎯᏍᏗᏳ	-11.6948
ᎦᏘᏲᎢ	-11.6948
▁ᎠᎫᏬᏰ	-11.6948
▁ᏚᎾᏘᏃᎸ	-11.6948
▁ᏣᎦᏛ	-11.6949
▁ᎤᏓᏴᏍᏗᏱ	-11.695
▁ᎫᏇ	-11.6951
ᏏᏙᎮ	-11.6951
▁ᎠᎩᏩᏛᎲᎩ	-11.6951
▁ᏱᏚᏩᏛᎮ	-11.6951
▁ᎠᎾᏔ	-11.6953
ᏛᎦᏅᎢ	-11.6954
▁ᎯᏰᎶ	-11.6955
ᎾᏰᎯᏍᏛ	-11.6955
ᎳᏍᏙᏗ	-11.6955
▁ᏂᏪᏏ	-11.6955
ᎩᏩᏛᏗᏱ	-11.6955
▁ᎤᏓᎴᏅᎯ	-11.6955
▁ᎯᏰᎵ	-11.6955
▁ᏓᎩᏏ	-11.6956
ᎦᏁᏍᏓᎳᏗ	-11.6956
▁ᎤᏬᏱ	-11.6957
▁ᎤᏬᏛ	-11.6957
▁ᎠᏂᎩᎵᏲᎬᎢ	-11.6957
ᎾᏋᏁᎸ	-11.6958
ᏒᏍᏙᏗ	-11.6958
▁ᏓᎾᏁᎶᎲᏍ	-11.6959
ᏍᏢᏂᏍᏔᏅ	-11.696
ᏛᏁᎵᏍᎩ	-11.696
ᏓᏦᏍᎬ	-11.696
▁ᎡᎵᏏ	-11.6961
▁ᏥᏯᎠ	-11.6962
▁ᎤᏔᏲᏎᎸᎩ	-11.6963
▁ᎤᏰᎯᏍᎩᏂ	-11.6965
▁ᎡᏗᎨᏳᎢ	-11.6966
▁ᏯᏃᎵ	-11.6966
▁ᏓᏂᏁᎵ	-11.6967
▁ᏓᏂᏃᎩᏍ	-11.6967
▁ᏯᏆᏚᎵᎭ	-11.6968
▁ᏚᎸᏌᏓ	-11.6969
▁ᏚᏓᏓᎴᏔᏁ	-11.6969
▁ᎤᎳᏏ	-11.697
▁ᎠᏝᎲ	-11.697
ᏗᎬᏩᎧᏃᏗ	-11.6971
▁ᏗᎦᏃᏣ	-11.6971
ᎦᎾᏬᎯᏍᏗ	-11.6971
ᎵᏍᏓᏁᎵᏒ	-11.6972
ᎵᏍᏓᏁᎸᎩ	-11.6972
▁ᎢᏳᏩᏁᎸ	-11.6973
ᏓᏏᏒ	-11.6973
▁ᏓᏤ	-11.6973
ᏟᏃᎮᏔᏁ	-11.6973
▁ᎣᎩᏰᎸ	-11.6974
▁ᏣᎯᏍᏗᏱ	-11.6975
▁ᎠᏆᏓᏤᎵᎦ	-11.6975
ᎸᏉᏔᏅᎩ	-11.6977
▁ᏚᏘᏃᎴ	-11.6977
ᏛᎿ	-11.6977
▁ᏫᏚᎷᏤᎸ	-11.6978
▁ᎢᏥᏁᏗᏱ	-11.6979
▁ᎠᏓᏪᎵᎩᏍᎬᎢ	-11.6979
▁ᎡᎭᏏ	-11.6979
▁ᎦᏑ	-11.698
▁ᎥᏘ	-11.6981
ᎵᏍᏙᏔᏁ	-11.6981
▁ᎤᎵᏦᏛᎢ	-11.6982
ᏓᏁᎶ	-11.6982
▁ᎤᏁᎷᎬᎢ	-11.6982
ᏦᏩ	-11.6983
▁ᎠᏇᏙᎸ	-11.6983
▁ᏐᎭ	-11.6985
▁ᏓᏲᎩ	-11.6985
ᏱᎩᎵ	-11.6985
ᏁᏢᏙᏗᏱ	-11.6985
▁ᏧᏲᎰ	-11.6986
▁ᎤᏍᏗᏰ	-11.6986
▁ᎪᎵᎦ	-11.6987
▁ᎤᏓᏙ	-11.6987
ᎬᏍᎪᎸᏁ	-11.6988
▁ᏱᏄᏍᏕᎢ	-11.6989
ᎧᏒᎢ	-11.699
ᏙᎯᏏ	-11.6991
▁ᏧᏂᎬ	-11.6992
▁ᏱᏥᎦᏔᎮᎢ	-11.6993
ᏙᏳ	-11.6993
▁ᏂᎬᏁᎰ	-11.6993
▁ᏚᏂᏰᎵᏒ	-11.6993
▁ᎾᎾᏛᏁᎭ	-11.6994
▁ᏙᎨ	-11.6995
▁ᎢᏤᎮᏍᏗ	-11.6995
▁ᎤᏂᏬᏂᎯᏍᏗᏱ	-11.6996
▁ᎤᎾᏓᏙᎵᏍᏔᏁ	-11.6996
▁ᏗᎦᎵᏍᏙᏗ	-11.6996
▁ᎤᏁᎳᏛ	-11.6997
ᏁᏙᎰ	-11.6998
▁ᎤᏂᎯᏍᏗ	-11.6998
▁ᎦᏓᎥᎢ	-11.6999
▁ᎤᎦᏙᎥᏒ	-11.6999
▁ᏂᎦᏔᎲᎾ	-11.6999
▁ᎤᎾᏤᎵᎪ	-11.7
ᏤᏯᏙᏤᎮᏍᏗ	-11.7
▁ᎤᎾᎵᎪᏒᎢ	-11.7001
▁ᏂᏕᎤᏍ	-11.7002
▁ᏓᏓᎯ	-11.7003
▁ᏥᏃᎮᏍᎬᎢ	-11.7005
▁ᎢᏣᎵᎪ	-11.7006
▁ᏂᏣᏛᏁᎰ	-11.7006
ᏗᎦᎵᏍᏙᏗᎭ	-11.7007
▁ᏄᏬᏚᏒ	-11.7007
▁ᎪᎪ	-11.7007
▁ᎣᏨᏗᏍᎬ	-11.7008
ᏲᏅᎵ	-11.7008
ᏦᎯᏳᎲᎦ	-11.7008
ᎢᏍᏔᎾ	-11.7008
▁ᎦᏆ	-11.7008
ᏓᎪᎾᏛ	-11.7011
▁ᏱᏚᏩᏛᎲ	-11.7011
▁ᏗᏁ	-11.7012
ᏰᎶᎴ	-11.7012
▁ᎦᏛᎬᎦ	-11.7013
▁ᏓᏥᏁ	-11.7014
▁ᏂᏨᏪᏎᎸ	-11.7014
▁ᏍᎩᏯᏕᎶᏆᎡ	-11.7015
ᏍᏔᏲᏍᏙᏗ	-11.7015
ᎸᏁ	-11.7015
▁ᏙᎦᏘᏁ	-11.7016
▁ᎦᏅᎵᏰ	-11.7016
▁ᏃᏥᎥ	-11.7017
ᏂᏍᏚᏁ	-11.7017
▁ᏯᎩᏍᏆᎸᎡ	-11.7018
▁ᏅᏩᏓ	-11.7019
▁ᏫᎬᏩᏂᏴ	-11.7019
ᎦᏎᏍᏙ	-11.7019
▁ᏓᏲᏥ	-11.702
▁ᏂᏙᏔᏘ	-11.7021
ᎤᏏ	-11.7021
▁ᎤᏲᎰᎢ	-11.7023
▁ᎤᏔᏃ	-11.7023
ᏥᏂ	-11.7026
ᏅᎦᎸᏗ	-11.7026
▁ᎦᎷᏥ	-11.7027
ᏃᏍᎩᏎ	-11.7027
▁ᏘᎦᎵᏍᏙ	-11.7027
▁ᏫᎬᏪᎧᏁ	-11.7027
ᏱᏉᏍᎩᏂ	-11.7027
ᏅᏁᎭ	-11.7028
▁ᎠᎩᏁᏨᎩ	-11.7029
▁ᎤᎾᏗᏓ	-11.7032
▁ᎤᏲᎷ	-11.7032
▁ᎪᏢᏒᎩ	-11.7034
▁ᏱᏓᏂᏁᏟᏴ	-11.7034
▁ᏗᏦᏢ	-11.7035
ᏯᏍᏛ	-11.7035
ᏯᎦᏎᏍᏗ	-11.7036
▁ᏤᎮᏍᏗ	-11.7036
ᏥᏁᎪᎢ	-11.7036
ᏰᏍᏔᏁᎢ	-11.7037
▁ᏍᎩᏅᎦᎸ	-11.7037
ᏑᏯᎩᏍᏗ	-11.7037
▁ᎠᏉᎯᏳᏅ	-11.704
ᎵᏴᏌ	-11.7041
▁ᎤᎶᎯᏍᏗᏱ	-11.7041
▁ᎬᏩᏂᏃᎮᏗ	-11.7042
▁ᎠᏥᏁᎸᎯ	-11.7042
▁ᎤᏂᏄᎸᏅ	-11.7044
▁ᎤᏁᏉᎡ	-11.7044
▁ᏤᏙᎰ	-11.7044
ᏲᏏᎭ	-11.7045
▁ᎤᏅᏁᎢ	-11.7046
▁ᏥᎶᏃ	-11.7047
▁ᏙᏤ	-11.7047
ᎾᎵᎩᏛ	-11.7048
▁ᏂᎦᏥᏴᏁᎸ	-11.7051
ᏓᏅᏓᏗᏍᏔᏅᎯ	-11.7052
▁ᎢᏥᎦᎵᏍᏓᏗᏍ	-11.7053
ᎫᏴᎲᎾ	-11.7054
ᏪᎵᏏ	-11.7054
▁ᏂᎦᏛᏁᎰᎢ	-11.7055
ᎵᏉᎩ	-11.7056
▁ᏁᏩᏔᎵᏃ	-11.7056
▁ᎨᏌ	-11.7056
▁ᎣᎩᎸᏉᏗ	-11.7057
▁ᏗᎦᏅᏬᎢ	-11.7057
▁ᏂᏍᏛ	-11.7057
▁ᏄᏩᏁᎲ	-11.7057
▁ᏙᏓᏆᏍᎬᎢ	-11.7057
▁ᎤᎾᏓᏅᏖᏔᏁ	-11.7057
▁ᎢᎬᏩᎵᏍᏓᏁ	-11.7058
ᏁᎥᏏ	-11.7059
ᏌᎹ	-11.706
▁ᏕᎨᏲᎲᏍᎨ	-11.7061
ᏔᏲᏎᎮ	-11.7062
▁ᏧᏁᎯ	-11.7063
▁ᏁᎵᏍᎬᎾ	-11.7064
▁ᏱᏅᎨᏣ	-11.707
ᏓᏰᏠ	-11.7071
▁ᏧᎾᏙᏅ	-11.7071
ᏒᎲᏍᏗᏱ	-11.7073
▁ᏚᏂᏔᎴ	-11.7073
ᏣᏃᏁᎵ	-11.7074
▁ᎤᏃᎭ	-11.7074
ᎦᎵᏍᏓᏛ	-11.7076
ᏛᏗᏍᎨᏍᏗ	-11.7076
ᏚᏳᎯᏛ	-11.7077
▁ᏤᎲᎢ	-11.7077
▁ᏣᏓᏅᏘ	-11.7078
ᏲᎱᏍᎬ	-11.7078
▁ᏩᏗ	-11.7079
▁ᏚᏫᏒ	-11.708
ᏁᏙᎭ	-11.708
ᏩᏛᎯᏓᏍᏗ	-11.708
▁ᎤᏪᎳᏗᏍ	-11.7081
▁ᎠᎦᏯ	-11.7081
ᏂᎨᏒ	-11.7081
ᏏᏓᏍᏗ	-11.7083
▁ᎯᏰᏌᏛ	-11.7084
ᎣᎸ	-11.7085
ᏔᎷᎩᏍᎬ	-11.7086
ᏅᏍᎬᎾ	-11.7087
ᎬᏇᎯᏍᏗᎭ	-11.7088
▁ᎦᏁᎵᏒ	-11.7089
ᏤᏍᏙᎩᎯ	-11.709
ᏍᎪᎵᏰᎥ	-11.7091
ᎨᏠᎮ	-11.7091
▁ᎬᏩᎾᏓᏅᎡ	-11.7092
▁ᏅᏂ	-11.7093
▁ᎤᎾᎵᎮᎵᏤᎢ	-11.7093
ᏁᏟᏴᏍᏔᏁ	-11.7093
▁ᏕᎤᎴᏔᏅᎢ	-11.7097
ᎵᏎᎭ	-11.7097
▁ᏩᎦᏘ	-11.7098
▁ᏣᎳ	-11.7098
▁ᏂᎦᎵᏍᏗᏍᎨᎢ	-11.7099
▁ᏄᏂᏪᏒᎢ	-11.7099
▁ᎤᏂᎾᏝᎾᎥ	-11.7099
▁ᏱᏔ	-11.71
▁ᎤᏩᏛᎲᎩ	-11.71
ᏌᏙᏯ	-11.71
▁ᎠᎪᎵᏰᏍᎨ	-11.71
▁ᎢᏥᏪᏍ	-11.7102
▁ᎳᏏ	-11.7102
▁ᎦᏄᎪᎢ	-11.7103
ᎢᎲ	-11.7103
▁ᎤᏬᏰ	-11.7103
▁ᎤᏂᏩᏛᎲ	-11.7104
ᏍᏓᏩᏗᏙ	-11.7105
▁ᎠᎩᏌ	-11.7107
▁ᎠᏢᏗ	-11.7107
▁ᎤᎾᏗᏔᎲ	-11.7107
▁ᏗᎬᏅ	-11.7108
▁ᏱᏝ	-11.7108
▁ᎠᏆᎩᎸ	-11.711
ᏓᏬᏍᏙᏗ	-11.7111
▁ᎤᎦᏖᏃ	-11.7111
▁ᎠᏲᎵᏃ	-11.7114
▁ᎵᏓ	-11.7117
ᏥᏰᎸᎾᏁᎰᎢ	-11.7118
▁ᏱᏕᏍᏗ	-11.7119
▁ᎤᏰᏥ	-11.712
▁ᏣᏲ	-11.7121
▁ᎤᏂᎩᏒᎢ	-11.7121
▁ᎤᏍᏕᎸᏗ	-11.7121
ᏔᏂᎴ	-11.7122
ᎴᏎᎢ	-11.7125
▁ᎢᎦᏛᏁᏗ	-11.7128
▁ᎤᎾᏌ	-11.7131
▁ᎤᏁᎵᏎᎢ	-11.7132
▁ᏚᎸᏫᏍᏓᏁᎸᎩ	-11.7133
▁ᎤᎷᏤᏗ	-11.7138
ᎧᏁᎬ	-11.7141
ᏘᎭᏁ	-11.7142
▁ᎡᏥᎷᏤᎸ	-11.7144
ᎷᏓ	-11.7144
▁ᏓᏘᏁ	-11.7147
ᏓᏙᎵᎨᏍᏗ	-11.7147
▁ᎨᏥᏍᏗ	-11.7148
▁ᏱᏗᏍᎩ	-11.7148
ᏲᎯᎭ	-11.715
▁ᏚᏕᏲᏅ	-11.715
ᏯᏛᎦᏁᎵ	-11.7151
▁ᎤᏪᎶ	-11.7152
▁ᎤᏥᏯ	-11.7152
▁ᎤᎧᎭ	-11.7154
▁ᎤᏂᏍᎫᏕᏒ	-11.7154
ᎪᏪᎶᏗ	-11.7156
▁ᎤᏁᎩᏒ	-11.716
▁ᎾᏆᎵᏍᏓᏁ	-11.7161
▁ᎠᎪᏎᎴ	-11.7164
ᏥᏂᏐᏗᏱ	-11.7165
▁ᏗᎬᏩᏁ	-11.7165
ᎾᏌᎢ	-11.7169
▁ᏗᏥᏰᎸᎢ	-11.7171
ᏓᏅᏔᏩᏕᎬ	-11.7171
ᎬᏂᏐᏗᏱ	-11.7172
ᏚᏓᏴᎳᏛ	-11.7172
▁ᏱᏧ	-11.7173
ᎭᏁᎦᎸ	-11.7174
ᏉᏎᏗ	-11.7175
ᎾᏬᏍᏔᏁᎢ	-11.7176
▁ᎠᏗᏔᏍᏗᏱ	-11.718
▁ᎦᏰᏌᏛᎢ	-11.7181
▁ᏣᎬᎩ	-11.7181
▁ᏚᏲᎴ	-11.7184
▁ᏂᎦᏪᏒ	-11.7188
▁ᏲᎪ	-11.7189
▁ᎤᏁᎦᎸᎢ	-11.719
ᎪᎰᏍᎬ	-11.719
▁ᎠᎵᏍᏕᎵᏍ	-11.7191
▁ᎤᏕᏒᏅ	-11.7194
ᎦᎾᎦᏘ	-11.7197
▁ᎠᏓᏅᏖᏍᎨᎢ	-11.7198
▁ᏙᎦᏠᎯᏍ	-11.7202
▁ᎠᏢᏛ	-11.7202
▁ᎡᎪ	-11.7203
ᏥᏅᎵ	-11.7206
ᏓᏱᎭ	-11.7208
ᎧᎯᏴᎩ	-11.7209
▁ᏂᎦᎷᎬ	-11.7209
▁ᎠᎾᏁ	-11.7209
▁ᏕᎰ	-11.7209
▁ᏄᏛᎾᏕ	-11.721
▁ᏓᎾᏛ	-11.7211
▁ᏚᎸᏌᏛᎢ	-11.7213
▁ᎠᏁᎵᏍᎨᎢ	-11.7213
▁ᎤᏂᏁᎸ	-11.7218
▁ᏳᏔᎳᏬ	-11.7218
▁ᎬᎳ	-11.7219
▁ᏕᎦᏅᏅᎢ	-11.722
▁ᏫᎦᎾᏄᎪᎢ	-11.7221
▁ᏧᏁᏨᏃ	-11.7223
▁ᎦᎸᎥ	-11.7224
ᏅᏍᏙᏗᏱ	-11.7225
▁ᏳᏘ	-11.7225
▁ᎤᏂᏁᏨᎢ	-11.7226
▁ᏴᎬᏩ	-11.7226
▁ᎣᏣᏓᏙᎵᏍᏗᏍ	-11.7228
ᏣᏙᎴᎰᎯᏍᏗᏱ	-11.7228
▁ᎤᏂᏰᎸᏒ	-11.7229
ᏨᏗᏍᎨᏍᏗ	-11.7232
▁ᎣᎬᏔᏅ	-11.7239
▁ᎤᎶᏒᎢ	-11.7241
▁ᎠᎵᏍᎪᎸᏙᏗᏱ	-11.7245
ᏲᏍᏗᏍᎩ	-11.7245
ᏂᏜ	-11.7246
▁ᏥᏂᎦᏪᏍᎬ	-11.7247
ᎩᎡᎭ	-11.7248
ᏕᎰᎯᏍᏙᏗᏱ	-11.7252
▁ᏥᏯᏙᎵ	-11.7253
ᏫᏍᎦ	-11.7253
▁ᎤᏛᏗ	-11.7255
ᏓᎦᎵᏍᏙᏓ	-11.7256
▁ᏱᎾᎾᏛᏁᎰ	-11.7256
ᎠᏴ	-11.7258
ᏲᏎᎸ	-11.7258
ᎦᏙᏴ	-11.7259
ᏂᏏᏅᎩ	-11.7265
▁ᏲᎨ	-11.7266
ᏨᏁᎰ	-11.7267
ᏦᏴ	-11.7268
▁ᎢᏣᏓᏑᏴ	-11.7269
▁ᎡᏙᎰ	-11.727
ᏘᏍᎬᎾ	-11.7271
▁ᎤᎵᏍᏔᏁ	-11.7276
▁ᎠᏁᏙᎮᎢ	-11.7278
ᏥᎪᎵᏯ	-11.7278
ᎵᏩᏛᎡᎲᎢ	-11.7279
ᏅᎨᎢ	-11.728
▁ᎠᏗᏔᏍᎬ	-11.7281
ᏎᎲᎢ	-11.7284
▁ᎠᎩᏍᏆᏛ	-11.7288
ᎮᎯ	-11.7288
ᏙᎴᎰᎯᏍᏙᏗ	-11.729
▁ᎫᎭ	-11.7293
ᎫᏴᎡᎮᏍᏗ	-11.7294
▁ᎤᏂᎷᏤᎭ	-11.7294
ᏥᏏ	-11.7297
▁ᏧᏂᏙ	-11.7297
▁ᎠᎾᏗ	-11.7297
▁ᎠᏂᏁᎩ	-11.7298
ᏝᏅᎯ	-11.7299
ᎨᏍᎩ	-11.73
▁ᎠᏥᏔᏲᏎ	-11.73
ᏱᏐ	-11.7301
ᎬᏍᏉ	-11.7302
ᏍᎦᏍᎪ	-11.7305
ᏃᎯᏯ	-11.7306
ᏂᏨᏁᏍᏗ	-11.7307
ᎿᏬᏍᏗ	-11.7309
ᏰᎾ	-11.731
▁ᎠᏥᎪᎵᏰᎥ	-11.7312
ᏓᏂᎸᏤ	-11.7312
▁ᏚᎾᎵᏂᎪ	-11.7313
▁ᏱᏍᎩᏯ	-11.7317
▁ᎪᏍᏗᏳ	-11.7318
▁ᎬᎩᎸᏉᏗ	-11.7318
▁ᏱᏂᏨᏁ	-11.7319
▁ᏕᎤᏅ	-11.732
▁ᎤᏪᎧᎮ	-11.7321
ᏙᏓᏋ	-11.7325
▁ᎢᏳᏩᏁ	-11.7326
▁ᎠᏂᎳᎨᏴ	-11.7326
▁ᎤᏴᏔᏁ	-11.7327
ᎵᏃᎮᏗᏍᎨᏍᏗ	-11.7327
ᏥᏍᏈ	-11.7327
▁ᏙᏍᎩ	-11.7327
▁ᎦᏰᏗ	-11.7328
▁ᏚᎾᏗᏩᏍᎨ	-11.7328
ᏛᎲᏃ	-11.7329
▁ᏳᏃᎯᏳ	-11.733
▁ᎤᏩᏥ	-11.7331
▁ᏙᏥᏩᏛᎲ	-11.7331
ᏄᏪᏎᎢ	-11.7331
ᏚᏅᏁᎴ	-11.7331
▁ᏚᏪᏘ	-11.7331
ᎩᏂᎬᎦ	-11.7337
▁ᎤᏪᏅᎡ	-11.7337
ᏁᏤᎸᎩ	-11.7339
▁ᏚᏬᏎᎴ	-11.7339
ᎩᎪᏩᏛ	-11.7341
▁ᏚᏃᏒ	-11.7343
▁ᎢᏨᏗᏍᎪ	-11.7344
ᏥᏫ	-11.7344
▁ᏳᎾᏚᎵᏍ	-11.7344
▁ᎤᏚᎵᏍᎨᎢ	-11.7347
▁ᏱᎾᏅ	-11.7349
▁ᏙᎢ	-11.7349
ᎴᎪᎢ	-11.7352
▁ᎦᎵᎭ	-11.7353
ᏒᏍᏗᏱ	-11.7355
▁ᏳᏯ	-11.7355
ᏅᎾᏉ	-11.736
▁ᏂᎦᏛᏅᎢ	-11.736
ᎾᏟᎴ	-11.7362
ᏍᎪᏎ	-11.7362
▁ᎬᏩᏓᏅᏘ	-11.7364
ᎦᏙᏍᏙ	-11.7367
ᏩᏕᎩ	-11.7369
ᏣᏛᎦᏁᎸ	-11.7371
ᏃᎸᏔᏅᎩ	-11.7378
▁ᎢᏥᎦ	-11.738
▁ᏧᏍᎪᏍ	-11.738
▁ᏫᏥᎷᏤᎸ	-11.7382
▁ᏒᏟ	-11.7384
▁ᎢᏫ	-11.7387
▁ᎤᎾᎵᏍᎦᏍᏙ	-11.739
ᏓᏴᏍᏗ	-11.739
▁ᏛᎵ	-11.7391
ᏍᏔᏁᎯ	-11.7393
ᎭᏯᎸ	-11.7396
ᎬᏙᏗ	-11.7398
▁ᎤᏕᏒ	-11.7399
▁ᏍᎩᎾᎾᏂ	-11.7399
▁ᏥᎩᏁᎸ	-11.7403
ᎾᎥᎾ	-11.7405
▁ᏩᎩᎶᎯ	-11.7405
▁ᎦᎶᏁ	-11.7407
ᏁᏟᏴᏎ	-11.7409
▁ᏚᏂᏅᏁ	-11.7409
▁ᏓᏳᏪ	-11.7413
ᏯᏛᎩᎭ	-11.7413
ᎩᎸᏂ	-11.7417
ᎪᏢᏁᎢ	-11.7418
▁ᎬᎩᏰᎸ	-11.742
ᏘᏲᎸ	-11.742
▁ᏯᎩᏍᏕᎵ	-11.7421
▁ᏧᏂᏴ	-11.7422
ᎾᏗᏍᎪ	-11.7424
▁ᎤᎸᏅ	-11.743
ᎢᏎᏗ	-11.7431
▁ᎢᏨᏃᏁᎸ	-11.7432
ᏯᏘᏄᎦ	-11.7433
▁ᏂᎤᏪᏎ	-11.7437
ᏗᎦᎸᏉᏗ	-11.7439
▁ᏱᏗᎩ	-11.744
▁ᏥᏄᏛᏁᎴ	-11.744
ᏴᏍᎪᏳᏁ	-11.7442
▁ᎤᎴᏅᏔᏅ	-11.7443
▁ᏂᏨᏃᏁ	-11.7444
▁ᎢᏳᎾᏛᏁᎸ	-11.7446
ᏂᏙᎭ	-11.7447
ᎣᏐᏅ	-11.7447
ᎵᏎᎯ	-11.7449
▁ᎠᏂᎲᏍᎨ	-11.7452
▁ᎠᎴᏂᏓᏍᏗ	-11.7454
▁ᎤᏲᏨᎩ	-11.7454
▁ᏓᏂᎯᏯᏍ	-11.7455
ᎵᎥᏂ	-11.7458
ᎳᏁᎸ	-11.7464
▁ᎦᏙᎥ	-11.7464
▁ᎣᏥᏅ	-11.7467
▁ᏧᏪᏰ	-11.7467
ᎨᎵ	-11.7469
ᏪᏅᏎ	-11.7469
▁ᎤᏍᎦᎸ	-11.7471
▁ᏦᏥᏩᎾᎦᎳ	-11.7471
▁ᎦᏛᎢ	-11.7472
ᏙᎲᎾ	-11.7474
ᏍᎦᎢᎮ	-11.7476
ᎡᏥᏍᏓᏩᏕᎩ	-11.748
▁ᎤᏩᎯ	-11.7482
ᏯᏔᎲ	-11.7484
ᏙᎳᏛᏗ	-11.7486
▁ᏘᎪ	-11.7487
▁ᎠᏆᏚᎵᏍᎬᎢ	-11.7487
ᎤᏂᏴ	-11.7487
▁ᎦᎵᏍᏓᏴᎲᏍᎬ	-11.7488
▁ᎤᎿᎸᏤ	-11.7491
ᏭᎪ	-11.7493
ᎵᏖᎸᏂᎴ	-11.7495
▁ᎠᏍᏓᏱᏗᏍᏗ	-11.7499
ᏕᎶᏆᎥ	-11.75
▁ᎤᎦᏘᏗᏍ	-11.75
▁ᏗᏣᏓᏅᏙᎩ	-11.7506
ᏒᏓᏅ	-11.7507
ᎦᏌᏯᏍᏗ	-11.751
ᎸᏔᏅᎯ	-11.7511
▁ᏣᏍᏆᏂᎪ	-11.7511
▁ᎷᎦ	-11.7513
▁ᏧᎦᎾ	-11.7519
ᏗᏎ	-11.7519
▁ᎧᏂ	-11.7519
▁ᎬᏍᎦ	-11.7519
ᎯᏨ	-11.7521
ᏩᏔᎰ	-11.7521
ᎫᏍᏛᏗ	-11.7522
▁ᏛᎾᎢ	-11.7523
ᎦᏔᎿᎥᎾ	-11.7527
▁ᎠᎾᏓᏱ	-11.7528
ᎪᏪᎸ	-11.7529
ᎬᏓᏃᏍ	-11.7532
▁ᏓᎾᏘᏁ	-11.7533
▁ᏧᏂᎭ	-11.7534
ᏩᎾᎨ	-11.7537
ᎵᎦᎵᏴ	-11.7537
▁ᎤᏲᎮᏍᏗ	-11.7538
▁ᏗᎦᎬ	-11.7541
ᎬᎾᏬᏙᏗᏱ	-11.7542
ᏓᎴᏍᏗ	-11.7542
ᏢᏔᏅᎯ	-11.7543
▁ᎠᏓᏔᎶᎯ	-11.7546
ᎦᎿᏅ	-11.7547
▁ᎬᎵ	-11.7548
▁ᎤᏲᏉᏍᎩᏂ	-11.7549
▁ᎠᏍᏓᏲ	-11.755
▁ᏧᏩᏅ	-11.7554
▁ᏣᎾᎢ	-11.7563
ᏱᎵᏙᎯ	-11.7564
ᏓᏁᏘ	-11.7566
ᏡᎩ	-11.7571
▁ᏂᏗᎩ	-11.7573
ᏆᏒᎦᎸ	-11.7574
▁ᏣᏚᎳ	-11.7576
ᏘᏁᏏ	-11.7577
▁ᎦᏬ	-11.758
ᎦᎵᏯ	-11.7582
▁ᎨᏥᎪᎵᏰᏗ	-11.7582
▁ᎤᎵᏂ	-11.7586
ᏰᏙᎳᏛᏅ	-11.7587
▁ᏩᏥᏯᏅ	-11.7589
ᏏᏲ	-11.7594
ᎧᏁᎢ	-11.7598
▁ᏱᎪᎯᏳᎲ	-11.7601
▁ᏕᎦᏁ	-11.7601
▁ᎤᏍᏕᎸᎮ	-11.7601
ᎯᏳᎲᎦ	-11.7602
▁ᏱᏄᏅᏁ	-11.7605
ᏚᏂᎸᏫᏍᏓᏁᎰᎢ	-11.761
▁ᎤᏬᏢᎾᏁ	-11.761
ᎥᏍᎬᎾ	-11.7612
▁ᎡᏥᏃᏁ	-11.7613
▁ᏱᏗᏥᏳᎪᏓᏁ	-11.7618
▁ᏙᏓᎦᏅ	-11.762
▁ᏗᏕ	-11.762
ᎴᏍᏗᏱ	-11.7621
ᏩᏂ	-11.7625
ᏴᏈᏛ	-11.7626
ᏂᎬᎬᎢ	-11.7632
▁ᎣᎩᏂᏙ	-11.7636
▁ᎠᏍᏚᎩ	-11.7636
▁ᎦᏥᏔᏲᏎ	-11.7638
ᎫᏤᎵ	-11.7639
▁ᏧᎬᏩᎴ	-11.7642
▁ᏂᎠ	-11.7645
ᎪᎵᏰᏍᎪᎢ	-11.7648
▁ᎤᏁᏅᎢᏍᏗ	-11.7655
ᎦᎵᏍᏗᏍᎩ	-11.7655
▁ᎤᏩᏒᎯ	-11.7657
ᏂᏴᏍᏗ	-11.766
▁ᏚᏅᏏ	-11.7665
▁ᎦᎪᏗᏱ	-11.7665
▁ᎦᏒ	-11.7667
ᏚᏛᏛᏅᎩ	-11.7669
ᏟᏫᏛᏗ	-11.767
▁ᎦᎵᏥᏙᎲᏍ	-11.767
▁ᏂᏍᎩ	-11.7673
▁ᎠᏢᏈᏍᏗ	-11.7674
ᎧᎾᏂ	-11.7684
ᎵᏃᎮᏔᏅᎩ	-11.7684
ᎫᏴᎲ	-11.7685
ᏌᏬᎢᎲ	-11.7689
▁ᎤᏅᏗᏱ	-11.7691
ᎬᏍᎪᎸᏅᎢ	-11.7693
▁ᎠᏍᎦᏰᎬᏍ	-11.7694
▁ᏧᏂᏢᎩᎢ	-11.7694
ᏍᏆᏗᏍᏗᏱ	-11.7696
ᏚᎢᏍ	-11.7699
ᎠᏆᏚᎵ	-11.77
▁ᏭᏕᎵᎨ	-11.7708
▁ᎤᏙᏩᏗᏍ	-11.771
ᏢᏙᏗᏱ	-11.771
ᏙᏓᏆᏛ	-11.7712
ᏯᏙᎮᎮᏍᏗ	-11.7713
▁ᎠᎾᏓᏟᏏ	-11.7713
ᏂᏍᎩᏴᎦ	-11.7717
ᏯᏓᏱ	-11.7719
ᎾᏗᏅᏒᎩ	-11.7719
ᏲᏞᏒ	-11.7731
ᏆᏗᏅᏛ	-11.7731
▁ᎬᏩᏂᎾᏄᎪᏫᏒ	-11.7733
ᎶᏁᎢ	-11.7735
▁ᎠᎩᏰᎸᏒ	-11.7736
ᏯᏅᎯᎸ	-11.7737
▁ᏣᏚᎵᏍᎬᎢ	-11.7739
▁ᏭᏖᎳ	-11.7739
▁ᏓᏂᏱ	-11.7745
ᎵᏙᎮᏍᏗ	-11.7746
ᏲᎸᎩ	-11.7746
ᏂᏐᏗᏱ	-11.7746
▁ᎠᎪᎲ	-11.7746
▁ᎠᏆᎵᏃᎮᏔᏅ	-11.7747
ᎾᏏᏗ	-11.7749
ᎿᏕᎬ	-11.775
ᏗᏍᎦᎳᏁ	-11.775
ᏴᏅ	-11.7758
ᏛᏎᎢ	-11.7758
▁ᎠᎾᏁᏍᎨ	-11.7761
▁ᎤᏕᏯ	-11.7762
▁ᏣᏕᎲᏍ	-11.7763
▁ᏩᏴ	-11.7764
ᏛᏁᎴᎢ	-11.7766
ᏤᎸᎩ	-11.7767
ᎾᏁᏍᎩ	-11.7768
▁ᏣᏂᎧᏔᎮ	-11.7769
ᏥᏍᏆ	-11.7771
ᏅᏎᏃ	-11.7774
▁ᎢᏨᏴᏁ	-11.7778
▁ᏞᎩ	-11.7779
ᏈᏴ	-11.7783
▁ᎨᏣᎪᏩᏛᏗ	-11.7784
▁ᎤᏪᎳ	-11.7785
▁ᎢᏤᎵᏎ	-11.7785
ᎬᎾᏉ	-11.7786
ᏩᏛᎡᏗᏱ	-11.7788
▁ᏚᎾᏠᏒ	-11.7792
▁ᏯᏆᏓᏅᏓᏗᏍ	-11.78
▁ᏰᏙ	-11.78
▁ᎠᏥᏴ	-11.7805
ᏘᏍ	-11.7806
▁ᎬᏍᎬ	-11.7807
▁ᏓᎦᏙ	-11.7811
▁ᏚᎪᎲᏃ	-11.7813
ᏢᏔᎲ	-11.7815
▁ᎡᏥᎩᎵᏲᎢᏍᏗᏍ	-11.7816
▁ᎤᏓᎵᏓᏍ	-11.7816
ᏳᎲᏍᎩ	-11.7818
▁ᏂᎦᎵᏍᏗᏍᎬᎢ	-11.7819
▁ᏗᎦᎳᏗᏍ	-11.782
ᏕᎪᏢᎾ	-11.7821
ᏥᎵᎥᏂᎵ	-11.7824
▁ᎠᏍᎪᏒ	-11.7832
ᎩᏍᎬᎢ	-11.7832
▁ᏥᏅᏏᏓᏍᏗᏃ	-11.7833
ᏓᏍᏓᏴᏗ	-11.7834
ᎫᏴᎡᏗ	-11.7835
ᏏᏙᎸ	-11.7842
ᏂᎷᏣ	-11.7842
ᏠᎲ	-11.7846
ᎦᏚᏢ	-11.7853
ᏂᏴᏙᏗ	-11.7855
ᏫᏱ	-11.7857
ᏣᏛᎯᏎᎸ	-11.7862
▁ᏄᎨᏳᏎ	-11.7872
ᏌᏆᎴᎸ	-11.7878
▁ᏗᎲᎢ	-11.7878
ᏥᎦᏖᏃᎭ	-11.788
▁ᏙᎤᏁᏅ	-11.7881
▁ᏗᎦᎳ	-11.7881
▁ᎤᏓᎸᏉ	-11.7882
ᎦᏔᏂᎴ	-11.7884
▁ᏓᏂᏢ	-11.7884
▁ᎤᏲᎴᎢ	-11.7885
▁ᎦᏍᎩ	-11.7885
ᏌᏕᎢ	-11.7886
ᎳᎨᏯᏛ	-11.7887
▁ᏧᎾᏓᎯᏍᏗ	-11.7888
▁ᎤᏩᎨᏫᏒ	-11.7891
▁ᏕᎯᏁ	-11.7891
▁ᎤᏓᏠᏍ	-11.7891
ᏓᏦᎲ	-11.7893
▁ᎤᏂᏟᏌᏅ	-11.7897
▁ᎬᏩᏒ	-11.7899
▁ᎤᏂᎦᏙᎥᎯᏍᏗ	-11.79
▁ᎠᏥᎪᎵᏰ	-11.7907
ᏄᏬᎥ	-11.7908
ᎧᎭᏲ	-11.7916
▁ᎢᏣᏪᏍᏗ	-11.7916
ᏅᎵᏰᎥ	-11.7918
▁ᎤᏔ	-11.7922
▁ᎬᏯᏛᏁ	-11.7929
▁ᏚᏃᏴ	-11.7931
▁ᏍᏆᎵᏍᎪᎸᏓ	-11.7932
▁ᏧᏃᎯᏳᏗ	-11.7932
▁ᎭᎸ	-11.7934
ᏥᏯᎵᏍᎪᎸᏓᏁ	-11.7936
▁ᎦᏰᎪ	-11.7936
ᏥᏚᎢᏍᏓᏁᎸ	-11.7937
▁ᏫᏚᏂᏲᎯᏎ	-11.7939
▁ᏕᏥᏁ	-11.7942
▁ᏕᎦᏂᏱᏍ	-11.7943
ᎵᏓᏍᏙᏗ	-11.7944
▁ᎢᎸᏍᎩᏉ	-11.795
ᎦᎵᏍᏓᏗᏍᏗᏱ	-11.795
▁ᏕᎦᎵ	-11.795
ᏗᎷᏥ	-11.7951
▁ᎧᏅᏂᏍᎩᏉ	-11.7953
ᏯᏘᏃᎯᏏ	-11.7956
ᏬᏁᏗᏍᎨ	-11.7958
▁ᎠᏂᎧᎵ	-11.7959
ᏂᎾᏰᏍᎬ	-11.7961
ᏯᏂᏍᎨᏍᏗ	-11.7962
ᏚᎩᏍᏗ	-11.7969
ᎩᎵᏲᎢᏍᏗᏍᎬᎢ	-11.7971
ᎳᏗᏍᎨᎢ	-11.7971
ᏐᏗᏱ	-11.7974
▁ᏏᎻ	-11.7974
ᏲᏅᎯ	-11.7982
▁ᏣᏓᏅᏖ	-11.7982
ᏏᏌᏅ	-11.7983
▁ᏱᏕᏣ	-11.7983
ᏎᏛ	-11.7984
▁ᎬᏩᏂᎩ	-11.7993
▁ᎢᏳᎵᏍᏔᏁ	-11.7994
▁ᎨᏦᎯᏳ	-11.7996
▁ᏚᎩᏎ	-11.7999
ᎸᏨ	-11.8002
ᎦᏔᎮᎢ	-11.8003
ᏨᏁᏗᏱ	-11.8004
▁ᎡᏥᏍᏕᎸ	-11.8013
ᎧᎿᏩᏗᏙᎮᏍᏗ	-11.8015
▁ᏓᎧ	-11.8017
▁ᎤᎾᏙᎴᎰᏒᏃ	-11.8017
▁ᎢᏣᏙᎴᎰ	-11.8023
ᏓᏁᏢ	-11.8024
▁ᎤᎶᏒᏍᏓᏁ	-11.8025
▁ᎤᎾᏕᏯᏙᏗ	-11.8026
ᏁᏛ	-11.8033
▁ᏥᏫᎦ	-11.8039
ᎾᎵᏖᎸᏂ	-11.8041
ᎾᏓᏛᏁᏗᏱ	-11.8047
ᎬᏩᏓᎴᏅᏛ	-11.8048
ᎾᏓᏨᏯᏍ	-11.8048
▁ᎯᏃᎮᏍᎬ	-11.805
▁ᏗᏥᏁᎸ	-11.8059
ᏥᎾᏌᎢ	-11.8066
ᏤᎶᎯ	-11.8068
▁ᎨᏦᎯᏳᏗ	-11.8069
▁ᏚᏅᏅ	-11.807
▁ᎤᎵᏍᏙᏰ	-11.8075
ᎶᏁᎥ	-11.8082
▁ᎾᏗᏍ	-11.8084
▁ᏍᏆᏛᏓᏍᏓ	-11.8088
ᏴᏍᎪᎢ	-11.8095
▁ᎠᎩᏥ	-11.8095
▁ᎤᏁᎳᏗᏍᏗ	-11.8103
▁ᎠᏆᏓᏅᏘ	-11.8113
ᎧᎵᎢᏍᏔᏅ	-11.8114
ᏍᏆᏛᎯ	-11.8115
▁ᏗᏤᎷ	-11.812
▁ᏳᎾᏅ	-11.8122
▁ᎤᏌᏛ	-11.8132
ᎥᎭ	-11.8133
ᏔᏟ	-11.8138
ᏥᏁᎢᏍᏗᏍᎬ	-11.814
ᎾᏄᎪᎨᏍᏗ	-11.8142
ᏂᏯᏫᏍᎬ	-11.8147
ᏂᏅᏫᏍᏗᏍᎩ	-11.8155
ᏲᎱᏎᎸ	-11.8155
ᎾᏓᏂᎸᏤ	-11.8155
ᎾᏓᏛᏁᎭ	-11.8156
ᎬᏩᎶᏔᏅ	-11.8156
▁ᎠᏓᎩᎡ	-11.8158
ᏚᏙᎥ	-11.8163
▁ᎤᏩᏛ	-11.8166
ᏣᏛᏁᎮᏍᏗ	-11.8169
▁ᏘᎧᎵ	-11.8169
▁ᏰᎵᎠ	-11.8169
ᏘᏲᎯ	-11.8171
▁ᎤᏔᏕᎩᏍᎨ	-11.8174
ᏥᏲᎭ	-11.8175
ᏈᏃ	-11.8177
▁ᎠᏥᏐᏅ	-11.8186
ᎾᏰᏍᎬᎢ	-11.8188
▁ᎢᏨᎪ	-11.8198
▁ᏚᏄ	-11.82
ᎵᏎᏗ	-11.8201
ᏲᎯᏍᏗᏱ	-11.8207
▁ᎠᎾᏁᎷᎩ	-11.8208
▁ᎠᎾᏡᏗ	-11.8211
ᏕᏙᏛ	-11.8213
ᏅᏫᏍᏗᏍᎨ	-11.8221
▁ᏳᏴ	-11.8229
▁ᎢᏍᏗᎪ	-11.824
ᎩᎷᏨᎩ	-11.8246
ᎫᏍᏙ	-11.8249
▁ᎤᎵᎬᏚ	-11.825
ᏯᎩᏍᎪ	-11.8251
ᏏᎾᏍᏛ	-11.8256
▁ᎣᎨ	-11.8259
ᎬᏔᏅᎯ	-11.8259
▁ᏓᏁᎶᏛ	-11.8259
p	-11.8264
▁ᎧᏁᏉᎨ	-11.828
ᎮᎸᎯ	-11.8283
ᏥᏍᏢ	-11.8284
ᏙᏯᏅᎯᏕᎢ	-11.8284
▁ᎣᏂᏍᎩᏂ	-11.8288
▁ᎦᎸᏅ	-11.829
ᏕᏏ	-11.8293
ᎯᏙᎸ	-11.8294
ns	-11.8296
ᎦᏅᏓᏓ	-11.8302
ᎸᏉᏔᏅ	-11.8306
ᎾᏕᎶᏆᏍᏗ	-11.8307
ᎸᏒᎢ	-11.8309
▁ᏗᏔᎴ	-11.832
ᏆᎵᏍᏓᏁ	-11.8324
▁ᎦᏙᎬᎢ	-11.8324
▁ᏏᏂ	-11.8325
▁ᎤᏪᎵᏎᎢ	-11.8326
▁ᎠᏲᎪ	-11.8327
▁ᎠᎩᏛ	-11.8331
▁ᎠᎪᎵᏰᏍᎪ	-11.8332
▁ᏓᎪᏩᏘᏍᎨ	-11.8332
▁ᎠᎩᎬ	-11.8332
ᏰᎸᎰ	-11.8334
ᎫᏴᎡᎸ	-11.8346
▁ᏥᏕᎲ	-11.835
ᏗᎦᏄᎪᎪ	-11.8351
▁ᎤᎾᏘ	-11.8353
ᎦᏥᏯᏓᏙᎵᏍᏓᏁᎭ	-11.8353
ᏆᏓᎾᏰᏍ	-11.8358
ᏲᎲᎩ	-11.8362
ᎧᎸᎩ	-11.8364
ᏗᏅᏓ	-11.8366
ᏨᏁᎸ	-11.8367
▁ᏫᏓᏯᏂᏍ	-11.837
▁ᎠᏙᎴᎰ	-11.8371
▁ᏂᎬᏅᎩ	-11.8377
ᎬᏍᎦᎳ	-11.8378
ᏂᏏᏁ	-11.8382
ᏬᎡ	-11.8382
▁ᎤᏱᎶ	-11.8383
▁ᎤᏍᎪᏎ	-11.8385
ᎮᎭ	-11.8386
ᏒᎨ	-11.8387
▁ᎬᏬᎯᏳᎲᏍᎨ	-11.8393
ᏍᏓᏩᏗᏙᎭ	-11.8397
ᏘᎾᏫᏛᎯ	-11.8397
▁ᏅᏙᎯ	-11.8403
ᎯᎸᏍᏗ	-11.8408
▁ᏙᏓᏥᏃᎩ	-11.8413
▁ᏧᎾᏁᎳ	-11.8418
▁ᎦᏂᎩ	-11.842
▁ᏚᏏᎳᏛᎢ	-11.842
▁ᎦᏙᎨᎢ	-11.8425
ᏯᎪᎦ	-11.8425
ᏛᏁᎰᎢ	-11.8428
▁ᏂᏥᎦᏔ	-11.8428
▁ᎬᏩᏯᎢ	-11.8429
▁ᏯᏍᎦᎢᎮ	-11.8434
▁ᎤᏂᏔᏲ	-11.844
▁ᎦᏕᎶᎣᏍ	-11.844
ᎬᏍᎦᎸ	-11.8441
ᎾᏲᎪ	-11.8442
ᏁᏒ	-11.8447
▁ᏗᏓᎴᎲᏍᎨ	-11.8449
▁ᎢᏥᏰᎸᏒ	-11.8452
ᎾᏩᏛ	-11.8459
▁ᏒᏃ	-11.8463
ᏩᏂᏌᏁ	-11.8465
ᏕᎮᏍᏗ	-11.8467
ᏅᎦᎸᎮᎢ	-11.8472
ᎳᏅᏓᏕᎸ	-11.8486
ᎸᎾᏉ	-11.8489
▁ᎤᏩᏌᏆ	-11.8489
▁ᏔᎵᏉ	-11.849
▁ᎠᏎᏍᏗ	-11.8493
ᏛᏅᎢᏍᏙᏗ	-11.8494
▁ᎤᎵᏃᎯᏰ	-11.8497
▁ᎤᎾᎴᏗ	-11.8497
ᎧᎳ	-11.8498
▁ᏓᏰᏥ	-11.8506
▁ᏧᏬᏚ	-11.8511
ᏘᏍᏓᏁᎯ	-11.8519
ᎩᏙᎵᏍᏗᏱ	-11.8519
▁ᏭᎪᎲ	-11.8522
ᎦᏙᎥᏒ	-11.8525
▁ᎤᏂᎦᏯᎷ	-11.8528
ᎯᎦᏔᎭᏍᎪ	-11.8529
ᏕᏨᎩ	-11.853
▁ᏴᎦᏥᏍᎦ	-11.8533
▁ᏚᎦᏙᏍᏔᏁ	-11.8538
ᏤᎸᏍᎦ	-11.855
▁ᏳᏚ	-11.8553
▁ᎤᏂᏁᏎ	-11.8556
ᏓᏅᎦᎸ	-11.8564
ᎪᏛᎢ	-11.8566
ᎾᏓᏂᎸᏨ	-11.8571
ᏂᎦᎵᏍᏓ	-11.8572
ᎲᏍᏔᏅ	-11.8576
▁ᏕᎩᏂᏴ	-11.8589
ᏯᏙᎯᎯ	-11.8594
▁ᏚᏏᏔᏕ	-11.8596
ᎪᏂᎭ	-11.8597
▁ᏗᏣᏛ	-11.8605
ᎦᏘᏗ	-11.8606
▁ᎤᎨᎢ	-11.8608
ᏉᏑᎴ	-11.8615
ᎧᏁᏥ	-11.8618
▁ᏚᏄᎪ	-11.8623
ᎪᎰᏍ	-11.8627
▁ᏱᏂᎦᎵᏍᏗ	-11.8631
ᎩᏯᎷᎦ	-11.8631
▁ᏓᏂᏃᎮ	-11.8635
ᎩᏁᏥ	-11.8638
▁ᎭᎵᏍᏓᏴᎲᏍ	-11.8639
ᏩᏛᏍᏗ	-11.8642
ᏔᏲᏎᎸ	-11.8648
▁ᎬᏴ	-11.8651
▁ᎤᏤᎸᏅ	-11.8656
ᏕᎲᎦ	-11.867
ᎯᏓᏍᏗᏱ	-11.8671
ᏍᏚᏣ	-11.8673
ᏥᏅᏏᏛ	-11.8678
▁ᏯᏇᎵ	-11.8682
ᏥᏬᏁᏔᏅ	-11.8683
ᎷᏤᎰᎢ	-11.8685
ᎪᎮ	-11.8687
ᏍᏓᏴᏗ	-11.8691
ᎵᎮᎵᏥ	-11.8695
ᏲᎱᏎᎸᎯ	-11.8698
ᏑᎦᏢ	-11.8706
▁ᏭᏂᏴᏍᏗ	-11.8709
ᏲᏍᏙᏓ	-11.8716
▁ᎤᎵᎮᎵᏤᎸ	-11.8716
ᎾᎴᏫᏍᏔᏁ	-11.8717
ᏕᎳ	-11.8719
ᎦᎷ	-11.8719
ᎬᏎ	-11.8721
▁ᏯᏂᏁ	-11.8726
▁ᏱᏥᏲᏍ	-11.8728
ᏛᏓᏍᏔᏅ	-11.8729
ᎳᏑᎸ	-11.8732
▁ᎤᏬᏪᎳ	-11.8733
ᏥᏯᏅᎲ	-11.8737
ᏬᎥᎢ	-11.8737
▁ᎤᎵᏍᎨ	-11.8743
ᏂᎴᎢ	-11.8746
▁ᏧᏂᏁᏤ	-11.8753
ᏫᏍᏔᏁ	-11.8757
▁ᏧᎪᎲ	-11.8764
▁ᎬᏯᏛᏁᎸ	-11.8766
ᏰᎸᏍᎨ	-11.8767
▁ᎢᏳᏩᎦ	-11.8767
ᏟᏌᏅᎩ	-11.8767
ᎩᎡᎴ	-11.8769
▁ᏗᏏᎳᏛ	-11.8772
▁ᎠᎫᎩ	-11.8773
ᏂᏎᎢ	-11.8776
▁ᎠᏓᏯᏅ	-11.8777
▁ᏳᏝ	-11.8781
▁ᎥᎩᏁᎸ	-11.8785
ᎵᏍ	-11.8786
▁ᎤᎾᎵᏍᎪᎸᏙᏗ	-11.8787
ᎦᎵᏴ	-11.8788
▁ᎠᏥᎪᏗ	-11.8788
▁ᏧᏅᏙᏗ	-11.8798
ᏛᎯᏍᏓ	-11.8803
ᏬᏂᏍᎩ	-11.881
▁ᏣᎶ	-11.8814
ᎢᏍᏓᏁᏗᏱ	-11.8818
ᏁᎳᏗ	-11.8818
ᎦᏡᏓ	-11.8819
▁ᏂᎨᏥ	-11.8828
ᎵᏍᏓᏴᏁᎢ	-11.8829
▁ᎤᏥᏈ	-11.883
▁ᏣᏛᏗ	-11.8831
▁ᏨᏛ	-11.8831
ᎴᏫᏍᏗᏍᎨ	-11.8838
▁ᎠᏆᏍᏗ	-11.8838
▁ᎨᏥᏁ	-11.8841
ᏂᏗᏍᏗ	-11.8843
ᏥᎷᏤᎸ	-11.8859
ᎬᏁᏗᏱ	-11.8867
ᏓᎴᎲᏍᎩ	-11.8868
▁ᎡᏣᎵ	-11.8874
▁ᏗᏣᎵ	-11.8875
▁ᎬᏆᏕ	-11.8885
ᎯᏯᏍᏗ	-11.8895
ᎵᏃᎮᏍᎬᎢ	-11.8896
▁ᎨᏥᏰᎸ	-11.89
▁ᏍᏆᏓᏅ	-11.8903
▁ᎤᏂᏲᎰᏎ	-11.8909
ᎷᏤᎲ	-11.8911
▁ᎤᏃᎮ	-11.8912
▁ᏄᏧᏈᏍ	-11.8914
ᏛᎦᏁᏗᏱ	-11.8914
ᎵᏁᏌ	-11.8915
▁ᎤᎵᏠᏯᏍ	-11.8917
ᏓᏁᎮᎢ	-11.8922
ᎯᏎᎴ	-11.8923
ᏅᏎᎢ	-11.8926
ᏥᏁᏟᏴᏒ	-11.8928
ᏚᎴ	-11.8929
ᎸᏃᏘᎭ	-11.8939
▁ᎤᏪᏙᎵᏨ	-11.8944
▁ᏗᏂᏲᎵᏉ	-11.8944
▁ᏧᏘᏲ	-11.8956
▁ᎠᏂᎾᏰ	-11.8962
▁ᏚᏂᏲᏒ	-11.8963
ᎬᏩᎪᎲ	-11.8974
ᏍᎪᏯ	-11.8975
ᎧᏘ	-11.898
▁ᎦᎧᎲ	-11.8982
▁ᎦᏁᏟᏴ	-11.8986
▁ᏫᎦᏅ	-11.8993
▁ᏒᏕ	-11.9002
▁ᏱᏂᏣᏛ	-11.9004
ᎩᎸᏉᏛᎢ	-11.9011
ᏟᏃᎮᏙᏗ	-11.9014
▁ᏥᏅᏩᏍᏗ	-11.9017
ᎪᏗᏍᎩ	-11.9019
ᏥᏍᏕᎸᏗᏱ	-11.902
▁ᏳᏂᏁ	-11.9022
▁ᏥᏓᎾ	-11.9022
ᎠᏍᎦᎦ	-11.9035
ᎫᏱᏍᎨᏍᏗ	-11.9041
ᏁᏍᏓᎳ	-11.9048
ᏣᏪᏐᎸᏍᏙ	-11.9058
ᏁᎳᏗᏍᎨ	-11.9058
ᏂᎶᏌ	-11.9059
▁ᎾᎾᎵᏍ	-11.906
ᎾᎩᏪᏒ	-11.9062
ᏪᏙᎵᏨᎩ	-11.9063
ᏆᏕᏘᏴᎲ	-11.9065
ᏛᏓᎴᎲᏍᎩ	-11.9066
▁ᎬᏙ	-11.9066
▁ᎤᏒᏂ	-11.9067
▁ᎠᎩᎷᏤᏗ	-11.9068
ᏠᎯᏍᏔᏅ	-11.9068
ᏓᏙᎵᏍᏙᏗᏱ	-11.907
ᏂᎨᏳ	-11.908
▁ᏙᏛᏃ	-11.9083
ᎵᏍᏓᏴᎲᏍᎨᎢ	-11.9091
ᏓᏅᏓᏗᏍᏗᏱ	-11.9101
▁ᏓᏂᏁ	-11.9104
ᏆᏲᏗ	-11.9108
▁ᎤᏂᏣ	-11.911
ᎾᏚᎵᏍᎨᏍᏗ	-11.911
ᏅᎦᎵᏍᎬᎢ	-11.9112
▁ᏂᎬᏂᏏ	-11.9114
ᏓᎢᏅ	-11.9117
ᏘᏍᎪ	-11.9122
ᏂᏯᏍᏗ	-11.9123
▁ᎤᏓᏂᏴ	-11.9124
ᎾᏄᎪᎬ	-11.9126
ᎬᏩᏂ	-11.9128
ᎩᎧᏏ	-11.9129
ᎦᏂᏴᏛ	-11.9135
ᏍᎦᏃᎸ	-11.9147
ᏟᏴᎭ	-11.9149
▁ᎤᎵᏬᏨᎢ	-11.9149
ᏰᎵᏎᎭ	-11.9149
ᏍᎩᎦᏔᎭ	-11.915
▁ᎤᏍᎦᏍᏓᏁ	-11.9154
▁ᏂᎬᏴ	-11.9156
ᏆᏂᏏ	-11.9158
▁ᎤᎦᏔᎲ	-11.916
ᎵᏤᏗᏱ	-11.9161
▁ᎠᏥᏍᏚ	-11.9162
▁ᎤᏂᏯᎸ	-11.9167
▁ᎦᏗᏔ	-11.9168
▁ᎤᏛᏂᏗ	-11.9168
▁ᏙᏓᏥᏯ	-11.9172
▁ᎦᏰᏥᏙ	-11.9172
▁ᎠᎩᏩᏛᏗ	-11.9177
ᏕᏔᏅᎯ	-11.9203
▁ᎠᎩᏍᏙ	-11.921
ᏓᏲᏁᎯ	-11.9211
▁ᏛᎾᎵᏍᏓᏴ	-11.9216
▁ᏚᏙᎥᎩ	-11.9225
ᎾᏓᏅᏖᎸ	-11.9225
▁ᏛᎯ	-11.9225
ᏙᎮᎯ	-11.9225
ᏂᏚᏪᏎᎸᎩ	-11.9227
▁ᎧᏁᎢᏍᏗᏍᎨ	-11.9237
ᏑᎵᎪᎬ	-11.9238
ᏏᏛ	-11.9239
ᎯᏍᏗᏍᎨᏍᏗ	-11.9239
▁ᎤᎵᏘᏎ	-11.924
ᎩᏐᏢ	-11.9243
▁ᎬᎩᏯ	-11.9247
▁ᎢᏥᏙᎾ	-11.9247
▁ᏄᎾᏛ	-11.925
▁ᎤᎧᏙᏍ	-11.9251
ᏔᎳᏬ	-11.9255
ᏕᏯᏙ	-11.9259
▁ᏫᏗᎨ	-11.926
▁ᏂᏚᎾᏓ	-11.9261
ᎭᏂᏍᏔᏅ	-11.9266
▁ᎭᎦᏔ	-11.9268
ᎦᏔᎲᎢ	-11.9282
▁ᎤᎵᏍᎪᎸᏙᏗ	-11.9287
▁ᎠᎵᏍᎪ	-11.9293
ᏂᏎ	-11.9294
ᎡᎮ	-11.9299
ᏰᎩ	-11.93
▁ᏕᏍᎩᏯ	-11.9302
ᏱᎵᏙᎭ	-11.9307
▁ᎠᏢᏈᏍ	-11.9309
▁ᎡᏣᏛ	-11.9312
▁ᏱᏚᏩ	-11.9312
ᏓᎴᎲᏍᎨ	-11.9313
ᏙᏯ	-11.9319
▁ᎠᎾᏅ	-11.9319
ᏱᎴ	-11.932
▁ᏂᎬᏅᎢ	-11.9327
ᎦᎵᏍᏔᏅ	-11.9329
ᏥᏯᏬᎥ	-11.933
ᏕᏋᎯᏍᏗ	-11.9332
▁ᏓᏥᎶᏍ	-11.9337
ᏍᎩᏲᏎᎭ	-11.9339
ᏣᏁᎵ	-11.935
▁ᏱᎦᏥ	-11.9361
▁ᎯᏃᏁᎸ	-11.9364
▁ᏓᏳᏁ	-11.9365
▁ᎠᏂᎦᏗ	-11.9366
ᏓᏰᏅ	-11.9367
ᏃᎯᏏ	-11.9368
ᏯᎷᎦ	-11.9371
ᏥᎪᎵᏰᏗᏱ	-11.9375
ᏯᏛᏗ	-11.9376
ᏍᎪᎸᏓᏏ	-11.9383
ᏖᎳᏗᏍᏗ	-11.9389
ᎵᏍᎪᎸᏓᏁᎸᎩ	-11.939
▁ᏍᎪᏂ	-11.9393
▁ᎠᎾᎵᏥᏙᏂᏙ	-11.9394
▁ᏚᏂᏅ	-11.9396
ᏄᎮᎵ	-11.9399
▁ᏧᎶᏁ	-11.9399
▁ᎤᏬᏎ	-11.9407
▁ᎢᏣᎫᏱᏍ	-11.9407
ᎦᏛᎴᎯ	-11.9418
ᎪᎸᏒ	-11.9425
▁ᏥᏚᏄᎪ	-11.9434
▁ᎣᏥᏃᎮ	-11.9435
ᎮᏍᎬᎾ	-11.9435
▁ᏫᏓᎾ	-11.9436
▁ᎤᏂᏲᎯᏍᏔ	-11.9438
ᏆᏗᏍᏗ	-11.9442
ᎸᏉᏗᏍᎨᏍᏗ	-11.9443
ᏛᏔᏁ	-11.9444
ᏘᏂᏙᎯ	-11.9445
▁ᎤᏍᏆᎳ	-11.9446
ᏰᎸᎾᏁᏗ	-11.9452
▁ᏣᏄᏬ	-11.9463
ᏓᏥᎩᏏ	-11.9463
ᎧᎿᏩᏛᏍᏗ	-11.9485
ᎷᎬᎾ	-11.9486
ᏰᎲᎾ	-11.9493
▁ᏧᏍᏆᏂᎪᏙᏗ	-11.9494
▁ᎡᏣᏚ	-11.9496
ᎣᎦᏂᎩᏒ	-11.9497
ᎾᏉᎯ	-11.9499
▁ᏱᏂᎦᎵᏍ	-11.9499
▁ᎤᏂᏍᏘᏰ	-11.9504
ᏥᏂᏴ	-11.9509
▁ᏳᏔᏲᏎ	-11.9511
ᏩᏛᎡᎮ	-11.9513
▁ᎯᏩᏛ	-11.9517
ᏓᏁᎵ	-11.9519
▁ᏘᏲᎯ	-11.9519
ᏣᏓᏱᎸ	-11.9524
ᏂᏔᏲᎴ	-11.9526
▁ᎬᏩᏛᏓᏍᏓᏁ	-11.9529
ᏥᎸ	-11.9541
ᏧᏣ	-11.9548
▁ᎠᎧᏔ	-11.9548
▁ᏚᎵᏦ	-11.9549
ᎵᏏᏅᏗ	-11.9559
▁ᎠᎵᏍᎩ	-11.9561
ᏁᏙᎯ	-11.9563
▁ᎦᎾᏍ	-11.9565
ᏥᏓᏍᏗ	-11.9568
ᎩᏂᏆᏘᎯ	-11.957
▁ᎠᎸᎯ	-11.9571
ᎨᏰᎢ	-11.9573
▁ᏥᏯᏓᏅᏖᏍ	-11.9574
ᎯᏍᏗᏍᎩ	-11.9581
▁ᏥᏂᏨ	-11.9588
ᎦᏙᏍᏕᎢ	-11.9598
ᏦᎣ	-11.9606
ᏗᏔᏍᏗᏱ	-11.9607
▁ᎤᏂᏁᎦ	-11.961
▁ᎯᏍᏕᎸᏗ	-11.9612
ᏂᏍᏘᏰᎬ	-11.9616
ᏤᎮᏍᏗ	-11.9621
▁ᎢᎦᏓᏅᏓᏗᏍᏗ	-11.9623
ᏚᏓᎳ	-11.9624
▁ᎠᏓᏙᎵᏍ	-11.9636
ᏓᏙᎵᏍᏓᏁᎮᏍᏗ	-11.9645
ᏉᎯᏳ	-11.9647
ᏛᏛᏅᎩ	-11.965
▁ᏯᎦᎵ	-11.9657
▁ᏣᏩᎯ	-11.9657
ᏅᏗᏍᎪᎢ	-11.966
▁ᎠᏕᎵ	-11.9665
▁ᎬᏩᏲ	-11.9667
▁ᎠᏆᏦ	-11.967
ᎾᎦᏔᎲᏍᎬ	-11.9671
ᎦᏘᏰᎢ	-11.9676
▁ᎠᏂᎶᏏᏙ	-11.9676
▁ᏍᎩᏰᎸ	-11.9678
ᏰᎸᏅ	-11.9684
▁ᎲᎾ	-11.9689
▁ᏱᏣᏛᏓᏍᏔ	-11.9693
▁ᏧᎵᏍᏚ	-11.9695
▁ᎤᏰᎶᎢᏍ	-11.9696
▁ᏄᏪᎡ	-11.9697
▁ᏚᏪᎧ	-11.9716
pi	-11.972
ᎷᎸᎥᏍ	-11.9728
▁ᎠᎾᏕ	-11.9728
ᏕᏙᎭ	-11.9729
▁ᎠᏍᎦᏅ	-11.9732
ᏩᏘᏍᎬ	-11.9736
ᎯᏍᏗᎭ	-11.9739
ᏦᏱ	-11.9748
ᏓᎨᏛ	-11.9748
ᏂᏩᏛᎯᏙ	-11.9753
▁ᏱᎦᎷᏤ	-11.9753
ᎷᎯᏍᏓᏁ	-11.9754
ᏥᏁᏤᎸᎯ	-11.9767
ᏫᏌ	-11.977
▁ᎤᏭᏢ	-11.9778
ᏴᎩᏛ	-11.9781
ᎾᏁᏍᎨᏗ	-11.9798
ᏤᎵᎦᏯ	-11.98
▁ᎠᎩᏁᎵᏍ	-11.9807
ᏯᏑᏰᏛ	-11.981
ᎾᏗᏅ	-11.9815
ᏲᏍᏙᏗᏱ	-11.9816
ᏃᎩᏍᏔᏂ	-11.9822
▁ᎬᏩᎾᏓ	-11.9823
ᎸᏍᎨᎢ	-11.9829
ᏬᏯᏁᏎᎢ	-11.9829
▁ᎠᎩᏁᏤ	-11.9831
ᏞᏤ	-11.9833
▁ᎠᏂᎦᏔ	-11.9833
ᏥᏲᎢᏳᏓᏁᎭ	-11.9849
ᎾᏕᎪᎢ	-11.9855
▁ᏚᎵᏍᏚ	-11.9855
ᎸᎥᏍᎩ	-11.9861
▁ᎠᏂᏯᏫᏍ	-11.9863
▁ᎤᏂᎷ	-11.9874
ᏐᏯᏍᏗ	-11.988
ᏬᏂᎯᏍᏗᏱ	-11.9883
ᏩᎯᏎᎴᎢ	-11.9893
ᏌᎳᏗ	-11.9893
▁ᎢᏥᎦᎵ	-11.9896
ᏩᎪᏗ	-11.9897
▁ᎤᏔᏍᎩ	-11.9897
▁ᏚᏒᏁ	-11.9899
ᏁᎵᏔᏅ	-11.9899
ᏓᏗᏍᏗᏱ	-11.9902
▁ᏭᏭᏓᎸ	-11.9902
▁ᏧᏬᏎ	-11.9904
ᏙᏢᏒᎢ	-11.9904
▁ᎤᏁᎳᏗᏍ	-11.9905
▁ᏂᎨᏣ	-11.9906
ᎧᎵᏣ	-11.9906
ᎪᏎᎮᏍᏗ	-11.9912
ᏕᏍᎬᎢ	-11.9918
ᎦᏄᎪᎬᎢ	-11.9919
▁ᎠᎩᏲᏏ	-11.9925
▁ᏓᏍᏆᏂᎪ	-11.9925
▁ᏓᎦᏂ	-11.9925
ᏲᎦᏘ	-11.9928
▁ᎤᏍᏆᎸᏗ	-11.9928
ᏆᏚᎵᎭ	-11.993
▁ᏗᎦᎶᎯᏍᏗ	-11.9937
ᎪᎳᏗᏴ	-11.9941
ᏙᎾᎥ	-11.9949
▁ᎤᏂᎶᎯᏍᏗ	-11.9951
ᎾᏓᏴᎳᏛ	-11.9951
▁ᏧᏲᎱᏎ	-11.9956
ᏁᎢᏍᏓ	-11.9959
ᎵᎰᎢ	-11.996
▁ᏥᎨᏣ	-11.9961
▁ᎤᏲᎱᏎᎸ	-11.997
ᏣᏖ	-11.9982
ᎵᏂᎪᎯᏍᏓ	-11.9982
▁ᏥᎧᏁᎢᏍᏗ	-11.9984
▁ᎨᎪ	-11.9986
▁ᏨᏗᎦ	-11.9988
▁ᏯᏋ	-11.9988
ᎴᎲᏍᎬᎩ	-11.9992
ᏩᏕᎨ	-11.9995
▁ᏥᎦᎳ	-11.9997
ᏥᏩᏛᏓ	-11.9998
▁ᎤᏏᎳᏛ	-11.9999
▁ᎢᏳᏛᏁ	-12
ᏁᎵᏍᎨ	-12.0003
ᎧᏅᎩ	-12.0008
▁ᎢᏣᏗᏔ	-12.0011
ᏴᎭᎦ	-12.0012
ᏥᎪᎥ	-12.0013
ᏭᎾ	-12.0013
ᏓᏂᎸᎦ	-12.0014
▁ᏣᏓᏅᎦᎸ	-12.0014
ᏒᎦᎳ	-12.0015
ᏓᏅᏒᎭ	-12.0015
▁ᎣᎦᎵᏍᏔᏴ	-12.0016
ᏓᏅᎡᏗᏱ	-12.0026
▁ᎠᎩᏁᏤᎸ	-12.0032
ᏲᏍᏙᏓᏁᎸᎩ	-12.0034
▁ᎣᏆ	-12.0035
ᏃᎭᏝ	-12.0035
ᏏᏃᎴ	-12.0041
ᎩᎵᏲᎢᏍᏙᏗᏱ	-12.0047
▁ᎠᏂᎶᏍᎨ	-12.0048
ᏂᏲ	-12.005
ᎶᏍᎨᏍᏗ	-12.0065
ᏁᎪ	-12.0072
▁ᏳᎾᏚᎵ	-12.0078
ᏕᏘᏴᏛ	-12.0087
▁ᎣᏍᏕᏙ	-12.0089
▁ᎥᏓᏗ	-12.009
ᏘᏃᎯᏏ	-12.0094
▁ᏓᎬᏯ	-12.0095
▁ᎣᏎ	-12.0098
ᏘᏃᎸᎩ	-12.0098
▁ᎬᏭᎯᏍᏗᏍ	-12.0101
ᏍᏗᎧ	-12.0101
ᏚᎸᏛ	-12.0103
ᏘᎶ	-12.0103
▁ᎠᏍᏆᏂᎪᏗᏍ	-12.0106
ᎫᏏ	-12.0107
ᎦᎵᏱ	-12.0108
▁ᎠᎾᏛᎩ	-12.0111
▁ᏧᎾᏓᏁᎳ	-12.0113
▁ᏗᏰ	-12.012
ᏗᎦᏔᎭ	-12.0122
ᎾᏓᏡᎬ	-12.0124
▁ᏳᎾᏗᏅ	-12.0125
▁ᏧᏃᎯᏳ	-12.0129
▁ᎪᎯᏴ	-12.0131
▁ᎠᎦᏘᏃᎮ	-12.0134
ᏂᎪᏩᏛ	-12.0135
ᏣᎸᏫᏍᏓᏁᎮᏍᏗ	-12.0135
ᏚᏓᎴᏍ	-12.0135
ᎴᏅᏗᏱ	-12.0137
ᎵᏍᏓᏁᏗ	-12.014
ᏍᏆᎳᎯ	-12.0144
ᎯᏍᏓᏱ	-12.0146
ᏓᎪᏩᏘᎭ	-12.0147
▁ᎠᎯᏯ	-12.0147
ᎩᏂᏴᎲ	-12.0147
ᎸᎡᎸ	-12.0158
ᏫᎨᏙᎲ	-12.016
ᎵᏒᎩ	-12.0168
ᏲᎵᎦ	-12.017
ᏁᎶᎯ	-12.0172
ᏦᎯᏳᎲᏍᎦ	-12.0177
▁ᎤᏓᏦ	-12.0186
ᏂᎾᏌᏁ	-12.019
ᏅᎦᎸᏙᏗ	-12.0191
ᏓᎷᎸ	-12.0192
ᏂᎪᎯᏍᏗᏍᎨᏍᏗ	-12.0196
▁ᎢᎾᎯ	-12.0196
ᏓᎴᏅᏓ	-12.0202
ᏍᏆᏂᎪᏙᏗ	-12.0203
ᏍᏕᏓᎵᏴᏍ	-12.0206
▁ᏱᎨᎦ	-12.0209
▁ᎦᎾᏄᎪᏫᏎ	-12.0226
ᏗᏕᎬᎢ	-12.0227
ᏂᏍᎪ	-12.0229
ᏅᏍᏓᏕ	-12.0229
▁ᎦᎳᏅ	-12.0229
▁ᏧᎫᏴ	-12.0232
ᏒᏗᏍᎬ	-12.0233
▁ᎤᎾᏞ	-12.0234
▁ᎢᏣᎴ	-12.0234
ᏪᏍᏗᏱ	-12.0237
▁ᎤᏓᏙᎵᏍᏙᏗ	-12.0237
▁ᎠᏓᏁ	-12.0238
ᎼᏏ	-12.0242
▁ᏂᏛᏁ	-12.0243
ᎦᏘᏯ	-12.0246
ᎵᏔᏗ	-12.0249
ᏪᎶ	-12.0252
ᏤᎲᎾ	-12.0263
ᏣᏢ	-12.0272
▁ᎭᎵᏍᏓᏴ	-12.0276
ᎵᎥᏂᎵ	-12.0277
ᏂᎳᎨᏯᏛ	-12.0279
ᎾᎿ	-12.028
ᎵᎪᏔᏅ	-12.029
ᎪᎯᏳᏗᏱ	-12.0294
ᏣᏓᏑᏯ	-12.0299
ᏍᎩᎶ	-12.0303
ᏡᏗᎭ	-12.0304
ᎵᎮᎵᎩ	-12.0306
ᏂᎩᏏ	-12.0309
ᎩᏂᏴᏎᏍᏗ	-12.0311
ᏖᎳᏗ	-12.0313
▁ᏞᎦᏉ	-12.0315
ᎵᏍᏔᏴᎾ	-12.0317
ᏍᏛᏗᏍᎬᎢ	-12.0318
ᎮᎴᎢ	-12.0321
ᏕᏯᏙᏗᎭ	-12.0329
▁ᎤᎵᏘ	-12.0329
▁ᎥᎠᎩ	-12.033
ᏁᏍᎨᏍᎩ	-12.0331
ᎨᏳᏒᎾ	-12.0335
ᏂᏍᏙᏗᏱ	-12.0335
▁ᎭᏓᏅᏖ	-12.0336
▁ᏅᏓᏳᏂ	-12.034
ᏚᎳ	-12.0342
ᏁᎵᏒᎢ	-12.0347
▁ᏯᏂᎸᏉ	-12.0348
▁ᎠᏂᏰ	-12.0354
ᏗᏤᎾ	-12.0356
ᏗᎦᎴᏲ	-12.0357
ᏂᏬᏂᎭ	-12.0357
ᏖᏆᎶᎯ	-12.0359
▁ᎯᏃᎯ	-12.036
▁ᏓᏂᏅ	-12.0361
ᏯᏙᎯᎲ	-12.0362
ᏍᏚᎮᎢ	-12.0365
▁ᎠᏋᎨᏫ	-12.0368
▁ᎤᏒᎴ	-12.0378
▁ᎬᏩᎸᏉᏗ	-12.0379
ᏛᏍᎬ	-12.0384
▁ᎩᏄ	-12.0386
▁ᏣᏁᎯ	-12.039
▁ᏫᏚᏃᏁ	-12.0392
ᎾᎦᏔᎲ	-12.0397
▁ᎢᏥᎶᏁ	-12.04
▁ᏚᎦᏙᏍ	-12.0402
ᏲᏏᏍᎨᎢ	-12.0405
ᏕᏯᏙᏓ	-12.0405
ᏙᏂ	-12.041
▁ᏥᏂᏣᎵᏍ	-12.041
ᏑᎴᏗ	-12.041
▁ᏂᏍᎩᏴ	-12.0417
▁ᏧᏂᎸᏉᏗ	-12.0418
lo	-12.0423
ᏁᎵᏍᎪ	-12.043
ᏥᎸᏉᏗ	-12.0432
▁ᎤᎾᎵᏍᎩ	-12.0435
ᏪᏐᎸᏍᏗ	-12.0438
ᏓᏥᎷᏥ	-12.0441
▁ᎠᏘᏲ	-12.0445
▁ᏛᎪ	-12.0452
▁ᏥᏃᎮ	-12.0459
▁ᎢᏕᏙ	-12.0459
ᎮᎵᏍᎬᏉ	-12.0459
ᏄᎪᎬᎢ	-12.0466
▁ᏣᏁᏤ	-12.0467
ᎵᏍᏔᏁᏗ	-12.0477
▁ᎬᏩᏂᎩᎵᏲᎢᏍ	-12.0479
ᏲᎯᏎᎴᎢ	-12.0483
ᎾᏗᎾ	-12.0485
▁ᏧᏢᏗ	-12.0486
ᎧᎿᏅᎩ	-12.0488
▁ᎠᎾᏙ	-12.0489
ᎬᏅᎢ	-12.0489
ᎾᏟᏃᎮᏗ	-12.0491
▁ᏗᏥᏲᎯ	-12.0493
▁ᎠᎩᎷ	-12.0502
▁ᎠᎾᏓᏛᎥ	-12.0508
ᏄᎪᏫᏍᎦ	-12.0509
ᏓᏒᏂ	-12.051
▁ᎢᏙᎯᏳᎲᏍ	-12.0513
ᏓᎩᏅ	-12.0515
▁ᎠᎩᎵᏓᏍ	-12.0515
ᏌᎴᏓ	-12.0516
ᎸᏅᎭ	-12.0521
▁ᎦᏂᏱᏍ	-12.0523
▁ᏣᏍᏕᎸ	-12.0525
ᎵᎪᎲ	-12.0526
ᏣᏓᏂᎸᎩ	-12.0528
ᏍᏕᎸᎡᏗᏱ	-12.0534
ᏄᏙᎬ	-12.0536
▁ᎤᎸᏒ	-12.0538
▁ᏚᏩᏍᎦ	-12.0541
▁ᎠᏂᏃᎮᎵᏙ	-12.0543
ᎭᎷᎨ	-12.0545
ᎨᏯ	-12.0546
ᏥᏍᎪᎵ	-12.055
ᎾᎴᏗ	-12.0553
ᏂᏩᏛᎲ	-12.0558
▁ᏍᏆᎳ	-12.0565
ᎵᏌᎳᏓᏅ	-12.0566
ᏥᏍᎦᏅᏤᎸ	-12.0568
ᏚᎾᏛ	-12.0579
ᏲᏌ	-12.0585
ᏢᏗᏍᎨ	-12.0596
▁ᎠᎩᏯ	-12.0598
ᎵᏍᏓᏴᏔᏂ	-12.0601
ᏍᏓᎥ	-12.0602
ᎸᎡᎴ	-12.0602
ᎾᏯ	-12.0603
ᎯᏥᎨ	-12.0605
▁ᏛᎤ	-12.0606
▁ᎤᏃᎯ	-12.0609
ᏫᎠ	-12.0612
ᏥᎸᎯ	-12.0615
▁ᎤᎾᎦᏌᏯᏍ	-12.0619
ᎾᏫᏛᎮ	-12.0622
ᎶᏁᏗ	-12.0623
▁ᎠᎩᏍᏕᎸᏗ	-12.0624
ᎯᎶᎥ	-12.0624
ᎧᎾᏩᏗᏙ	-12.0631
ᏔᎲᎾ	-12.0634
ᏂᏲᎸ	-12.0638
▁ᎢᏓᏓ	-12.0642
ᎵᏗᏍᎩ	-12.0649
▁ᏚᎧᏁ	-12.0653
ᎦᏘᏰ	-12.0655
▁ᎤᏂᎿᎸ	-12.0657
ᏂᏲᎯᏍᏙᏗ	-12.0658
▁ᏄᏟᏂᎬ	-12.0659
ᎵᎪᎢ	-12.066
ᏥᏎᎪᎩ	-12.0661
ᏦᎯᏍᏗ	-12.0663
la	-12.0664
▁ᎡᏦᎢᏳ	-12.0666
ᏂᎨᏳᎯ	-12.0666
ᎵᏍᏓᏴᎲᏍᎬᎢ	-12.0669
▁ᎠᏔᏲᎯ	-12.0672
ᏍᎪᏎᎢ	-12.0673
ᏩᏐ	-12.0675
▁ᏓᏍᏆ	-12.0677
▁ᏫᏥᏂ	-12.0677
▁ᎡᏥᏄᎪ	-12.068
▁ᏥᎦᏬᏂ	-12.0681
ᎾᏕᎬᎢ	-12.0681
ᏥᏳ	-12.0683
ᏣᏅᏓᏗᏍ	-12.0687
▁ᎠᎵᏖᎸᎮᏍ	-12.0688
▁ᏓᏥᏯᏛ	-12.0689
ᏣᎧᏂᏍᎬ	-12.069
ᏓᏥᏩᏛᎯᏃ	-12.069
▁ᎾᏂᏪ	-12.0691
▁ᏗᎦᏔ	-12.0691
▁ᏓᏂᏬᏂ	-12.0692
ᏥᏲᎵᎭ	-12.0694
ᎦᏖᏃᎭ	-12.0696
▁ᏱᎪᎯᏳ	-12.0697
ᎶᏍᎪ	-12.07
▁ᎢᏳᎾᏛᏁ	-12.0709
▁ᎯᏁᏤ	-12.0711
▁ᏱᎪᎵ	-12.0713
ᏄᎪᏥ	-12.0716
▁ᎠᏑᏰᏍ	-12.0722
▁ᎤᏃᎯᎸ	-12.0723
▁ᏥᏂᏣ	-12.0725
▁ᏱᎦᏢ	-12.0732
ᏨᏯᏍᏗ	-12.0732
▁ᎤᏩᏙᏗ	-12.0732
▁ᎠᏂᎦᏖᏃ	-12.0734
▁ᏓᏂᎳᏫ	-12.074
ᏘᏂ	-12.0741
ᏂᎩᏒᎩ	-12.0749
ᎾᎵᏍᏓ	-12.0749
ᎵᎮᎵᏨᎯ	-12.0751
ᏩᏘᏍᎪ	-12.0759
▁ᎤᏂᏲᎵ	-12.0762
▁ᎣᎩᏍᏛᏗᏍ	-12.0765
ᏗᏓᎴᎲᏍᎪᎢ	-12.0767
ᏆᎵᏍᎪᎸᏓᏁ	-12.0767
ᎩᎵᏲᎬᎢ	-12.0783
ᏕᎰᏍᎨᏍᏗ	-12.0786
▁ᏓᎨᏥ	-12.0788
ᏓᏍᎦᎨᏍᏗ	-12.0789
▁ᎠᏡᏗᏍ	-12.0791
▁ᏧᏓᏅᏖ	-12.0792
ᎩᎵᏲᎢᏍ	-12.0793
ᏣᎦᎸᎮ	-12.0794
ᎠᏁ	-12.0795
ᎵᏍᎪᎸᏓᏁᎴ	-12.0803
▁ᏚᏂᏚ	-12.0806
ᏍᎩᎳ	-12.081
ᏩᏗᏒ	-12.0812
▁ᎠᏯᏖ	-12.0813
ᏍᏛᏗᏍᏗᏱ	-12.0814
ᎾᏙᎴᏆᏍᎬ	-12.0825
ᏰᎸᏁ	-12.0826
ᏓᏪᎵᎩᏍ	-12.0827
▁ᏗᏓᏂ	-12.0832
ᎤᏅᏎ	-12.0843
▁ᎤᏂᏍᎪᎸ	-12.0844
ᏣᎷᏤᎵ	-12.0847
ᏏᏔᏕ	-12.0854
ᎸᏫᏍᏓᏁᎭ	-12.0861
▁ᏓᎾᏘ	-12.0861
ᏦᎯᏳᏅ	-12.0863
▁ᏓᎧᎿᏩᏗᏙᎮ	-12.0865
ᏥᏍᎬ	-12.0866
ᏓᎴᎿ	-12.087
ᏒᎦᎶᏗ	-12.087
ᎴᎦ	-12.0873
▁ᏥᏫᎬ	-12.0873
ᎯᏴᏁᎸ	-12.0874
▁ᎤᎾᏕᎰ	-12.0876
▁ᏓᏳᏩ	-12.0878
▁ᎬᏩᏍᏕᎸᎯᏙ	-12.0883
▁ᎣᎩᏍᏛᏗᏍᏗ	-12.0886
ᏄᏛᏁᎴᎢ	-12.0888
ᏐᏢᎢᏍᏗᎭ	-12.0892
ᏓᎪᎲᏍᏗ	-12.0892
ᎥᏍᎩ	-12.0897
ᏓᏙᎵᏍᏓᏁᎯ	-12.0898
▁ᏗᎦᏂᏴ	-12.0901
▁ᎤᏍᏆᎸᎡ	-12.0905
▁ᎢᏤᏯᏔ	-12.0908
ᏂᎪᏩᏘᏍᎨᎢ	-12.091
ᏂᎨᏴ	-12.0934
ᎦᏯᎷᏗ	-12.0935
ᏍᏔᏁᎲ	-12.0935
▁ᎢᏳᏅᏁ	-12.0939
ᎷᏨᎯ	-12.094
▁ᎨᏥᎾᏄᎪᏫ	-12.0943
▁ᎡᏣᎵᏍᎪᎸᏓᏁ	-12.0945
ᏗᏓᎾ	-12.0951
ᏛᏗᏕᎬ	-12.0957
▁ᎠᏂᏬᏂᏍᎨ	-12.0957
ᎪᏓᏁᎸ	-12.0961
ᏄᏂ	-12.0963
ᏋᏁᎸᎩ	-12.0964
ᏂᏒᎩ	-12.0966
▁ᏧᏭᏓᎴ	-12.0972
▁ᎠᏂᏍᏆᏂ	-12.0977
ᏍᎦᏅᎪᎢ	-12.0981
▁ᏧᎾᏁᏍᎨ	-12.0986
ᎴᎲᏍᎦ	-12.0986
ᎶᎢᏍᏗᏱ	-12.0988
▁ᎤᎴᏫᏍ	-12.1004
ᏄᎪᏫᏎ	-12.1004
▁ᎤᏂᏃᎸᏔ	-12.1006
ᏍᏓᏏ	-12.1015
ᏬᏂᏎᎢ	-12.1016
▁ᎠᎾᎦ	-12.1018
▁ᎫᏔ	-12.102
▁ᎤᎵᏖᎸᏂ	-12.1021
▁ᎤᎪᎯ	-12.1022
ᏢᏗᏍᎪᎢ	-12.1024
ᎱᏍᏕᏎᎸ	-12.1025
ᎾᏓᏛᏁᎮᏍᏗ	-12.1025
ᏬᏅ	-12.1027
▁ᎠᎩᏍᎬ	-12.1028
▁ᏚᎾᏕ	-12.1029
▁ᏕᎦᎶ	-12.1029
ᎵᏂᎬᎬ	-12.1032
ᏘᏒᎴᎢ	-12.1032
ᏂᏧ	-12.1032
▁ᏕᏣᎸ	-12.1036
▁ᎤᏗᎦᎵᏍᏙ	-12.1036
▁ᏥᏕᎦᏓ	-12.1039
ᏙᎵᏍᏗᏱ	-12.1041
ᏓᏔᎶᎯᏍᏗ	-12.1045
ᏂᎶᏍᎨᏍᏗ	-12.1049
▁ᎾᏋᏁ	-12.1053
ᏩᏛᏛ	-12.1054
ᏙᎣ	-12.1056
▁ᎢᏨᏯᎵᏥᏙᏁ	-12.1059
ᎩᎷᏤᎸ	-12.1062
ᏳᏨ	-12.1062
ᏑᎦᎸ	-12.1064
▁ᏣᎸᏉᏗ	-12.1064
ᎵᎪᏁᎸᎩ	-12.1069
▁ᎤᏓᏍᏕ	-12.1071
ᏥᏬᏁᏙᏗ	-12.1077
ᎦᏔᎲᏒᎩ	-12.1079
▁ᏓᏑ	-12.1082
ᏐᏢᏙᏗ	-12.1087
ᏥᏍᏕᎸᎯ	-12.1087
▁ᏳᏕᎶᎰ	-12.109
▁ᏱᏂᎦᏪ	-12.1091
▁ᎢᏯᏥ	-12.1093
▁ᏱᏭ	-12.1096
ᏜᏍᏛ	-12.1097
ᏓᏍᏕᏓᎵᏴᏍᎩ	-12.1098
ᎦᎵᏍᏓᏗᏍᎩ	-12.11
▁ᎤᏓᎪᎾᏛ	-12.1103
ᏍᏆᎵᏎ	-12.1103
▁ᎬᏩᏍᎦ	-12.1109
ᏗᏅᏎ	-12.1109
ᏕᏗᏱ	-12.1115
ᎩᎸᏉᏔᏅ	-12.1116
ᏂᎶᏒᎯ	-12.1118
ᎦᏘᎸᏍᏗ	-12.1121
ᏘᏃᎮᏗᏱ	-12.1122
▁ᏳᏄ	-12.1124
ᏕᏍᏗᏱ	-12.1127
▁ᎤᏗᏍᎦᎳ	-12.1133
ᏣᏓᏅᎦᎸᏛ	-12.1136
▁ᏧᎷᏤ	-12.1136
ᏓᏖᎸᎮᏍ	-12.1137
▁ᎠᏂᏯᎡ	-12.114
ᏯᏪᎦ	-12.1141
ᎦᏓᎡ	-12.1143
ᎵᏌᎳᏓᏅᎩ	-12.1145
▁ᎢᎦᏚᏓᎴᏍ	-12.1146
▁ᏛᏥ	-12.1152
▁ᏕᎦᏥᏯ	-12.1154
ᏕᏍᏔ	-12.1163
ᎵᏃᎮᏙᏗᏱ	-12.1163
▁ᏴᏥ	-12.1166
ᏑᎴᏍᏗ	-12.1171
▁ᎬᏩᏯᏫ	-12.1171
▁ᎠᎩᎾᏄᎪᏫᏍᏗ	-12.1176
ᎵᎬᏚ	-12.1177
ᎾᏓᏂᎸᎢᏍᏗ	-12.1178
ᏮᎩ	-12.118
▁ᏩᏂᏴ	-12.1182
▁ᏭᏕᎵ	-12.1182
ᏟᎶᎡᎸ	-12.1184
ᏳᏩᏂ	-12.1188
▁ᎢᏣᏠᏯᏍ	-12.119
ᎠᏯᎨ	-12.1191
▁ᏗᏧᎪᏓ	-12.1196
ᎦᏪᏍᏗ	-12.1208
▁ᏳᏩᏛ	-12.1209
ᏃᎮᎴᎢ	-12.121
▁ᏧᏚᎢᏍᏓᏁ	-12.121
▁ᎠᎵᏍ	-12.1215
ᏁᎢᏍ	-12.1219
ᏚᏂ	-12.1224
ᏒᎸᎩ	-12.1224
▁ᎤᏂᏁᏉ	-12.1227
ᎦᎾᏅᎪ	-12.1227
▁ᎤᎾᏙᏢ	-12.1229
▁ᏚᏂᎧᏁ	-12.1233
ᏓᎷᏯᏛ	-12.1236
ᏪᏌᏆᎴ	-12.1238
▁ᎡᏚ	-12.1252
ᏩᏘᏃ	-12.1255
▁ᎤᎾᎦᎸ	-12.1267
ᏓᏬᎢ	-12.127
▁ᏕᏥᎸᏫᏍᏓᏁ	-12.127
ᏕᏍᏗᏍᎨᏍᏗ	-12.1275
ᏚᎨ	-12.1277
▁ᏚᏃᏕ	-12.1278
ᏥᏯ	-12.1279
ᎩᎳᎾᎳ	-12.1279
ᎵᏂᎪᎯᏍᏔᏅ	-12.1283
ᎾᏝᎾᎥᎢ	-12.1283
ᏓᏰᎨᏍᏗ	-12.1285
ᏂᎰᎢ	-12.1286
▁ᏚᏂᏣᎦ	-12.1286
▁ᎤᏥᏍᏓ	-12.1287
ᏂᏴᎩ	-12.1288
ᎾᏁᎴ	-12.1289
ᏅᏓᏗᏍᎪ	-12.129
▁ᎥᎤ	-12.1291
▁ᏯᏴ	-12.1295
ᎦᏙᎨ	-12.13
ᏗᏔᎲᎩ	-12.1302
ᎤᏙᎯᏳᏗ	-12.131
ᏥᎪᏗ	-12.1313
ᎪᏁᎶ	-12.1317
▁ᏳᏁ	-12.1318
ᏟᏴᎮᎢ	-12.1322
▁ᎤᎾᏓᏛᏁ	-12.1323
ᎦᏪᎠ	-12.1323
▁ᎾᎾᏛᏁ	-12.1324
▁ᎠᎩᏫ	-12.1324
ᎦᏔᎾᎢ	-12.1328
▁ᏗᏓᎾ	-12.1331
ᎾᏄᎪᏫ	-12.1333
▁ᎢᎫ	-12.1337
ᏂᏍᏗᎭ	-12.1341
▁ᏦᎸ	-12.1342
▁ᎤᎦᏌ	-12.1343
▁ᎠᎾᎵᏍᏓᏴᏗᏍ	-12.1345
ᏓᏴᏍᏕᏍᏗ	-12.1345
ᏐᏢᏗᎭ	-12.1347
ᎸᏫᏍᏓᏁᎸ	-12.1347
ᏃᎮᏢ	-12.1347
▁ᎪᏒ	-12.1352
▁ᎦᏄᎪ	-12.1353
ᏯᏍᏛᎾ	-12.1353
ᏗᏍᎦᎶᏗ	-12.1357
▁ᏥᏅᏒ	-12.1358
▁ᎤᏂᏄᎸ	-12.136
ᏁᏍᎨᎭ	-12.1361
▁ᎠᏢᏆᏍ	-12.1361
▁ᎢᏧᎳᎭᏉ	-12.1365
ᏍᎩᏓᏒᎢ	-12.1365
▁ᏓᎦᏛ	-12.1368
▁ᏧᏥᏍ	-12.1369
ᏲᏤᎢ	-12.1373
▁ᎤᎦᏛᎾ	-12.1375
▁ᎤᎾᏘᏲ	-12.1378
ᎶᎸᎯ	-12.138
ᏅᏗᏍᏗ	-12.138
▁ᎡᏍᏓ	-12.1383
▁ᏍᎩᏯᏕᎶᏆ	-12.1384
ᏍᎪᎳ	-12.1386
▁ᏓᏂᏔ	-12.1388
▁ᏦᏣ	-12.1389
▁ᎨᎶ	-12.1389
▁ᏓᎦᏢ	-12.1392
ᎳᏑᎳ	-12.1392
▁ᎤᎸᏌ	-12.1393
▁ᎠᎾᎵᏍᎪᎸᏗᏍ	-12.1394
ᏩᏕᏁᎴᎢ	-12.1397
ᏓᏅᎵᏰ	-12.1398
ᏚᎢᏍᏔᏅ	-12.1398
▁ᎠᏆᏛᎦ	-12.1399
ᎪᎪ	-12.14
▁ᏣᏚᏓᎴ	-12.14
ᎪᏢᎭ	-12.1401
ᏔᎴᏐ	-12.1406
▁ᏚᏓᏂᎸᏤ	-12.1408
ᎯᏍᏓᏁᎯ	-12.141
ᏍᏉᏟᎢ	-12.1416
ᏥᏍᏕᎸ	-12.1417
▁ᎠᎪᏍᏓ	-12.1418
ᏏᏅᎯ	-12.1419
ᏗᎦᎴᏲᏨ	-12.142
▁ᏴᎨᏣ	-12.1423
ᏲᏏᏌ	-12.1424
ᏈᎦ	-12.1426
ᏨᏁᎸᎢ	-12.143
▁ᏕᎫᎪᏗ	-12.143
ᎵᏍᏓᏴᎲᎦ	-12.1433
▁ᏛᎾᏓ	-12.1433
ᏓᏅᏒᎯ	-12.1433
▁ᏧᏓᏄ	-12.1437
▁ᎤᏂᏍᏆ	-12.1439
ᏍᎦᎴ	-12.144
ᎬᏬᎵ	-12.1442
ᏅᏨ	-12.1443
ᏁᎢᏍᏓᏁᎭ	-12.1443
ᏯᏙᏤᎮᏍᏗ	-12.1444
ᏉᏗᏍᎬ	-12.1447
ᏲᏍᏗᏍᎨᏍᏗ	-12.1447
▁ᏓᏫᏍᎦ	-12.145
ᏫᏚᏓᎢᏅ	-12.1451
▁ᏂᏙᏓ	-12.1452
ᎦᏠᏯᏍ	-12.1452
ᎳᏍᏓᎡ	-12.1453
ᏗᏥᏂᏴ	-12.1454
ᏄᏍᏕᎢ	-12.1455
ᏅᏤ	-12.1457
▁ᎱᏰ	-12.1457
ᏓᏙᎵᏍᏔᏁᎢ	-12.1461
ᏁᏟᏴᎡᏗ	-12.1463
▁ᏘᏏ	-12.1465
▁ᎤᏍᏢᏂᏍ	-12.1469
ᏛᏓᏍᏓᏁᎴ	-12.147
▁ᎤᏁᎵᏤ	-12.147
ᎴᏂᏙᎸᎢ	-12.1472
ᎪᎸᏛ	-12.1474
ᎤᏍᏆᏂᎩ	-12.1477
ᏥᎬ	-12.1477
▁ᏚᏟᎶᏍᏓᏁᎴ	-12.1478
ᏪᏎᎮᎢ	-12.148
▁ᏚᏭᎪᏓᏁ	-12.148
▁ᎤᎦᏎᏍᏗ	-12.1482
▁ᏱᏫᏨ	-12.1483
▁ᏗᏂᎧ	-12.1489
▁ᎬᏬᏎ	-12.1491
ᎾᏞᏒ	-12.1491
ᎱᏁ	-12.1492
ᏍᏆᏙᎾ	-12.1493
▁ᎠᎩᏐᏅ	-12.1494
ᏬᎯᏳᏅ	-12.1496
▁ᎤᎾᎵᏍᏗ	-12.1496
ᎩᏂᏴᏗ	-12.1497
▁ᏧᎾᎵᎪ	-12.1498
▁ᎤᏂᏄᎪᏤ	-12.1502
▁ᎯᏅᏁ	-12.1502
ᎾᏛᏁᎢ	-12.1504
ᎱᏍᏕ	-12.1509
▁ᏚᎾᏂᏏ	-12.1511
▁ᏣᎧᎵᎢ	-12.1511
ᏩᏁᎲ	-12.1512
▁ᎤᏔᏕ	-12.1512
▁ᏕᏍᏓ	-12.1512
▁ᏂᏍᎩᏪᏎ	-12.1512
ᏍᏔᏁᎮ	-12.1514
ᏔᏛ	-12.1515
ᏑᎴᎥ	-12.1516
ᏯᏅᏓᏗᏍᎪ	-12.1516
▁ᎤᏍᏙ	-12.1517
ᎵᏍᏗᏍᎨᏍᏗ	-12.1517
▁ᏂᏍᏋᏁ	-12.1521
ᏌᏙᏰ	-12.1523
ᏛᏁᎸᎩ	-12.1524
ᏓᎦᏘᎴ	-12.1524
ᎭᏲᎮ	-12.1527
ᎤᏃᎴ	-12.1528
▁ᎤᎾᎴᎿᏫᏍ	-12.1529
▁ᏄᏩᎾ	-12.1529
▁ᎤᎵᏍᏕᏍᏔ	-12.1531
▁ᏗᏩᎾᎦᎳ	-12.1531
ᎩᏁᏟᏴᏏ	-12.1533
▁ᎨᏣᏁᎢᏍᏗ	-12.1535
▁ᏕᏥᏅᎦᎵ	-12.1538
▁ᎢᏓᎴᏂᏙ	-12.1543
ᏡᏓ	-12.1543
ᏴᏌ	-12.1544
▁ᏚᎾᏚᏫᏍ	-12.1544
ᏘᏃᎵ	-12.1545
▁ᎤᎾᏚᎵ	-12.1546
ᏍᏓᏩᏕᏒᎭ	-12.1547
ᏓᎦᎵᏍᏙᏔᏂ	-12.1549
ᏍᎩᎳᏛ	-12.1549
▁ᏓᎧᎿ	-12.155
ᏰᎵᏒᎩ	-12.1551
▁ᎤᏕᏯᏙ	-12.1553
ᎫᏓᎴᏏ	-12.1554
ᏫᏍᏗᏍᎩ	-12.1556
▁ᏚᎴᏔᏁ	-12.1557
ᎦᏎᏍᏔ	-12.1558
▁ᎦᎵᏆ	-12.1558
▁ᏚᎾᏄᎪᏫᏎ	-12.156
▁ᎤᏂᏍᎦ	-12.156
ᎯᏎᎭ	-12.1563
▁ᏓᎵᏂᎪᎯᏍᏗᏍ	-12.1563
ᏁᏅᏒᎩ	-12.1564
ᏍᎫᏕᏍᎬ	-12.1565
▁ᎤᎭᏲ	-12.1566
ᏂᎬᏎᎲᎢ	-12.1566
ᎧᎵᎵ	-12.1567
ᏍᎩᏓᏒ	-12.1567
ᏄᏍᏕ	-12.1568
ᏙᎵᏍᏓ	-12.1568
▁ᏱᏂᎬᏩ	-12.1571
▁ᏂᏓᏛ	-12.1571
▁ᏂᏥᏯ	-12.1572
▁ᎯᎪᎥ	-12.1572
▁ᎠᏂᏏᎾ	-12.1577
▁ᏩᏂᏴᎯ	-12.1581
▁ᏓᎩᎸᏫᏍᏓᏁ	-12.1582
▁ᎯᏍᎫ	-12.1582
ᏍᏕᎸᏙᏓ	-12.1585
▁ᏳᏣᏅᏓᏕ	-12.1586
▁ᎤᏕᏘᏱ	-12.1586
ᎨᏳᏐ	-12.1588
▁ᏥᏩᏂ	-12.1588
▁ᎾᏅᏁ	-12.1589
ᏲᏎᎲᎩ	-12.1589
ᎪᏩᏛᎡᏗ	-12.1593
ᏍᎪᏂᎯ	-12.1594
▁ᎠᏓᏄᏖᏲ	-12.1595
ᎵᏍᎦᏍᏙᏔᏂ	-12.1595
▁ᎠᏂᎦᏘᏗᏍ	-12.1598
ᎬᏂᏍᏗ	-12.1601
▁ᎠᎫᏬ	-12.1601
ᏙᏩᏗᏍ	-12.1602
▁ᏱᏅᏩ	-12.1603
▁ᏄᏛᎾ	-12.1604
ᏓᏅᏓᏗᏍᏓ	-12.1605
ᏄᎸᎲ	-12.161
ᏍᏗᏰᏕ	-12.161
ᏰᎶᎸ	-12.1611
▁ᏓᏕᏙ	-12.1613
▁ᎦᏃᎯᎵ	-12.1613
▁ᏥᏄᏛᏁ	-12.1613
▁ᎠᏋᎨ	-12.1615
ᎩᏍᏕᎸᎯᏙᎸ	-12.1616
▁ᎠᎩᏲᎰ	-12.1616
ᏗᏙᎵᎩ	-12.1619
ᏛᏗᏍᎬ	-12.1622
ᏂᎨᎯᏙᎴᎢ	-12.1622
▁ᏄᎾᏓ	-12.1625
▁ᏫᎾᎩ	-12.1626
▁ᎨᏠ	-12.1627
“	-12.1629
ᏓᏛᏁᎲᎩ	-12.1629
▁ᏱᏄᎾ	-12.1634
▁ᎠᏇᎷ	-12.1634
ᎦᎴᏅᏔᏅ	-12.1635
▁ᏙᏦ	-12.1638
ᏐᎴᏍᏗ	-12.1641
ᏓᏂᏯᏛ	-12.1642
ᏣᏚᎵᏍᎨᏍᏗ	-12.1648
▁ᎡᏥᎾᏰᏍ	-12.1648
ᎭᏂᎸ	-12.165
▁ᎢᏣᎨᏳ	-12.1652
ᏞᏎ	-12.1652
ᎾᏘᏲ	-12.1652
ᏣᏅᏓᏕ	-12.1655
ᏒᎴᎢ	-12.1657
ᏧᏁᏍᎨᎮᎢ	-12.1659
ᏚᏂᎳᏫᏤ	-12.1659
ᎾᏫᏛᎯ	-12.1659
ᏤᎰᎢ	-12.166
ᏩᎾᎦᎶ	-12.166
ᏁᎫᏥᏛ	-12.166
▁ᏚᏂᏰ	-12.1661
ᎭᏛᏁᎭ	-12.1661
ᎦᏅᎾ	-12.1661
▁ᎤᏂᏲᎰ	-12.1662
▁ᏱᏂᏨ	-12.1662
ᎤᏛᏎᎢ	-12.1663
ᏍᎪᎸᏙᏗ	-12.1663
ᏥᎦᏘᏴ	-12.1665
ᎼᏂ	-12.1665
▁ᎤᎾᏠᎾᏍ	-12.1667
ᏘᏅᏍᏓ	-12.1667
ᏧᏓᎴᏅ	-12.1667
ᏓᏟᎶᏍᏗᏍᎬ	-12.1667
ᎦᏕᎶᎣᏍ	-12.1667
▁ᏄᏍᏆᏂ	-12.1667
ᎵᏍᏇᏚ	-12.1668
ᎪᏓᏁᎯ	-12.1668
▁ᎢᎤᎾᏨᏎ	-12.1668
▁ᎠᎾᎵᏍᏓᏴᎲᏍᎪ	-12.1668
▁ᎨᏣᏡᏗᏍᎬ	-12.1668
▁ᏚᎧᎿᏩᏗᏙᎮ	-12.1668
▁ᏧᎩᏥᏍᎪ	-12.1668
▁ᎤᏅᏩᏁ	-12.1668
▁ᎠᎾᎵᏅᏢ	-12.1668
▁ᏭᎩᎸᏁ	-12.1668
▁ᎤᏍᎦᏅᏥᏙᎸ	-12.1668
▁ᎠᎾᎵᏍᏓᏴᎲᏍᎨ	-12.1668
▁ᎤᏁᎢᏍᏓᏁᎸ	-12.1668
▁ᏧᏲᏏᏍᎨ	-12.1668
▁ᎤᎾᎴᏫᏍ	-12.1668
▁ᎦᏃᎭᎵᏙ	-12.1668
ᎣᎨᏅ	-12.1669
▁ᏙᏗᎧᏂᏍᎬ	-12.1669
▁ᏂᏚᏛᏁᎴ	-12.1669
▁ᏥᏂᎨᏎ	-12.1669
ᎶᏍᎪᎢ	-12.1669
ᎬᏬᏎᎸᎩ	-12.167
ᏂᎨᏐ	-12.167
ᎪᏍᏛᏂᏍᏗ	-12.167
ᎪᎯᏳᎲᏍᎪ	-12.1671
▁ᎢᏥᎾᏰᏍᎬ	-12.1671
ᏍᏚᎸ	-12.1671
ᎧᏁᏗᏱ	-12.1673
ᏚᏍᏆᏃᏴ	-12.1673
▁ᎠᎩᎵᏲᎬ	-12.1673
▁ᎠᎩᏯᎥ	-12.1673
▁ᎤᎾᏡ	-12.1674
ᏍᎩᏅᎦᎸ	-12.1674
ᏓᏰᏙᎳᏛ	-12.1674
ᏍᎩᎾᎾ	-12.1674
▁ᏫᏓᎧᏁ	-12.1675
ᏚᎳᏑᏝ	-12.1675
▁ᏫᎬᏩᏴᏔᏁ	-12.1676
ᏓᏍᏔᏅᏅ	-12.1676
▁ᏓᎾᏟ	-12.1676
ᏕᎾᏓᎪᎲᏳ	-12.1677
ᏧᏓᎴᏁ	-12.1677
ᏄᏩᏂᏌᏅ	-12.1677
ᎤᏁᎫ	-12.1677
▁ᎤᏁᎳᏫᏎᎲ	-12.1677
▁ᏭᏩᎦᏘᏗᏒ	-12.1677
▁ᏥᏮᎦᏙ	-12.1677
ᏴᎡᎴ	-12.1677
ᏄᎾᏓᎴ	-12.1677
▁ᎤᏘᏃᎴ	-12.1677
▁ᏄᎾᏛᎿᏕᎬ	-12.1677
ᏚᏳᎪᏛ	-12.1678
ᎠᎾᏓᎪᎾᏗᏍᎬ	-12.1678
▁ᏚᏪᎧᏁ	-12.1678
▁ᏨᏓᎸ	-12.1678
ᎤᏂᎶᏒ	-12.1679
ᎤᏁᎢᏍᏔᏅ	-12.168
ᎤᎾᏛᎪᏗᏱ	-12.168
▁ᏕᎦᎸᏫᏍᏓᏁᎸ	-12.168
▁ᏕᏥᎧᎿᏩᏗᏒ	-12.168
ᏥᎪᎥᏍᎦ	-12.1681
▁ᎣᏥᏃᎮᏍᎬ	-12.1681
ᏙᏓᎦᏥ	-12.1681
▁ᎤᏅᏓᏗᏗᏒ	-12.1681
ᏎᎦᏨ	-12.1681
▁ᏧᎾᏄᎪᏫᏎᎴ	-12.1681
ᎤᎵᏍᏙᏔᏅ	-12.1682
▁ᏗᏆᏓᎴᏅ	-12.1682
▁ᏓᏓᏁᎳᏗᏒ	-12.1682
ᏦᎴᏍᏗ	-12.1682
ᏍᎩᏃᎯᏏ	-12.1683
▁ᎠᎾᏓᏩᏛᎯᏙ	-12.1683
▁ᏱᎪᎵᎨ	-12.1683
ᎿᏩᏗᏒ	-12.1683
▁ᎤᏛᎦᏍᏔᏁ	-12.1683
ᎤᎵᏍᎨᏓ	-12.1683
▁ᎢᏣᏓᏙᎵᏍ	-12.1683
ᎶᏄᎮᏗ	-12.1683
▁ᏗᏣᎸᏫ	-12.1683
ᏍᎪᏂᏍᏗ	-12.1683
ᏓᏳᎶᏒ	-12.1683
ᎾᏛᏁᏗᏱ	-12.1684
ᎤᎦᏃᏩ	-12.1684
ᎠᏂᎪᏕᏍᎩ	-12.1684
▁ᎣᎩᎪᎲ	-12.1684
ᎠᎦᏴᎵ	-12.1685
ᎤᎵᏍᏆᎸᏗ	-12.1685
ᏚᎾᏙᎥ	-12.1685
▁ᏂᏚᏅᏁᎴ	-12.1685
ᏂᏤᎷᎯ	-12.1685
ᎠᏥᎸᏉᏗᏳ	-12.1685
ᎡᎳᏆᏗ	-12.1685
ᏗᎵᏍᏓᏴᏗᏱ	-12.1686
ᏣᎪᏍᏗ	-12.1686
ᏍᏛᏗᏍᎨ	-12.1686
ᏠᎨᏏ	-12.1686
ᎢᏧᎳᎭ	-12.1686
ᎤᎾᏄᎪᏫᏎᎢ	-12.1686
ᏕᎤᏙᎥ	-12.1686
ᏗᎧᎿᏩᏗᏙᎯ	-12.1687
ᏳᏩᏁᎦ	-12.1688
▁ᏚᏠᏒᏎ	-12.1688
▁ᎤᏓᏙᎵᏍᏓᏁᎴ	-12.1688
ᏂᎪᎯᎸᎾ	-12.1688
▁ᎤᏃᏍᎩᏒ	-12.1689
ᎡᏆᎭᎻ	-12.1689
ᎢᎪᎯᏓ	-12.1689
▁ᎤᏍᏆᏂᎪᏔᏁ	-12.169
▁ᎧᏁᎨ	-12.169
ᏴᎯᎲ	-12.1691
ᎨᏥᏍᏕᎸᏗ	-12.1691
▁ᏕᏣᏓᏘᎾᎥ	-12.1691
ᏂᎬᎾᏛ	-12.1691
ᏟᏂᎬᏁᎸ	-12.1692
ᎦᏰᎬᏍᏔ	-12.1692
ᏔᏛᎩ	-12.1692
ᏛᏅᎢᏍᏔᏁ	-12.1692
ᏍᎩᏯᏘᏃ	-12.1693
ᎤᏁᎦ	-12.1693
ᏄᏂᏪᏎᎢ	-12.1693
ᏃᏈᏏ	-12.1693
ᏓᏂᎸᎪᎢ	-12.1693
▁ᎬᏩᏕᏁᎴ	-12.1694
ᏧᎬᏩᎶᏗ	-12.1694
▁ᎩᎾᎵ	-12.1695
ᎦᏙᎬᎩ	-12.1696
▁ᎤᏓᏙᎵᏣ	-12.1696
▁ᎠᏥᏰᎸᎾᏁᎴ	-12.1698
▁ᎾᏥᏪᏎᎴ	-12.1698
▁ᎠᏂᎷᎨ	-12.1698
ᎮᏙᎮ	-12.1698
▁ᎤᏗᏔᎮ	-12.1698
▁ᎬᏩᎪᎮ	-12.1698
ᏠᏎᎢ	-12.1699
▁ᏚᏚᎪᏔᏅ	-12.1699
▁ᏲᏣ	-12.1699
ᏩᎶᏏ	-12.17
▁ᏓᏂᏬᏂᏍᎬ	-12.17
ᎾᏛᏁᎮ	-12.1701
▁ᏧᏂᎦᏴᎵ	-12.1701
ᎾᏫᏛᏛ	-12.1701
ᎮᏂᎵ	-12.1701
ᏓᎵᏂᎪᎯᏍᏙᏗ	-12.1701
ᎠᏕᎳ	-12.1703
ᏚᏬᏁᏔᏁᎢ	-12.1704
ᏅᎢᏍᏔᏅᎯ	-12.1704
▁ᎤᏂᏲᏠᎯᏎᎸ	-12.1705
▁ᎾᏆᏛᎿᏕᎬ	-12.1705
▁ᏂᎦᏥᏪᏎᎸ	-12.1705
ᎦᎵᏍᏗᏍᎪᎢ	-12.1705
▁ᏭᏣᏅ	-12.1705
ᏋᎨᏫ	-12.1705
ᎤᏲᏨ	-12.1705
ᎤᏁᎬ	-12.1705
ᎢᏳᏍᏘ	-12.1706
▁ᎤᏁᏟᏴ	-12.1706
▁ᏓᏠᏱᎲ	-12.1706
ᎤᎶᏒ	-12.1706
ᎵᏱᎵᏕ	-12.1706
▁ᎤᎾᏚᎵᏍᎪ	-12.1706
ᎠᏥᎸ	-12.1707
ᎮᎵᎠ	-12.1707
ᏓᏙᎵᏣᏘ	-12.1707
▁ᎤᎵᏖᎸ	-12.1708
▁ᎠᎵᏍᏆᏗᏍᎬ	-12.1708
▁ᏗᎦᏙᎨ	-12.1708
ᎩᏍᏕᎸᎯᏓᏍᏗ	-12.1708
ᏯᏘᏅᏍᏗ	-12.1708
ᎦᏎᏍᏛ	-12.1708
ᏣᎬᏫᏳᎯ	-12.1709
▁ᎡᎦᎫᏴ	-12.1709
▁ᎤᏕᏁᎴ	-12.1709
▁ᏚᏍᏓᏩᏛᏎ	-12.171
ᎠᏓᏅᏙ	-12.171
▁ᎤᏁᏙᎴ	-12.1711
ᏥᎨᏳ	-12.1711
▁ᎤᏓᏏᏁ	-12.1713
▁ᎯᎦᏍᎦᏂ	-12.1713
▁ᏭᏂᏴᎴ	-12.1713
ᎵᏥᏙᏁᎭ	-12.1713
ᏧᏓᎴᏅᏓ	-12.1713
ᎵᏍᎦᏂᏍᏛ	-12.1713
ᎾᏓᎵᏁᎯᏕ	-12.1714
▁ᎤᏪᏙᎴ	-12.1714
▁ᏫᏓᏆᎧᎾᏅ	-12.1714
ᎤᎵᎮᎵᏍᏗ	-12.1715
ᎦᎾᏏᏍᎩ	-12.1715
ᎬᏩᎷᏤᏗᏱ	-12.1715
▁ᏓᏰᏙᎳ	-12.1716
ᏥᏍᏓ	-12.1716
ᎬᏬᎯᏳ	-12.1716
▁ᎤᎾᏓᏙᎵᏍᏓᏁᎸ	-12.1716
▁ᏱᏄᏩᏁ	-12.1717
▁ᎤᏂᏍᏆᏂᎪᏒ	-12.1717
ᎠᎩᎪᏩᏛᏗᏱ	-12.1718
▁ᎴᎻ	-12.1718
ᎬᏆᏛᎦᏁ	-12.1719
ᎩᎸᏗ	-12.1719
ᎦᎾᏬᏍᎬ	-12.1719
ᏓᏪᎳᎩᏍᎬ	-12.1719
▁ᎣᏤᎲ	-12.1719
▁ᏂᏍᏆᏛᏁ	-12.1719
▁ᎧᏁᏨ	-12.172
ᏦᏓᎸ	-12.172
ᏃᎯᎸᏍᏔ	-12.1721
▁ᏚᏬᏢᏅ	-12.1721
ᏔᎵᏁ	-12.1721
ᏏᎾᏌᏅ	-12.1721
ᏏᏙᏂ	-12.1721
ᎨᏙᎰ	-12.1721
ᏲᎱᏏᏕᎾ	-12.1722
ᏩᏘᏍᎬᎾ	-12.1722
▁ᏄᎵᏂᎬ	-12.1722
ᎾᏂᎩᏒ	-12.1723
▁ᎠᏂᏔ	-12.1723
▁ᎤᎾᎦᏎᏍᏛ	-12.1724
▁ᎦᏃᎸᎥᏍ	-12.1724
▁ᎠᏩᏘᏍᎪ	-12.1724
ᏍᏚᏞ	-12.1724
▁ᏦᎯᏳᏎᏍᏗ	-12.1724
ᎧᏲᏓ	-12.1724
▁ᎤᏂᏍᎦᎴ	-12.1724
ᏍᎩᎾᏛ	-12.1725
ᎵᏠᏯᏍᏕᏍᏗ	-12.1725
▁ᎤᎵᏨᏓᏆ	-12.1725
▁ᎥᏥᏯ	-12.1726
▁ᏓᎾᏕᏲᎲᏍ	-12.1726
ᎬᏗᏍᎨᎢ	-12.1726
ᏨᏏᏰᏗ	-12.1726
▁ᏣᎵᏂᎩ	-12.1726
▁ᎤᎩᏨ	-12.1727
▁ᎢᏳᏕᏘᏴ	-12.1727
ᏆᏓᏅᏖᎸ	-12.1727
▁ᏧᏂᎷᏫᏍᏔᏁ	-12.1727
▁ᎠᎦᎫᏴᎡ	-12.1727
ᏙᎴᏆᏍ	-12.1727
ᏴᏓᏆᎶᏍᎬ	-12.1727
▁ᏧᏃᏪᎳᏅ	-12.1728
ᏅᏍᎦᎸ	-12.1728
▁ᎤᏬᏪᎳᏅ	-12.1728
ᏴᏓᏆᎶᏍᎩ	-12.1729
▁ᏧᎷᏫᏍᏔᏁ	-12.1729
ᏍᎦᏅᏥᏙᎸᎢ	-12.173
ᏩᏗᏎᎢ	-12.173
ᎵᏍᏗᏰᏓᏁ	-12.173
ᏄᎯᏍᏗᏍᎬ	-12.173
ᏁᏍᎨᏍᎬᎢ	-12.1731
▁ᎬᏩᏛᎦᏁᎸ	-12.1731
▁ᏙᎩᎾᏍᎩᏓᏒ	-12.1732
ᎤᎵᎮᎵ	-12.1732
ᏗᎦᎶᏗ	-12.1732
▁ᎤᎸᏓᎸᎥᏍ	-12.1732
▁ᏧᏆ	-12.1732
▁ᏗᎦᎳᏫ	-12.1732
▁ᎭᏙᎴᎰ	-12.1733
ᏁᎳᏕᎢ	-12.1733
▁ᎢᏗᎪ	-12.1733
▁ᏅᏩᏍᏙ	-12.1733
▁ᎠᏂᏐᏢᎢᏍᏗᏍ	-12.1733
ᎵᏏᎲᏎ	-12.1734
▁ᏄᎾᏛᏁ	-12.1734
▁ᎤᎵᏍᎪᎸᏔᏅ	-12.1735
ᎵᏃᎮᏗᏍᎬ	-12.1735
ᏍᎩᏙᎵᎩ	-12.1735
ᎬᎭᎸᏛ	-12.1735
▁ᎤᎾᎳᏍᏓᎡ	-12.1735
▁ᎢᎧᏁᏨ	-12.1736
▁ᎤᎧᏲᏛ	-12.1736
▁ᎭᎵᎮᎵ	-12.1736
ᏬᏍᎩᎵ	-12.1737
ᏚᎪᏔᏅ	-12.1737
▁ᏭᏗᏅᏒ	-12.1738
ᏑᎵᎪᏨᎩ	-12.1738
▁ᎤᏗᎴᎲ	-12.1738
▁ᏚᏂᎧᏅ	-12.1738
ᎾᏕᎲᏍᎬ	-12.1739
▁ᏕᏥᎧᎿᏩᏗ	-12.1739
▁ᏄᏂᏪ	-12.1739
ᏓᎴᏍᎬᎢ	-12.1739
ᎫᎪᏓ	-12.174
▁ᏧᏂᏲᎱᏒ	-12.174
ᏌᎺᎵ	-12.174
ᏓᎾᏏᏂ	-12.1741
▁ᎾᏥᏪᏎ	-12.1741
▁ᎢᏥᎩᎵᏲᎢᏍᏗ	-12.1742
▁ᎬᏯᎵᏃᎮᏙᏗ	-12.1742
ᏗᎩᏯᏍᏗ	-12.1742
ᎦᏟᎮ	-12.1743
▁ᏚᏅᏩᏅ	-12.1744
▁ᏚᏑᎦ	-12.1744
ᏓᏁᏣᏍᏚᎶ	-12.1744
▁ᎠᏂᏔᏲᎯᎮ	-12.1745
▁ᎣᎾᏫ	-12.1745
ᎾᏄᎪᏥ	-12.1745
▁ᎤᏓᏱᎸ	-12.1745
ᎷᎸᏗᏱ	-12.1745
▁ᎬᏩᏂᏴᎲ	-12.1745
▁ᎠᏍᏆᏂᎪᎯ	-12.1745
ᏛᏓᏍᏓᏁᎮ	-12.1745
ᎬᎭᎷᏯ	-12.1746
▁ᎻᏗᏂ	-12.1746
▁ᏅᏓᎬᏩᏓᎴ	-12.1746
▁ᏫᎨᏥᏯᏅ	-12.1746
ᎾᏓᏑᏰ	-12.1746
ᎾᏙᏓᏆ	-12.1747
ᎷᎯᏍᏔᏅ	-12.1747
▁ᎢᎯᏴᏁᏗ	-12.1747
ᏘᎿᏫᏛ	-12.1747
ᎷᏫᏍᏓᏁᏗ	-12.1747
▁ᏳᏗᏛ	-12.1748
▁ᏗᎪᏑᎴᏗ	-12.1748
▁ᏫᏥᎷᏨ	-12.1748
ᏇᏓᏢ	-12.1748
ᏗᎴᎩ	-12.1749
ᏓᏴᎳᏔᏅ	-12.1749
▁ᎢᏣᏓᏅᏔᏩᏕ	-12.175
ᎦᏔᏂᎸ	-12.175
ᏓᎪᏄᎶ	-12.175
▁ᏚᏬᏢᏔ	-12.175
▁ᏗᏣᎵᏂᎪᎯᏍᏙᏗ	-12.1751
ᏂᏄᎪᏤᎢ	-12.1751
ᏍᏆᎾᎳᏗᏍᏗ	-12.1751
▁ᏄᏂᎬᏫᏳ	-12.1751
▁ᎨᏥᏌ	-12.1751
▁ᎡᎳᏆ	-12.1752
ᎾᎦᎵᏍᎩ	-12.1752
ᏓᏘᏍᏗ	-12.1753
ᎦᎵᏍᏔᏂᏒ	-12.1753
ᏂᏢᎩ	-12.1753
▁ᎾᏯᏛᎡ	-12.1753
▁ᏄᎬᏫ	-12.1754
ᏫᏍᏓᏁᏗ	-12.1754
▁ᏗᏣᏓᎴᏅ	-12.1754
ᎦᏕᎣᏍᎦ	-12.1754
ᏓᏅᏍᎨ	-12.1755
ᏭᎷᏤᎢ	-12.1755
ᏅᏧᎵᏍᏙᏔᏅ	-12.1755
ᎵᏏᎲᏒᎩ	-12.1755
ᏂᏙᎾᎡ	-12.1756
ᎪᏪᎵᎯ	-12.1756
ᎭᎷᏰ	-12.1756
ᏍᏉᏂᎪᏗ	-12.1757
▁ᎭᏓᏅ	-12.1758
▁ᎠᏂᏥᎸᏍ	-12.1758
ᏕᏘᏴᏌᏗᏒ	-12.1758
▁ᎤᏣᎴᏍ	-12.1758
ᏬᎯᏤ	-12.1758
ᎦᎫᏴᏓᏁᏗ	-12.1759
▁ᎠᏂᎳᎨ	-12.1759
▁ᏗᎪᏢᏔᏅ	-12.1759
▁ᏫᎦᎶ	-12.1759
ᎸᎪᏫᏍ	-12.176
ᎡᏒᎭ	-12.176
▁ᏧᏪᏙᎵᏍᏗ	-12.176
▁ᏫᎨᏥᏲᎵ	-12.176
▁ᎡᏥᏙᎵᏍᏗ	-12.176
▁ᏙᏗᏍᎩᏯᏘ	-12.176
▁ᎠᎩᏍᏛᏗ	-12.176
ᎦᏯᎷᎥᏍᎩ	-12.176
▁ᎤᎾᏄᎪᏥ	-12.176
ᏅᎵᏰᏗ	-12.176
▁ᎤᏬᏯᏁ	-12.1761
▁ᎠᏆᎴᏂᏓᏍᏗ	-12.1761
▁ᎬᎩᏁᏉᏤ	-12.1761
▁ᏌᏆ	-12.1761
ᏰᎸᏍᏗ	-12.1761
▁ᏱᏕᏣᏓ	-12.1761
▁ᎢᏧᏅᏁᏗ	-12.1761
ᏭᏂ	-12.1761
ᏙᏣᏁ	-12.1762
▁ᏚᎦᏒᏍ	-12.1762
▁ᏭᏔᎷ	-12.1762
ᏥᎵᏦ	-12.1762
▁ᏧᎸᏫᏍᏓᏁᎸ	-12.1762
ᏃᏍᎩᏒᎢ	-12.1762
ᏪᎵᏎᎢ	-12.1762
▁ᎬᏬᎳᏕᏍ	-12.1762
ᏫᏌᏅ	-12.1763
ᎾᏅᏅᎩ	-12.1763
ᎵᏍᏓᏴᎲᏍᎩ	-12.1763
▁ᏕᎭᏕᏲᎲᏍ	-12.1763
ᏯᎸᏒ	-12.1763
ᎦᎵᏂᎪᎯ	-12.1764
ᏔᎧᏅᎦ	-12.1764
▁ᏓᎭᏬᎢ	-12.1764
ᏍᏛᏗᏍᏔᏅ	-12.1764
▁ᎠᎫᎢᏍᏗᏍ	-12.1764
▁ᎡᎻᏂᏓ	-12.1764
▁ᎤᏒᎦᎸ	-12.1765
ᏁᏟᏴᏍᏓ	-12.1765
▁ᏕᏣᏓᏘᎾ	-12.1765
ᏥᏍᏓᏱᏕᎵ	-12.1765
▁ᏁᏓᏂ	-12.1765
ᎵᏓᎩᏛ	-12.1765
ᏢᏆᏍᏙᏗ	-12.1766
ᏍᏓᏲᏒ	-12.1766
▁ᏱᏄᏛᏁ	-12.1766
ᏅᎫᏛᎢ	-12.1766
ᏲᏤᎾ	-12.1767
▁ᎢᏯᎩᏳᏍ	-12.1767
▁ᎤᎦᎾᏏ	-12.1767
ᏄᎪᏫᏍᎩ	-12.1767
ᏩᎯᏎᎸ	-12.1767
ᏓᏁᏣᏍᏚ	-12.1767
▁ᎨᏣᎴ	-12.1767
ᏯᏘᏅᏍᏔ	-12.1767
ᏞᏫᏒ	-12.1767
ᏘᏅᏎ	-12.1768
▁ᎦᏕᎶ	-12.1768
ᏓᎸᎥᎦ	-12.1768
ᏪᏐᎸᏍᏔ	-12.1768
▁ᏥᏕᎪᏪ	-12.1768
▁ᏱᏗᏧᎪ	-12.1768
ᏚᏫᏍᏛ	-12.1768
▁ᏕᏣᎧᎿᏩᏗᏙ	-12.1768
▁ᎠᏥᎤᏍᏕᏎᎸ	-12.1768
ᏛᏛᏅᎩᏃ	-12.1769
ᏆᎧᎾᏅ	-12.1769
ᎵᏍᏓᏴᎲᏍᎪᎢ	-12.1769
▁ᏗᏂᎧᎿᏩᏗ	-12.1769
ᎢᏓᏙᎴᎰ	-12.177
ᏍᏆᏗᏍᎬᎾ	-12.177
▁ᏕᎪᏪᎵᏍ	-12.177
▁ᏗᎦᏅᏍᎨ	-12.177
▁ᏚᏟᏂᏆ	-12.177
ᎤᏗᏛᎲ	-12.177
ᏙᏑᎵ	-12.177
▁Ch	-12.177
ᏓᎿᏍᏆᎶᏍᏗ	-12.177
▁ᏂᎦᏥᏪᏎᎭ	-12.177
▁ᎠᏓᏅᏖᎯᎶ	-12.177
▁ᎤᏐᏓᎸ	-12.177
▁ᏓᎾᏓᏁᏟᏴ	-12.177
▁ᏕᏥᏄᎪᏫᏍ	-12.177
▁ᏙᏔᏍᏔᏰ	-12.177
▁ᏚᏟᏆᏗ	-12.177
▁ᏣᏦᏔᏍᏔᏅ	-12.177
▁ᏥᏫᏨᏲᏪᎳᏁ	-12.177
▁ᏯᎩᎷᏤᎴᏍᏗ	-12.177
ᎢᏗᎬᏤᎵᏛ	-12.177
ᎦᏌᏯᏍᏛᎾ	-12.177
ᎨᎩᎩᎵᏲᎢᏍᏗᏍᎬᎩ	-12.177
ᎨᎪᏪᎶᏔᏅᎯ	-12.177
ᎩᎷᏫᏍᏔᏏ	-12.177
ᎪᏂᏲᏥ	-12.177
ᎱᏣᏬᎳᏛ	-12.177
ᎳᏅᏓᏗᏏ	-12.177
ᎵᏂᎬᏁᎭ	-12.177
ᎵᏍᎫᎭᏴ	-12.177
ᎵᏍᏇᏔᏬ	-12.177
ᎵᏍᏕᎸᏙᏔᎾ	-12.177
ᎺᎵᎩᏌᏕᎩᏃ	-12.177
ᎾᏙᎯᏳᎾᏁᏗ	-12.177
ᏂᏅᎦᎴᎰᏅ	-12.177
ᏂᏗᏥᏲᏕᏍᏗᏍᎬᎾ	-12.177
ᏃᎯᎵᏣᏁ	-12.177
ᏅᏔᏗᏘᏍᎬ	-12.177
ᏌᏆᏞ	-12.177
ᏍᏆᏂᎪᏎᎴ	-12.177
ᏓᎦᏕᎶᎣᏏ	-12.177
ᏓᏓᏏᎾᎲᏍᏙᏗ	-12.177
ᏓᏕᏘᏴᎮᎬ	-12.177
ᏔᏕᎦᏅᎩ	-12.177
ᏕᎦᎵᎩᎡᎮᎢ	-12.177
ᏙᏛᎪᏄᎶᏏ	-12.177
ᏚᏂᏍᏔᏲᎳ	-12.177
ᏣᎴᏫᏍᏗᏍᎬ	-12.177
ᏣᎵᏂᎪᎯᏍᏔᏂ	-12.177
ᏥᏥᏃᎯᏍᏓ	-12.177
▁Po	-12.177
▁ᎠᎦᎫᏴᏓᏁᎮᏍᏗ	-12.177
▁ᎠᎦᏔᏔᏅᎥᏍᎩ	-12.177
▁ᎠᎧᏖᏃᎮ	-12.177
▁ᎠᎾᏁᎳᏗᏍᎪᎢ	-12.177
▁ᎠᎾᏁᏢᏔᏂᏒᎢ	-12.177
▁ᎠᎾᏓᎪᎾᏘᏗᏍᎬ	-12.177
▁ᎠᏂᎧᏔᎲ	-12.177
▁ᎠᏂᎻᏗᏯᏂ	-12.177
▁ᎠᏃᏢᏅᎥᏍᎬᎢ	-12.177
▁ᎠᏆᏓᏙᎵᏍᏔᏅ	-12.177
▁ᎠᏍᎪᏂᏗᏢ	-12.177
▁ᎠᏍᎫᏕᏍᎪᎢ	-12.177
▁ᎠᏒᎾᏘᎶᎥᎯ	-12.177
▁ᎠᏛᏒᎥᏍᎩ	-12.177
▁ᎠᏜᏩᏍᏗᏍᎨᏍᏗ	-12.177
▁ᎠᏥᏍᏛᏗᏍᏗᏍᎬᎢ	-12.177
▁ᎠᏩᏂᎦᎳ	-12.177
▁ᎡᎵᎣᏈᎦ	-12.177
▁ᎢᎤᏄᎪᏨ	-12.177
▁ᎢᎦᎤᏘᏍᏛ	-12.177
▁ᎢᎨᏣᎵᏍᏓᏁᏗ	-12.177
▁ᎢᎩᏲᎱᎯᏎᎸ	-12.177
▁ᎢᏍᎩᏃᏁᎵᎸ	-12.177
▁ᎢᏍᎩᏌᏛᎥᏍᎦ	-12.177
▁ᎢᏍᏛᎨᏳᎢ	-12.177
▁ᎢᏣᏚᎸᏗᏱ	-12.177
▁ᎢᏣᏠᎾᏍᏛ	-12.177
▁ᎢᏥᎾᏝᎾᎥ	-12.177
▁ᎢᏨᏰᎳᏗᏙᎮᏍᏗ	-12.177
▁ᎢᏨᏰᏯᏔᏅᎢ	-12.177
▁ᎢᏯᏟᎶᎥᎯ	-12.177
▁ᎢᏰᏣᏛᏁᏗ	-12.177
▁ᎢᏲᏨᏴᏁᏗᏱ	-12.177
▁ᎣᎦᎵᏥᏙᏗᏱ	-12.177
▁ᎣᏁᏏᏉᎳ	-12.177
▁ᎤᎦᏎᏍᏕᎢ	-12.177
▁ᎤᎧᏲᏐᏁ	-12.177
▁ᎤᎵᏍᎩᏃᏘᏍ	-12.177
▁ᎤᎵᏍᏔᏴᏃᏁᏍᏗ	-12.177
▁ᎤᎷᏦᏅᎯ	-12.177
▁ᎤᎾᎦᎰᏍᏔᏅ	-12.177
▁ᎤᎾᎴᎾᏫᏍ	-12.177
▁ᎤᎾᏙᎴᎨᏎ	-12.177
▁ᎤᏁᏧᏥᏛ	-12.177
▁ᎤᏂᎪᎯᏙᎸᎯ	-12.177
▁ᎤᏂᎪᏁᎶᎯᏌᏘ	-12.177
▁ᎤᏂᏍᏈᏍᏓ	-12.177
▁ᎤᏂᏔᎳᏬᏎᎢ	-12.177
▁ᎤᏃᎱᎦᏂᎸ	-12.177
▁ᎤᏓᏑᏰᎢ	-12.177
▁ᎤᏓᏥᏃᎯᏍᏔᏅ	-12.177
▁ᎤᏓᏩᏗᏍᏛ	-12.177
▁ᎤᏖᎸᏅ	-12.177
▁ᎤᏚᏓᏛᏗᏱ	-12.177
▁ᎤᏟᏴᏍᎩᎸᎮ	-12.177
▁ᎤᏧᏈᏍᏙᏒᎯ	-12.177
▁ᎤᏴᏍᏓᎡᎢ	-12.177
▁ᎧᎾᎸᎢᏍᏗ	-12.177
▁ᎨᏣᏔᏲᏎ	-12.177
▁ᎨᏤᎳᏗᏙᎭ	-12.177
▁ᎨᏥᏐᏠᎸᎢ	-12.177
▁ᎨᏥᏔᏲᏎᏗ	-12.177
▁ᎬᎾᏰᏍᎬ	-12.177
▁ᎬᏩᎦᏌᏯᏍᏕ	-12.177
▁ᎬᏩᎵᏠᏯᏍᏗ	-12.177
▁ᎬᏩᏂᎾᏄᎪᏫᏎᎮᏍᏗ	-12.177
▁ᎬᏩᏂᏲᏥᏙᎸ	-12.177
▁ᎬᏩᏍᏓᏩᏙᎯ	-12.177
▁ᎭᏆᏥᏂ	-12.177
▁ᎯᏯᎵᏍᎦᏍᏙ	-12.177
▁ᎻᎱᏤᎵ	-12.177
▁ᎻᏏᎴᎻ	-12.177
▁ᎻᏚᏎᎵ	-12.177
▁ᏁᏣᏛᏁᏍᏗᏉ	-12.177
▁ᏂᎦᏅᎦᎸᎲᎾ	-12.177
▁ᏂᏓᎦᎵᏍᏔᏂ	-12.177
▁ᏂᏕᏣᏓᏛᏁᎮᏍᏗ	-12.177
▁ᏂᏗᏣᏓᏕᎵᏎᎲᎾ	-12.177
▁ᏂᏗᏣᏢᏫᏎᎲᎾ	-12.177
▁ᏂᏗᏥᏁᎲᎾ	-12.177
▁ᏂᏙᏓᎬᏩ	-12.177
▁ᏄᎾᎵᎮᎵᏣᏛᎾ	-12.177
▁ᏄᏂᎷᎶᏤᎲᎾ	-12.177
▁ᏄᏙᎯᏳᏒ	-12.177
▁ᏅᎤᏪᏎᎸᎩ	-12.177
▁ᏅᏋᏁᎵᏙᎸᎢ	-12.177
▁ᏅᏓᎦᏪᏏ	-12.177
▁ᏅᏓᏍᎩᏴᏁᎵ	-12.177
▁ᏅᏓᏳᎾᎵᏍᏓᏁᎵ	-12.177
▁ᏅᏓᏳᏍᏗᏗᏒᎩ	-12.177
▁ᏅᏗᎦᎵᏍᏗᏙᏗᏍ	-12.177
▁ᏅᏛᏂᏙᎾᎢ	-12.177
▁ᏈᏗᏂᏱ	-12.177
▁ᏍᎩᏯᎵᎡᎵᏍ	-12.177
▁ᏍᎩᏯᏐᎥᎦ	-12.177
▁ᏍᏆᏕᎲᏏ	-12.177
▁ᏐᎵᎼᏅ	-12.177
▁ᏓᎦᎳᏐᏫᏏ	-12.177
▁ᏓᎨᎯᏛᏔᏂ	-12.177
▁ᏓᎬᏁᏉᎢ	-12.177
▁ᏓᎬᏍᏓᏩᏗᏙᎵ	-12.177
▁ᏓᎾᏕᏒᎲᏍᎨᎢ	-12.177
▁ᏓᎾᏦᎭᏱᎮ	-12.177
▁ᏓᏁᏙᎲᎩ	-12.177
▁ᏓᏂᏂᎩᎸ	-12.177
▁ᏓᏂᏥᏍᏔᎳᏍᎬ	-12.177
▁ᏓᏍᎩᏯᏠᏥ	-12.177
▁ᏓᏓᏘᏁᎲᎢ	-12.177
▁ᏓᏥᎴᏐᏂ	-12.177
▁ᏓᏥᏍᏔᏩᏕᏏ	-12.177
▁ᏓᏥᏔᏲᎵ	-12.177
▁ᏓᏨᏲᏎᎵ	-12.177
▁ᏓᏲᏍᏓᏁᎳᏗ	-12.177
▁ᏕᎤᎸᏫᏍᏓᏏ	-12.177
▁ᏕᎨᎦᏓᏂᎸᏨ	-12.177
▁ᏕᎩᎾᏦᏒ	-12.177
▁ᏕᎬᏒᎲᏍᎬᎢ	-12.177
▁ᏕᎬᏩᏓᏂᎸᏨᎩ	-12.177
▁ᏕᎬᏯᎫᏴᏓᏁᎮᏍᏗ	-12.177
▁ᏕᎬᏯᏠᎢᏍᏓᏁᎸ	-12.177
▁ᏕᎭᏅᏓᏗᏍᏗᏍᎨᏍᏗ	-12.177
▁ᏕᎯᏯᏓᏂᎸᏨᎭ	-12.177
▁ᏕᏍᏗᏂᏴᎮᏍᏗ	-12.177
▁ᏕᏥᎦᎿᏩᏗᏒ	-12.177
▁ᏕᏥᎦᏌᏬᎢᎲᎢ	-12.177
▁ᏕᏥᎳᏫᏦᎯᎲ	-12.177
▁ᏗᎦᎦᏠᏱᎯ	-12.177
▁ᏗᎦᎵᏯᏅᎯᏛ	-12.177
▁ᏗᎦᎷᏫᏍᏔᏅᏗ	-12.177
▁ᏗᎨᏥᏅᏍᏕᏎᎸᎯ	-12.177
▁ᏗᎩᎾᏓᏛᏙᏗ	-12.177
▁ᏗᎫᏩᎭᏄᏫ	-12.177
▁ᏗᏂᎳᏍᏓᎳᏩᏗᏒ	-12.177
▁ᏗᏅᏂᎦᎵᏍᏗ	-12.177
▁ᏗᏓᏙᏕᎯᎯ	-12.177
▁ᏗᏓᏟᎶᏍᏗᏍᎩ	-12.177
▁ᏗᏗᏂᏃᎩᏍᎨᎢ	-12.177
▁ᏗᏴᎦᎴᏴᏓ	-12.177
▁ᏘᏑᏫᏍ	-12.177
▁ᏘᏰᎵᎯᏍᏓ	-12.177
▁ᏙᎦᏓᏲᎵᎸ	-12.177
▁ᏙᏓᎦᏥᏯᏟᎶᏍᏔᏂ	-12.177
▁ᏙᏓᏦᎵᏍᏔᏂ	-12.177
▁ᏙᏘᏴᏔᏂᎵ	-12.177
▁ᏙᏛᎠᎴᎯᏌᏂ	-12.177
▁ᏚᎳᏑᎴ	-12.177
▁ᏚᎳᏑᏞ	-12.177
▁ᏚᎵᏖᎸᏁ	-12.177
▁ᏚᎵᏥᏍ	-12.177
▁ᏚᎷᏆᏗᏅ	-12.177
▁ᏚᎾᏁᎳᏗᏙᎴ	-12.177
▁ᏚᎾᏁᏍᏓᏝᎰᎢ	-12.177
▁ᏚᎾᏐᏓᎸ	-12.177
▁ᏚᎾᏦᎭᏱᎸ	-12.177
▁ᏚᏂᎵᏰᏗᏍᎬ	-12.177
▁ᏚᏂᎷᏫᏍᏔᏁᎲ	-12.177
▁ᏚᏌᏬᎴ	-12.177
▁ᏚᏍᏆᎸᏔᏅ	-12.177
▁ᏚᏟᎷᏆᏗᏅᏎ	-12.177
▁ᏚᏥᏍᏠᏨᎩ	-12.177
▁ᏚᏩᏅᎦᏢ	-12.177
▁ᏚᏮᎩᎶᎥᎩ	-12.177
▁ᏚᏯᏍᏜᏛ	-12.177
▁ᏛᎩᏯᏅᎡᎴᏍᏗ	-12.177
▁ᏛᎵᏰᎢᎸᏍᏓ	-12.177
▁ᏛᎾᎵᏛᏔᏂ	-12.177
▁ᏛᏋᏍᎦᎸᏂ	-12.177
▁ᏣᏥᏰᎸᎾᏁᎴᎢ	-12.177
▁ᏥᎦᎧᎰᎢ	-12.177
▁ᏥᎬᎩᎾᎸᏍᏔᏅᎩ	-12.177
▁ᏥᎬᏩᏂᏛᏔᏁ	-12.177
▁ᏥᎬᏲᏎᎸᎩ	-12.177
▁ᏥᏁᏣᏛᎩᏍᎪᎢ	-12.177
▁ᏥᏂᏕᎯᏪᏎᎸᎩ	-12.177
▁ᏥᏂᏚᏩᏁᎸ	-12.177
▁ᏥᏍᎩᏯᏂᎩᏍᏓ	-12.177
▁ᏥᏓᏅᎿᏗᏍᏙᏗ	-12.177
▁ᏥᏓᏚᏫᏍᏗᎭ	-12.177
▁ᏥᏙᏛᎩᎸᏫᏍᏓᏁᎵ	-12.177
▁ᏥᏚᏣᏃᏛᎩ	-12.177
▁ᏥᏫᏗᎦᎸᏌᏓᏗᏍᎪᎢ	-12.177
▁ᏥᏯᏓᏁᏟᏴᏍᏓᏁᎸ	-12.177
▁ᏥᏯᏚᏣᎳᏅᎭ	-12.177
▁ᏦᎦᏓᏂᎸᎢᏍᏗᏱ	-12.177
▁ᏦᎩᎸᏫᏍᏓᏁᎸᎯ	-12.177
▁ᏦᏣᎵᏥᏙᏁᏗᏱ	-12.177
▁ᏧᎾᏙᎳᏅᏍᏗ	-12.177
▁ᏧᏂᎾᏦᏴᏍᏗ	-12.177
▁ᏧᏃᏕᎯᎯ	-12.177
▁ᏧᏣᏬᏓ	-12.177
▁ᏨᏧᎶᏎᎢ	-12.177
▁ᏩᏂᎶᏒᎭ	-12.177
▁ᏫᎤᏪᏅ	-12.177
▁ᏫᎬᏩᏲᏥᏓᏍᏗ	-12.177
▁ᏫᏂᏚᏩᏁᎴ	-12.177
▁ᏫᏄᎾᏛᏁᎸᎩ	-12.177
▁ᏫᏙᏛᎾᎴᏔᏂ	-12.177
▁ᏫᏙᏛᎾᏓᎡᏏ	-12.177
▁ᏫᏙᏛᏂᏲᎯᏎᎵ	-12.177
▁ᏫᏚᎦᏔᎲᏍᏙᏗᏱ	-12.177
▁ᏫᏨᎨᏩ	-12.177
▁ᏫᏰᏣᏓᎢ	-12.177
▁ᏫᏱᏣᎧᎲᎦ	-12.177
▁ᏭᏁᏙᎸᎯ	-12.177
▁ᏭᏓᏬᎥᏍᏗ	-12.177
▁ᏭᏗᏍᎦᏝᏁ	-12.177
▁ᏭᏩᎾᏬ	-12.177
▁ᏭᏩᏯᎸᏥᎴ	-12.177
▁ᏮᎠᎦᏔᎲᏍᏓ	-12.177
▁ᏮᏓᏳᏎᎮᎵ	-12.177
▁ᏮᏛᏂᎶᏏ	-12.177
▁ᏯᎾᏓᏅᏍᎬᎾ	-12.177
▁ᏯᏂᏍᏙᎰᎢ	-12.177
▁ᏯᏆᎴᏂᏙᎸ	-12.177
▁ᏯᏉᎯᏳᎮ	-12.177
▁ᏯᏕᏠᏆᏍᎦ	-12.177
▁ᏱᏁᏨᎾᏕᎨᏍᏗ	-12.177
▁ᏱᏅᏧᎵᏍᏙᏔᏁ	-12.177
▁ᏱᏍᎩᏍᏕᎳ	-12.177
▁ᏱᏍᎩᏲᎢᏳᎲᏍᎦ	-12.177
▁ᏱᏍᎩᏲᎢᏳᏁᎢ	-12.177
▁ᏱᏍᏆᏓᏙᎵᏍᏓᏁᎸ	-12.177
▁ᏱᏓᏂᏍᏓᏩᎦᎦ	-12.177
▁ᏱᏕᏥᎤᏍᏕᏎᎸ	-12.177
[...]
