<unk>	0
<s>	0
</s>	0
,	-2.7435
▁the	-2.98224
.	-3.31781
▁and	-3.35545
▁of	-3.67539
▁to	-4.14225
▁that	-4.34672
▁in	-4.35859
▁a	-4.39782
▁And	-4.43358
▁he	-4.44593
▁I	-4.53394
s	-4.59841
;	-4.75222
:	-4.80427
▁unto	-4.81088
▁his	-4.86582
▁him	-4.87315
▁is	-4.90541
▁be	-4.98474
▁for	-4.98668
▁it	-5.03021
▁they	-5.03741
▁not	-5.0476
▁shal	-5.06162
▁was	-5.06701
l	-5.08956
▁with	-5.11995
▁them	-5.17192
▁	-5.20462
▁said	-5.24483
▁you	-5.30696
ing	-5.39595
▁all	-5.43346
ed	-5.4479
▁God	-5.51438
?	-5.51846
▁ye	-5.57482
▁me	-5.59854
▁as	-5.61417
▁from	-5.63505
’	-5.65022
t	-5.6649
▁thou	-5.67081
▁on	-5.70566
▁my	-5.71644
▁are	-5.724
▁have	-5.76467
▁but	-5.77176
▁when	-5.785
▁were	-5.80192
▁had	-5.85027
▁Lord	-5.85648
▁which	-5.86643
▁their	-5.91496
▁man	-5.91639
▁“	-5.91926
▁The	-5.92935
▁one	-5.94942
▁out	-5.95334
▁this	-5.98019
▁will	-5.99408
▁up	-6.00456
▁we	-6.01409
▁He	-6.03051
▁by	-6.03439
▁into	-6.06373
▁thy	-6.08595
▁thee	-6.11532
▁there	-6.15496
▁But	-6.16557
'	-6.17153
▁came	-6.1818
▁her	-6.19748
▁who	-6.20491
▁at	-6.21055
▁Jesus	-6.21413
d	-6.28505
▁things	-6.29072
▁your	-6.31831
▁also	-6.32354
▁upon	-6.34538
▁us	-6.36927
▁no	-6.38283
▁come	-6.38788
▁For	-6.39151
▁she	-6.3999
▁do	-6.42819
▁if	-6.45951
▁hath	-6.48597
▁an	-6.5199
▁made	-6.53067
▁went	-6.55194
▁day	-6.59564
▁down	-6.61873
▁people	-6.63214
▁so	-6.63241
▁saying	-6.64076
▁say	-6.64898
▁our	-6.66647
▁go	-6.6714
▁even	-6.67335
▁men	-6.6756
▁before	-6.67836
▁or	-6.71094
▁did	-6.73195
▁these	-6.73408
▁may	-6.7426
▁what	-6.74718
▁Christ	-6.75587
-	-6.758
eth	-6.77904
ly	-6.78506
▁know	-6.78557
▁make	-6.81131
▁after	-6.81964
▁every	-6.83885
cause	-6.84248
▁let	-6.85046
▁through	-6.85797
▁son	-6.88078
▁away	-6.9005
▁Wilbur	-6.90286
▁would	-6.9097
▁am	-6.91237
▁land	-6.9137
▁therefore	-6.9184
▁good	-6.92381
▁then	-6.92558
▁over	-6.92618
▁hand	-6.93418
▁children	-6.93649
▁like	-6.9406
▁about	-6.95522
▁two	-6.96049
▁house	-6.97237
▁Moses	-7.00462
”	-7.00864
▁put	-7.01295
▁called	-7.01413
▁earth	-7.02533
y	-7.02804
▁should	-7.0473
▁see	-7.04956
th	-7.05655
▁name	-7.05982
▁any	-7.06098
▁father	-7.06468
▁where	-7.07507
▁now	-7.08096
▁great	-7.08495
▁saw	-7.08957
▁been	-7.09129
▁days	-7.1094
▁heard	-7.1133
▁many	-7.12097
▁against	-7.12818
▁whom	-7.13542
▁took	-7.13733
e	-7.1458
▁saith	-7.15666
▁more	-7.15683
▁When	-7.17343
▁time	-7.18718
▁give	-7.20267
▁take	-7.22638
▁Israel	-7.23043
▁pass	-7.23082
▁Now	-7.24266
▁life	-7.24593
▁forth	-7.24732
▁again	-7.25964
▁another	-7.26072
st	-7.26579
▁brethren	-7.26769
▁heaven	-7.27511
▁some	-7.28021
▁himself	-7.29372
se	-7.30007
▁A	-7.30352
▁way	-7.30679
▁word	-7.32229
▁might	-7.32342
▁how	-7.32821
▁world	-7.33211
▁water	-7.33859
▁sons	-7.33987
!	-7.34698
▁eat	-7.35005
▁own	-7.35144
▁first	-7.35161
▁Then	-7.35342
▁other	-7.35805
▁little	-7.36398
▁behold	-7.36747
.”	-7.37977
f	-7.38523
▁place	-7.38702
▁old	-7.38827
▁among	-7.38868
▁back	-7.39263
▁law	-7.39476
▁They	-7.40492
▁brought	-7.40516
▁Father	-7.41362
▁What	-7.43622
m	-7.44825
▁than	-7.45215
▁years	-7.46038
▁could	-7.4611
▁It	-7.46842
▁brother	-7.47043
▁gave	-7.47953
▁She	-7.48214
▁Jacob	-7.48398
▁sent	-7.48867
▁Egypt	-7.49772
▁accord	-7.50263
▁Spirit	-7.51169
▁Pharaoh	-7.52111
▁love	-7.52429
▁found	-7.52557
▁night	-7.52621
▁cast	-7.53962
▁set	-7.54026
▁disciples	-7.54628
▁faith	-7.54969
▁dead	-7.54989
▁wife	-7.54996
▁Abraham	-7.55476
▁Mr	-7.55597
▁voice	-7.56948
▁under	-7.56952
▁yet	-7.57513
▁having	-7.58456
▁glory	-7.59005
▁being	-7.59447
▁hast	-7.59589
▁O	-7.5999
▁work	-7.60042
▁Charlotte	-7.61052
!”	-7.61124
?”	-7.61227
▁long	-7.61677
▁together	-7.62044
▁done	-7.62101
▁bring	-7.62129
▁answered	-7.62144
▁speak	-7.62452
▁spake	-7.62568
▁three	-7.6257
r	-7.62734
▁can	-7.62765
▁Joseph	-7.63094
▁heart	-7.63584
▁Thi	-7.64069
▁much	-7.64784
▁city	-7.65233
▁hear	-7.65395
▁fire	-7.66972
▁going	-7.67532
▁off	-7.67952
▁right	-7.67979
▁Son	-7.68
▁eyes	-7.6824
▁only	-7.699
▁neither	-7.70769
▁both	-7.71215
▁flesh	-7.71915
▁given	-7.71974
▁without	-7.72117
▁left	-7.72493
▁same	-7.72515
▁asked	-7.72718
▁thereof	-7.73108
▁nor	-7.73169
I	-7.73338
▁head	-7.73363
▁seven	-7.74154
▁while	-7.74248
▁blood	-7.74854
▁well	-7.75099
▁face	-7.7565
▁thing	-7.77312
▁LORD	-7.78465
▁evil	-7.80334
▁sat	-7.81003
▁words	-7.81305
▁get	-7.81581
▁mother	-7.81595
▁hands	-7.8207
▁th	-7.8208
est	-7.82223
▁art	-7.82233
very	-7.82691
▁So	-7.8285
▁death	-7.82869
er	-7.83118
▁kingdom	-7.84817
▁Let	-7.84874
▁just	-7.85747
▁Thou	-7.86139
▁unti	-7.86146
▁Jews	-7.86961
▁bear	-7.87615
▁light	-7.87819
▁nothing	-7.88847
▁ever	-7.88853
a	-7.8933
▁s	-7.89592
▁stood	-7.9091
ose	-7.90991
▁new	-7.92701
▁gold	-7.93715
▁themselves	-7.93727
▁Paul	-7.93732
▁ground	-7.93737
▁tree	-7.94172
▁keep	-7.94221
▁lay	-7.94271
▁side	-7.94941
▁sea	-7.95036
▁morning	-7.95171
▁Zuckerman	-7.95622
▁Be	-7.96311
▁We	-7.96552
▁woman	-7.96636
▁Behold	-7.96639
▁seen	-7.96804
▁looked	-7.96912
▁Fern	-7.97412
soever	-7.97647
▁There	-7.9769
▁want	-7.97699
re	-7.97909
▁In	-7.97954
▁Ye	-7.98272
▁sin	-7.98783
▁Jerusalem	-7.98875
▁Peter	-7.98875
▁feet	-7.98875
▁here	-7.99583
▁chief	-7.99632
▁thine	-8.00416
▁cometh	-8.00859
▁certain	-8.01173
ll	-8.01216
▁body	-8.01316
▁end	-8.01548
▁hundred	-8.0246
▁bread	-8.02629
▁knew	-8.02722
▁such	-8.02727
▁fear	-8.02905
▁power	-8.03288
▁pig	-8.0407
▁live	-8.04485
▁Who	-8.05054
▁sheep	-8.05106
▁whole	-8.05195
n	-8.05874
▁holy	-8.05915
▁fell	-8.05925
▁began	-8.05937
▁toward	-8.06325
▁Aaron	-8.06722
▁told	-8.06776
▁John	-8.07542
▁must	-8.07548
▁seed	-8.08016
▁servant	-8.08233
▁S	-8.08564
▁receive	-8.0892
▁multitude	-8.09041
▁works	-8.09143
▁written	-8.09201
▁die	-8.09305
▁high	-8.09926
▁become	-8.10058
▁believe	-8.10522
▁peace	-8.10572
▁five	-8.1262
▁coming	-8.12639
▁How	-8.12699
▁servants	-8.12797
▁truth	-8.13478
▁near	-8.14351
▁mouth	-8.1506
▁spirit	-8.15124
▁four	-8.15143
▁white	-8.15343
een	-8.1538
▁find	-8.16026
▁witness	-8.16113
▁grace	-8.16131
▁tell	-8.17551
▁tabernacle	-8.17808
▁each	-8.17949
▁drink	-8.18279
▁concern	-8.18888
▁around	-8.18899
▁pray	-8.19775
▁Isaac	-8.20718
▁still	-8.2072
▁commanded	-8.20834
▁got	-8.2139
▁web	-8.21603
▁part	-8.2191
▁full	-8.22543
▁hour	-8.22543
▁Charley	-8.22614
▁sight	-8.22628
▁child	-8.23563
▁betw	-8.23583
▁spoken	-8.23585
—	-8.23815
▁think	-8.24043
▁F	-8.24341
▁My	-8.24634
▁received	-8.24795
▁hard	-8.25516
▁round	-8.25549
▁laid	-8.25615
▁stand	-8.25951
ther	-8.26228
▁though	-8.26248
▁temple	-8.26517
▁mine	-8.26522
▁door	-8.26559
▁bega	-8.26559
▁walk	-8.26646
▁field	-8.27502
▁never	-8.27526
▁seek	-8.27788
▁has	-8.28051
▁altar	-8.28527
▁manner	-8.28527
▁river	-8.28528
▁always	-8.29548
▁send	-8.29557
▁too	-8.29561
▁last	-8.3058
▁daughter	-8.30623
▁righteousness	-8.31634
▁died	-8.3295
▁save	-8.33552
▁living	-8.33737
▁Holy	-8.33747
▁became	-8.33748
▁king	-8.33876
▁stone	-8.34774
▁money	-8.34812
▁young	-8.34915
▁C	-8.35821
▁Wherefore	-8.35907
▁Arable	-8.35962
▁angel	-8.36058
▁don	-8.36089
▁cried	-8.36998
▁taken	-8.37107
▁look	-8.37318
▁cause	-8.37544
▁gospel	-8.38109
▁judgment	-8.38195
▁priest	-8.38236
▁enter	-8.38716
▁rest	-8.38843
▁few	-8.39187
▁known	-8.39406
▁You	-8.39615
▁All	-8.40592
▁mind	-8.41097
▁mercy	-8.41519
▁second	-8.41522
▁Gentiles	-8.41525
▁gone	-8.41542
▁blessed	-8.41691
ter	-8.4184
▁ask	-8.42008
▁Do	-8.42073
▁hold	-8.4225
▁bare	-8.4257
▁His	-8.42685
▁kill	-8.42766
▁call	-8.42894
▁ten	-8.4346
▁un	-8.43631
▁opened	-8.44044
▁entered	-8.44296
ce	-8.44946
▁believed	-8.45322
▁lord	-8.45332
▁looking	-8.45554
▁hope	-8.46094
▁Go	-8.4617
▁Templeton	-8.46291
▁show	-8.46993
▁Pharisees	-8.47614
▁didn	-8.47672
▁As	-8.47851
▁big	-8.48699
▁walked	-8.49226
▁born	-8.49889
▁something	-8.49964
▁wood	-8.50359
▁twelve	-8.51223
▁Esau	-8.51223
▁wise	-8.51236
▁gathered	-8.5146
▁minister	-8.52033
▁daughters	-8.52449
▁third	-8.52505
▁raised	-8.52595
▁able	-8.52944
▁thought	-8.53241
▁small	-8.53762
▁above	-8.53804
▁cannot	-8.5381
▁lest	-8.53811
▁sure	-8.53817
▁none	-8.53837
▁delivered	-8.54069
▁sake	-8.54114
▁boy	-8.5412
▁year	-8.54323
▁dwell	-8.54531
▁righteous	-8.54974
▁whe	-8.55041
▁yourselves	-8.55119
▁barn	-8.5512
▁country	-8.55125
▁Avery	-8.5527
▁Where	-8.55563
▁prophets	-8.55953
▁car	-8.56386
▁judge	-8.56421
▁cattle	-8.56453
▁food	-8.56453
▁Why	-8.56526
▁That	-8.56594
▁ran	-8.56693
▁followed	-8.56766
▁beast	-8.56852
▁priests	-8.5765
▁dark	-8.57784
▁women	-8.57803
▁mount	-8.57808
▁anything	-8.57839
▁To	-8.57963
▁offering	-8.58391
▁angels	-8.59046
▁half	-8.59174
▁fall	-8.59974
▁sun	-8.60144
▁fine	-8.60488
▁filled	-8.60669
▁fruit	-8.60945
▁fish	-8.61469
p	-8.61754
▁joy	-8.61965
▁true	-8.61971
▁strong	-8.61973
▁midst	-8.62016
▁Every	-8.62021
▁most	-8.62082
▁soul	-8.62411
▁church	-8.63382
▁home	-8.63397
▁remember	-8.634
▁indeed	-8.634
▁elders	-8.63566
▁friend	-8.63865
▁serve	-8.64563
▁covenant	-8.64849
ness	-8.64901
▁far	-8.6506
es	-8.6525
▁turned	-8.6527
▁Simon	-8.6632
▁silver	-8.66322
▁Egyptians	-8.66524
▁returned	-8.6654
▁lived	-8.66679
▁turn	-8.66932
▁sins	-8.68291
▁standing	-8.68507
▁Smith	-8.69327
▁sabbath	-8.69328
▁Lurvy	-8.69341
▁ready	-8.69379
▁One	-8.69425
rose	-8.69749
▁thousand	-8.69842
▁feast	-8.70899
▁waters	-8.71304
▁fathers	-8.71327
▁sign	-8.7221
▁Cherokee	-8.72428
▁alone	-8.72433
▁why	-8.72439
▁myself	-8.72442
▁T	-8.72529
▁prophet	-8.73018
▁sleep	-8.73451
en	-8.7375
▁Some	-8.7387
▁kept	-8.74016
▁darkness	-8.74036
▁spider	-8.74611
▁ears	-8.7473
ve	-8.74939
▁cut	-8.7544
▁passed	-8.75911
▁wind	-8.76258
▁others	-8.76385
ers	-8.76463
▁eternal	-8.77268
▁better	-8.77271
▁sitting	-8.77275
▁along	-8.77401
le	-8.77449
▁saved	-8.77581
▁month	-8.77928
▁walking	-8.78026
▁fast	-8.78102
▁rat	-8.78903
▁wilderness	-8.78934
▁wisdom	-8.78934
▁straightway	-8.78939
▁departed	-8.79122
▁hair	-8.79484
▁husband	-8.79586
▁loved	-8.79719
an	-8.7985
▁reason	-8.80154
us	-8.80403
▁Abram	-8.80629
▁till	-8.80638
▁Come	-8.80684
▁seem	-8.80734
▁ark	-8.80748
▁whatsoever	-8.80901
▁leave	-8.81314
▁commandment	-8.81352
▁seeing	-8.81562
▁need	-8.82036
▁except	-8.82355
▁wine	-8.82363
▁foot	-8.82439
▁top	-8.8254
out	-8.82749
▁within	-8.82912
▁kind	-8.82929
▁air	-8.82983
▁mountains	-8.8317
You	-8.83535
▁write	-8.83559
▁help	-8.83565
▁six	-8.83643
▁clean	-8.8386
▁afraid	-8.84108
▁beginning	-8.84108
▁behind	-8.84108
▁next	-8.84108
▁try	-8.84122
▁linen	-8.84125
▁watch	-8.8451
▁nations	-8.84903
▁follow	-8.85016
▁boys	-8.85465
▁its	-8.85639
▁saints	-8.85904
erily	-8.85907
▁knowledge	-8.85909
▁Take	-8.85927
▁appeared	-8.86072
▁goose	-8.86227
If	-8.86403
hall	-8.86569
▁bed	-8.8657
▁tent	-8.87224
▁deep	-8.87653
▁present	-8.87712
▁ought	-8.87712
▁fulfilled	-8.87712
▁rather	-8.87717
▁scribes	-8.87869
▁E	-8.88125
▁visit	-8.89062
▁meet	-8.89143
▁sick	-8.89539
▁David	-8.89564
▁thyself	-8.89564
▁Laban	-8.89564
▁authority	-8.89564
▁twenty	-8.89566
▁Bless	-8.89572
▁wilt	-8.89577
▁meat	-8.90574
▁wrath	-8.91451
▁pure	-8.91459
▁baptized	-8.91478
▁soldiers	-8.91697
▁red	-8.92029
▁sh	-8.92334
▁yea	-8.92432
▁leaves	-8.92558
▁eye	-8.92657
▁destroy	-8.92904
▁Chap	-8.93369
▁congregation	-8.93374
▁blue	-8.93378
▁No	-8.93521
▁At	-8.93695
▁teaching	-8.93751
▁generations	-8.9405
▁throne	-8.94296
▁blind	-8.94865
▁apostles	-8.95682
in	-8.95684
▁master	-8.96348
▁M	-8.96584
▁woods	-8.96746
▁smell	-8.96844
▁rain	-8.96916
▁Canaan	-8.97315
▁bound	-8.97329
▁Galilee	-8.97335
▁cold	-8.97336
▁replied	-8.97337
▁sit	-8.97416
▁wherein	-8.97427
▁cup	-8.97429
▁soon	-8.97473
▁held	-8.97485
▁garments	-8.97834
▁cross	-8.97835
al	-8.97914
▁Indians	-8.97997
▁rock	-8.98364
▁dog	-8.984
or	-8.98496
▁deliver	-8.98952
▁ball	-8.99354
▁deal	-8.99374
▁sockets	-8.99388
▁worthy	-8.9944
▁beloved	-8.99512
▁therein	-8.99617
▁evening	-8.99848
▁thence	-9.003
▁knoweth	-9.00393
▁table	-9.00452
ous	-9.00456
▁preach	-9.00638
▁perfect	-9.01024
on	-9.01041
▁arose	-9.0107
▁nigh	-9.0113
▁knowing	-9.01444
▁enough	-9.01459
▁straw	-9.01459
▁salvation	-9.01464
▁Noah	-9.01465
▁thus	-9.01515
▁free	-9.01565
drew	-9.02063
▁P	-9.02322
▁mountain	-9.02591
▁suffer	-9.02692
▁signs	-9.02802
▁named	-9.02838
▁curtain	-9.03586
▁milk	-9.03586
▁testimony	-9.03586
▁firstborn	-9.03591
▁everything	-9.03605
▁Bear	-9.03615
▁hanging	-9.03727
▁almo	-9.0387
▁desire	-9.03919
▁cubits	-9.0401
▁p	-9.04197
▁boat	-9.04707
▁sister	-9.04708
▁cloud	-9.04721
▁matter	-9.04725
What	-9.05187
one	-9.05202
▁answer	-9.05226
▁hearts	-9.05495
▁book	-9.05514
it	-9.05738
▁honor	-9.05751
▁Pilate	-9.0576
▁Even	-9.05762
▁alive	-9.05762
▁broken	-9.05787
▁Therefore	-9.05787
▁ate	-9.0579
▁By	-9.05857
▁lifted	-9.06032
▁forty	-9.06251
▁demons	-9.06343
▁once	-9.0637
▁court	-9.06921
▁nation	-9.06983
▁doeth	-9.07313
▁gather	-9.07568
▁abide	-9.07891
▁Rachel	-9.07982
▁since	-9.08006
▁warm	-9.08019
▁Jud	-9.0807
▁oil	-9.08215
▁dream	-9.08283
▁lie	-9.08559
▁sacrifice	-9.09039
able	-9.09874
▁working	-9.09991
▁Judah	-9.10261
▁camp	-9.1027
▁moved	-9.10352
▁greater	-9.10556
▁re	-9.10831
▁teach	-9.112
ion	-9.11318
▁tongue	-9.1158
▁lot	-9.1185
cross	-9.12013
▁wait	-9.12152
▁times	-9.1251
▁enemies	-9.12581
▁After	-9.12581
▁verily	-9.12581
▁Mary	-9.1259
▁carried	-9.12592
▁preached	-9.13056
▁sound	-9.13486
▁Yea	-9.13564
▁war	-9.1363
▁promise	-9.13724
▁service	-9.13875
as	-9.14182
sought	-9.14272
▁dwelt	-9.14962
▁felt	-9.14962
▁crate	-9.14964
▁grew	-9.14965
▁faithful	-9.14978
▁already	-9.14979
▁sold	-9.15004
▁mighty	-9.1552
▁Of	-9.15558
less	-9.1614
▁prison	-9.16217
▁apple	-9.16379
▁ear	-9.16503
S	-9.16797
▁break	-9.16973
▁smoke	-9.17197
▁kings	-9.17228
▁loud	-9.17356
▁eight	-9.1736
▁presence	-9.17401
▁sweet	-9.17401
▁taught	-9.17401
▁making	-9.17401
▁thirty	-9.17437
▁early	-9.17516
▁led	-9.17519
o	-9.17591
▁B	-9.17651
▁multitudes	-9.17874
It	-9.18304
▁journey	-9.18352
▁point	-9.18832
▁synagogue	-9.18888
▁N	-9.19166
▁understand	-9.19311
▁worship	-9.19554
▁corn	-9.19849
▁black	-9.19879
▁summer	-9.19898
▁purple	-9.19901
▁Sarah	-9.19901
▁hearken	-9.19901
▁lead	-9.19923
▁dry	-9.19946
▁lost	-9.19973
ies	-9.20771
▁killed	-9.20809
▁trees	-9.20871
▁goeth	-9.21305
▁rich	-9.21973
▁close	-9.22089
▁stones	-9.22266
▁please	-9.22297
▁ourselves	-9.22465
▁resurrection	-9.22465
▁least	-9.22465
▁stopped	-9.22516
ment	-9.22604
▁Are	-9.22701
▁burnt	-9.22759
▁rings	-9.22898
▁lo	-9.23195
▁open	-9.23966
▁sword	-9.23969
▁fellow	-9.23978
▁egg	-9.24087
▁measure	-9.24129
▁build	-9.24187
▁offer	-9.24419
▁read	-9.24493
▁buy	-9.24568
▁Herod	-9.25095
▁herself	-9.25096
▁Littlefish	-9.25096
▁else	-9.25097
▁branches	-9.25102
▁road	-9.25117
▁really	-9.25125
▁Have	-9.25178
▁brass	-9.25298
▁blessing	-9.25531
▁vain	-9.25582
▁speaketh	-9.25667
▁boards	-9.25976
▁horses	-9.25994
▁souls	-9.26982
▁grass	-9.27683
fore	-9.27691
▁strength	-9.27778
▁fifty	-9.27799
▁wives	-9.27799
▁shirt	-9.27799
▁quit	-9.278
▁bought	-9.27823
▁green	-9.27831
▁younger	-9.27935
▁See	-9.27978
▁arise	-9.27983
▁clothes	-9.27987
▁rulers	-9.28494
▁names	-9.2866
▁On	-9.29436
▁gift	-9.29567
▁prayer	-9.29677
▁bless	-9.29712
▁return	-9.30159
▁speaking	-9.302
▁Thu	-9.30242
▁continue	-9.30505
▁Satan	-9.30577
▁buried	-9.30577
▁apart	-9.30577
▁beyond	-9.30577
▁poor	-9.30589
▁hot	-9.30648
▁neck	-9.30648
▁finished	-9.30688
▁morrow	-9.30718
▁healed	-9.30761
▁f	-9.31533
▁means	-9.31582
ation	-9.31699
▁houses	-9.32316
▁order	-9.32388
▁generation	-9.32459
▁gate	-9.3247
ur	-9.32619
▁feel	-9.32975
▁manifest	-9.33017
▁false	-9.33299
▁scarlet	-9.33434
▁Teacher	-9.33436
▁James	-9.33436
▁Nation	-9.33444
▁spread	-9.3346
▁Give	-9.33462
▁fled	-9.33484
▁room	-9.33508
▁age	-9.33561
▁started	-9.337
▁eating	-9.33837
▁judged	-9.33899
▁fat	-9.33963
▁play	-9.34469
▁run	-9.34588
▁t	-9.34768
▁number	-9.34816
body	-9.34957
▁use	-9.35161
ty	-9.35764
▁weak	-9.35862
ng	-9.36101
▁rejoice	-9.36176
▁beautiful	-9.36375
▁grey	-9.36375
▁wrought	-9.36375
▁famine	-9.36375
▁dust	-9.36395
▁east	-9.36412
▁outside	-9.36419
▁soil	-9.3644
▁front	-9.36472
▁abideth	-9.36497
▁appointed	-9.36507
▁Lot	-9.3666
▁pillars	-9.37026
h	-9.37076
el	-9.3728
▁pieces	-9.37314
w	-9.37397
▁wanted	-9.38063
▁horse	-9.38408
▁Indian	-9.38414
▁friends	-9.38457
▁board	-9.38542
▁sharp	-9.38685
i	-9.38791
Well	-9.3882
▁crown	-9.38963
▁low	-9.3905
▁pen	-9.39211
▁draw	-9.39371
▁wrong	-9.39403
▁Fair	-9.39405
▁caught	-9.39405
▁tried	-9.39406
▁Leah	-9.39407
▁pick	-9.39421
▁south	-9.39428
▁gain	-9.39487
▁Did	-9.39503
▁climbed	-9.39516
▁Thy	-9.39524
▁shew	-9.39594
▁gods	-9.39656
▁Don	-9.3968
▁sinners	-9.39764
▁bit	-9.39783
▁thanks	-9.40035
▁bad	-9.40424
ward	-9.40528
▁praise	-9.40706
▁mean	-9.41207
▁H	-9.41363
rom	-9.41377
▁stay	-9.41607
▁Is	-9.4187
rs	-9.42068
▁length	-9.42071
▁comfort	-9.42092
ar	-9.42479
▁speech	-9.42507
▁sorrow	-9.42523
▁kiss	-9.42531
▁hungry	-9.42533
▁shame	-9.42537
▁past	-9.42541
▁worshipped	-9.42584
▁fallen	-9.42592
▁happened	-9.42714
▁putt	-9.42782
▁dur	-9.42873
▁animals	-9.42901
▁burned	-9.42929
▁vessels	-9.42933
is	-9.43142
▁giveth	-9.43381
▁Th	-9.43478
▁places	-9.43803
▁heavens	-9.44709
▁tomb	-9.4471
A	-9.44959
much	-9.4513
▁anoint	-9.45325
▁pay	-9.45608
▁rise	-9.45739
▁dis	-9.4574
▁unclean	-9.45741
▁Wolf	-9.45756
▁asleep	-9.45756
▁counsel	-9.45756
▁crucified	-9.45756
▁itself	-9.45756
▁ephod	-9.45756
▁circumcision	-9.45756
▁swim	-9.45756
▁garden	-9.45756
▁devil	-9.45757
▁trough	-9.45759
▁justified	-9.45766
▁writing	-9.45767
▁course	-9.45823
▁King	-9.4585
▁met	-9.45922
with	-9.46167
▁raise	-9.46254
▁seventh	-9.46268
▁often	-9.4636
at	-9.46588
▁catch	-9.46727
▁b	-9.46844
▁burn	-9.47854
▁piece	-9.48095
▁bow	-9.48205
taking	-9.48226
▁command	-9.48534
▁lift	-9.48682
▁exceeding	-9.48998
▁office	-9.49041
▁Philip	-9.49089
▁abroad	-9.49089
▁Rebekah	-9.4909
▁reign	-9.49092
▁guard	-9.49093
▁winter	-9.49094
▁shut	-9.49096
▁moment	-9.49107
▁tired	-9.49107
▁Judas	-9.49107
▁prepared	-9.49177
am	-9.4928
▁covered	-9.49372
▁closed	-9.49396
▁shoes	-9.49426
▁talked	-9.49456
▁hid	-9.4954
▁hit	-9.49615
▁offered	-9.49646
▁suffered	-9.49759
▁Not	-9.50041
▁seat	-9.50589
▁doing	-9.50924
▁care	-9.50941
ir	-9.51066
▁commandments	-9.51084
▁Lo	-9.51175
▁scripture	-9.51521
▁coat	-9.51526
ever	-9.51774
gotten	-9.5195
▁perish	-9.51983
▁wash	-9.51986
▁town	-9.52044
▁best	-9.52157
▁R	-9.5218
▁foolish	-9.52521
▁guess	-9.52538
▁beseech	-9.52538
▁staves	-9.52538
▁large	-9.52538
▁passover	-9.52538
▁wept	-9.5254
▁built	-9.52549
▁sky	-9.5255
▁reward	-9.5255
▁immediately	-9.52552
▁conceived	-9.52569
▁Amen	-9.52592
▁crowd	-9.52631
▁Put	-9.52649
▁eaten	-9.5269
▁pleased	-9.52803
▁ago	-9.52809
▁couldn	-9.52816
▁believeth	-9.52918
▁touched	-9.52919
▁crying	-9.52949
▁legs	-9.53072
▁understanding	-9.53178
▁members	-9.53362
▁flocks	-9.53485
▁spring	-9.53499
▁calling	-9.53911
▁tongues	-9.5406
▁season	-9.54615
▁smite	-9.54891
ful	-9.54908
▁edge	-9.54991
▁image	-9.55014
▁captain	-9.55045
▁parable	-9.55066
▁tribe	-9.5508
ting	-9.55495
▁hearing	-9.55548
▁building	-9.55605
▁bright	-9.55925
▁short	-9.55938
▁quiet	-9.56025
▁D	-9.56047
▁subject	-9.56103
▁straight	-9.56107
▁breastplate	-9.56109
▁patience	-9.56109
▁salute	-9.56109
▁fornication	-9.56109
▁slay	-9.56109
▁fence	-9.5611
▁Adam	-9.56111
▁empty	-9.56123
c	-9.56128
▁does	-9.56131
▁quickly	-9.56136
▁churches	-9.56155
▁beheld	-9.56225
▁divided	-9.5623
▁troubled	-9.56308
▁inside	-9.56372
▁e	-9.56443
▁riches	-9.56649
▁loveth	-9.56819
▁forward	-9.56926
▁prayed	-9.57763
▁committe	-9.58341
▁depart	-9.58539
▁duke	-9.58781
▁creature	-9.58794
▁flock	-9.58807
of	-9.59182
▁grow	-9.59304
▁carry	-9.59357
▁repent	-9.59664
▁rod	-9.59725
▁wild	-9.59734
▁strange	-9.59754
▁forgive	-9.59757
▁ox	-9.59797
▁spoke	-9.59811
▁incense	-9.59813
▁knife	-9.59813
▁spiritual	-9.59813
▁account	-9.59813
▁stick	-9.59814
▁glorified	-9.59817
▁Sodom	-9.59821
▁Lamb	-9.59825
▁deny	-9.59845
▁circumcised	-9.59855
giving	-9.59859
▁truck	-9.5986
▁yard	-9.59917
▁poured	-9.59998
▁pulled	-9.60029
▁foundation	-9.60036
▁thereon	-9.60212
ittim	-9.60215
▁receiveth	-9.60253
▁breadth	-9.60257
▁bowed	-9.60289
▁sore	-9.60401
▁less	-9.60705
ted	-9.60794
▁besought	-9.60915
▁wet	-9.6136
▁wax	-9.61507
▁o	-9.62064
▁creek	-9.62582
▁pit	-9.62582
ri	-9.6262
▁disciple	-9.62666
▁stranger	-9.62698
▁d	-9.62744
▁talk	-9.62778
ped	-9.63059
g	-9.63102
▁touch	-9.63236
▁cry	-9.63256
▁glad	-9.63519
▁lawful	-9.63592
▁broke	-9.63624
▁council	-9.63659
▁Barnabas	-9.63659
▁iniquity	-9.63659
▁whither	-9.63659
▁cities	-9.6366
▁state	-9.63665
▁brown	-9.63673
▁lad	-9.63688
▁Woe	-9.63688
▁snake	-9.63717
▁exceedingly	-9.63792
▁Whi	-9.63802
▁stretched	-9.63867
▁charged	-9.63915
▁longer	-9.63964
▁learned	-9.64009
▁hated	-9.64058
im	-9.64083
▁beat	-9.64126
▁nine	-9.6422
▁manifested	-9.64233
and	-9.64284
▁stars	-9.64362
▁knowest	-9.64369
ear	-9.64507
▁worketh	-9.64522
▁purpose	-9.64645
▁sac	-9.6483
▁gifts	-9.65082
▁greatly	-9.65142
▁st	-9.65432
▁hurt	-9.66065
▁skin	-9.66316
▁afternoon	-9.66531
▁tail	-9.66545
▁wheel	-9.66646
▁heads	-9.66647
▁garment	-9.66658
▁finger	-9.66683
▁ruler	-9.66702
▁reach	-9.66778
▁line	-9.66827
▁multiply	-9.67121
for	-9.67192
▁obey	-9.67218
▁Jackson	-9.67659
▁couple	-9.67659
▁bottle	-9.67659
▁teeth	-9.6766
▁spent	-9.67661
▁bondage	-9.67661
▁self	-9.67662
▁Which	-9.67665
▁created	-9.67671
▁swear	-9.67677
▁trouble	-9.67914
▁rope	-9.68097
▁touching	-9.68141
▁wonders	-9.68145
sar	-9.68189
▁birds	-9.68466
▁eggs	-9.69226
day	-9.69653
▁rocks	-9.69689
ch	-9.70068
▁months	-9.70153
▁hole	-9.70814
▁appear	-9.70913
▁Jew	-9.70969
▁act	-9.71361
▁rule	-9.71439
▁count	-9.71679
▁wall	-9.71683
▁loose	-9.71699
▁thin	-9.71818
▁Abimelech	-9.71826
▁bottom	-9.71826
▁conscience	-9.71826
▁unleavened	-9.71826
▁Elijah	-9.71826
▁twin	-9.71826
▁snow	-9.71827
▁moon	-9.71831
▁story	-9.71832
▁sinned	-9.71843
▁household	-9.71844
▁suddenly	-9.71852
▁goats	-9.71853
▁sell	-9.71864
▁risen	-9.71872
▁With	-9.71872
▁someone	-9.71964
▁weight	-9.72152
▁spirits	-9.72371
▁destroyed	-9.72758
▁watched	-9.7285
▁skins	-9.73077
▁sides	-9.73449
red	-9.73817
▁ones	-9.73838
ake	-9.73913
▁drinking	-9.73974
ity	-9.73986
▁h	-9.7416
▁ways	-9.74482
▁faces	-9.7471
▁c	-9.75043
He	-9.75472
Oh	-9.75575
▁shoulder	-9.7575
▁feed	-9.75758
▁double	-9.75942
▁secret	-9.76025
▁abound	-9.76029
▁Levi	-9.76169
▁hither	-9.7617
▁raiment	-9.76173
▁glorify	-9.76174
▁space	-9.76174
▁vineyard	-9.76174
▁afar	-9.76174
▁hail	-9.76176
▁trail	-9.76176
▁Ridge	-9.76176
▁pigpen	-9.76179
▁possible	-9.76184
▁wrote	-9.76188
▁adultery	-9.762
▁creep	-9.762
▁flies	-9.76213
▁arrived	-9.76215
▁forgiven	-9.76215
▁maid	-9.76219
▁cat	-9.76223
▁golden	-9.76273
▁scattered	-9.76278
▁witnesses	-9.76303
▁parts	-9.76419
▁officers	-9.7648
▁lose	-9.76523
▁An	-9.76683
▁talking	-9.76699
ory	-9.76799
▁g	-9.76855
▁breath	-9.76871
▁mayest	-9.77017
▁eateth	-9.77436
▁ends	-9.77482
▁heavenly	-9.77564
▁willing	-9.77895
▁synagogues	-9.77975
ah	-9.78399
▁feared	-9.78583
▁fight	-9.7872
ill	-9.79223
▁Can	-9.79251
▁charge	-9.79444
▁beasts	-9.79545
▁root	-9.79658
▁pleasure	-9.79663
▁pillar	-9.79713
▁Her	-9.79744
▁heed	-9.79745
rew	-9.79838
▁song	-9.7999
▁won	-9.8012
either	-9.80137
▁remain	-9.80178
▁report	-9.80372
▁start	-9.80589
▁move	-9.80616
▁confess	-9.80711
▁inherit	-9.80714
▁sail	-9.80716
▁Benjamin	-9.80719
▁Isaiah	-9.80719
▁daily	-9.80719
▁haply	-9.80719
▁remembrance	-9.80719
▁womb	-9.80719
▁array	-9.80719
▁running	-9.80719
▁Timothy	-9.80719
▁mystery	-9.80719
▁happy	-9.8072
▁marry	-9.8072
▁pretty	-9.8072
▁inheritance	-9.80724
▁likewise	-9.80726
▁brake	-9.80737
▁amazed	-9.80762
▁camels	-9.80926
▁sixth	-9.80966
ish	-9.81007
▁bones	-9.81078
▁washed	-9.81304
▁feeling	-9.81462
▁heareth	-9.81697
▁lives	-9.82284
ance	-9.82309
▁today	-9.8256
▁nose	-9.82818
▁thinking	-9.82942
z	-9.83272
men	-9.83578
▁—	-9.83589
▁candlestick	-9.84416
▁neighbor	-9.84439
▁village	-9.84444
▁lamb	-9.84459
▁ship	-9.84571
adventure	-9.8477
Yes	-9.84872
▁bury	-9.84992
▁fashion	-9.85022
▁establish	-9.85047
▁store	-9.85055
▁thank	-9.85093
▁possess	-9.85299
▁curse	-9.85337
▁stumble	-9.85403
▁flee	-9.85412
▁late	-9.85443
▁naked	-9.85463
▁ashamed	-9.85481
▁dominion	-9.85481
▁middle	-9.85481
▁smote	-9.85481
▁iron	-9.85481
▁precious	-9.85481
▁devour	-9.85481
▁Saviour	-9.85482
▁vail	-9.85482
▁further	-9.85483
▁Perry	-9.85484
▁hire	-9.85493
▁direction	-9.85523
▁decided	-9.85524
▁sware	-9.85529
▁lying	-9.85537
▁slowly	-9.85568
▁tied	-9.85611
▁sort	-9.85628
▁hardened	-9.85631
▁anger	-9.85636
▁anyone	-9.8568
▁horns	-9.85716
▁borne	-9.85836
▁hence	-9.8589
▁fourth	-9.8599
▁liveth	-9.86047
▁letters	-9.86308
▁notice	-9.86715
▁strangers	-9.86769
▁Here	-9.86873
▁heat	-9.8722
▁commit	-9.87417
▁wear	-9.88144
▁drive	-9.88176
▁perceive	-9.8823
▁question	-9.8888
▁form	-9.89016
▁Salut	-9.8929
▁begin	-9.89339
▁arm	-9.8934
▁Hebrew	-9.89451
▁cubit	-9.89478
▁corner	-9.89544
▁sanctif	-9.89774
▁clear	-9.8987
▁worry	-9.89972
▁stop	-9.9036
▁Macedonia	-9.90481
▁Spearfinger	-9.90481
▁behalf	-9.90481
▁breakfast	-9.90481
▁fair	-9.90481
▁ignorant	-9.90481
▁loaves	-9.90481
▁marriage	-9.90481
▁school	-9.90481
▁thither	-9.90481
▁Saul	-9.90482
▁idea	-9.90482
▁struck	-9.90482
▁supper	-9.90484
▁elect	-9.90485
▁cheer	-9.9049
▁reproach	-9.9049
▁Arise	-9.90496
▁tidings	-9.9051
▁handmaid	-9.90511
▁getting	-9.90557
▁wide	-9.90572
▁Art	-9.90622
▁idols	-9.90822
▁knees	-9.90984
▁bonds	-9.91086
▁either	-9.91132
▁stayed	-9.91174
▁fully	-9.91219
▁north	-9.91306
▁hate	-9.91803
▁treasure	-9.92362
nto	-9.92451
▁sacrifices	-9.92787
▁tables	-9.92995
ate	-9.93044
▁join	-9.93421
k	-9.93441
▁needs	-9.93506
▁cover	-9.93784
ry	-9.93922
▁labor	-9.94037
▁bearing	-9.9406
▁demon	-9.94324
▁accuse	-9.94459
▁affliction	-9.94564
▁goods	-9.94576
▁flood	-9.94616
▁governor	-9.94616
▁window	-9.94666
▁possession	-9.94691
▁week	-9.94696
▁host	-9.94743
▁bird	-9.9475
▁color	-9.94789
▁afterward	-9.94859
▁grave	-9.95085
▁L	-9.95161
How	-9.95171
But	-9.95172
▁strip	-9.95269
▁regard	-9.95274
▁proceed	-9.95288
▁change	-9.95517
▁forbid	-9.95534
▁wicked	-9.95578
▁grievous	-9.95619
▁chose	-9.95709
▁Claire	-9.95744
▁Jordan	-9.95744
▁Washington	-9.95744
▁abode	-9.95744
▁centurion	-9.95744
▁company	-9.95744
▁dawn	-9.95744
▁language	-9.95744
▁neighbour	-9.95744
▁nought	-9.95744
▁parents	-9.95744
▁families	-9.95744
▁different	-9.95745
▁fourteen	-9.95745
▁chair	-9.95747
▁business	-9.95747
▁Cain	-9.9575
▁repentance	-9.95752
▁subjection	-9.9576
▁spoil	-9.95765
▁Most	-9.95773
▁cock	-9.95778
▁tiny	-9.95786
▁shot	-9.95803
▁fill	-9.95847
▁robe	-9.95851
▁marvelled	-9.95871
▁spin	-9.95936
▁reckoned	-9.96009
▁Look	-9.96092
▁hunting	-9.96106
▁covering	-9.96215
the	-9.96249
▁nights	-9.96285
▁height	-9.96315
▁served	-9.9648
▁lusts	-9.96603
▁journeyed	-9.96666
ily	-9.96793
▁faint	-9.96862
▁corners	-9.9687
▁declare	-9.96894
ug	-9.97126
▁following	-9.97147
▁watching	-9.97156
▁scriptures	-9.97331
▁falling	-9.9755
▁gates	-9.9767
▁G	-9.97886
▁Br	-9.98613
▁star	-9.99795
▁tribulation	-10.0012
▁apostle	-10.0034
▁learn	-10.0039
The	-10.0057
▁pain	-10.0058
That	-10.0073
▁profit	-10.0082
▁utter	-10.0084
▁leaven	-10.0098
ary	-10.0101
▁fly	-10.0106
▁refuse	-10.011
▁plain	-10.0118
▁natural	-10.0119
▁Te	-10.0121
▁con	-10.0129
▁Again	-10.013
▁Brethren	-10.013
▁Nazareth	-10.013
▁baptism	-10.013
▁beneath	-10.013
▁geese	-10.013
▁Grace	-10.013
▁drove	-10.013
▁woe	-10.013
▁Know	-10.013
▁respect	-10.013
▁shook	-10.0131
▁yellow	-10.0131
▁price	-10.0132
▁pool	-10.0132
▁sorry	-10.0132
▁abundantly	-10.0132
▁Nay	-10.0134
▁bigge	-10.0134
▁wish	-10.0134
▁wheat	-10.0135
▁voices	-10.0137
▁revealed	-10.0143
▁noise	-10.0143
▁rent	-10.0144
▁pond	-10.0145
▁row	-10.0155
▁talents	-10.0168
▁tears	-10.0174
▁clothed	-10.0176
▁remained	-10.0183
wo	-10.0213
▁persons	-10.0216
▁Asia	-10.0218
▁wouldest	-10.0222
he	-10.0247
▁lines	-10.0274
▁creatures	-10.0286
▁m	-10.0291
ic	-10.0306
▁holding	-10.0359
ors	-10.0374
ge	-10.0374
▁pipe	-10.0374
▁perceiv	-10.0387
▁rush	-10.0451
▁trust	-10.0485
age	-10.0535
▁hide	-10.0563
▁Dr	-10.0575
▁oath	-10.06
▁vision	-10.0605
▁cave	-10.0606
▁fowl	-10.0608
▁miracle	-10.0609
▁male	-10.0609
▁serpent	-10.061
▁widow	-10.0616
▁border	-10.0616
▁ram	-10.0616
▁post	-10.062
▁hill	-10.0623
▁ring	-10.0655
▁cook	-10.0669
▁letter	-10.0673
▁redeem	-10.0674
ne	-10.0683
▁W	-10.069
▁escape	-10.0699
▁reap	-10.0705
▁several	-10.0708
▁dirt	-10.0709
▁per	-10.0716
▁swam	-10.0717
▁Antioch	-10.0718
▁Crockett	-10.0718
▁Ishmael	-10.0718
▁Reuben	-10.0718
▁Sarai	-10.0718
▁cunning	-10.0718
▁everlasting	-10.0718
▁heavy	-10.0718
▁leaving	-10.0718
▁truly	-10.0718
▁Sinai	-10.0718
▁drank	-10.0718
▁slew	-10.0718
▁astray	-10.0718
▁nature	-10.0718
▁sitteth	-10.0718
▁colonel	-10.0718
▁sanctuary	-10.0719
▁Howbeit	-10.0719
▁Shechem	-10.0719
▁grain	-10.0719
▁tarried	-10.0719
▁interpretation	-10.072
▁sanctified	-10.072
▁bitter	-10.0721
▁oxen	-10.0721
▁married	-10.0721
▁chosen	-10.0722
▁fishes	-10.0726
▁render	-10.0727
▁dirty	-10.0727
▁wings	-10.073
▁sown	-10.0733
▁pail	-10.0734
▁farm	-10.0737
▁exalted	-10.0739
▁jumped	-10.074
▁mourning	-10.0742
▁wipe	-10.0743
▁weeping	-10.0751
▁loosed	-10.0753
▁lower	-10.0763
▁sailed	-10.0773
▁calleth	-10.0777
▁counted	-10.0779
ants	-10.0785
hick	-10.0792
▁comforted	-10.08
▁hiding	-10.08
▁burning	-10.0802
▁borders	-10.0821
▁reading	-10.0824
ite	-10.0835
b	-10.0861
▁meeting	-10.087
▁turning	-10.0908
▁doest	-10.0938
▁prayers	-10.0952
▁roll	-10.0983
▁Ha	-10.0985
▁Oh	-10.0995
ris	-10.1033
▁meal	-10.1067
▁spiders	-10.1107
▁cloth	-10.1142
▁offerings	-10.1178
man	-10.1198
▁thoughts	-10.1203
ay	-10.1217
▁cabin	-10.1225
▁fig	-10.123
▁lust	-10.1243
▁exhort	-10.1245
Charlotte	-10.1286
Now	-10.1287
▁lack	-10.1291
▁salt	-10.1294
▁r	-10.1302
laid	-10.1302
▁patient	-10.133
▁slow	-10.1333
▁overcome	-10.1335
▁glass	-10.1341
ollow	-10.1342
▁Asmeret	-10.1343
▁English	-10.1343
▁Ephesus	-10.1343
▁Hittite	-10.1343
▁Nahor	-10.1343
▁Simeon	-10.1343
▁cellar	-10.1343
▁harlot	-10.1343
▁lips	-10.1343
▁yield	-10.1343
▁Damascus	-10.1343
▁godliness	-10.1343
▁honey	-10.1343
▁common	-10.1344
▁family	-10.1344
▁compassion	-10.1345
▁grant	-10.1345
▁beaten	-10.1346
▁inso	-10.1346
▁yesterday	-10.1347
▁deer	-10.1347
▁je	-10.1347
▁mark	-10.1348
▁doesn	-10.135
▁asses	-10.1353
▁thorns	-10.1353
▁tempted	-10.1361
▁shortly	-10.1364
▁goes	-10.1365
▁planted	-10.1376
▁wor	-10.1381
▁chains	-10.1386
▁goodness	-10.1387
▁speaker	-10.1393
▁herds	-10.1394
▁Hear	-10.1395
▁soft	-10.1401
▁cows	-10.1407
▁pale	-10.1409
ra	-10.1416
▁lamps	-10.1426
▁bowls	-10.1427
▁frogs	-10.1429
▁breaking	-10.1465
▁arms	-10.1473
▁sayest	-10.1479
▁lambs	-10.148
te	-10.1512
▁de	-10.152
▁hell	-10.153
▁withal	-10.1549
▁pro	-10.1557
▁steppe	-10.1558
▁apples	-10.1617
▁ass	-10.1627
nt	-10.1628
▁Shem	-10.1628
▁heal	-10.1657
▁commun	-10.1693
▁west	-10.1722
▁hat	-10.179
▁judges	-10.1804
▁fruits	-10.1822
▁desert	-10.1842
▁person	-10.1866
▁cr	-10.1881
▁girdle	-10.1892
▁stream	-10.1899
ia	-10.1903
▁blanket	-10.1906
▁Greek	-10.1908
▁girl	-10.1913
▁prisoner	-10.1927
▁bringing	-10.1929
▁haste	-10.1942
Good	-10.1945
▁glorying	-10.1948
▁flow	-10.1956
▁steal	-10.1961
▁says	-10.1971
▁hunt	-10.1975
▁hung	-10.1992
▁race	-10.1992
▁flat	-10.1995
▁stumbling	-10.201
▁Almighty	-10.201
▁anxious	-10.201
▁bodies	-10.201
▁bridegroom	-10.201
▁coffee	-10.201
▁cousin	-10.201
▁damsel	-10.201
▁disobedient	-10.201
▁enemy	-10.201
▁necessary	-10.201
▁obedience	-10.201
▁prosper	-10.201
▁screamed	-10.201
▁silence	-10.201
▁uncircumcision	-10.201
▁America	-10.201
▁diligence	-10.201
▁trumpet	-10.201
▁harvest	-10.201
▁doctor	-10.201
▁slain	-10.201
▁Stephen	-10.201
▁overlay	-10.201
▁Haran	-10.201
▁divers	-10.201
▁rising	-10.201
▁Nancy	-10.201
▁lawyer	-10.201
▁scratch	-10.2011
▁pasture	-10.2011
▁acceptable	-10.2011
▁calf	-10.2011
▁boldness	-10.2011
▁temptation	-10.2011
▁spare	-10.2011
▁trade	-10.2012
▁lodge	-10.2013
▁doorway	-10.2014
▁carefully	-10.2016
▁axe	-10.2016
▁worse	-10.2017
▁Man	-10.2018
▁floor	-10.202
▁Sure	-10.2023
▁removed	-10.2025
▁ceased	-10.2026
▁Sir	-10.2026
▁thick	-10.2027
▁hypocrites	-10.2028
▁defiled	-10.2028
▁henceforth	-10.2032
▁quietly	-10.2032
THE	-10.2032
▁goslings	-10.2035
▁obtained	-10.2035
▁spit	-10.2041
▁onto	-10.2043
▁consider	-10.2049
▁stared	-10.2064
▁promised	-10.207
▁sacrificed	-10.207
▁tall	-10.2073
▁wearing	-10.2075
▁barely	-10.2079
▁ex	-10.2112
▁Greeks	-10.2113
▁widows	-10.2128
▁rebuke	-10.2155
▁comes	-10.2168
▁Sen	-10.2178
▁needed	-10.2181
▁seeth	-10.2223
▁prove	-10.2229
▁St	-10.2254
▁sad	-10.2276
▁sing	-10.2303
ched	-10.2354
▁telling	-10.2367
score	-10.2414
u	-10.2437
▁occasion	-10.2457
rolled	-10.2467
▁happen	-10.2509
ive	-10.2518
ain	-10.2536
▁ill	-10.2537
▁liked	-10.2545
No	-10.256
▁burden	-10.2572
▁Get	-10.2598
▁revelation	-10.2606
▁leg	-10.2609
▁region	-10.2611
▁paper	-10.2616
▁supplication	-10.2616
▁shepherd	-10.262
▁hang	-10.262
▁Egyptian	-10.2626
▁sack	-10.2627
▁beside	-10.2648
F	-10.2665
though	-10.2671
▁inhabit	-10.2678
▁interest	-10.2679
▁condemn	-10.268
▁betray	-10.2681
▁pull	-10.2683
▁owner	-10.2687
▁defile	-10.2692
▁release	-10.2703
▁despise	-10.2703
▁taste	-10.2704
▁crow	-10.2706
▁proud	-10.2709
▁eleven	-10.2713
xcept	-10.2724
▁Sadducees	-10.2724
▁Lazarus	-10.2724
▁Manasseh	-10.2724
▁Sequoyah	-10.2724
▁confidence	-10.2724
▁countenance	-10.2724
▁doctrine	-10.2724
▁dumb	-10.2724
▁fifteen	-10.2724
▁ghost	-10.2724
▁multiplied	-10.2724
▁ointment	-10.2724
▁recompense	-10.2724
▁roof	-10.2724
▁tarry	-10.2724
▁thief	-10.2724
▁awoke	-10.2724
▁substance	-10.2724
▁trial	-10.2724
▁loins	-10.2724
▁vine	-10.2724
▁crep	-10.2724
▁Hagar	-10.2724
▁digged	-10.2724
▁contrary	-10.2724
▁gander	-10.2724
▁intend	-10.2724
▁forehead	-10.2724
▁dump	-10.2725
▁fellowship	-10.2725
▁Zion	-10.2725
▁understood	-10.2725
▁continually	-10.2725
▁unrighteousness	-10.2726
▁ungodly	-10.2726
▁heap	-10.2726
▁wickedness	-10.2727
▁Hello	-10.2727
▁loss	-10.2727
▁exactly	-10.2727
▁rejected	-10.2729
▁somewhere	-10.273
▁stedfastly	-10.273
▁fruitful	-10.273
▁ashes	-10.2731
▁stirred	-10.2732
▁later	-10.2732
▁everywhere	-10.2733
▁descended	-10.2735
▁kindness	-10.2738
▁prevailed	-10.2739
▁wrapp	-10.2739
time	-10.2742
▁dying	-10.2743
▁hunger	-10.2743
▁increased	-10.2744
▁manure	-10.275
▁loops	-10.2751
▁bars	-10.2753
▁string	-10.2764
▁final	-10.2765
▁divide	-10.2771
▁rejoiced	-10.2774
▁condemned	-10.2774
▁special	-10.2775
▁chariots	-10.2782
▁aside	-10.2794
▁cleanse	-10.2804
▁desired	-10.2833
▁add	-10.2843
▁fasten	-10.2844
▁dreamed	-10.2865
unto	-10.2882
▁fore	-10.29
▁Well	-10.2917
▁powers	-10.2934
▁seasons	-10.2937
▁sleeping	-10.2943
ine	-10.2989
▁bell	-10.2995
▁Du	-10.3032
▁parted	-10.3063
ad	-10.31
▁praying	-10.31
▁sp	-10.319
▁laying	-10.3213
▁mo	-10.3217
▁favor	-10.323
ke	-10.323
ated	-10.3244
ard	-10.3252
▁desir	-10.3256
▁trap	-10.3291
▁shed	-10.33
▁forget	-10.3349
▁case	-10.3379
▁custom	-10.3381
▁drunk	-10.339
▁lamp	-10.3391
▁frog	-10.3391
▁Re	-10.3392
▁vessel	-10.3393
▁soldier	-10.3402
▁teacher	-10.3403
clock	-10.3428
what	-10.3436
▁swing	-10.344
▁prophesy	-10.3443
▁fetch	-10.3444
▁stretch	-10.3451
les	-10.3451
▁suck	-10.3452
▁Say	-10.3456
▁Rabbi	-10.3457
bee	-10.3459
that	-10.3461
▁endure	-10.3467
▁complete	-10.3472
▁commend	-10.3481
▁content	-10.3484
▁branch	-10.3492
▁rivers	-10.3493
▁Babylon	-10.3493
▁Baptist	-10.3493
▁Capernaum	-10.3493
▁Moreover	-10.3493
▁Nevertheless	-10.3493
▁Remember	-10.3493
▁Titus	-10.3493
▁chicken	-10.3493
▁travail	-10.3493
▁Festus	-10.3493
▁epistle	-10.3493
▁hidden	-10.3493
sarea	-10.3493
▁cherubims	-10.3493
▁moving	-10.3493
▁excellent	-10.3493
▁void	-10.3493
▁famous	-10.3493
▁particular	-10.3493
▁broad	-10.3494
▁colt	-10.3494
▁oak	-10.3494
▁compass	-10.3494
▁Edom	-10.3494
▁bidden	-10.3494
▁sang	-10.3494
▁prophecy	-10.3494
▁dropped	-10.3494
▁distance	-10.3494
▁palm	-10.3494
▁denied	-10.3494
▁stuff	-10.3495
▁nay	-10.3495
▁tender	-10.3495
▁single	-10.3495
▁size	-10.3495
▁jealousy	-10.3495
▁crawled	-10.3495
▁worth	-10.3496
▁rubb	-10.3496
▁husbandmen	-10.3496
▁stead	-10.3496
▁beforehand	-10.3496
▁Abel	-10.3496
▁shaken	-10.3496
▁kindred	-10.3497
▁bind	-10.3497
▁determined	-10.3497
▁wander	-10.3498
▁driven	-10.35
Many	-10.3501
▁Homer	-10.3501
▁portion	-10.3501
▁pitcher	-10.3502
▁required	-10.3502
▁fit	-10.351
▁remaineth	-10.3513
▁pocket	-10.3515
▁pitched	-10.3516
▁separate	-10.3518
▁hateth	-10.3521
▁escaped	-10.3522
▁bowl	-10.3524
▁youngest	-10.3524
▁stool	-10.3524
▁Just	-10.3525
▁changed	-10.3529
▁anybody	-10.3529
▁publicans	-10.3539
▁betrayed	-10.354
▁workers	-10.3545
▁withered	-10.3547
▁hooks	-10.3547
▁likeness	-10.3548
▁beans	-10.3548
▁Per	-10.3553
▁fugitives	-10.3556
▁en	-10.358
ier	-10.3584
▁standeth	-10.359
▁findeth	-10.3596
▁preacher	-10.36
▁greatest	-10.3603
▁numbered	-10.3611
il	-10.3613
ure	-10.3623
▁builded	-10.3624
ent	-10.3631
▁gotten	-10.3632
▁waited	-10.3641
▁sounded	-10.3642
▁hosts	-10.3648
▁Hebrews	-10.3656
reached	-10.3668
▁tribes	-10.3724
▁shoulders	-10.3726
▁La	-10.3771
▁wr	-10.3792
▁Zuckermans	-10.3805
▁co	-10.386
▁masters	-10.3911
▁seal	-10.3958
op	-10.4027
▁thousands	-10.404
id	-10.4056
▁wonder	-10.4117
elah	-10.4158
O	-10.4175
ened	-10.4184
▁thread	-10.4208
▁game	-10.4214
▁shadow	-10.422
▁basket	-10.4222
▁animal	-10.4226
▁laugh	-10.4227
▁elder	-10.4227
▁Pharisee	-10.4227
▁sinner	-10.4229
▁shekel	-10.4231
▁band	-10.4234
▁bond	-10.4234
▁pour	-10.4235
▁herb	-10.4248
to	-10.4254
C	-10.4268
Can	-10.4269
▁doubt	-10.4273
▁plow	-10.4274
▁interpret	-10.4275
▁deed	-10.4277
▁accept	-10.4279
▁Heth	-10.4282
▁proclaim	-10.4283
▁reckon	-10.4284
▁press	-10.4289
▁weep	-10.4291
pa	-10.4295
▁ride	-10.4307
▁cease	-10.4307
▁prepare	-10.4307
▁restore	-10.4309
▁observe	-10.4309
▁memorial	-10.4313
▁pleasant	-10.4313
ncle	-10.4326
▁Calhoun	-10.4327
▁Dorian	-10.4327
▁Ephraim	-10.4327
▁Finally	-10.4327
▁Gomorrah	-10.4327
▁Goshen	-10.4327
▁High	-10.4327
▁Lichen	-10.4327
▁Solomon	-10.4327
▁asunder	-10.4327
▁buttermilk	-10.4327
▁creation	-10.4327
▁female	-10.4327
▁longsuffering	-10.4327
▁slept	-10.4327
▁stomach	-10.4327
▁twice	-10.4327
▁yourself	-10.4327
▁consent	-10.4327
▁idle	-10.4327
▁spend	-10.4327
▁baby	-10.4327
▁Christmas	-10.4327
▁crieth	-10.4327
▁dried	-10.4327
▁destruction	-10.4327
▁steward	-10.4327
▁wroth	-10.4327
▁alms	-10.4327
▁dinner	-10.4327
▁stove	-10.4327
▁birthday	-10.4327
▁dash	-10.4327
▁stolen	-10.4327
▁fun	-10.4328
▁corruption	-10.4328
▁mill	-10.4328
▁expect	-10.4328
▁trespasses	-10.4328
▁kine	-10.4328
▁thanksgiving	-10.4329
▁astonished	-10.4329
▁puffe	-10.4329
▁ministration	-10.433
▁merciful	-10.433
▁discern	-10.4331
▁error	-10.4332
▁grown	-10.4335
▁thirst	-10.4335
▁sixty	-10.4336
▁whispered	-10.4336
▁pile	-10.4338
▁persuaded	-10.4339
▁drawn	-10.434
▁wonderful	-10.4344
▁pushed	-10.4344
▁warned	-10.4345
▁fo	-10.4347
▁belly	-10.4352
▁sow	-10.4353
▁listening	-10.4358
▁due	-10.4361
▁partakers	-10.4362
▁Rabbit	-10.4366
▁attention	-10.4366
▁supposed	-10.4368
▁blow	-10.4368
▁highest	-10.437
▁laughed	-10.437
▁Canaanites	-10.4378
▁net	-10.4381
▁sufferings	-10.4386
▁sprinkl	-10.4391
▁bath	-10.44
▁dwelleth	-10.4403
▁miles	-10.4404
▁reported	-10.4408
▁cap	-10.4409
▁West	-10.4424
▁dozen	-10.4429
▁shekels	-10.4431
▁drunken	-10.4435
▁carrying	-10.4436
▁forest	-10.4439
▁anointed	-10.4443
▁handle	-10.4444
▁burdens	-10.4449
▁tomorrow	-10.4452
▁canst	-10.4454
ach	-10.4473
▁rams	-10.4477
all	-10.448
ied	-10.4503
▁heir	-10.4527
▁str	-10.4533
▁dukes	-10.4569
▁Andrew	-10.4569
reby	-10.4602
▁showing	-10.4663
▁rested	-10.4664
ably	-10.4711
▁minded	-10.4714
ant	-10.4763
▁lights	-10.4768
li	-10.4816
▁sometime	-10.4832
wn	-10.4834
▁gun	-10.4852
▁claim	-10.486
▁Me	-10.4868
nd	-10.4888
▁tro	-10.4889
ew	-10.4934
mo	-10.4962
ring	-10.4974
minded	-10.4999
um	-10.5001
▁yours	-10.5029
▁fillet	-10.5065
▁sha	-10.5066
ments	-10.5069
▁worked	-10.5077
▁lion	-10.5119
▁log	-10.5125
▁hatchet	-10.5126
▁dress	-10.5142
▁chamber	-10.5149
▁pot	-10.516
where	-10.5163
bye	-10.5177
Look	-10.5177
Let	-10.5179
which	-10.5179
And	-10.5183
▁sojourn	-10.5185
▁travel	-10.5186
▁veil	-10.519
▁swallow	-10.5193
▁appoint	-10.5201
▁humble	-10.5215
▁fighting	-10.5215
▁nice	-10.5222
▁plann	-10.5223
▁Pr	-10.5224
▁direct	-10.5231
▁unrighteous	-10.5234
erhaps	-10.5234
▁equal	-10.5235
▁trip	-10.5235
▁suggest	-10.5236
▁fulfil	-10.5236
▁Midian	-10.5236
▁absent	-10.5236
▁choice	-10.5236
▁laurel	-10.5236
▁pencil	-10.5236
▁Agrippa	-10.5236
▁Axe	-10.5236
▁Featherstone	-10.5236
▁Iscariot	-10.5236
▁Lamech	-10.5236
▁Martha	-10.5236
▁Wasseton	-10.5236
▁Zebedee	-10.5236
▁abiding	-10.5236
▁crucify	-10.5236
▁desolate	-10.5236
▁exercise	-10.5236
▁fought	-10.5236
▁group	-10.5236
▁kitchen	-10.5236
▁leap	-10.5236
▁savour	-10.5236
▁smooth	-10.5236
▁stories	-10.5236
▁sweat	-10.5236
▁trembling	-10.5236
▁underneath	-10.5236
▁Also	-10.5236
▁resist	-10.5236
▁swine	-10.5236
▁Ephron	-10.5236
▁angry	-10.5236
▁defence	-10.5236
▁atonement	-10.5236
▁fulness	-10.5236
▁merry	-10.5236
▁Sidon	-10.5236
▁lean	-10.5236
▁token	-10.5236
▁Ross	-10.5236
▁dragon	-10.5236
▁lightning	-10.5236
▁blew	-10.5236
▁Enoch	-10.5236
▁pluck	-10.5236
▁Wayah	-10.5236
▁uttermost	-10.5236
▁lake	-10.5237
▁Master	-10.5237
▁coast	-10.5237
▁dangerous	-10.5237
▁kid	-10.5237
▁condemnation	-10.5237
▁Hamor	-10.5237
▁New	-10.5237
▁sentence	-10.5237
▁horsemen	-10.5238
▁dew	-10.5238
▁shake	-10.5238
▁motion	-10.5238
▁Ham	-10.5239
▁prize	-10.5239
▁sober	-10.5239
▁snare	-10.524
▁box	-10.5242
▁whereby	-10.5243
▁radiant	-10.5243
▁flame	-10.5245
▁shone	-10.5246
▁mention	-10.5246
▁span	-10.5246
▁easy	-10.525
▁murmured	-10.525
▁locusts	-10.5251
▁robbers	-10.5251
ixt	-10.5254
▁shouted	-10.5254
▁consumed	-10.5254
▁terrific	-10.5256
▁Edith	-10.5256
▁fields	-10.5259
▁Hav	-10.526
▁favoured	-10.5263
▁cleansed	-10.5264
▁failed	-10.5267
▁refused	-10.5269
▁instead	-10.527
▁everybody	-10.5272
▁pressed	-10.5283
▁wondered	-10.5284
▁force	-10.5288
▁Beer	-10.5299
▁inter	-10.5308
▁tenth	-10.5317
▁plagues	-10.5321
▁established	-10.5321
▁shine	-10.5321
▁brush	-10.5329
▁party	-10.533
▁streets	-10.5331
not	-10.5361
▁formed	-10.5379
▁blankets	-10.5381
▁Je	-10.5398
▁opening	-10.5407
▁shape	-10.543
un	-10.5432
▁Beth	-10.544
▁villages	-10.5441
▁aim	-10.5462
▁strive	-10.5466
▁walls	-10.5467
▁fingers	-10.5482
▁goest	-10.549
me	-10.5493
▁nuts	-10.5525
em	-10.5531
joined	-10.5536
ver	-10.5584
ree	-10.5596
most	-10.5641
v	-10.5644
▁Dan	-10.5651
if	-10.5701
▁fact	-10.5731
cy	-10.5743
ns	-10.5776
▁step	-10.5793
▁Ch	-10.5808
▁husbands	-10.5831
od	-10.5837
thrown	-10.5843
▁vi	-10.5844
ank	-10.5849
▁winds	-10.5852
dded	-10.5859
▁par	-10.5875
ery	-10.5889
ered	-10.5892
▁bade	-10.5905
ol	-10.5978
old	-10.5978
head	-10.6032
math	-10.6067
▁knee	-10.6077
▁gr	-10.6084
▁ninet	-10.6087
▁earthquake	-10.6117
▁plant	-10.6122
loved	-10.6123
▁thigh	-10.6123
▁dance	-10.6125
▁knop	-10.6128
▁nest	-10.6129
formed	-10.6129
▁ordinance	-10.613
▁prince	-10.613
▁minute	-10.6131
▁cow	-10.6131
▁thunder	-10.6131
▁street	-10.6132
▁br	-10.6132
▁figure	-10.6137
▁shoe	-10.6139
ned	-10.6155
▁corrupt	-10.6168
Do	-10.6172
Why	-10.6178
Don	-10.6181
There	-10.6185
▁den	-10.6193
▁healing	-10.6194
▁mad	-10.6197
seat	-10.6202
▁awake	-10.6211
▁increase	-10.6216
▁earnest	-10.6222
▁suppose	-10.6222
▁agree	-10.6222
▁jail	-10.6234
eople	-10.6235
sheba	-10.6235
▁fool	-10.6236
▁Amalek	-10.6236
▁Ananias	-10.6236
▁Bethany	-10.6236
▁Jethro	-10.6236
▁Magdalene	-10.6236
▁Mamre	-10.6236
▁Peace	-10.6236
▁Philadelphia	-10.6236
▁Philistines	-10.6236
▁Samaria	-10.6236
▁Silas	-10.6236
▁Tahlequah	-10.6236
▁apparel	-10.6236
▁aught	-10.6236
▁bacon	-10.6236
▁believing	-10.6236
▁bundle	-10.6236
▁coupling	-10.6236
▁dishonor	-10.6236
▁enjoy	-10.6236
▁fault	-10.6236
▁fifth	-10.6236
▁fountain	-10.6236
▁liberty	-10.6236
▁lieutenant	-10.6236
▁ministry	-10.6236
▁moreover	-10.6236
▁plenty	-10.6236
▁thrice	-10.6236
▁tribute	-10.6236
▁Hivite	-10.6236
▁barren	-10.6236
▁strife	-10.6236
▁bosom	-10.6236
▁JE	-10.6236
▁Speak	-10.6236
▁firmament	-10.6236
▁important	-10.6236
▁midnight	-10.6236
▁taches	-10.6236
▁shining	-10.6236
▁staff	-10.6236
▁curious	-10.6236
▁swimming	-10.6236
▁weather	-10.6236
▁trick	-10.6236
wels	-10.6236
▁remission	-10.6236
▁cool	-10.6236
▁meekness	-10.6236
▁George	-10.6236
▁fog	-10.6236
▁Though	-10.6236
▁mix	-10.6237
▁Terah	-10.6237
▁bunch	-10.6237
▁decomposers	-10.6237
▁potatoes	-10.6237
▁choose	-10.6237
▁torn	-10.6237
▁dove	-10.6238
▁armies	-10.6238
▁darkened	-10.6238
▁testified	-10.6239
▁upright	-10.6239
▁nakedness	-10.624
▁exhortation	-10.624
▁approved	-10.6241
▁seize	-10.6241
▁Love	-10.6241
ueen	-10.6241
▁busy	-10.6243
▁Seven	-10.6245
▁Henry	-10.6246
▁upper	-10.6246
▁boldly	-10.6246
▁hay	-10.6246
▁Perhaps	-10.6247
▁ripe	-10.6247
▁endureth	-10.6249
▁butler	-10.625
▁overcometh	-10.6251
▁contain	-10.6252
▁boots	-10.6253
▁Pig	-10.6253
▁guide	-10.6255
▁agreed	-10.6256
▁accomplished	-10.6257
Run	-10.6264
▁spices	-10.6264
▁separated	-10.6265
▁pack	-10.6266
▁Sit	-10.6267
▁dragg	-10.627
▁listened	-10.6271
▁sand	-10.6271
▁searched	-10.6275
▁swallowed	-10.6284
▁lieth	-10.6286
▁proclaimed	-10.6289
▁pants	-10.629
laver	-10.6298
▁suit	-10.63
▁J	-10.6307
▁hunters	-10.631
▁clothing	-10.6315
▁judgeth	-10.6315
▁falleth	-10.6324
▁thunders	-10.6341
mp	-10.6351
▁baskets	-10.6363
▁deeds	-10.6367
▁perished	-10.6368
▁washing	-10.638
▁teachers	-10.6382
▁ha	-10.6382
▁sacks	-10.6386
▁prisoners	-10.6404
owed	-10.6408
▁hoped	-10.6421
hu	-10.6462
▁beam	-10.6464
▁neighbors	-10.6464
nder	-10.647
ight	-10.6488
▁Wil	-10.6518
▁simple	-10.6555
▁fishing	-10.6594
▁Pa	-10.6602
ig	-10.6614
▁dwelling	-10.662
▁ministering	-10.6629
▁Ga	-10.6666
▁mud	-10.6672
▁promises	-10.6703
▁dreams	-10.6729
▁haven	-10.6732
land	-10.6734
rash	-10.6742
▁matters	-10.6748
▁clouds	-10.6748
▁share	-10.6766
ans	-10.6767
▁thrones	-10.6806
▁cake	-10.6861
▁kinds	-10.6875
▁Cap	-10.6954
aw	-10.6984
ches	-10.6993
ot	-10.7019
▁rode	-10.7053
▁finish	-10.7053
ue	-10.7092
▁sakes	-10.7098
▁wave	-10.71
▁declar	-10.7101
ee	-10.7116
morrow	-10.7123
▁bl	-10.7156
▁Wa	-10.7208
▁Ca	-10.7209
▁tin	-10.7225
▁bank	-10.723
▁captive	-10.7234
▁habitation	-10.7234
▁effort	-10.7237
▁virgin	-10.7239
▁plague	-10.7243
▁mile	-10.7244
▁drop	-10.7244
▁breast	-10.7246
▁flower	-10.7249
▁scribe	-10.7251
▁mourn	-10.7255
ked	-10.7255
▁path	-10.7255
▁climb	-10.7257
ware	-10.7264
▁search	-10.7265
pleasing	-10.7278
▁ru	-10.7284
▁marvel	-10.7288
foot	-10.7289
▁rail	-10.7298
▁testify	-10.7298
▁delight	-10.7301
▁obtain	-10.7304
▁jump	-10.7305
special	-10.7306
▁accus	-10.7307
▁real	-10.7311
ook	-10.7321
▁preserve	-10.7324
▁bid	-10.7325
▁consume	-10.7327
Thi	-10.7334
We	-10.7334
▁bold	-10.7334
▁entire	-10.7335
▁wasn	-10.7342
▁public	-10.7345
▁trespass	-10.7345
▁danger	-10.7346
▁tight	-10.7346
▁vari	-10.7346
▁Padan	-10.7347
▁Apollos	-10.7347
▁Beaver	-10.7347
▁Bethuel	-10.7347
▁Charlie	-10.7347
▁Japheth	-10.7347
▁Joppa	-10.7347
▁Joshua	-10.7347
▁Sunday	-10.7347
▁Zacharias	-10.7347
▁altogether	-10.7347
▁beauty	-10.7347
▁below	-10.7347
▁bullock	-10.7347
▁diligently	-10.7347
▁disobedience	-10.7347
▁furnace	-10.7347
▁future	-10.7347
▁grieved	-10.7347
▁guile	-10.7347
▁indignation	-10.7347
▁iniquities	-10.7347
▁leaf	-10.7347
▁mirror	-10.7347
▁nevertheless	-10.7347
▁ninth	-10.7347
▁offended	-10.7347
▁practise	-10.7347
▁rabbit	-10.7347
▁sanctification	-10.7347
▁slops	-10.7347
▁speckled	-10.7347
▁supply	-10.7347
▁surname	-10.7347
▁valley	-10.7347
▁venison	-10.7347
▁violence	-10.7347
▁Charleston	-10.7347
▁abyss	-10.7347
▁devout	-10.7347
▁plot	-10.7347
▁publish	-10.7347
▁stoop	-10.7347
▁narrow	-10.7347
▁silk	-10.7347
▁degree	-10.7347
▁slaves	-10.7347
▁brimstone	-10.7347
▁magicians	-10.7347
▁smitten	-10.7347
▁Bilhah	-10.7347
▁gracious	-10.7347
▁pattern	-10.7347
▁spra	-10.7347
▁bucket	-10.7347
▁bride	-10.7347
▁usual	-10.7347
▁wove	-10.7347
▁easier	-10.7347
▁wages	-10.7347
▁harm	-10.7347
▁privily	-10.7347
▁Seir	-10.7348
▁issue	-10.7348
▁match	-10.7348
▁unbelief	-10.7348
▁Everything	-10.7349
▁human	-10.7349
▁Hono	-10.7349
▁roast	-10.7349
▁innocent	-10.7349
▁Chapman	-10.735
▁assembly	-10.735
▁confession	-10.735
▁Anah	-10.735
▁crawling	-10.735
▁unbelieving	-10.735
▁fever	-10.735
▁mingled	-10.7351
▁appeal	-10.7351
▁bondservant	-10.7351
▁skull	-10.7351
▁throat	-10.7351
▁print	-10.7351
▁bake	-10.7352
▁clay	-10.7352
control	-10.7352
▁rear	-10.7353
▁foolishness	-10.7353
▁honorable	-10.7353
▁City	-10.7354
▁muskets	-10.7354
▁crickets	-10.7354
▁ordained	-10.7355
▁sighed	-10.7355
▁bag	-10.7355
▁view	-10.7356
▁Way	-10.7356
▁bush	-10.7356
ttach	-10.7356
owbeit	-10.7356
▁dart	-10.7357
▁dear	-10.7358
▁maybe	-10.7358
▁Repe	-10.7359
▁earnestly	-10.736
▁soup	-10.7361
▁platter	-10.7364
▁fist	-10.7366
▁fle	-10.7367
▁waved	-10.7368
▁persecuted	-10.737
▁shade	-10.7371
▁hinder	-10.7373
▁yelled	-10.7378
▁endured	-10.738
▁afflicted	-10.7381
▁mocked	-10.7381
▁bug	-10.7381
▁smaller	-10.7385
▁peril	-10.7385
▁entreated	-10.7386
▁pearls	-10.739
▁music	-10.7394
▁quarter	-10.7396
▁Fer	-10.7396
▁limbs	-10.7403
ix	-10.7404
▁interpreted	-10.7407
▁kneel	-10.7413
▁rust	-10.7415
ck	-10.7421
▁soli	-10.7423
▁kindly	-10.7427
▁island	-10.743
▁valu	-10.7433
uth	-10.7435
▁poke	-10.7436
▁leavened	-10.744
▁arrows	-10.744
▁ra	-10.7441
▁Doth	-10.7447
▁breasts	-10.7453
▁flowers	-10.7456
▁bugs	-10.7456
▁minutes	-10.7465
▁...	-10.7469
▁bestow	-10.7473
▁feeding	-10.7474
▁Write	-10.7485
▁Sometime	-10.75
▁besides	-10.7516
▁wouldn	-10.7517
▁salutation	-10.7538
▁playing	-10.7539
▁cloths	-10.7543
▁com	-10.7544
▁beating	-10.7547
▁exalt	-10.7548
▁hills	-10.7553
▁hu	-10.7564
▁weeks	-10.7579
▁stoned	-10.7579
▁mess	-10.7592
up	-10.7598
▁rained	-10.7605
tion	-10.7607
ack	-10.7609
mah	-10.7609
▁fearful	-10.7623
▁youth	-10.7639
▁forbear	-10.7661
▁reasoning	-10.768
▁ward	-10.7685
▁parables	-10.7693
▁coats	-10.7706
▁tombs	-10.7731
ni	-10.7747
fully	-10.7803
times	-10.7819
▁killing	-10.784
▁Ma	-10.7857
▁news	-10.7876
▁lots	-10.7885
▁Wom	-10.7924
▁god	-10.7928
▁w	-10.7936
▁pe	-10.7943
▁Mi	-10.7977
ul	-10.7998
ash	-10.8024
▁ended	-10.8027
godly	-10.8038
tuck	-10.8039
▁Set	-10.8043
▁sc	-10.8054
▁makes	-10.8123
ice	-10.8129
dden	-10.8137
▁avenge	-10.8155
ut	-10.8173
ally	-10.8176
way	-10.8177
▁hem	-10.8216
▁withstand	-10.8229
▁Al	-10.824
ries	-10.8246
ture	-10.8248
ade	-10.825
▁Ar	-10.8251
ions	-10.8266
▁Ho	-10.8268
▁pie	-10.8273
ern	-10.8289
▁inward	-10.8291
ung	-10.8316
▁rebuk	-10.8323
▁lands	-10.8325
ites	-10.8349
dal	-10.8361
▁cove	-10.8379
▁butter	-10.8385
▁po	-10.8414
▁Abi	-10.8438
▁mid	-10.8441
▁attend	-10.8443
gged	-10.8445
house	-10.8449
nother	-10.8478
▁tradition	-10.8479
ble	-10.8485
▁murderer	-10.8488
▁fail	-10.8489
▁trunk	-10.849
▁fugitive	-10.8494
▁chariot	-10.8494
▁judgments	-10.8496
▁bras	-10.8498
aram	-10.8499
▁arrow	-10.8501
▁looks	-10.8505
▁listen	-10.8506
▁du	-10.8515
▁Arables	-10.8523
▁weigh	-10.8524
▁fold	-10.8525
board	-10.8526
K	-10.8533
▁bone	-10.8534
you	-10.854
Fern	-10.854
My	-10.8546
▁torment	-10.8551
▁bark	-10.8552
▁entreat	-10.8554
down	-10.8558
▁baptize	-10.8566
▁tear	-10.8571
rust	-10.8572
urn	-10.8572
▁provoke	-10.8575
doing	-10.8577
▁becoming	-10.8582
light	-10.8587
▁balloon	-10.8587
▁fade	-10.8589
▁murder	-10.8591
▁Maj	-10.8591
▁potato	-10.8595
aithful	-10.8596
eathen	-10.8596
▁Barabbas	-10.8597
▁Caiaphas	-10.8597
▁Cephas	-10.8597
▁Children	-10.8597
▁Cilicia	-10.8597
▁Naphtali	-10.8597
▁Rejoice	-10.8597
▁Return	-10.8597
▁Scot	-10.8597
▁Stretch	-10.8597
▁Zebulun	-10.8597
▁abundance	-10.8597
▁advantage	-10.8597
▁anguish	-10.8597
▁ascended	-10.8597
▁attempt	-10.8597
▁capital	-10.8597
▁cloak	-10.8597
▁courage	-10.8597
▁dancing	-10.8597
▁desperate	-10.8597
▁example	-10.8597
▁expedient	-10.8597
▁experience	-10.8597
▁grapes	-10.8597
▁labour	-10.8597
▁necessity	-10.8597
▁ouches	-10.8597
▁perdition	-10.8597
▁pledge	-10.8597
▁terribl	-10.8597
▁uncircumcised	-10.8597
▁woke	-10.8597
▁wolf	-10.8597
▁wolves	-10.8597
▁nourish	-10.8597
▁olive	-10.8597
▁renew	-10.8597
▁slaughter	-10.8597
▁stiff	-10.8597
▁storm	-10.8597
▁Bethlehem	-10.8597
▁almonds	-10.8597
▁mitre	-10.8597
▁Dinah	-10.8597
▁Think	-10.8597
▁abomination	-10.8597
▁Rome	-10.8597
▁cost	-10.8597
▁punishment	-10.8597
▁redemption	-10.8597
▁blank	-10.8597
▁chance	-10.8597
▁yoke	-10.8597
▁dispute	-10.8597
▁provide	-10.8597
▁tunnel	-10.8597
▁Gerar	-10.8597
▁conversation	-10.8597
▁Great	-10.8597
▁wake	-10.8597
▁Adah	-10.8597
▁blameless	-10.8597
▁division	-10.8597
▁disgust	-10.8598
▁lump	-10.8598
▁impossible	-10.8598
▁admonish	-10.8598
▁Tyre	-10.8598
▁blasphemy	-10.8598
▁zealous	-10.8598
▁townhouse	-10.8598
▁covetousness	-10.8598
▁Eber	-10.8598
▁freedom	-10.8598
▁miserable	-10.8598
▁Jake	-10.8598
▁signet	-10.8598
▁chest	-10.8598
▁kindled	-10.8599
▁lame	-10.8599
▁Mark	-10.8599
▁sufficien	-10.8599
▁calm	-10.8599
▁profitable	-10.86
▁partake	-10.86
▁sorrowful	-10.86
▁spies	-10.86
▁privately	-10.8601
▁dish	-10.8601
▁easily	-10.8601
▁Lowan	-10.8601
▁clerk	-10.8601
▁scourge	-10.8601
▁fresh	-10.8602
▁shift	-10.8602
▁vast	-10.8602
▁weakness	-10.8603
▁cheek	-10.8604
▁range	-10.8604
▁track	-10.8604
▁uncleanness	-10.8604
▁frost	-10.8605
▁firstfruits	-10.8605
▁grabbed	-10.8606
▁discover	-10.8608
▁hopeless	-10.8609
▁Watch	-10.8609
▁anyway	-10.861
▁entirely	-10.8611
▁sheet	-10.8611
▁health	-10.8617
▁selves	-10.8619
▁descending	-10.862
▁farther	-10.8622
▁Soon	-10.8625
▁wit	-10.8625
ab	-10.8625
▁stripes	-10.8626
▁clearly	-10.8628
▁wounded	-10.863
▁disappeared	-10.8635
▁scared	-10.8645
line	-10.8645
▁porch	-10.8646
▁ridges	-10.8647
▁coals	-10.8647
▁climbing	-10.8652
▁corrupted	-10.8653
▁Only	-10.8653
▁openly	-10.8658
▁dressed	-10.8659
▁babes	-10.8661
▁diseases	-10.8661
▁pins	-10.8661
▁higher	-10.8664
▁teacheth	-10.8664
▁proved	-10.867
▁freely	-10.8673
▁wagons	-10.8675
▁transgressions	-10.8675
▁sowed	-10.8678
▁doors	-10.8683
▁hours	-10.8701
▁covet	-10.8702
om	-10.8704
▁watered	-10.871
▁noon	-10.8714
▁drops	-10.8718
▁ordinances	-10.8732
▁princes	-10.8732
▁obeyed	-10.8742
▁toil	-10.8747
▁judgest	-10.8751
ctually	-10.8756
▁seeme	-10.8758
▁growing	-10.8773
▁nets	-10.8781
mit	-10.8782
▁sawest	-10.8784
▁shepherds	-10.879
▁Seth	-10.8798
▁beholding	-10.881
▁acknowledge	-10.8823
▁Bo	-10.8828
▁perfected	-10.8879
more	-10.8891
aved	-10.89
▁songs	-10.8906
▁holes	-10.8935
iel	-10.8959
▁isn	-10.8965
▁rods	-10.8974
na	-10.8978
▁Les	-10.8983
▁pigs	-10.8994
▁towns	-10.9007
▁strike	-10.9012
be	-10.9021
▁shell	-10.9055
▁di	-10.9075
▁driv	-10.9113
▁principal	-10.9144
▁dra	-10.9166
▁Cas	-10.9228
▁uses	-10.925
▁lover	-10.9251
▁Ja	-10.9255
▁sisters	-10.9259
▁De	-10.9268
▁Mo	-10.9274
▁throw	-10.9284
▁cane	-10.9288
der	-10.9309
▁ho	-10.9313
uch	-10.9331
hip	-10.9357
▁base	-10.9358
▁thereby	-10.938
▁tea	-10.9384
lock	-10.9394
thing	-10.9397
▁settl	-10.9406
▁saidst	-10.9415
hi	-10.9435
▁camest	-10.9473
ipped	-10.948
▁liken	-10.9486
▁Z	-10.9499
▁Wi	-10.9519
ush	-10.9531
▁tr	-10.9541
▁admir	-10.9553
▁Whe	-10.9561
▁bus	-10.961
ping	-10.963
▁fan	-10.9672
mer	-10.9678
ating	-10.9687
▁distress	-10.9729
▁Will	-10.974
▁pre	-10.9753
▁Sa	-10.9785
▁hearted	-10.9795
ave	-10.9802
▁im	-10.9812
▁twist	-10.9817
ship	-10.9831
long	-10.9833
gg	-10.9855
▁Sha	-10.987
▁Er	-10.9873
W	-10.9899
▁tale	-10.9908
▁nail	-10.9909
▁blade	-10.9913
▁liar	-10.9913
▁dollar	-10.992
▁scar	-10.9922
▁talent	-10.9924
▁idol	-10.9924
▁chain	-10.9924
▁farmer	-10.9925
▁clothe	-10.9928
▁hunter	-10.9931
▁mock	-10.9945
▁officer	-10.9948
ff	-10.9952
H	-10.9956
stool	-10.9966
some	-10.9966
deep	-10.9968
Just	-10.9968
Where	-10.9968
same	-10.9969
but	-10.9969
▁harp	-10.9971
▁envy	-10.9972
Go	-10.9972
▁suppos	-10.9973
So	-10.9974
▁afflict	-10.998
▁disappear	-10.9981
▁favour	-10.9982
▁hatch	-10.9991
▁persecute	-10.9999
ations	-11.0008
▁harden	-11.0009
▁silent	-11.0013
▁quick	-11.0014
▁adulter	-11.0016
▁careful	-11.0017
skins	-11.0019
pon	-11.0024
▁forsake	-11.0025
▁birth	-11.0025
▁speed	-11.0025
stitute	-11.0025
▁Galil	-11.0025
▁affection	-11.0025
▁engrav	-11.0025
▁Achaia	-11.0025
▁Aholibamah	-11.0025
▁Arphaxad	-11.0025
▁Beelzebub	-11.0025
▁Cornelius	-11.0025
▁Creek	-11.0025
▁Cyprus	-11.0025
▁Cyren	-11.0025
▁Eliphaz	-11.0025
▁Elisabeth	-11.0025
▁Felix	-11.0025
▁Fussy	-11.0025
▁Grounds	-11.0025
▁Hezron	-11.0025
▁Korah	-11.0025
▁Lieutenant	-11.0025
▁Melchizedek	-11.0025
▁Milcah	-11.0025
▁Olives	-11.0025
▁Zilpah	-11.0025
▁Zoar	-11.0025
▁acres	-11.0025
▁adversaries	-11.0025
▁aloud	-11.0025
▁cotton	-11.0025
▁enormous	-11.0025
▁furniture	-11.0025
▁gnash	-11.0025
▁grandchildren	-11.0025
▁grandmother	-11.0025
▁infirmity	-11.0025
▁leather	-11.0025
▁mediator	-11.0025
▁medicine	-11.0025
▁midwives	-11.0025
▁mischief	-11.0025
▁obedient	-11.0025
▁opportunity	-11.0025
▁outdoors	-11.0025
▁pertain	-11.0025
▁recognize	-11.0025
▁refuge	-11.0025
▁ringstraked	-11.0025
▁rotten	-11.0025
▁runners	-11.0025
▁shoot	-11.0025
▁television	-11.0025
▁tobacco	-11.0025
▁wool	-11.0025
▁Galatia	-11.0025
▁rattling	-11.0025
▁steep	-11.0025
▁tumult	-11.0025
▁accompan	-11.0026
▁carnal	-11.0026
▁clever	-11.0026
▁center	-11.0026
▁occupied	-11.0026
▁adversary	-11.0026
▁myrrh	-11.0026
▁soap	-11.0026
▁honour	-11.0026
▁consecrate	-11.0026
▁regular	-11.0026
▁Enos	-11.0026
▁sewing	-11.0026
▁stockade	-11.0026
▁beckon	-11.0026
▁reins	-11.0026
▁sinneth	-11.0026
▁adorn	-11.0026
▁birthright	-11.0026
▁holiness	-11.0026
▁president	-11.0026
▁strove	-11.0026
▁brave	-11.0026
▁chew	-11.0026
▁frame	-11.0026
▁offspring	-11.0026
▁Hades	-11.0026
▁picture	-11.0026
▁mercies	-11.0026
▁train	-11.0026
▁message	-11.0026
▁package	-11.0026
▁split	-11.0026
▁check	-11.0026
▁stedfast	-11.0026
▁flight	-11.0027
▁grate	-11.0027
▁litter	-11.0027
▁comment	-11.0027
▁frozen	-11.0027
▁Bash	-11.0027
▁peel	-11.0027
▁attack	-11.0028
▁imagination	-11.0028
▁spilled	-11.0028
▁rejecteth	-11.0028
▁Asher	-11.0028
▁hundredfold	-11.0028
▁perplexed	-11.0029
▁useful	-11.0029
▁swarm	-11.003
▁gallon	-11.003
▁southward	-11.003
▁eastward	-11.003
▁evermore	-11.003
▁Hand	-11.003
▁Cainan	-11.003
▁err	-11.003
▁sense	-11.003
▁study	-11.0031
▁onyx	-11.0031
zale	-11.0031
▁spear	-11.0032
▁fourscore	-11.0032
▁Am	-11.0032
▁badge	-11.0033
▁gladness	-11.0033
▁comb	-11.0033
▁menservants	-11.0035
▁eighth	-11.0037
▁pursued	-11.0037
▁sickle	-11.0038
▁recent	-11.0039
▁shineth	-11.0041
▁ham	-11.0041
▁managed	-11.0041
▁thirsty	-11.0042
▁refreshed	-11.0043
▁deceived	-11.0043
▁fro	-11.0044
▁passage	-11.0046
▁soweth	-11.0046
▁pair	-11.0049
▁baker	-11.005
▁Hast	-11.0051
▁tithes	-11.0051
▁”	-11.0051
▁march	-11.0051
▁strengthened	-11.0051
▁Gad	-11.0052
▁manna	-11.0056
▁loaded	-11.0057
▁position	-11.0058
▁backward	-11.0058
▁Nothing	-11.0061
▁instruction	-11.0062
▁restored	-11.0062
▁earrings	-11.0067
▁realize	-11.0067
ign	-11.0071
▁lend	-11.0071
▁convict	-11.0072
▁observed	-11.0073
▁gladly	-11.0073
▁tasted	-11.0078
▁lace	-11.0078
▁Amorites	-11.01
▁answereth	-11.0109
rough	-11.0111
▁Other	-11.0111
▁wondering	-11.0113
▁sealed	-11.0114
▁hanged	-11.0119
▁plans	-11.0119
tial	-11.0121
▁incorruptible	-11.0122
▁beware	-11.0122
▁weary	-11.0126
L	-11.0129
▁therewith	-11.013
▁dollars	-11.0133
▁redeemed	-11.0139
▁K	-11.0142
▁trunks	-11.015
▁fainted	-11.0152
▁flying	-11.0157
▁learning	-11.0157
▁upward	-11.0157
▁tempt	-11.0175
▁plants	-11.0182
▁doves	-11.0193
▁steps	-11.0194
▁Hai	-11.0197
ide	-11.0199
▁books	-11.02
▁wa	-11.0201
▁shadows	-11.0218
▁herbs	-11.0228
▁castle	-11.0232
▁spot	-11.0249
▁girls	-11.0267
▁chase	-11.0269
stroke	-11.0271
▁suffering	-11.0272
▁meant	-11.0274
▁posts	-11.0301
▁reed	-11.0321
▁possessions	-11.0335
▁Pi	-11.0357
▁imagine	-11.0365
▁sixt	-11.0368
▁candlesticks	-11.0368
▁bother	-11.0373
▁roots	-11.0384
ro	-11.0393
▁temper	-11.0398
▁helped	-11.0421
▁lovely	-11.0426
▁helping	-11.0455
▁examine	-11.0474
▁pitch	-11.0486
▁captains	-11.0488
▁seats	-11.0517
▁keeper	-11.0537
tal	-11.0561
▁blot	-11.0568
▁worm	-11.0585
aph	-11.0586
▁Roman	-11.0587
ha	-11.0602
▁takes	-11.0657
ten	-11.0669
▁El	-11.0692
lk	-11.0703
go	-11.0715
▁sounds	-11.0732
▁wars	-11.0732
▁cor	-11.0755
▁sub	-11.0757
ious	-11.0759
▁pai	-11.076
liness	-11.0771
▁courts	-11.0782
▁boats	-11.08
▁Jo	-11.0802
▁pi	-11.0822
she	-11.0827
ified	-11.0837
▁dogs	-11.0853
pping	-11.0892
unt	-11.0919
▁Ad	-11.0926
▁comest	-11.0955
▁tents	-11.096
pers	-11.096
▁cha	-11.0986
▁herd	-11.0987
▁helps	-11.0988
own	-11.0992
pe	-11.0994
▁prov	-11.1034
▁win	-11.1063
ears	-11.1125
bal	-11.1157
right	-11.1203
▁Ou	-11.1208
ove	-11.1241
longeth	-11.1244
▁yell	-11.125
do	-11.1278
▁member	-11.1282
ane	-11.1289
don	-11.1342
▁befall	-11.1384
▁Ti	-11.139
▁plan	-11.1421
▁ti	-11.1435
ction	-11.1443
ature	-11.1482
servant	-11.1493
▁Di	-11.1495
ough	-11.1499
M	-11.152
▁whoso	-11.1522
ast	-11.1535
▁scrap	-11.1544
fold	-11.1544
▁sepulchre	-11.1574
ows	-11.1579
▁statute	-11.1579
▁provision	-11.1579
▁brick	-11.158
▁persecution	-11.158
▁fin	-11.1582
▁messenger	-11.1582
▁cur	-11.1583
▁squirrel	-11.1584
▁maidservant	-11.1585
▁scatter	-11.1585
▁wagon	-11.1587
▁transgression	-11.1587
▁hog	-11.1591
▁boil	-11.1591
▁Canaanite	-11.1597
▁publican	-11.1598
▁wound	-11.1601
▁pound	-11.1612
Please	-11.1624
ists	-11.1627
work	-11.1629
▁receiv	-11.163
▁stir	-11.1631
chamber	-11.1632
Come	-11.1635
Templeton	-11.1635
Some	-11.1635
When	-11.1635
front	-11.1637
▁includ	-11.1638
▁gnaw	-11.1638
She	-11.1639
▁attain	-11.1643
▁confirm	-11.1644
▁imitat	-11.1645
▁oppress	-11.1645
lace	-11.1652
▁Bar	-11.1652
▁eviden	-11.1655
icken	-11.1656
▁reveal	-11.1656
All	-11.1662
▁peri	-11.1664
▁deceive	-11.1665
▁gird	-11.1671
▁require	-11.1672
▁inquire	-11.1672
▁assured	-11.1677
▁remove	-11.1678
▁confident	-11.1679
▁fierce	-11.1679
▁difficult	-11.1682
▁glorious	-11.1683
bor	-11.1684
uffer	-11.1685
R	-11.1686
▁forgot	-11.1688
▁Syria	-11.1689
▁gentle	-11.1689
▁candle	-11.1689
▁purse	-11.169
▁sect	-11.1691
▁correct	-11.1691
urthermore	-11.1691
▁flour	-11.1691
▁cabbage	-11.1692
▁Alexander	-11.1692
▁Aquila	-11.1692
▁Believe	-11.1692
▁Eleazar	-11.1692
▁Hebron	-11.1692
▁Iconium	-11.1692
▁Issachar	-11.1692
▁Jericho	-11.1692
▁KING	-11.1692
▁Laodicea	-11.1692
▁Lystra	-11.1692
▁Machpelah	-11.1692
▁Mahalaleel	-11.1692
▁Methuselah	-11.1692
▁Nazarene	-11.1692
▁Peleg	-11.1692
▁Saturday	-11.1692
▁Tamar	-11.1692
▁Troas	-11.1692
▁Zibeon	-11.1692
▁accident	-11.1692
▁audience	-11.1692
▁autumn	-11.1692
▁baptizing	-11.1692
▁blemish	-11.1692
▁bracelets	-11.1692
▁carpenter	-11.1692
▁ceiling	-11.1692
▁cleave	-11.1692
▁desolation	-11.1692
▁effect	-11.1692
▁eldest	-11.1692
▁enmity	-11.1692
▁ensample	-11.1692
▁execute	-11.1692
▁extra	-11.1692
▁fame	-11.1692
▁foreordained	-11.1692
▁foreskin	-11.1692
▁hurry	-11.1692
▁ignorance	-11.1692
▁jasper	-11.1692
▁machine	-11.1692
▁majesty	-11.1692
▁merchandise	-11.1692
▁muscle	-11.1692
▁newspaper	-11.1692
▁opinion	-11.1692
▁overshadow	-11.1692
▁plenteous	-11.1692
▁poison	-11.1692
▁polish	-11.1692
▁rejoicing	-11.1692
▁relief	-11.1692
▁reprobate	-11.1692
▁reserved	-11.1692
▁savor	-11.1692
▁serious	-11.1692
▁serving	-11.1692
▁shotgun	-11.1692
▁stink	-11.1692
▁student	-11.1692
▁swollen	-11.1692
▁taskmasters	-11.1692
▁tetrarch	-11.1692
▁thieves	-11.1692
▁treasury	-11.1692
▁unprofitable	-11.1692
▁Army	-11.1692
▁convert	-11.1692
▁deaf	-11.1692
▁leftover	-11.1692
▁paused	-11.1692
▁pepper	-11.1692
▁represent	-11.1692
▁shield	-11.1692
▁worried	-11.1692
▁Alph	-11.1692
▁Word	-11.1692
▁queer	-11.1692
▁roar	-11.1692
▁scorch	-11.1692
▁spell	-11.1692
▁Eden	-11.1692
▁existence	-11.1692
torium	-11.1692
▁doughnut	-11.1692
▁excellenc	-11.1692
▁oven	-11.1692
▁difference	-11.1692
▁grind	-11.1692
▁success	-11.1692
▁magnified	-11.1692
▁breeze	-11.1692
▁estate	-11.1692
▁foursquare	-11.1692
▁needlework	-11.1692
▁Jesse	-11.1692
▁triumph	-11.1692
▁limit	-11.1692
▁overtake	-11.1692
▁electric	-11.1692
▁digging	-11.1692
▁studie	-11.1692
▁tenons	-11.1692
▁hammer	-11.1692
▁unfruitful	-11.1692
▁aforetime	-11.1692
▁displease	-11.1692
▁job	-11.1692
▁vinegar	-11.1692
▁Government	-11.1692
▁quail	-11.1692
▁situation	-11.1692
▁Reu	-11.1693
▁folk	-11.1693
▁abst	-11.1693
▁Salah	-11.1693
▁capture	-11.1693
▁squatted	-11.1693
▁Rise	-11.1693
▁encamp	-11.1693
▁government	-11.1693
▁crook	-11.1693
▁herdmen	-11.1693
▁readiness	-11.1693
▁scales	-11.1693
▁Jared	-11.1693
▁Reuel	-11.1693
▁hypocrisy	-11.1693
▁blackberries	-11.1693
▁omer	-11.1693
▁mote	-11.1693
▁dig	-11.1694
▁barnyard	-11.1694
▁proof	-11.1694
▁Moon	-11.1694
▁raw	-11.1694
▁depth	-11.1694
▁liver	-11.1694
▁lice	-11.1695
▁pole	-11.1695
▁Rain	-11.1695
▁argument	-11.1695
▁Him	-11.1696
▁tower	-11.1696
▁Syrian	-11.1696
lapped	-11.1696
▁Old	-11.1696
▁squash	-11.1697
▁Shelah	-11.1697
▁mass	-11.1697
▁punished	-11.1697
▁Hur	-11.1697
▁saving	-11.1697
▁tossed	-11.1697
▁recover	-11.1698
▁Chief	-11.1699
▁downhill	-11.1699
▁Without	-11.1699
▁spotted	-11.17
▁thrash	-11.17
▁trimm	-11.17
▁rank	-11.17
▁laden	-11.17
▁melt	-11.1701
▁circle	-11.1701
▁dishes	-11.1701
▁prophesied	-11.1702
▁purchased	-11.1702
▁lonely	-11.1702
▁conditions	-11.1703
▁whiskers	-11.1703
▁dy	-11.1703
stone	-11.1704
▁blaspheme	-11.1704
▁pine	-11.1704
▁justice	-11.1705
ext	-11.1705
▁explained	-11.1705
▁repeated	-11.1705
▁sniffed	-11.1705
▁surety	-11.1705
▁vexed	-11.1705
▁nurse	-11.1705
▁edifying	-11.1706
▁prof	-11.1707
▁uncle	-11.1708
▁moth	-11.1708
▁sum	-11.1709
▁reproved	-11.1709
▁sickness	-11.171
▁sinful	-11.1711
▁shovel	-11.1711
▁dad	-11.1711
▁sway	-11.1714
▁glasses	-11.1715
▁damp	-11.1716
▁couch	-11.1717
▁Con	-11.1717
▁inquired	-11.1718
ael	-11.1721
▁instructed	-11.1721
▁entr	-11.1722
muel	-11.1722
workers	-11.1723
▁groaning	-11.1724
▁wrestle	-11.1726
▁nodded	-11.1726
▁softly	-11.1727
▁wink	-11.1728
▁fixed	-11.1729
▁collected	-11.1729
▁evident	-11.173
▁setting	-11.173
▁plainly	-11.1731
▁riding	-11.1733
how	-11.1735
▁melted	-11.1739
▁somebody	-11.1739
▁exten	-11.1739
▁marvell	-11.1741
▁despised	-11.1744
▁released	-11.1744
▁deck	-11.1745
gging	-11.1749
▁tonight	-11.1749
▁mocking	-11.1751
▁distressed	-11.1752
▁pervert	-11.1754
▁spinn	-11.1755
uffle	-11.1756
▁throwing	-11.1756
▁distan	-11.1759
▁barking	-11.1759
▁murmurings	-11.1762
▁forbidd	-11.1764
▁searching	-11.1768
▁testifying	-11.1768
▁railing	-11.1769
▁cursed	-11.1771
▁openeth	-11.1775
▁sojourned	-11.1779
▁housetop	-11.1779
▁Samaritans	-11.1781
▁marketplaces	-11.1781
▁questionings	-11.1781
▁accepted	-11.1787
▁spi	-11.179
▁belt	-11.1792
▁hairy	-11.1796
▁pan	-11.1797
▁pounds	-11.1801
▁hogs	-11.1801
▁squirrels	-11.1801
▁maidservants	-11.1802
▁begged	-11.1802
▁intent	-11.1804
robably	-11.1805
rk	-11.1815
▁interesting	-11.182
▁exhorted	-11.1821
tor	-11.1836
▁uttered	-11.1836
▁cooking	-11.184
▁beach	-11.1841
▁Cret	-11.1842
▁coves	-11.1844
▁speakest	-11.1844
side	-11.1845
▁labored	-11.1847
ton	-11.1848
▁entertain	-11.1858
cu	-11.186
▁paths	-11.1861
▁virgins	-11.1861
▁waves	-11.1861
▁Good	-11.1863
▁ju	-11.1864
▁clearing	-11.1868
▁burying	-11.1877
▁knops	-11.1881
▁pri	-11.1883
▁shapes	-11.1884
▁mist	-11.1887
▁breathing	-11.1891
uck	-11.1891
▁webs	-11.1897
Not	-11.1897
▁bent	-11.1903
▁appearing	-11.1904
▁Eli	-11.1908
▁bands	-11.1921
da	-11.1921
▁ahead	-11.1929
▁drinketh	-11.1932
no	-11.1943
▁pots	-11.1957
▁tabernacles	-11.196
▁supplications	-11.1961
▁papers	-11.1962
▁occasions	-11.1969
▁cutt	-11.1974
ile	-11.1983
▁bas	-11.1991
▁Le	-11.2
ced	-11.2021
▁serpents	-11.2022
▁tu	-11.2025
ick	-11.2035
his	-11.2043
▁dec	-11.2045
▁peach	-11.2051
▁afterwards	-11.2063
▁windows	-11.2064
▁En	-11.208
▁Sin	-11.209
▁dreaming	-11.2093
▁choke	-11.2111
▁fasting	-11.2112
▁Ne	-11.2117
▁sharpen	-11.2128
▁n	-11.213
dom	-11.2133
ith	-11.2137
io	-11.2139
▁smelling	-11.215
▁sa	-11.2153
▁hoe	-11.2158
▁process	-11.2172
▁wheels	-11.2185
▁hurts	-11.2188
cept	-11.2196
▁seest	-11.2199
▁creeks	-11.2206
▁char	-11.2213
▁fi	-11.2214
▁constrain	-11.2218
br	-11.2225
ech	-11.2235
ible	-11.224
▁Friend	-11.2281
▁doll	-11.2286
▁teaches	-11.2296
▁hundreds	-11.2312
king	-11.2353
▁Na	-11.2367
et	-11.2372
wood	-11.239
▁orders	-11.2391
▁tangle	-11.2393
pped	-11.2398
by	-11.2426
trusted	-11.2428
row	-11.2431
are	-11.244
lushed	-11.2451
▁owe	-11.2483
▁laws	-11.2506
tic	-11.2535
▁signifie	-11.2545
pensation	-11.2546
▁wasp	-11.2557
▁mar	-11.2559
ump	-11.2563
nce	-11.2579
bel	-11.2622
N	-11.2686
▁dippe	-11.2689
▁Yes	-11.2705
ran	-11.2769
▁welcome	-11.2799
▁Wo	-11.2802
bed	-11.2807
treated	-11.2807
ias	-11.2819
ale	-11.2829
pic	-11.2853
ian	-11.2877
▁hairs	-11.2907
▁ease	-11.2907
▁treasures	-11.2918
▁mol	-11.2931
▁mere	-11.2932
▁mis	-11.2957
▁ours	-11.296
hin	-11.2967
▁k	-11.3027
phe	-11.3031
▁cla	-11.3053
▁fain	-11.3078
▁examin	-11.308
Is	-11.3098
▁simpl	-11.3105
▁shave	-11.3128
cession	-11.3136
▁lords	-11.3181
▁Sh	-11.3191
ak	-11.3199
▁imagin	-11.3219
por	-11.3229
dull	-11.3266
▁heave	-11.3289
▁trans	-11.3293
nas	-11.3313
▁min	-11.3317
set	-11.3339
tained	-11.3342
pots	-11.3348
▁va	-11.3359
▁Sheba	-11.3367
▁sayings	-11.3379
▁flu	-11.339
test	-11.3484
like	-11.3493
rim	-11.3514
ching	-11.3517
▁sprinkle	-11.3531
▁longing	-11.3538
▁pant	-11.354
ber	-11.3553
hold	-11.3554
▁dim	-11.3557
held	-11.3565
ccord	-11.3569
▁rid	-11.3573
▁load	-11.3581
▁eunuch	-11.3582
▁plate	-11.3582
▁shilling	-11.3582
▁chestnut	-11.3583
▁Samaritan	-11.3584
▁marketplace	-11.3584
▁Amorite	-11.3586
▁disease	-11.3587
▁babe	-11.3587
▁Day	-11.3587
▁limb	-11.3588
worker	-11.359
▁Se	-11.359
▁hook	-11.3591
▁Mu	-11.3592
▁bat	-11.3592
▁pin	-11.3607
corruptible	-11.3609
▁push	-11.3621
wear	-11.3623
▁knock	-11.3627
▁rattle	-11.3631
Will	-11.3632
bow	-11.3634
color	-11.3634
Wilbur	-11.3635
midst	-11.3637
▁handful	-11.3639
▁charg	-11.364
▁borrow	-11.3643
▁hind	-11.3644
▁collect	-11.3646
spect	-11.3647
▁accomplish	-11.3649
Of	-11.3649
▁fix	-11.3649
▁prevail	-11.3649
back	-11.365
yard	-11.3664
fe	-11.3666
▁reprove	-11.3671
Bee	-11.3672
▁decide	-11.3673
▁conceive	-11.3673
▁circumcise	-11.3674
▁lunch	-11.3678
▁fervent	-11.3679
▁brief	-11.3679
ursed	-11.3679
▁shout	-11.3679
▁deceitful	-11.368
uddenly	-11.3682
▁rend	-11.3684
▁warn	-11.3686
▁lone	-11.3687
hood	-11.3687
▁overthrow	-11.3688
▁magic	-11.3691
▁zeal	-11.3691
▁deceit	-11.3691
▁cruel	-11.3691
neck	-11.3692
▁Corinth	-11.3692
▁cherub	-11.3692
▁Like	-11.3692
▁instru	-11.3692
Humble	-11.3692
▁guest	-11.3692
▁regret	-11.3692
closing	-11.3692
▁Aholi	-11.3692
▁Bethsaida	-11.3692
▁Boudinot	-11.3692
▁Chedorlaomer	-11.3692
▁Deliver	-11.3692
▁Nadab	-11.3692
▁Pamphylia	-11.3692
▁Philippi	-11.3692
▁Tarsus	-11.3692
▁Texas	-11.3692
▁Thomas	-11.3692
▁Tychicus	-11.3692
▁Would	-11.3692
▁YHWH	-11.3692
▁abolish	-11.3692
▁accurately	-11.3692
▁affrighted	-11.3692
▁amazement	-11.3692
▁anathema	-11.3692
▁attitude	-11.3692
▁avoid	-11.3692
▁awhile	-11.3692
▁beguile	-11.3692
▁benefit	-11.3692
▁betrothed	-11.3692
▁bishop	-11.3692
▁bleeding	-11.3692
▁bridle	-11.3692
▁carriage	-11.3692
▁consecration	-11.3692
▁cornmeal	-11.3692
▁cream	-11.3692
▁crime	-11.3692
▁crisp	-11.3692
▁dissolved	-11.3692
▁exhausted	-11.3692
▁flavor	-11.3692
▁furlongs	-11.3692
▁grandfather	-11.3692
▁grandstand	-11.3692
▁grief	-11.3692
▁grinned	-11.3692
▁heavily	-11.3692
▁heretofore	-11.3692
▁infirmities	-11.3692
▁insurrection	-11.3692
▁kinsmen	-11.3692
▁lascivious	-11.3692
▁magazine	-11.3692
▁mandrakes	-11.3692
▁muttered	-11.3692
▁nutrients	-11.3692
▁organisms	-11.3692
▁patriarch	-11.3692
▁perfume	-11.3692
▁possum	-11.3692
▁powder	-11.3692
▁progress	-11.3692
▁pumpkin	-11.3692
▁racket	-11.3692
▁religion	-11.3692
▁scorpion	-11.3692
▁spinnerets	-11.3692
▁strict	-11.3692
▁stunned	-11.3692
▁swift	-11.3692
▁task	-11.3692
▁terrified	-11.3692
▁thoroughly	-11.3692
▁thumb	-11.3692
▁ungodliness	-11.3692
▁upstairs	-11.3692
▁vanity	-11.3692
▁vengeance	-11.3692
▁whisky	-11.3692
▁Serug	-11.3692
▁burst	-11.3692
▁decision	-11.3692
▁delay	-11.3692
▁excess	-11.3692
▁indoors	-11.3692
▁phone	-11.3692
▁secur	-11.3692
▁slumber	-11.3692
▁Heaven	-11.3692
▁Hosanna	-11.3692
▁Nathanael	-11.3692
▁cheese	-11.3692
▁neglect	-11.3692
▁orchard	-11.3692
▁swelling	-11.3692
▁rumor	-11.3692
milit	-11.3692
▁alien	-11.3692
▁gravity	-11.3692
▁sneak	-11.3692
▁Diana	-11.3692
▁adulteress	-11.3692
▁result	-11.3692
▁freeze	-11.3692
Sleep	-11.3692
▁crumbs	-11.3692
▁paddle	-11.3692
▁continuing	-11.3692
▁fables	-11.3692
▁graft	-11.3692
▁muddy	-11.3692
▁snapp	-11.3692
▁Deep	-11.3692
▁citizenship	-11.3692
▁Count	-11.3692
▁bowels	-11.3692
▁Gaius	-11.3692
▁Zerah	-11.3692
▁apron	-11.3692
▁Jason	-11.3692
▁bald	-11.3692
▁adj	-11.3692
▁snout	-11.3692
▁Little	-11.3692
▁foggy	-11.3692
▁straitened	-11.3692
▁odor	-11.3692
▁socks	-11.3692
diment	-11.3692
▁tag	-11.3692
▁Depart	-11.3692
▁support	-11.3692
▁babies	-11.3692
▁Walk	-11.3692
▁consolation	-11.3692
▁riverboat	-11.3693
▁envie	-11.3693
▁seventeen	-11.3693
▁urgent	-11.3693
tual	-11.3693
▁missed	-11.3693
▁stewardship	-11.3693
▁hospitality	-11.3693
▁uncertain	-11.3693
▁sincerity	-11.3693
▁brook	-11.3693
▁hys	-11.3693
▁partner	-11.3693
▁confusion	-11.3693
▁property	-11.3693
▁Tru	-11.3693
▁gentlemen	-11.3693
▁announcement	-11.3693
▁candy	-11.3693
▁wallet	-11.3693
▁provender	-11.3693
▁assign	-11.3693
▁Herodias	-11.3693
▁victory	-11.3693
▁buck	-11.3693
▁sweep	-11.3694
▁landscape	-11.3694
▁liquor	-11.3694
▁wot	-11.3694
▁stem	-11.3694
▁accusation	-11.3694
▁duty	-11.3694
▁ladder	-11.3694
▁shore	-11.3694
▁shamefully	-11.3694
▁starv	-11.3694
▁ewe	-11.3694
ville	-11.3694
▁distinction	-11.3694
▁shortened	-11.3694
▁Sam	-11.3694
▁utterance	-11.3694
▁Kno	-11.3694
▁otherwise	-11.3695
▁behave	-11.3695
▁expectation	-11.3695
▁motionless	-11.3695
▁main	-11.3695
▁appearance	-11.3695
▁stage	-11.3695
▁square	-11.3695
▁dung	-11.3695
▁offence	-11.3695
▁westward	-11.3695
▁assay	-11.3695
▁dizzy	-11.3695
▁filthy	-11.3695
▁memory	-11.3696
▁July	-11.3696
▁firm	-11.3696
▁glanc	-11.3696
▁carton	-11.3696
▁friendship	-11.3696
▁crew	-11.3696
▁bill	-11.3697
▁election	-11.3697
▁bull	-11.3698
▁frightened	-11.3698
▁potter	-11.3698
▁booth	-11.3698
▁ladies	-11.3698
agement	-11.3699
▁barrel	-11.37
▁Jonah	-11.37
▁Keep	-11.37
▁Save	-11.3701
▁grease	-11.3702
▁Bu	-11.3702
▁boast	-11.3702
▁priesthood	-11.3703
▁ob	-11.3704
▁ca	-11.3704
▁relieved	-11.3704
▁Over	-11.3704
tent	-11.3704
▁Onan	-11.3705
▁ribs	-11.3706
▁using	-11.3706
▁chuckled	-11.3708
▁graven	-11.3708
▁comfortable	-11.3709
▁pretend	-11.3709
▁trembled	-11.3709
▁gainsaying	-11.3709
▁slight	-11.371
▁Fir	-11.3712
▁float	-11.3714
▁Summ	-11.3714
▁faction	-11.3715
pro	-11.3717
▁Fall	-11.372
▁waste	-11.372
▁whispering	-11.372
▁chastening	-11.372
▁noble	-11.3723
▁mor	-11.3723
▁blasphemed	-11.3725
▁upside	-11.3726
▁stern	-11.3727
▁horn	-11.3728
▁tares	-11.3729
▁idolaters	-11.373
▁warriors	-11.373
▁mule	-11.3733
▁May	-11.3737
▁laborers	-11.3737
▁claws	-11.3738
▁severally	-11.3738
▁perform	-11.3739
▁closer	-11.3739
▁however	-11.3739
▁urge	-11.3741
▁assembled	-11.3741
▁humbled	-11.3742
▁Anna	-11.3743
▁grievously	-11.3744
▁forthwith	-11.3744
servants	-11.3747
▁girded	-11.3748
▁imitate	-11.375
▁weave	-11.375
▁Does	-11.3751
▁scattering	-11.3754
▁Jebusites	-11.3754
▁fornicators	-11.3754
▁shelters	-11.3754
▁Perizzites	-11.3754
▁ax	-11.3756
▁cured	-11.3756
▁flatter	-11.3758
▁stack	-11.3759
▁Gr	-11.376
▁thereunto	-11.3761
▁sir	-11.3763
▁seethe	-11.3765
▁hatched	-11.3768
▁passions	-11.3768
▁tormented	-11.3769
▁perisheth	-11.377
▁peas	-11.3771
▁highway	-11.3775
▁failing	-11.3776
▁droppings	-11.3779
▁sparrows	-11.3779
▁joints	-11.3779
▁fatherless	-11.3779
▁delighted	-11.3779
▁mourned	-11.378
arley	-11.3783
ema	-11.3783
▁Late	-11.3783
Thank	-11.3784
▁bite	-11.3785
▁sen	-11.3786
▁killers	-11.3786
▁thinkest	-11.3794
▁treated	-11.3797
▁closely	-11.38
▁veiled	-11.38
▁raced	-11.38
▁questioning	-11.3802
▁plates	-11.3803
▁chestnuts	-11.3803
▁eunuchs	-11.3803
▁shillings	-11.3803
▁frie	-11.3804
▁invisible	-11.3805
▁lid	-11.3813
▁personal	-11.3826
▁stopp	-11.3828
▁messengers	-11.3828
▁sleepy	-11.383
▁inhabited	-11.3831
▁prophesying	-11.3832
ai	-11.3832
som	-11.3835
▁firstling	-11.3836
▁considered	-11.3837
▁serveth	-11.3846
▁needeth	-11.3849
▁ga	-11.3852
▁singing	-11.3852
▁greas	-11.3854
▁driver	-11.3858
II	-11.3859
▁exhorting	-11.3866
▁manif	-11.3871
▁Whom	-11.3873
▁wont	-11.3877
▁proceeded	-11.3881
vile	-11.3884
▁smoked	-11.3892
▁filling	-11.3895
▁efforts	-11.3902
▁fashioned	-11.3903
iest	-11.3904
▁believest	-11.3907
▁nests	-11.3927
ross	-11.3928
▁older	-11.3929
▁sink	-11.395
▁hatchets	-11.3953
ged	-11.3954
son	-11.3965
▁heirs	-11.3977
▁paint	-11.3987
alam	-11.3987
ards	-11.3993
▁seals	-11.4009
▁divine	-11.4015
bah	-11.4031
▁awful	-11.4032
▁penn	-11.4043
▁tooth	-11.4046
▁dodg	-11.4049
ener	-11.4092
▁fowls	-11.4104
▁miracles	-11.4104
▁males	-11.4104
▁remind	-11.4115
▁mouths	-11.4122
▁Ari	-11.4127
revious	-11.4139
▁distribute	-11.4143
▁helper	-11.4144
▁colors	-11.4154
▁covers	-11.4158
▁li	-11.4169
▁questions	-11.4182
▁forever	-11.4196
▁bu	-11.4206
cut	-11.4207
▁Co	-11.4214
▁pleasures	-11.4232
sop	-11.4233
▁charges	-11.4235
dge	-11.4235
▁player	-11.4258
▁visiting	-11.4299
▁ash	-11.4306
▁tails	-11.4309
▁accuser	-11.4315
▁scorn	-11.4318
▁pace	-11.4328
▁cart	-11.4347
▁images	-11.4387
▁pop	-11.44
iv	-11.4403
iness	-11.4403
aking	-11.4483
eak	-11.45
▁peaceful	-11.4518
▁Was	-11.4541
gy	-11.4576
lves	-11.458
▁intreat	-11.4585
rushed	-11.4586
ify	-11.4607
▁heel	-11.462
▁settle	-11.4672
▁points	-11.4691
▁dip	-11.4748
▁decompose	-11.4748
▁services	-11.4757
mong	-11.4778
▁commune	-11.478
▁lee	-11.4794
shed	-11.4816
▁tip	-11.4817
▁ja	-11.4824
nath	-11.4836
sh	-11.4845
▁empt	-11.4854
▁Ten	-11.4884
▁decompos	-11.49
▁Cana	-11.4915
uff	-11.4923
▁gra	-11.4936
▁bees	-11.4964
▁runt	-11.4997
lings	-11.5035
▁Lea	-11.5036
▁crack	-11.5039
▁prais	-11.5083
▁rac	-11.5095
ise	-11.5102
▁layer	-11.5118
▁bar	-11.515
eel	-11.5156
bi	-11.5166
angled	-11.5183
▁sta	-11.5188
bout	-11.5189
▁val	-11.5199
ode	-11.5203
ban	-11.527
▁Gree	-11.5294
▁lur	-11.5325
▁tool	-11.5335
erah	-11.5339
▁qua	-11.5379
ined	-11.5402
rent	-11.541
rous	-11.5418
ep	-11.5451
nut	-11.5601
▁doer	-11.563
ub	-11.5632
▁rep	-11.5644
▁Ph	-11.5681
onsider	-11.5702
▁Ah	-11.5729
als	-11.5756
j	-11.5777
▁injur	-11.5783
▁overthr	-11.581
▁Fe	-11.5868
▁Bela	-11.5885
▁fires	-11.5909
lah	-11.5949
▁squa	-11.595
▁Si	-11.5961
lations	-11.5965
▁caus	-11.5998
▁skill	-11.6004
handed	-11.6005
round	-11.6008
▁vow	-11.602
▁prefer	-11.6024
ians	-11.6034
visible	-11.605
eph	-11.6056
ati	-11.606
ttention	-11.6064
ves	-11.607
▁debtor	-11.6076
▁object	-11.6078
antic	-11.6079
▁pomegranate	-11.6079
▁weapon	-11.6079
will	-11.6082
▁sparrow	-11.6083
▁deceiver	-11.6083
▁dropping	-11.6083
cerning	-11.6084
▁Whit	-11.6086
kins	-11.6086
▁invent	-11.6087
rag	-11.6087
▁gosling	-11.609
▁loop	-11.6093
▁groan	-11.6096
▁ridge	-11.6098
▁needle	-11.6098
▁murmur	-11.6098
ngel	-11.6099
pri	-11.61
ky	-11.61
▁partaker	-11.6101
▁key	-11.6102
▁descend	-11.6105
unted	-11.6115
course	-11.612
▁coal	-11.612
aged	-11.6121
▁pearl	-11.6122
▁exp	-11.6122
Stop	-11.6125
Maybe	-11.6127
▁shear	-11.6128
took	-11.6129
load	-11.6129
Nothing	-11.6132
Edith	-11.6132
terrific	-11.6132
▁judg	-11.6133
thirst	-11.6133
hooks	-11.6133
▁despair	-11.6133
Who	-11.6135
blood	-11.6135
worthy	-11.6135
speak	-11.6135
▁murmuring	-11.6135
gave	-11.6137
Did	-11.6138
face	-11.6138
▁purify	-11.6139
▁instruct	-11.614
For	-11.6141
master	-11.6141
fell	-11.6142
▁resid	-11.6143
▁slipp	-11.6143
▁Y	-11.6146
▁dare	-11.6147
que	-11.6151
▁platt	-11.6152
Then	-11.6156
▁threaten	-11.6156
▁strengthen	-11.6166
bby	-11.6167
▁excite	-11.6169
ray	-11.6169
▁arrange	-11.617
bone	-11.6171
▁tremble	-11.6171
▁surprise	-11.6171
▁swa	-11.6173
▁compel	-11.6173
▁approve	-11.6173
▁map	-11.6173
▁preten	-11.6174
ouched	-11.6175
▁bon	-11.6176
▁general	-11.6178
▁bruise	-11.6179
ounded	-11.6179
▁vague	-11.6179
▁exact	-11.618
▁abundant	-11.6181
▁immediate	-11.6181
▁supplie	-11.6182
▁arrive	-11.6182
oldiers	-11.6182
▁glorie	-11.6184
▁cheerful	-11.6184
▁clan	-11.6184
▁flash	-11.6185
They	-11.6185
▁chi	-11.6186
▁ski	-11.6186
▁Ke	-11.6187
▁safe	-11.6188
▁transgress	-11.6189
belief	-11.619
▁debt	-11.619
they	-11.619
▁riot	-11.6191
▁express	-11.6191
▁announce	-11.6191
▁proper	-11.6191
▁convers	-11.6191
berries	-11.6191
▁yo	-11.6191
▁hospital	-11.6192
nswere	-11.6192
▁strait	-11.6192
Listen	-11.6192
Terrific	-11.6192
iamond	-11.6192
latchet	-11.6192
▁Amminadab	-11.6192
▁Aristarchus	-11.6192
▁August	-11.6192
▁Comforter	-11.6192
▁Congress	-11.6192
▁Cranshaw	-11.6192
▁Derbe	-11.6192
▁Dishon	-11.6192
▁Ephrath	-11.6192
▁Euphrates	-11.6192
▁GOD	-11.6192
▁Havilah	-11.6192
▁Hearken	-11.6192
▁Hogsucker	-11.6192
▁Ishmeelites	-11.6192
▁Ithamar	-11.6192
▁Kohath	-11.6192
▁Monday	-11.6192
▁Nicodemus	-11.6192
▁PIG	-11.6192
▁Possum	-11.6192
▁Receive	-11.6192
▁School	-11.6192
▁Servant	-11.6192
▁Succoth	-11.6192
▁Twelve	-11.6192
▁Zohar	-11.6192
▁absence	-11.6192
▁adoption	-11.6192
▁afford	-11.6192
▁airplane	-11.6192
▁assurance	-11.6192
▁blowgun	-11.6192
▁bondwoman	-11.6192
▁bounty	-11.6192
▁buryingplace	-11.6192
▁century	-11.6192
▁chapiters	-11.6192
▁chickadee	-11.6192
▁cinnamon	-11.6192
▁concubine	-11.6192
▁convenient	-11.6192
▁correspond	-11.6192
▁crazy	-11.6192
▁demanded	-11.6192
▁devise	-11.6192
▁discreet	-11.6192
▁emerald	-11.6192
▁engine	-11.6192
▁foxes	-11.6192
▁fraction	-11.6192
▁freewoman	-11.6192
▁fungus	-11.6192
▁glutton	-11.6192
▁gravy	-11.6192
▁handkerchief	-11.6192
▁haught	-11.6192
▁hereafter	-11.6192
▁horizon	-11.6192
▁impart	-11.6192
▁incorruption	-11.6192
▁increasing	-11.6192
▁insects	-11.6192
▁knuckle	-11.6192
▁level	-11.6192
▁mysterious	-11.6192
▁necessities	-11.6192
▁nostrils	-11.6192
▁obeisance	-11.6192
▁occur	-11.6192
▁pilgrims	-11.6192
▁proconsul	-11.6192
▁pronounce	-11.6192
▁propitiation	-11.6192
▁province	-11.6192
▁raspberr	-11.6192
▁reproof	-11.6192
▁request	-11.6192
▁response	-11.6192
▁restitution	-11.6192
▁restrained	-11.6192
▁reviling	-11.6192
▁revived	-11.6192
▁riverbank	-11.6192
▁roam	-11.6192
▁sapphire	-11.6192
▁sardius	-11.6192
▁showbread	-11.6192
▁shrank	-11.6192
▁smiled	-11.6192
▁solemn	-11.6192
▁straddle	-11.6192
▁sunshine	-11.6192
▁survive	-11.6192
▁sworn	-11.6192
▁terror	-11.6192
▁turkey	-11.6192
▁twig	-11.6192
▁undress	-11.6192
▁unimagin	-11.6192
▁unmarried	-11.6192
▁unusual	-11.6192
▁whiskey	-11.6192
tarsus	-11.6192
▁Brother	-11.6192
▁conjur	-11.6192
▁contend	-11.6192
▁diminish	-11.6192
▁disappoint	-11.6192
▁emerge	-11.6192
▁latter	-11.6192
▁merchant	-11.6192
▁orange	-11.6192
▁queen	-11.6192
▁raven	-11.6192
▁scrivener	-11.6192
▁unloose	-11.6192
▁Gilead	-11.6192
▁Jehovah	-11.6192
▁element	-11.6192
▁gloves	-11.6192
▁leprosy	-11.6192
▁mysteries	-11.6192
▁poplar	-11.6192
▁blink	-11.6192
▁agony	-11.6192
▁cedar	-11.6192
▁clipping	-11.6192
▁impress	-11.6192
▁middling	-11.6192
▁Potiph	-11.6192
▁circum	-11.6192
▁crystal	-11.6192
▁gorge	-11.6192
▁holler	-11.6192
▁mammon	-11.6192
▁Likewise	-11.6192
▁turban	-11.6192
▁bereaved	-11.6192
▁noodle	-11.6192
▁title	-11.6192
▁exchange	-11.6192
weed	-11.6192
▁beggar	-11.6192
▁liberality	-11.6192
▁refrain	-11.6192
▁enchantments	-11.6192
▁kicked	-11.6192
▁workmanship	-11.6192
orry	-11.6192
▁Salmon	-11.6192
▁loving	-11.6192
▁occupation	-11.6192
▁sackcloth	-11.6192
▁stumblingblock	-11.6192
▁Buddy	-11.6192
▁Preparation	-11.6192
▁blasphemies	-11.6192
▁arrival	-11.6192
▁assistance	-11.6192
▁palsied	-11.6192
▁Joses	-11.6192
▁winepress	-11.6192
access	-11.6192
▁blossoms	-11.6192
▁bolt	-11.6192
▁quilt	-11.6193
▁Drink	-11.6193
▁reverence	-11.6193
▁bodily	-11.6193
▁excuse	-11.6193
▁vote	-11.6193
▁Goodbye	-11.6193
▁Moab	-11.6193
▁blast	-11.6193
▁principalities	-11.6193
▁decree	-11.6193
▁Italy	-11.6193
▁belonging	-11.6193
▁gently	-11.6193
▁pink	-11.6193
▁rooster	-11.6193
▁nap	-11.6193
▁thicket	-11.6193
▁flick	-11.6193
▁Haden	-11.6193
▁cursing	-11.6193
▁lane	-11.6193
▁indig	-11.6193
▁Shinar	-11.6193
▁luck	-11.6193
▁permit	-11.6193
▁conceal	-11.6193
▁tempest	-11.6193
▁Abib	-11.6193
▁population	-11.6193
▁towel	-11.6193
▁mistake	-11.6193
▁covetous	-11.6193
▁scoop	-11.6193
▁smart	-11.6193
▁hillside	-11.6193
▁halt	-11.6194
nquire	-11.6194
▁Miz	-11.6194
▁imprisonment	-11.6194
▁strain	-11.6194
▁Light	-11.6194
▁midday	-11.6194
▁Shur	-11.6194
▁countries	-11.6194
▁Elam	-11.6194
▁guilty	-11.6194
▁malice	-11.6194
▁favorite	-11.6194
▁heathen	-11.6194
ntil	-11.6194
▁entangle	-11.6194
▁wire	-11.6194
▁awkwardly	-11.6194
▁Teman	-11.6195
▁wrestling	-11.6195
▁bushel	-11.6195
everal	-11.6195
nkle	-11.6195
sual	-11.6195
▁crash	-11.6195
▁braid	-11.6195
▁furthermore	-11.6195
▁limp	-11.6196
▁satisfied	-11.6196
▁Abb	-11.6196
▁stedfastness	-11.6196
▁thistles	-11.6196
▁apostleship	-11.6196
▁barbarian	-11.6196
▁wealthy	-11.6197
▁communicate	-11.6197
▁Weep	-11.6197
▁bushes	-11.6197
▁defer	-11.6197
▁nearby	-11.6198
▁hello	-11.6198
▁sheepfold	-11.6198
▁giant	-11.6198
▁Mother	-11.6198
▁super	-11.6199
▁jar	-11.6199
▁chap	-11.6199
▁Meat	-11.6199
▁gambl	-11.62
▁violent	-11.62
▁forsaken	-11.62
▁fur	-11.62
▁husbandman	-11.62
▁grunted	-11.62
▁vo	-11.62
▁cleansing	-11.62
▁armor	-11.62
eedy	-11.6201
atic	-11.6201
▁carv	-11.6202
▁supplieth	-11.6202
▁rifle	-11.6203
▁disturb	-11.6203
▁skirt	-11.6203
▁blame	-11.6203
▁repute	-11.6204
arge	-11.6204
▁vaguely	-11.6205
chol	-11.6205
▁wrist	-11.6205
▁needful	-11.6205
▁agreement	-11.6206
▁trott	-11.6206
▁Jam	-11.6206
▁Else	-11.6206
▁remark	-11.6206
▁cheerfully	-11.6206
▁whiteman	-11.6207
▁difficulty	-11.6208
▁rubber	-11.6208
▁briefly	-11.6209
▁Lotan	-11.6209
▁cheat	-11.6209
▁deceitfully	-11.6209
▁Dog	-11.6209
▁candie	-11.621
▁persecutest	-11.621
▁knot	-11.621
▁stairs	-11.621
▁cucumbers	-11.621
▁magistrates	-11.621
▁smoking	-11.6211
▁loan	-11.6212
▁sower	-11.6212
▁fiercely	-11.6212
ently	-11.6212
▁vanished	-11.6213
▁weaving	-11.6213
▁maple	-11.6214
▁ability	-11.6214
▁arranged	-11.6214
▁whistling	-11.6214
ndy	-11.6214
▁clang	-11.6216
▁silently	-11.6216
did	-11.6217
▁chill	-11.6217
▁citizen	-11.622
▁stalk	-11.6221
▁Ok	-11.6222
▁stall	-11.6222
▁reconciled	-11.6222
aster	-11.6222
▁block	-11.6222
▁overhead	-11.6223
▁joke	-11.6226
compelled	-11.6226
▁crushed	-11.6228
▁quake	-11.6228
▁overthrown	-11.6228
▁pierced	-11.6228
▁steady	-11.6229
▁greeting	-11.6229
▁eighteen	-11.623
▁Men	-11.623
▁Never	-11.623
mortal	-11.6232
▁endless	-11.6236
▁commendeth	-11.6237
▁sno	-11.6237
▁curl	-11.6239
▁groaned	-11.624
▁manservant	-11.6241
▁pillows	-11.6242
▁slopes	-11.6242
▁physicians	-11.6242
▁sincere	-11.6242
▁flip	-11.6243
▁anew	-11.6244
▁louder	-11.6244
▁lit	-11.6245
▁wanton	-11.6246
▁joint	-11.6251
▁stumbleth	-11.6252
▁trapper	-11.6255
▁naturally	-11.6256
▁Hous	-11.6258
▁Maybe	-11.6258
▁pushing	-11.6258
▁particle	-11.626
▁faithless	-11.6263
▁invented	-11.6263
▁oppressed	-11.6266
▁confirmed	-11.6266
▁fann	-11.627
▁hon	-11.6273
▁boiling	-11.6273
▁pigeons	-11.6274
▁lepers	-11.6274
▁boughs	-11.6274
▁transgressors	-11.6274
▁whoring	-11.6278
▁completed	-11.6278
▁sojourners	-11.6279
▁scare	-11.628
▁sever	-11.6283
▁thereto	-11.6286
▁sur	-11.6288
▁wildly	-11.6289
▁overmuch	-11.629
▁extortioner	-11.6292
▁continueth	-11.6297
▁Remov	-11.6297
▁commandeth	-11.6298
▁action	-11.6303
▁hasn	-11.6304
▁cards	-11.6306
▁pomegranates	-11.6306
▁weapons	-11.6306
▁metal	-11.6306
os	-11.6308
▁chin	-11.6308
▁actions	-11.6309
▁confe	-11.6311
▁Gran	-11.6313
▁department	-11.6319
▁wond	-11.6322
meter	-11.6323
▁jo	-11.6325
In	-11.6328
▁richly	-11.6334
▁payment	-11.634
lessly	-11.6343
owing	-11.6344
▁dresser	-11.6346
▁lock	-11.6347
this	-11.6348
▁def	-11.635
▁rider	-11.6352
▁needy	-11.6359
erable	-11.6359
eral	-11.636
▁sucked	-11.6361
▁pouring	-11.6362
▁preacheth	-11.6363
▁transform	-11.6366
▁finest	-11.6371
▁bricks	-11.6371
▁statutes	-11.6371
▁provisions	-11.6371
▁persecutions	-11.6372
position	-11.6373
▁worms	-11.6376
▁alike	-11.6378
▁patch	-11.6382
▁Romans	-11.6391
▁deeply	-11.6393
▁lacked	-11.6402
▁liars	-11.6404
▁stealing	-11.6406
▁perver	-11.6407
▁farmers	-11.6413
▁embrace	-11.6422
▁squat	-11.6428
▁profited	-11.6429
▁trapp	-11.6431
alutations	-11.6431
▁clock	-11.6431
ius	-11.6434
▁spl	-11.6437
vice	-11.6438
▁murderers	-11.6441
unny	-11.6442
▁regarded	-11.6443
gar	-11.6454
ups	-11.6464
▁surge	-11.6464
▁ma	-11.6464
ads	-11.6467
▁mete	-11.647
▁captives	-11.647
▁habitations	-11.647
▁righteously	-11.6474
▁worrying	-11.6481
T	-11.6491
▁amount	-11.6496
▁killeth	-11.65
ere	-11.6501
▁dances	-11.6503
▁thighs	-11.6503
tty	-11.6503
com	-11.6516
▁worshipp	-11.6526
▁gravel	-11.6529
▁Christian	-11.6533
▁logs	-11.6536
▁style	-11.6541
▁guns	-11.6544
▁card	-11.6556
▁sop	-11.6559
▁hurting	-11.656
▁Abid	-11.656
▁games	-11.657
▁seasoned	-11.6571
▁customs	-11.6604
full	-11.6617
▁ref	-11.6623
▁hens	-11.6631
▁regions	-11.6637
▁aged	-11.6648
▁crowned	-11.6649
▁tie	-11.666
▁staying	-11.6665
▁meaning	-11.667
▁streams	-11.6671
▁itch	-11.6677
aid	-11.6699
▁figs	-11.6705
bs	-11.6709
▁rag	-11.6721
▁forgett	-11.6723
vi	-11.6724
illy	-11.6733
▁caves	-11.6738
▁visions	-11.675
▁owners	-11.6767
▁Par	-11.6778
▁treat	-11.6791
figur	-11.6799
▁floods	-11.6807
▁governors	-11.6807
▁Eph	-11.6813
▁kn	-11.6843
▁Zi	-11.6848
inning	-11.6848
him	-11.6863
▁argue	-11.6865
pen	-11.6874
▁ships	-11.6875
lic	-11.689
▁blinded	-11.689
▁sus	-11.6893
▁ver	-11.6908
enable	-11.6929
B	-11.6938
▁Clo	-11.6948
ancy	-11.6949
▁sco	-11.6988
ttle	-11.6988
▁j	-11.6992
▁impo	-11.6996
▁ink	-11.6997
▁favorabl	-11.6997
▁afternoons	-11.7013
alo	-11.7015
▁perp	-11.7053
▁fe	-11.707
▁curve	-11.7114
▁rehears	-11.7116
▁writer	-11.7117
▁edges	-11.7118
racles	-11.7118
▁buildings	-11.7119
▁shower	-11.7136
▁busi	-11.7137
▁pea	-11.7164
urge	-11.7201
ddle	-11.7209
▁smit	-11.7226
▁lap	-11.7232
▁Israelite	-11.7236
anke	-11.7241
▁earthy	-11.7253
▁entice	-11.726
uni	-11.7265
inner	-11.7267
ration	-11.7268
▁doings	-11.7274
ull	-11.7293
▁inv	-11.732
▁differ	-11.733
▁numbers	-11.7335
▁shit	-11.7351
eries	-11.7391
▁rec	-11.7403
uz	-11.742
▁companions	-11.7473
▁swords	-11.7477
▁fellows	-11.7481
▁beard	-11.7491
ular	-11.7498
▁earthly	-11.7531
▁journeys	-11.7547
damn	-11.7576
▁gall	-11.7576
mma	-11.7578
▁prisons	-11.7587
▁afore	-11.7609
scen	-11.7619
▁Hid	-11.7631
enness	-11.7673
▁trac	-11.7686
Be	-11.7752
▁inte	-11.776
lation	-11.7762
▁su	-11.7777
▁Phi	-11.7782
▁Ben	-11.7806
▁stab	-11.7807
born	-11.7815
eas	-11.7816
mar	-11.7866
▁parting	-11.7871
▁pa	-11.7921
ats	-11.7924
dder	-11.7926
ore	-11.7938
▁interrupt	-11.7959
sive	-11.7973
van	-11.7974
tery	-11.799
▁gaz	-11.8004
wardly	-11.8005
za	-11.8037
▁struggle	-11.8043
▁pur	-11.8056
▁meats	-11.8067
▁stu	-11.8081
we	-11.81
vil	-11.821
▁pipes	-11.8263
▁cal	-11.8263
dding	-11.8299
rah	-11.8301
lab	-11.8304
nic	-11.8359
▁strik	-11.8365
fire	-11.8383
▁wh	-11.8392
mmed	-11.8395
ev	-11.8411
▁Stop	-11.8411
▁Eu	-11.8412
▁hug	-11.842
mal	-11.8422
▁Che	-11.8427
posed	-11.844
uit	-11.8451
ich	-11.8453
lee	-11.8462
pringtime	-11.8515
▁breathe	-11.853
x	-11.854
uring	-11.8587
che	-11.8612
nched	-11.8621
catches	-11.8623
▁temperat	-11.8635
▁argu	-11.8653
▁striv	-11.8667
ities	-11.8675
hoes	-11.8682
▁rage	-11.8693
▁Pu	-11.8716
ncy	-11.8728
▁rais	-11.8743
ender	-11.8748
doers	-11.8815
fare	-11.8831
orn	-11.8858
stead	-11.8877
nger	-11.8912
rred	-11.8927
our	-11.8974
▁oppos	-11.8975
▁lu	-11.8979
eyed	-11.902
▁Eve	-11.9027
▁Mes	-11.9034
▁ripp	-11.9055
azed	-11.9059
tops	-11.9065
▁whit	-11.9068
mus	-11.9137
ron	-11.9138
P	-11.9158
▁fre	-11.919
top	-11.9191
▁sug	-11.9193
▁Ge	-11.92
▁embrac	-11.9214
easy	-11.9216
hill	-11.9218
nets	-11.9227
▁fir	-11.9234
rance	-11.9261
▁Sal	-11.9262
uary	-11.9285
aving	-11.9318
▁rob	-11.9346
Th	-11.9347
sha	-11.9347
▁gum	-11.9351
pher	-11.9356
rawled	-11.9357
ized	-11.9358
ence	-11.9358
▁Cre	-11.936
doer	-11.9367
▁bough	-11.938
▁extortion	-11.9388
come	-11.9403
nceforth	-11.9406
▁eagle	-11.9408
▁psalm	-11.9408
▁sorcerer	-11.9408
▁elbow	-11.9408
▁senator	-11.9408
▁section	-11.9411
▁Levite	-11.9412
▁leper	-11.9413
▁pigeon	-11.9413
▁transgressor	-11.9415
▁chasten	-11.9416
▁Jebusite	-11.9416
▁Perizzite	-11.9416
▁fornicator	-11.9416
rate	-11.9417
▁shelter	-11.942
▁hypocrite	-11.9423
▁earring	-11.9426
lashed	-11.9426
▁Tra	-11.9427
▁explo	-11.9427
qui	-11.9431
▁sojourner	-11.9433
▁whisper	-11.9433
▁spice	-11.9433
▁shop	-11.9438
hand	-11.9439
gate	-11.9443
upon	-11.9446
quench	-11.945
cum	-11.9451
rches	-11.9452
Y	-11.9453
warm	-11.9457
Certainly	-11.9458
▁gir	-11.946
stood	-11.9463
Ho	-11.9466
hearted	-11.9466
Pig	-11.9466
floor	-11.9467
prisoner	-11.9467
bas	-11.9467
▁operat	-11.9467
learned	-11.9468
legs	-11.9468
pieces	-11.9468
snake	-11.9468
thirty	-11.9468
break	-11.9468
quiet	-11.9468
friend	-11.9468
closed	-11.9468
water	-11.9468
wife	-11.9469
finger	-11.9469
Take	-11.9469
looking	-11.9469
ground	-11.947
▁wrest	-11.9471
▁encounter	-11.9471
▁remov	-11.9472
▁confus	-11.9472
Sure	-11.9473
▁assembl	-11.9474
▁greet	-11.9475
unch	-11.9475
▁loos	-11.9476
Every	-11.9476
▁affirm	-11.9476
▁embarrass	-11.9476
▁buffet	-11.9476
▁crush	-11.9481
▁refresh	-11.9481
sembled	-11.9489
volut	-11.9489
hath	-11.9493
roi	-11.9494
ega	-11.9496
Te	-11.9499
▁enlarge	-11.9503
five	-11.9503
▁bore	-11.9504
▁Alexandria	-11.9504
▁relieve	-11.9504
▁prophesie	-11.9505
▁purchase	-11.9505
Here	-11.9505
▁determine	-11.9506
▁Right	-11.9507
▁pursue	-11.9507
▁marrie	-11.9508
▁meek	-11.9509
▁pierce	-11.951
▁delicate	-11.9511
▁nervous	-11.9512
ected	-11.9513
▁tire	-11.9514
▁private	-11.9514
alvation	-11.9516
cient	-11.9516
▁jealous	-11.9516
▁possibl	-11.9516
▁Lif	-11.9517
fish	-11.952
istles	-11.9521
▁froze	-11.9522
▁stole	-11.9522
ntity	-11.9523
▁mirac	-11.9524
mission	-11.9524
▁gener	-11.9524
▁princip	-11.9524
▁meditat	-11.9524
upp	-11.9524
orthy	-11.9525
appy	-11.9525
▁author	-11.9525
olonel	-11.9525
▁stock	-11.9525
▁desp	-11.9525
▁apprecia	-11.9525
▁rectang	-11.9525
▁responsibilit	-11.9525
▁territory	-11.9525
▁turtle	-11.9525
Play	-11.9525
hibit	-11.9525
ograph	-11.9525
wilight	-11.9525
zziah	-11.9525
▁Adullamite	-11.9525
▁Ahaz	-11.9525
▁Balaam	-11.9525
▁Bartholomew	-11.9525
▁Bernice	-11.9525
▁Bethphage	-11.9525
▁Boaz	-11.9525
▁Boston	-11.9525
▁Breakfast	-11.9525
▁Chaldees	-11.9525
▁Chesapeake	-11.9525
▁Choctaw	-11.9525
▁Climb	-11.9525
▁Crawdaddy	-11.9525
▁Decapolis	-11.9525
▁Demetrius	-11.9525
▁Dishan	-11.9525
▁Echota	-11.9525
▁Eliezer	-11.9525
▁Epaphras	-11.9525
▁Erastus	-11.9525
▁Ethiopia	-11.9525
▁Ezer	-11.9525
▁Galway	-11.9525
▁Gennesaret	-11.9525
▁Gershon	-11.9525
▁Golgotha	-11.9525
▁Hallelujah	-11.9525
▁Hezekiah	-11.9525
▁Horeb	-11.9525
▁Jeremiah	-11.9525
▁Joktan	-11.9525
▁Jotham	-11.9525
▁Jupiter	-11.9525
▁Kadesh	-11.9525
▁Kenaz	-11.9525
▁Luke	-11.9525
▁Matthew	-11.9525
▁Merari	-11.9525
▁Nahshon	-11.9525
▁Nebajoth	-11.9525
▁Nellie	-11.9525
▁Notwithstanding	-11.9525
▁October	-11.9525
▁Oklahoma	-11.9525
▁Olivet	-11.9525
▁Peabody	-11.9525
▁Pentecost	-11.9525
▁Perez	-11.9525
▁Perga	-11.9525
▁Pharez	-11.9525
▁Phrygia	-11.9525
▁Pontus	-11.9525
▁Prince	-11.9525
▁Prisc	-11.9525
▁Priscilla	-11.9525
▁Psalms	-11.9525
▁Rehoboth	-11.9525
▁Rephidim	-11.9525
▁River	-11.9525
▁Sardis	-11.9525
▁September	-11.9525
▁Shealtiel	-11.9525
▁Shobal	-11.9525
▁Shuah	-11.9525
▁Siddim	-11.9525
▁Silvanus	-11.9525
▁Squirrel	-11.9525
▁Symeon	-11.9525
▁Tarshish	-11.9525
▁Thessalonica	-11.9525
▁Trophimus	-11.9525
▁Zeboi	-11.9525
▁Zillah	-11.9525
▁Zipporah	-11.9525
▁achieve	-11.9525
▁addition	-11.9525
▁advance	-11.9525
▁affairs	-11.9525
▁anxiety	-11.9525
▁apiece	-11.9525
▁attire	-11.9525
▁balsam	-11.9525
▁bountifully	-11.9525
▁cantaloupes	-11.9525
▁canvas	-11.9525
▁clover	-11.9525
▁colours	-11.9525
▁column	-11.9525
▁compact	-11.9525
▁conclusion	-11.9525
▁conduct	-11.9525
▁conflict	-11.9525
▁congealed	-11.9525
▁conquer	-11.9525
▁constructed	-11.9525
▁contrariwise	-11.9525
▁cornbread	-11.9525
▁corncob	-11.9525
▁corpse	-11.9525
▁curiosity	-11.9525
▁daube	-11.9525
▁desperation	-11.9525
▁destiny	-11.9525
▁disorderly	-11.9525
▁disputing	-11.9525
▁dissension	-11.9525
▁district	-11.9525
▁draught	-11.9525
▁dungeon	-11.9525
▁eager	-11.9525
▁edifieth	-11.9525
▁employ	-11.9525
▁esteem	-11.9525
▁exotic	-11.9525
▁extreme	-11.9525
▁farewell	-11.9525
▁feeble	-11.9525
▁fetters	-11.9525
▁fifties	-11.9525
▁forewarn	-11.9525
▁fragments	-11.9525
▁frankincense	-11.9525
▁furnished	-11.9525
▁groceries	-11.9525
▁handbreadth	-11.9525
▁happiness	-11.9525
▁hayloft	-11.9525
▁hominy	-11.9525
▁hound	-11.9525
▁hymn	-11.9525
▁immortality	-11.9525
▁journals	-11.9525
▁kinsfolk	-11.9525
▁leanfleshed	-11.9525
▁lodging	-11.9525
▁major	-11.9525
▁material	-11.9525
▁matrix	-11.9525
▁meadow	-11.9525
▁moisture	-11.9525
▁okay	-11.9525
▁opposition	-11.9525
▁philosoph	-11.9525
▁photograph	-11.9525
▁pilgrimage	-11.9525
▁pistol	-11.9525
▁poverty	-11.9525
▁produce	-11.9525
▁quiver	-11.9525
▁raccoon	-11.9525
▁rebelled	-11.9525
▁record	-11.9525
▁remnant	-11.9525
▁replenish	-11.9525
▁representatives	-11.9525
▁retrieve	-11.9525
▁sassafras	-11.9525
▁sermon	-11.9525
▁shewbread	-11.9525
▁subsistence	-11.9525
▁swept	-11.9525
▁tanner	-11.9525
▁tavern	-11.9525
▁titmouse	-11.9525
▁trading	-11.9525
▁trigger	-11.9525
▁unawares	-11.9525
▁unceasing	-11.9525
▁undefiled	-11.9525
▁unexpected	-11.9525
▁unjust	-11.9525
▁unknown	-11.9525
▁unreasonable	-11.9525
▁unveiled	-11.9525
▁uproar	-11.9525
▁vehemently	-11.9525
▁vertical	-11.9525
▁virtue	-11.9525
▁waterproof	-11.9525
▁yesternight	-11.9525
▁Aranea	-11.9525
▁Asshur	-11.9525
▁aeronaut	-11.9525
▁antichrist	-11.9525
▁contributi	-11.9525
▁distinguish	-11.9525
▁dowry	-11.9525
▁fascinating	-11.9525
▁lucre	-11.9525
▁maintain	-11.9525
▁oblig	-11.9525
▁predator	-11.9525
▁tread	-11.9525
▁woodpecker	-11.9525
Congratu	-11.9525
satisfact	-11.9525
▁Athens	-11.9525
▁Demas	-11.9525
▁Street	-11.9525
▁avail	-11.9525
▁captivity	-11.9525
▁conclud	-11.9525
▁congress	-11.9525
▁consult	-11.9525
▁knives	-11.9525
▁license	-11.9525
▁overwhelm	-11.9525
▁pitfall	-11.9525
▁proverb	-11.9525
▁satisfy	-11.9525
▁steam	-11.9525
▁terrain	-11.9525
▁throng	-11.9525
▁unloaded	-11.9525
oyal	-11.9526
▁Glory	-11.9526
▁Latin	-11.9526
▁dusk	-11.9526
▁fading	-11.9526
▁gnat	-11.9526
▁heritage	-11.9526
▁ridden	-11.9526
▁succeed	-11.9526
dopted	-11.9526
▁abated	-11.9526
▁desk	-11.9526
▁loaf	-11.9526
▁moaned	-11.9526
▁saddlebag	-11.9526
▁superscription	-11.9526
timber	-11.9526
vaga	-11.9526
▁Creator	-11.9526
▁States	-11.9526
▁exist	-11.9526
▁topaz	-11.9526
▁vacation	-11.9526
▁Bind	-11.9526
▁Talk	-11.9526
▁owl	-11.9526
▁profess	-11.9526
▁Arabia	-11.9526
▁adjourn	-11.9526
▁approaching	-11.9526
▁frying	-11.9526
▁knothole	-11.9526
▁York	-11.9526
▁authorities	-11.9526
▁referr	-11.9526
Could	-11.9526
▁Besides	-11.9526
▁undone	-11.9526
▁Dedan	-11.9526
▁Serve	-11.9526
▁shiver	-11.9526
ND	-11.9526
▁sideboards	-11.9526
lashes	-11.9526
rawdad	-11.9526
▁Jobab	-11.9526
▁surround	-11.9526
smith	-11.9526
▁backbit	-11.9526
▁mistress	-11.9526
▁battery	-11.9526
alley	-11.9526
▁procur	-11.9526
▁emotion	-11.9526
▁wafer	-11.9526
▁Welch	-11.9526
▁abuse	-11.9526
▁delicious	-11.9526
▁dread	-11.9526
havi	-11.9526
▁tickl	-11.9526
▁united	-11.9526
▁ceasing	-11.9526
▁engage	-11.9526
▁slant	-11.9526
▁mumbled	-11.9526
▁vomit	-11.9526
▁Tiberias	-11.9526
▁Phoenicia	-11.9526
▁pottage	-11.9526
▁revenge	-11.9526
▁lonesome	-11.9526
▁address	-11.9526
▁dripping	-11.9526
▁quill	-11.9526
▁slanderers	-11.9526
▁soaked	-11.9526
ference	-11.9526
▁Territories	-11.9526
▁cords	-11.9526
▁stagger	-11.9526
▁tomatoes	-11.9526
▁chide	-11.9526
▁grownups	-11.9526
▁laz	-11.9526
▁vouch	-11.9526
▁Lib	-11.9526
▁terrify	-11.9526
▁prophetess	-11.9526
▁overhear	-11.9526
▁route	-11.9526
▁pestilence	-11.9526
▁sheaf	-11.9526
▁brink	-11.9526
▁tape	-11.9526
▁glow	-11.9526
▁Marah	-11.9526
▁device	-11.9526
▁drill	-11.9526
▁midway	-11.9526
▁oats	-11.9526
▁Maha	-11.9526
ronic	-11.9526
iletus	-11.9526
▁dedicat	-11.9526
▁Fift	-11.9526
▁Luz	-11.9526
kling	-11.9526
OM	-11.9526
noch	-11.9526
▁nobleman	-11.9526
▁contentious	-11.9526
▁Paradise	-11.9526
▁crafti	-11.9526
orted	-11.9526
▁missing	-11.9526
choni	-11.9527
ella	-11.9527
▁Lys	-11.9527
▁contest	-11.9527
▁destitute	-11.9527
▁prun	-11.9527
▁steel	-11.9527
▁smear	-11.9527
▁mosquitoes	-11.9527
▁resolv	-11.9527
▁beheaded	-11.9527
▁pouches	-11.9527
▁safety	-11.9527
▁affectionate	-11.9527
▁garnet	-11.9527
tenance	-11.9527
▁funny	-11.9527
epho	-11.9527
▁lobby	-11.9527
▁thefts	-11.9527
▁Herodians	-11.9527
▁spun	-11.9527
▁strap	-11.9527
▁stubble	-11.9527
▁variet	-11.9527
▁poking	-11.9527
▁amiss	-11.9527
▁police	-11.9527
▁harness	-11.9527
▁scalp	-11.9528
▁lawlessness	-11.9528
▁dough	-11.9528
▁errand	-11.9528
phath	-11.9528
▁moonlight	-11.9528
▁bridge	-11.9528
▁bondman	-11.9528
▁jerky	-11.9528
▁necklace	-11.9528
▁hireling	-11.9528
▁lowliness	-11.9528
▁lounge	-11.9528
▁remo	-11.9528
▁pallet	-11.9528
▁modest	-11.9528
▁advertisement	-11.9528
▁laun	-11.9528
▁shorn	-11.9528
▁Bible	-11.9528
▁lingere	-11.9528
▁correction	-11.9528
▁justification	-11.9528
▁stank	-11.9528
▁weaned	-11.9528
▁Corn	-11.9529
nited	-11.9529
▁lain	-11.9529
▁equality	-11.9529
▁beryl	-11.9529
▁downstream	-11.9529
▁birch	-11.9529
▁Esh	-11.9529
▁Elon	-11.9529
▁Hush	-11.9529
▁Still	-11.9529
▁departure	-11.953
▁womenservants	-11.953
▁harmless	-11.953
▁Big	-11.953
▁class	-11.953
▁colla	-11.953
▁spru	-11.953
ulous	-11.953
▁Bethel	-11.953
▁observation	-11.953
▁hatred	-11.953
▁withereth	-11.953
▁trance	-11.953
pparent	-11.953
▁crippled	-11.9531
▁Haz	-11.9531
▁bin	-11.9531
▁jailor	-11.9531
▁forks	-11.9531
▁cruse	-11.9531
▁moss	-11.9532
▁weaknesses	-11.9532
▁summertime	-11.9532
▁candida	-11.9532
▁hateful	-11.9532
▁cust	-11.9532
▁brim	-11.9532
▁scarce	-11.9532
zah	-11.9532
▁specifi	-11.9532
little	-11.9532
▁Zeal	-11.9533
▁Cush	-11.9533
onia	-11.9533
▁decease	-11.9533
▁cele	-11.9533
▁thoughtfully	-11.9533
▁lofty	-11.9533
▁coon	-11.9533
▁invite	-11.9534
▁boxes	-11.9534
▁joyful	-11.9534
ims	-11.9535
▁broth	-11.9535
onge	-11.9535
▁boundary	-11.9536
▁Life	-11.9536
▁Timnath	-11.9536
▁page	-11.9536
phan	-11.9536
▁hoisted	-11.9536
▁enlightened	-11.9536
▁visitors	-11.9537
▁sevenfold	-11.9537
▁alleg	-11.9537
▁dive	-11.9537
▁deliverance	-11.9537
▁engraver	-11.9538
▁scent	-11.9538
▁purser	-11.9538
▁bay	-11.9538
east	-11.9539
▁bitterness	-11.9539
▁nervously	-11.9539
▁More	-11.9539
▁swipe	-11.9539
▁lick	-11.9539
▁treaty	-11.9539
▁reviled	-11.9539
▁swoop	-11.954
▁sobbed	-11.954
▁wishes	-11.954
▁plead	-11.954
▁waist	-11.9541
▁drift	-11.9541
▁circling	-11.9541
▁foreign	-11.9541
mates	-11.9541
▁Ram	-11.9541
▁rare	-11.9541
▁saddle	-11.9542
▁Canaanit	-11.9542
▁Syr	-11.9542
▁unfe	-11.9542
▁Really	-11.9542
▁owest	-11.9542
▁maiden	-11.9542
▁collection	-11.9542
▁team	-11.9543
▁Ski	-11.9543
▁Five	-11.9543
▁Pass	-11.9544
▁mus	-11.9544
▁brimm	-11.9544
▁safely	-11.9544
▁Amram	-11.9545
▁discour	-11.9545
▁avenger	-11.9546
▁interpreter	-11.9547
▁forgiveness	-11.9547
▁sowest	-11.9547
▁boo	-11.9548
▁quietness	-11.9548
▁tamed	-11.9548
▁enlarged	-11.9548
▁knocketh	-11.9549
▁reflect	-11.9549
▁fervently	-11.9549
▁basin	-11.955
▁drunkard	-11.955
▁Away	-11.955
▁Obed	-11.9551
▁War	-11.9551
roughly	-11.9551
▁mounds	-11.9552
▁Ephesians	-11.9552
▁Horites	-11.9552
▁buttocks	-11.9552
▁malefactors	-11.9552
▁ornaments	-11.9552
▁uniforms	-11.9552
▁blasphemeth	-11.9552
▁carrie	-11.9552
▁passway	-11.9552
▁prey	-11.9553
▁builders	-11.9554
makers	-11.9554
▁confidently	-11.9555
▁plantation	-11.9555
▁quenched	-11.9555
▁confounded	-11.9555
▁uphill	-11.9556
▁hallowed	-11.9556
▁passion	-11.9557
inter	-11.9557
▁excited	-11.9557
▁fadeth	-11.9557
▁mash	-11.9557
▁blackness	-11.9558
▁Roo	-11.9558
▁signifying	-11.9558
▁threshing	-11.9558
▁wedding	-11.9558
▁sup	-11.9559
▁sport	-11.9559
▁faithfulness	-11.9559
ubtle	-11.9559
▁balloonist	-11.9559
▁trout	-11.9561
▁workman	-11.9563
▁costly	-11.9565
▁fisherm	-11.9568
▁surprised	-11.9568
▁bruised	-11.9568
▁consideration	-11.9569
▁source	-11.9569
▁...”	-11.957
▁contention	-11.9572
▁Ash	-11.9574
▁killer	-11.9575
▁affirmed	-11.9575
▁buffeted	-11.9575
▁embarrassed	-11.9575
ium	-11.9575
▁outwardly	-11.9576
▁chastened	-11.9576
▁uprightly	-11.9576
▁childless	-11.9577
▁fishers	-11.9578
▁confusing	-11.9579
llaba	-11.9579
▁clu	-11.9581
quet	-11.9583
▁eleventh	-11.9583
▁sale	-11.9585
avan	-11.9585
▁peaceable	-11.9587
▁pleasantly	-11.9587
▁memorialize	-11.9587
band	-11.9589
▁stubb	-11.9589
quil	-11.9589
▁defilement	-11.959
▁purifie	-11.9594
▁slipped	-11.9594
▁unp	-11.9595
chant	-11.9595
stance	-11.9596
▁gat	-11.9596
ament	-11.9597
▁strands	-11.9597
▁basons	-11.9598
▁feathers	-11.9598
▁features	-11.9598
▁anchors	-11.9598
▁spoons	-11.9598
▁None	-11.9598
▁deacons	-11.9598
▁Certainly	-11.9599
▁threatening	-11.96
▁purifying	-11.96
▁bidd	-11.9602
▁preserved	-11.9603
▁provoked	-11.9605
▁dipper	-11.9606
▁tame	-11.9608
▁army	-11.9608
▁patiently	-11.9608
▁reapeth	-11.9612
▁borrowed	-11.9614
▁moveth	-11.9618
▁outhouse	-11.962
ball	-11.962
oth	-11.962
▁destroyer	-11.9622
oic	-11.9623
▁stirr	-11.9625
▁pals	-11.9625
▁Timna	-11.9626
▁ruleth	-11.9627
▁Rest	-11.9627
hair	-11.9628
▁cree	-11.9628
bbed	-11.9634
▁syc	-11.9636
▁Jet	-11.9638
oming	-11.9639
ffer	-11.964
dry	-11.9641
▁impen	-11.9643
▁gnawing	-11.9643
▁lawless	-11.9643
▁wounding	-11.9644
▁scraping	-11.9644
▁elbows	-11.9645
▁psalms	-11.9645
▁senators	-11.9645
▁sorcerers	-11.9645
▁Levites	-11.9645
▁eagles	-11.9645
▁sections	-11.9645
▁Hunt	-11.9648
▁boiled	-11.965
RE	-11.9653
▁twisted	-11.9656
▁slime	-11.9657
ndered	-11.9657
▁fleeth	-11.9658
icated	-11.9658
▁Sp	-11.9658
▁envying	-11.9665
▁twisting	-11.9667
ical	-11.9667
ways	-11.9668
▁brightly	-11.9673
▁agate	-11.9675
▁Please	-11.9677
▁possessor	-11.9677
▁attained	-11.968
▁locks	-11.9683
▁har	-11.9689
▁remarks	-11.9689
▁Pat	-11.969
▁keys	-11.9692
▁fewer	-11.9692
▁objects	-11.9692
▁debtors	-11.9693
▁vows	-11.9693
▁meaneth	-11.9693
▁deceivers	-11.9694
▁brawle	-11.9699
▁actor	-11.97
▁lowly	-11.97
traightway	-11.9708
▁falsely	-11.9711
▁handled	-11.9713
▁scal	-11.9713
▁stored	-11.9714
▁traveled	-11.9733
▁understandeth	-11.9735
▁bats	-11.9736
▁Days	-11.974
▁handfuls	-11.974
▁heels	-11.9741
▁loads	-11.9742
▁doubled	-11.9743
▁ruled	-11.9743
▁patt	-11.9746
▁tools	-11.9747
▁sour	-11.9749
▁planning	-11.975
Egg	-11.9761
▁bloo	-11.9761
▁pleasing	-11.9761
▁test	-11.9766
▁favored	-11.9769
▁plowing	-11.9772
▁doubting	-11.9773
▁fetched	-11.9773
sters	-11.9774
▁laughing	-11.9774
rops	-11.978
▁seemly	-11.9785
▁sepulchres	-11.9788
▁scraps	-11.9788
▁fastings	-11.9789
uci	-11.9792
▁swinging	-11.9794
▁pans	-11.9794
▁burdened	-11.9795
▁Saying	-11.9795
onster	-11.9796
killet	-11.98
▁flowed	-11.9812
▁deserted	-11.9816
▁hum	-11.9816
▁happening	-11.9821
▁wing	-11.9833
▁salted	-11.9833
bar	-11.9835
▁blades	-11.9836
▁tales	-11.9837
▁goal	-11.9837
ress	-11.984
▁livers	-11.9841
▁harps	-11.985
umming	-11.9865
▁rate	-11.9866
▁nails	-11.9879
▁beg	-11.9882
▁folds	-11.9883
▁ringing	-11.9884
▁traditions	-11.9885
▁jell	-11.9893
▁daze	-11.9897
▁piti	-11.99
▁inwards	-11.991
▁outward	-11.9914
MO	-11.993
lick	-11.9931
▁banks	-11.9934
▁chal	-11.9955
bra	-11.996
ja	-11.9966
▁guides	-11.9978
▁figures	-11.9982
▁earthquakes	-11.9983
▁healings	-11.9983
▁Za	-11.9985
lax	-12.0023
changers	-12.003
▁chambers	-12.0031
▁fightings	-12.0033
▁lions	-12.0033
aimed	-12.0041
▁careth	-12.0048
▁multiplying	-12.0062
▁wil	-12.0066
stern	-12.0079
uts	-12.008
▁threads	-12.0081
raise	-12.0092
▁translat	-12.0092
▁oppose	-12.0107
▁departing	-12.011
—-	-12.0113
▁adventure	-12.012
▁cases	-12.0132
sia	-12.0133
▁traps	-12.0138
ause	-12.0172
▁Sea	-12.0179
▁revelations	-12.0182
▁happens	-12.0187
▁girdles	-12.0233
▁deserts	-12.0235
esis	-12.0237
▁slic	-12.0238
▁Jan	-12.0252
▁cabins	-12.0282
ittle	-12.0294
cked	-12.0314
▁fla	-12.0327
▁oaths	-12.0333
▁buying	-12.0358
players	-12.0371
AN	-12.0373
▁wail	-12.0378
▁tribulations	-12.0384
her	-12.0389
▁occasional	-12.0412
▁afflictions	-12.0436
▁labors	-12.0439
ust	-12.0448
▁bre	-12.0469
stable	-12.0478
tines	-12.0478
put	-12.0479
eleph	-12.0487
▁begins	-12.0488
▁shove	-12.0514
ON	-12.0524
cent	-12.0552
▁needles	-12.0594
spir	-12.0601
oned	-12.0658
▁justif	-12.0671
uddle	-12.0675
wist	-12.0688
▁socia	-12.0697
▁pal	-12.0702
▁skinn	-12.0721
hes	-12.0727
eady	-12.0755
▁practic	-12.0759
▁allow	-12.0769
ese	-12.0789
ye	-12.083
▁chop	-12.0831
▁persuad	-12.0851
▁Gat	-12.0864
▁snatch	-12.0882
▁Gre	-12.0903
▁admire	-12.0912
ok	-12.0916
▁fr	-12.0931
imate	-12.0972
par	-12.0983
ui	-12.1011
▁inch	-12.1028
ocked	-12.1055
▁reform	-12.1068
lag	-12.107
▁blu	-12.1072
▁measur	-12.108
▁Almo	-12.1147
Isn	-12.1247
▁crackl	-12.1251
claimed	-12.1257
▁rou	-12.1262
▁din	-12.1264
▁struggl	-12.1265
▁Ab	-12.1271
▁Sta	-12.1292
amped	-12.132
▁sy	-12.1331
cakes	-12.1363
ial	-12.1373
▁gaze	-12.1412
rated	-12.1442
▁weari	-12.1493
▁Pen	-12.1494
ander	-12.1575
allowed	-12.1589
▁pat	-12.1619
▁elevate	-12.1637
▁protecti	-12.165
▁Pra	-12.1657
▁dr	-12.1666
▁trace	-12.1671
empti	-12.1723
oking	-12.1724
bach	-12.178
lids	-12.1863
▁ta	-12.1925
▁Command	-12.193
ize	-12.1934
▁Jac	-12.1945
eeches	-12.1967
▁waxe	-12.1994
▁loft	-12.201
▁companion	-12.2102
ache	-12.2114
hai	-12.2315
▁commo	-12.2354
opping	-12.2374
▁Holi	-12.24
▁dine	-12.2513
▁Jer	-12.2518
▁Hol	-12.26
▁Herm	-12.2603
han	-12.2607
tting	-12.2647
▁rehearse	-12.2693
acle	-12.2696
▁curv	-12.2703
shell	-12.2717
▁sacr	-12.2765
▁tast	-12.2795
▁pr	-12.2798
▁practice	-12.2807
▁Mexic	-12.2827
ieth	-12.2847
▁constraine	-12.2848
▁Po	-12.2854
▁cru	-12.2913
▁bro	-12.2937
night	-12.295
▁conce	-12.2976
▁slice	-12.3014
oved	-12.3018
mbled	-12.3042
hew	-12.309
▁chok	-12.3163
ud	-12.3169
igure	-12.3174
tening	-12.3181
oc	-12.3263
▁cas	-12.3264
▁Any	-12.3279
skinned	-12.3289
▁distribut	-12.3316
▁mon	-12.3316
vious	-12.3373
nah	-12.34
asty	-12.3402
▁crop	-12.3433
ano	-12.3472
rity	-12.3504
loo	-12.3509
congratu	-12.3563
ado	-12.3563
rench	-12.3573
To	-12.3575
▁dodge	-12.3605
awfully	-12.3605
▁port	-12.3624
▁strok	-12.3647
▁Amon	-12.3693
▁considerabl	-12.3749
▁stripe	-12.3756
ace	-12.3773
ana	-12.3784
▁Sett	-12.3786
▁troubl	-12.3798
zens	-12.38
▁actual	-12.3814
▁spat	-12.3822
▁chang	-12.3827
oiled	-12.3859
laus	-12.3867
▁divid	-12.3945
roth	-12.3954
rgeon	-12.3966
rable	-12.4019
asped	-12.402
eez	-12.4021
rie	-12.4024
▁bathe	-12.4028
ench	-12.403
ole	-12.4087
hod	-12.409
pecul	-12.4093
ower	-12.411
ER	-12.4118
inch	-12.4119
▁Sanct	-12.4132
obably	-12.4135
giver	-12.4144
▁gi	-12.4176
ib	-12.4185
ivity	-12.4192
▁Ro	-12.4208
husks	-12.4222
came	-12.423
▁blo	-12.4244
TH	-12.425
E	-12.425
amia	-12.4261
move	-12.427
eeze	-12.4271
▁la	-12.4271
plosive	-12.4281
▁Step	-12.4284
▁ston	-12.4285
▁slap	-12.4291
wish	-12.4299
▁slim	-12.4316
acked	-12.4321
AR	-12.4324
minate	-12.4328
▁magn	-12.4332
▁convi	-12.4332
itable	-12.4337
▁impe	-12.4338
mobil	-12.4353
rooms	-12.4363
ounding	-12.4376
icles	-12.4377
never	-12.4387
struction	-12.4389
▁wrap	-12.4398
bb	-12.4403
▁expens	-12.4405
▁Tim	-12.4406
▁spoon	-12.4408
▁arch	-12.4409
▁deacon	-12.4409
▁feather	-12.4409
▁anchor	-12.4409
▁feature	-12.4409
▁speci	-12.441
▁rip	-12.4412
▁complain	-12.4414
▁excus	-12.4414
▁bason	-12.4414
▁pillow	-12.4414
▁slope	-12.4414
▁physician	-12.4415
▁strand	-12.4415
▁idolater	-12.4417
▁warrior	-12.4417
▁claw	-12.442
▁tithe	-12.4422
▁locust	-12.4423
▁selve	-12.4423
▁robber	-12.4426
nigh	-12.4426
▁tran	-12.4428
▁tare	-12.443
▁hop	-12.4433
▁thorn	-12.4434
hereabouts	-12.4435
▁gallo	-12.4435
atch	-12.4436
ator	-12.4438
▁revile	-12.4444
Che	-12.4445
Ju	-12.4445
lene	-12.4447
worm	-12.4447
jected	-12.4448
▁sigh	-12.4448
▁contr	-12.4448
▁observ	-12.445
Hurry	-12.4451
draft	-12.4451
ex	-12.4452
Wash	-12.4452
continu	-12.4454
wise	-12.4455
▁impla	-12.4457
source	-12.4458
nails	-12.4459
handled	-12.4459
pathetic	-12.4459
coal	-12.4461
citizen	-12.4461
stalk	-12.4462
float	-12.4463
block	-12.4463
Summ	-12.4464
glasses	-12.4464
Never	-12.4464
upper	-12.4465
gird	-12.4465
May	-12.4465
stedfast	-12.4465
search	-12.4466
Watch	-12.4466
cloth	-12.4466
Henry	-12.4466
Seven	-12.4466
box	-12.4467
keeper	-12.4467
bond	-12.4467
mock	-12.4467
shekel	-12.4467
Perhaps	-12.4467
soldier	-12.4467
▁persecut	-12.4467
kindness	-12.4467
condemned	-12.4467
Homer	-12.4467
None	-12.4467
fields	-12.4467
shot	-12.4467
please	-12.4468
uncle	-12.4468
portion	-12.4468
witnesses	-12.4468
pleasure	-12.4468
bush	-12.4468
generation	-12.4468
coat	-12.4468
horse	-12.4468
spread	-12.4468
spoke	-12.4468
▁pierc	-12.4468
burnt	-12.4468
Give	-12.4469
Get	-12.4469
turned	-12.4469
With	-12.4469
wild	-12.4469
myself	-12.4469
Lurvy	-12.4469
perfect	-12.4469
bade	-12.4469
flies	-12.4469
knowledge	-12.4469
Jesus	-12.4469
wheel	-12.4469
hole	-12.4469
nothing	-12.447
green	-12.447
▁wag	-12.4471
▁reject	-12.4471
serve	-12.4472
ertainly	-12.4472
hide	-12.4472
▁dismiss	-12.4472
push	-12.4472
One	-12.4472
bak	-12.4473
▁thresh	-12.4473
▁sid	-12.4473
sail	-12.4474
▁foam	-12.4475
▁whistl	-12.4475
pans	-12.4475
▁gainsay	-12.4476
▁hallow	-12.4477
▁confound	-12.4477
Ti	-12.4477
Does	-12.4477
whe	-12.4477
▁signify	-12.4478
▁edify	-12.4478
▁vanish	-12.4479
▁laborer	-12.4479
▁kno	-12.448
▁chuckl	-12.448
▁exceed	-12.4481
well	-12.4481
▁scra	-12.4481
▁sniff	-12.4481
▁vex	-12.4481
▁repeat	-12.4481
Say	-12.4481
▁explain	-12.4481
ounted	-12.4482
See	-12.4482
▁grabb	-12.4482
▁ordain	-12.4483
Put	-12.4484
▁amaz	-12.4484
▁threat	-12.4485
oasty	-12.4486
wailed	-12.4488
sterday	-12.4489
Hey	-12.4491
road	-12.4491
lead	-12.4492
▁App	-12.4494
▁flam	-12.4495
▁boot	-12.4495
Wa	-12.45
▁kin	-12.4504
▁mingle	-12.4506
▁testifie	-12.4506
▁create	-12.4506
seeing	-12.4507
▁boar	-12.4507
run	-12.451
phos	-12.4511
▁similar	-12.4511
made	-12.4511
cious	-12.4512
▁plea	-12.4513
oving	-12.4513
▁drag	-12.4514
▁flourish	-12.4514
ocia	-12.4514
▁continual	-12.4514
▁genealog	-12.4514
ecting	-12.4514
▁sudden	-12.4515
ufficien	-12.4515
▁reconcile	-12.4515
birds	-12.4516
▁dizz	-12.4516
hould	-12.4516
▁filth	-12.4516
▁mul	-12.4516
trong	-12.4516
▁choos	-12.4516
▁snar	-12.4516
▁twent	-12.4517
▁communicat	-12.4518
sparag	-12.4518
An	-12.4519
▁distinct	-12.4521
ification	-12.4521
▁Amra	-12.4521
rink	-12.4523
angel	-12.4523
▁import	-12.4523
▁sandwich	-12.4523
▁merci	-12.4523
▁mosquito	-12.4523
olved	-12.4523
ctures	-12.4523
▁persuasi	-12.4523
▁appro	-12.4524
▁Mattha	-12.4524
aughter	-12.4524
aradise	-12.4524
▁attract	-12.4524
▁habit	-12.4524
▁subtil	-12.4524
▁situat	-12.4524
tinct	-12.4524
▁Govern	-12.4524
polis	-12.4525
▁blackberr	-12.4525
ecomposers	-12.4525
estroy	-12.4525
agles	-12.4525
agger	-12.4525
ilbur	-12.4525
ntreat	-12.4525
xcellent	-12.4525
ontinue	-12.4525
venture	-12.4525
ontrary	-12.4525
▁pouch	-12.4525
urmur	-12.4525
▁gloom	-12.4525
▁assist	-12.4525
attering	-12.4525
iving	-12.4525
scending	-12.4525
▁abomina	-12.4525
epart	-12.4525
neys	-12.4525
▁Apoll	-12.4525
istened	-12.4525
▁succ	-12.4525
▁excel	-12.4525
languish	-12.4525
zzling	-12.4525
▁Lyc	-12.4525
▁bureau	-12.4525
▁chryso	-12.4525
▁nursing	-12.4525
▁tremen	-12.4525
significan	-12.4525
▁Friday	-12.4525
▁Nico	-12.4525
▁Pontiac	-12.4525
▁Secret	-12.4525
▁artific	-12.4525
▁bomb	-12.4525
▁bounc	-12.4525
▁copper	-12.4525
▁enact	-12.4525
▁immutab	-12.4525
▁mudflat	-12.4525
▁phoe	-12.4525
▁porcupine	-12.4525
▁problem	-12.4525
Crunchy	-12.4525
Phoebe	-12.4525
Slowly	-12.4525
bulus	-12.4525
continency	-12.4525
gullible	-12.4525
ietly	-12.4525
ilacs	-12.4525
petitions	-12.4525
roduction	-12.4525
ssip	-12.4525
xtort	-12.4525
zzards	-12.4525
zziel	-12.4525
▁Agabus	-12.4525
▁Amoz	-12.4525
▁Ancih	-12.4525
▁Antipa	-12.4525
▁Assyria	-12.4525
▁Baal	-12.4525
▁Baalzephon	-12.4525
▁Babel	-12.4525
▁Baptizer	-12.4525
▁Beautiful	-12.4525
▁Beroea	-12.4525
▁Birds	-12.4525
▁Bithynia	-12.4525
▁Carmi	-12.4525
▁Carolina	-12.4525
▁Circumcision	-12.4525
▁Cotton	-12.4525
▁Cowee	-12.4525
▁Crispus	-12.4525
▁Crucify	-12.4525
▁December	-12.4525
▁Dorcas	-12.4525
▁Ellasar	-12.4525
▁Epaphroditus	-12.4525
▁Florida	-12.4525
▁Flowers	-12.4525
▁Fulfil	-12.4525
▁Gabriel	-12.4525
▁Gerasenes	-12.4525
▁Gershom	-12.4525
▁Gethsemane	-12.4525
▁Girgas	-12.4525
▁Hirah	-12.4525
▁Increase	-12.4525
▁Izhar	-12.4525
▁Jehoshaphat	-12.4525
▁Jenny	-12.4525
▁Joanna	-12.4525
▁Jokshan	-12.4525
▁Joram	-12.4525
▁Lebanon	-12.4525
▁Locust	-12.4525
▁Lydda	-12.4525
▁Lydia	-12.4525
▁Matthias	-12.4525
▁Mehujael	-12.4525
▁Melchi	-12.4525
▁Methusael	-12.4525
▁Millipede	-12.4525
▁Mississippi	-12.4525
▁Mountain	-12.4525
▁Nimrod	-12.4525
▁Nineveh	-12.4525
▁Onesiphorus	-12.4525
▁Pergamum	-12.4525
▁Phoeni	-12.4525
▁Pisidia	-12.4525
▁Potomac	-12.4525
▁Prophesy	-12.4525
▁Publius	-12.4525
▁Rabboni	-12.4525
▁Radiant	-12.4525
▁Rahab	-12.4525
▁Rameses	-12.4525
▁Rephaims	-12.4525
▁Rufus	-12.4525
▁Sabaoth	-12.4525
▁Sacrifice	-12.4525
▁Salome	-12.4525
▁Search	-12.4525
▁Seba	-12.4525
▁Shaveh	-12.4525
▁Siloam	-12.4525
▁Smyrna	-12.4525
▁Sosthenes	-12.4525
▁Supreme	-12.4525
▁Theophilus	-12.4525
▁Thessalonians	-12.4525
▁Tubalcain	-12.4525
▁Zachariah	-12.4525
▁Zerubbabel	-12.4525
▁absolute	-12.4525
▁acorns	-12.4525
▁acquired	-12.4525
▁alcohol	-12.4525
▁ammunition	-12.4525
▁apothecary	-12.4525
▁appeti	-12.4525
▁appetizing	-12.4525
▁applaud	-12.4525
▁apprehend	-12.4525
▁armpits	-12.4525
▁arrested	-12.4525
▁assumption	-12.4525
▁beefsteak	-12.4525
▁bicycle	-12.4525
▁bison	-12.4525
▁boulder	-12.4525
▁brilliant	-12.4525
▁britches	-12.4525
▁burial	-12.4525
▁busybodies	-12.4525
▁calico	-12.4525
▁clamor	-12.4525
▁companies	-12.4525
▁compound	-12.4525
▁consist	-12.4525
▁conspiracy	-12.4525
▁convocation	-12.4525
▁craftsmen	-12.4525
▁crawfish	-12.4525
▁cumber	-12.4525
▁dazzling	-12.4525
▁delud	-12.4525
▁delusion	-12.4525
▁denarius	-12.4525
▁detail	-12.4525
▁dictionary	-12.4525
▁disannul	-12.4525
▁discarded	-12.4525
▁display	-12.4525
▁divorcement	-12.4525
▁doorframes	-12.4525
▁effectual	-12.4525
▁elaborate	-12.4525
▁eloquent	-12.4525
▁emperor	-12.4525
▁erased	-12.4525
▁experiment	-12.4525
▁fatfleshed	-12.4525
▁fathoms	-12.4525
▁forefather	-12.4525
▁foreknew	-12.4525
▁frail	-12.4525
▁fullgrown	-12.4525
▁fumbling	-12.4525
▁futile	-12.4525
▁gabbl	-12.4525
▁garner	-12.4525
▁gleam	-12.4525
▁goddess	-12.4525
▁grisled	-12.4525
▁gulped	-12.4525
▁gunpowder	-12.4525
▁gutted	-12.4525
▁gutters	-12.4525
▁happie	-12.4525
▁huckleberries	-12.4525
▁humiliation	-12.4525
▁humility	-12.4525
▁implements	-12.4525
▁inconvenient	-12.4525
▁infield	-12.4525
▁influen	-12.4525
▁ingathering	-12.4525
▁interlude	-12.4525
▁kinswoman	-12.4525
▁kneadingtroughs	-12.4525
▁lacing	-12.4525
▁lamentation	-12.4525
▁lantern	-12.4525
▁leisure	-12.4525
▁linked	-12.4525
▁lintel	-12.4525
▁magnificen	-12.4525
▁mankind	-12.4525
▁mattress	-12.4525
▁millipedes	-12.4525
▁moccasins	-12.4525
▁muzzle	-12.4525
▁napkin	-12.4525
▁narrat	-12.4525
▁necktie	-12.4525
▁negotiat	-12.4525
▁nerve	-12.4525
▁nipple	-12.4525
▁oink	-12.4525
▁oysters	-12.4525
▁pellets	-12.4525
▁penknife	-12.4525
▁pollut	-12.4525
▁popcorn	-12.4525
▁popover	-12.4525
▁portrait	-12.4525
▁preeminence	-12.4525
▁prejudice	-12.4525
▁preparing	-12.4525
▁presumptuous	-12.4525
▁promptly	-12.4525
▁provocation	-12.4525
▁rabble	-12.4525
▁rapid	-12.4525
▁religious	-12.4525
▁renounce	-12.4525
▁restraineth	-12.4525
▁ribbon	-12.4525
▁scru	-12.4525
▁scruples	-12.4525
▁slothful	-12.4525
▁smiling	-12.4525
▁sobriety	-12.4525
▁soothsay	-12.4525
▁sorceries	-12.4525
▁sorcery	-12.4525
▁spark	-12.4525
▁squeal	-12.4525
▁stimulate	-12.4525
▁subdue	-12.4525
▁suffice	-12.4525
▁sumptuous	-12.4525
▁supreme	-12.4525
▁surpass	-12.4525
▁survival	-12.4525
▁terrestrial	-12.4525
▁theoretical	-12.4525
▁thereafter	-12.4525
▁thirteen	-12.4525
▁thistledown	-12.4525
▁timbrel	-12.4525
▁traffic	-12.4525
▁trample	-12.4525
▁trinket	-12.4525
▁turnips	-12.4525
▁twelfth	-12.4525
▁twirl	-12.4525
▁unaccountabl	-12.4525
▁unruly	-12.4525
▁unsettle	-12.4525
▁unthankful	-12.4525
▁unwashen	-12.4525
▁vesture	-12.4525
▁vicinity	-12.4525
▁victim	-12.4525
▁walnut	-12.4525
▁watermelon	-12.4525
▁whippoorwill	-12.4525
▁woodpile	-12.4525
▁zero	-12.4525
▁alarm	-12.4525
▁cigarette	-12.4525
acinth	-12.4525
consequen	-12.4525
shrunk	-12.4525
▁Areopag	-12.4525
▁Carry	-12.4525
▁Death	-12.4525
▁Frankl	-12.4525
▁Lie	-12.4525
▁Malch	-12.4525
▁Mattath	-12.4525
▁Tavern	-12.4525
▁accommodat	-12.4525
▁advise	-12.4525
▁altercat	-12.4525
▁assault	-12.4525
▁clutter	-12.4525
▁defende	-12.4525
▁drool	-12.4525
▁evangelist	-12.4525
▁executi	-12.4525
▁expanse	-12.4525
▁mask	-12.4525
▁option	-12.4525
▁pastille	-12.4525
▁repair	-12.4525
▁revelling	-12.4525
▁ridiculous	-12.4525
▁scourging	-12.4525
▁skelet	-12.4525
▁slamm	-12.4525
▁slog	-12.4525
▁snuffdishes	-12.4525
▁stroll	-12.4525
▁surmis	-12.4525
▁traitor	-12.4525
▁unfair	-12.4525
▁victual	-12.4525
▁whicker	-12.4525
ummim	-12.4526
▁Ponti	-12.4526
▁clown	-12.4526
▁copy	-12.4526
▁crafty	-12.4526
▁flags	-12.4526
▁ignore	-12.4526
▁lamented	-12.4526
▁lilies	-12.4526
▁plaster	-12.4526
▁stompground	-12.4526
▁terms	-12.4526
mphas	-12.4526
▁Towers	-12.4526
▁butterfly	-12.4526
▁calculat	-12.4526
▁circuit	-12.4526
▁expert	-12.4526
▁fragran	-12.4526
▁lungs	-12.4526
▁overflow	-12.4526
▁rescue	-12.4526
▁smack	-12.4526
▁garnish	-12.4526
hawk	-12.4526
olog	-12.4526
▁Galeed	-12.4526
▁aloft	-12.4526
▁eaves	-12.4526
▁glid	-12.4526
▁suspicio	-12.4526
▁wobbl	-12.4526
▁peaks	-12.4526
▁basketfuls	-12.4526
▁hobbl	-12.4526
▁initial	-12.4526
▁balance	-12.4526
▁chicks	-12.4526
▁daddy	-12.4526
▁purification	-12.4526
▁waistcoat	-12.4526
▁Dalma	-12.4526
▁Sabt	-12.4526
▁cigar	-12.4526
▁globe	-12.4526
▁opus	-12.4526
▁rigour	-12.4526
▁slats	-12.4526
▁superlative	-12.4526
spouts	-12.4526
versatile	-12.4526
▁approached	-12.4526
▁assessment	-12.4526
▁associat	-12.4526
▁glare	-12.4526
▁loathe	-12.4526
▁rude	-12.4526
▁runneth	-12.4526
▁Bigfish	-12.4526
▁beho	-12.4526
▁coco	-12.4526
▁filthiness	-12.4526
▁salon	-12.4526
▁steer	-12.4526
▁Rai	-12.4526
▁councillor	-12.4526
▁grandson	-12.4526
▁hazard	-12.4526
▁peek	-12.4526
▁lumber	-12.4526
▁persistent	-12.4526
▁exploded	-12.4526
▁numer	-12.4526
▁Josiah	-12.4526
▁ivy	-12.4526
▁ambassage	-12.4526
pproximately	-12.4526
▁balm	-12.4526
▁cinder	-12.4526
▁eventide	-12.4526
▁sentiment	-12.4526
▁North	-12.4526
▁babblings	-12.4526
▁dragline	-12.4526
▁leasing	-12.4526
▁Raamah	-12.4526
▁caution	-12.4526
▁stanched	-12.4526
▁superfluity	-12.4526
iggled	-12.4526
▁broom	-12.4526
▁crock	-12.4526
horus	-12.4526
▁divinity	-12.4526
▁welfare	-12.4526
▁cautiously	-12.4526
▁precede	-12.4526
▁pride	-12.4526
▁Doctor	-12.4526
▁enchant	-12.4526
▁stupor	-12.4526
▁Corinthians	-12.4526
assover	-12.4526
▁June	-12.4526
▁barber	-12.4526
▁local	-12.4526
▁esp	-12.4526
arsely	-12.4526
▁bacteria	-12.4526
▁reclin	-12.4526
sabba	-12.4526
▁ginger	-12.4526
▁pills	-12.4526
▁Febr	-12.4526
▁befitting	-12.4526
▁furious	-12.4526
▁usury	-12.4526
▁beaver	-12.4526
▁morals	-12.4526
▁univers	-12.4526
▁compare	-12.4526
▁whittl	-12.4526
▁dignities	-12.4526
▁noisy	-12.4526
▁guiltless	-12.4526
▁trump	-12.4526
voca	-12.4526
▁Bridge	-12.4526
▁billows	-12.4526
▁bob	-12.4526
▁chaise	-12.4526
▁outfit	-12.4526
▁drum	-12.4526
▁enrolment	-12.4526
▁fuss	-12.4526
▁Gaza	-12.4526
substan	-12.4526
▁whale	-12.4526
▁Salem	-12.4526
▁exhal	-12.4526
▁pulse	-12.4526
▁manger	-12.4526
▁gallery	-12.4526
▁gloomily	-12.4526
▁vaunt	-12.4526
▁Mizraim	-12.4526
▁mir	-12.4526
▁Calah	-12.4526
▁acquaintance	-12.4526
▁droop	-12.4526
▁allotted	-12.4526
▁flake	-12.4526
▁loyal	-12.4526
▁Spring	-12.4526
▁travers	-12.4526
▁partiality	-12.4526
▁Owl	-12.4526
ndron	-12.4526
▁mower	-12.4526
▁enforc	-12.4526
▁mineral	-12.4526
ausage	-12.4526
▁Claudius	-12.4526
▁Julius	-12.4526
▁kidding	-12.4526
▁clash	-12.4526
▁suet	-12.4526
NK	-12.4526
raggle	-12.4526
▁Lud	-12.4526
▁Zuck	-12.4526
▁tube	-12.4526
▁welder	-12.4526
tude	-12.4526
▁policeman	-12.4526
Nice	-12.4526
▁legitima	-12.4526
▁spoonful	-12.4526
▁Javan	-12.4526
▁Rhod	-12.4526
▁streak	-12.4526
▁sift	-12.4526
▁rhythmic	-12.4527
▁Tert	-12.4527
▁poet	-12.4527
▁Cover	-12.4527
▁stingy	-12.4527
azin	-12.4527
▁subtilty	-12.4527
▁grove	-12.4527
▁leak	-12.4527
▁motor	-12.4527
▁primar	-12.4527
Meeting	-12.4527
▁battle	-12.4527
▁edified	-12.4527
▁shins	-12.4527
▁factious	-12.4527
▁concourse	-12.4527
▁hoot	-12.4527
▁earshot	-12.4527
▁decade	-12.4527
▁Padanaram	-12.4527
dad	-12.4527
eyond	-12.4527
▁Elisha	-12.4527
▁Zac	-12.4527
▁oilcloth	-12.4527
▁anti	-12.4527
▁belonged	-12.4527
▁Naaman	-12.4527
osity	-12.4527
▁Job	-12.4527
▁Poor	-12.4527
▁severity	-12.4527
▁Kid	-12.4527
▁Break	-12.4527
▁Dead	-12.4527
▁railhead	-12.4527
▁Jeze	-12.4527
▁blunt	-12.4527
▁detest	-12.4527
siah	-12.4527
▁hencefor	-12.4527
▁embroiderer	-12.4527
▁sheath	-12.4527
▁suggestions	-12.4527
▁rick	-12.4527
▁flute	-12.4527
▁groundhog	-12.4527
▁persuasive	-12.4527
▁foreship	-12.4528
▁scold	-12.4528
urvey	-12.4528
▁Beersheba	-12.4528
▁ancest	-12.4528
▁Edomites	-12.4528
▁drear	-12.4528
▁thankfulness	-12.4528
▁trench	-12.4528
▁Massa	-12.4528
▁meditation	-12.4528
▁sandwiches	-12.4528
▁tripod	-12.4528
▁instant	-12.4528
▁wavering	-12.4528
▁ownership	-12.4528
AT	-12.4528
bula	-12.4528
▁Teach	-12.4528
▁speedily	-12.4528
▁grid	-12.4528
▁shattered	-12.4528
▁removal	-12.4528
▁justifieth	-12.4528
enser	-12.4528
ooper	-12.4528
▁Irad	-12.4529
▁missionar	-12.4529
▁rig	-12.4529
odily	-12.4529
▁bo	-12.4529
▁cruelty	-12.4529
▁expression	-12.4529
▁pomp	-12.4529
▁recall	-12.4529
▁horseback	-12.4529
▁buff	-12.4529
▁Hori	-12.4529
actic	-12.4529
▁tackl	-12.4529
cian	-12.4529
jah	-12.4529
▁Merc	-12.4529
▁mites	-12.4529
controlled	-12.4529
▁stew	-12.4529
▁parings	-12.4529
▁cookery	-12.4529
▁thunderings	-12.4529
▁spectac	-12.4529
▁riotous	-12.4529
▁puddle	-12.4529
▁beget	-12.4529
▁Hermon	-12.4529
naim	-12.4529
▁variance	-12.4529
churn	-12.4529
▁wariness	-12.4529
▁Hog	-12.4529
lets	-12.4529
▁risk	-12.4529
▁Kir	-12.4529
col	-12.453
Easy	-12.453
hites	-12.453
▁confirmation	-12.453
▁policy	-12.453
▁unholy	-12.453
▁unseemly	-12.453
cade	-12.453
▁encourage	-12.453
▁calam	-12.453
▁alternate	-12.453
▁mush	-12.453
▁fuck	-12.453
▁Matthan	-12.453
guiltiness	-12.453
▁Beriah	-12.453
▁wakeful	-12.453
▁skirmish	-12.453
▁bump	-12.453
▁piss	-12.453
apolis	-12.453
escend	-12.453
▁gig	-12.453
▁cling	-12.453
▁magical	-12.453
▁wavered	-12.453
▁transit	-12.4531
▁Aram	-12.4531
▁Bow	-12.4531
▁theatre	-12.4531
▁Kar	-12.4531
▁doubleminded	-12.4531
▁bondmen	-12.4531
▁history	-12.4531
▁politely	-12.4531
▁sparingly	-12.4531
▁stinging	-12.4531
erceive	-12.4531
▁axle	-12.4531
▁suppertime	-12.4531
▁haircut	-12.4531
▁wrongfully	-12.4531
abies	-12.4531
▁roadway	-12.4532
▁lam	-12.4532
egion	-12.4532
▁grand	-12.4532
▁rocket	-12.4532
▁hitherto	-12.4532
▁partial	-12.4532
bber	-12.4533
riah	-12.4533
▁Hadar	-12.4533
▁chaste	-12.4533
▁alongside	-12.4533
▁active	-12.4533
▁Night	-12.4533
▁boyhood	-12.4533
ddling	-12.4533
ccent	-12.4533
▁hump	-12.4533
eously	-12.4534
▁gentleness	-12.4534
uda	-12.4534
▁morter	-12.4534
▁impu	-12.4534
gage	-12.4534
xa	-12.4534
▁acceptation	-12.4534
▁mockers	-12.4534
▁rill	-12.4534
▁collapsed	-12.4535
▁disbelieved	-12.4535
▁wrinkled	-12.4535
ilver	-12.4535
▁fume	-12.4535
▁Onesi	-12.4535
▁Jah	-12.4535
▁attachment	-12.4535
▁fitting	-12.4536
▁thankful	-12.4536
crat	-12.4536
▁Obe	-12.4536
▁Crow	-12.4536
▁attraction	-12.4537
agic	-12.4537
▁shaven	-12.4537
▁tighten	-12.4537
▁china	-12.4537
▁genealogy	-12.4537
▁identi	-12.4537
planted	-12.4537
▁mire	-12.4537
▁honest	-12.4537
▁Gomer	-12.4537
▁gorgeous	-12.4537
▁fearfulness	-12.4537
▁omen	-12.4538
▁surre	-12.4538
▁agent	-12.4538
▁Tab	-12.4538
▁seduc	-12.4538
▁Shim	-12.4538
bia	-12.4538
nnels	-12.4539
▁homeland	-12.4539
▁tablets	-12.4539
▁approvedness	-12.4539
▁earnestness	-12.4539
affl	-12.4539
▁ditch	-12.454
▁flourisheth	-12.454
▁crunch	-12.454
▁similarly	-12.454
▁lum	-12.454
▁soberness	-12.4541
cientist	-12.4541
ioch	-12.4541
▁promi	-12.4541
arden	-12.4541
▁crust	-12.4542
retty	-12.4542
▁freeman	-12.4542
▁normal	-12.4542
▁pew	-12.4543
▁bedtime	-12.4543
rged	-12.4543
▁foes	-12.4543
▁Tryph	-12.4543
▁stru	-12.4543
▁dreamily	-12.4543
▁thump	-12.4543
▁dealings	-12.4544
▁wealth	-12.4544
▁backbone	-12.4544
▁Ken	-12.4544
▁sym	-12.4544
▁Fight	-12.4545
▁station	-12.4545
▁drowned	-12.4545
▁embalmed	-12.4545
▁graduated	-12.4545
▁hesitated	-12.4545
▁yawned	-12.4545
▁butchered	-12.4545
▁underwear	-12.4545
▁select	-12.4545
▁memor	-12.4546
bsolution	-12.4546
Goodness	-12.4547
▁decaying	-12.4547
pilled	-12.4547
▁gloriest	-12.4547
▁chast	-12.4547
▁laughter	-12.4548
city	-12.4548
▁ledge	-12.4548
▁--	-12.4549
▁cobbler	-12.4549
▁chasteneth	-12.4549
▁Near	-12.455
▁delicately	-12.455
▁meekly	-12.455
▁Apple	-12.455
▁flapped	-12.455
▁incl	-12.455
▁swamp	-12.455
path	-12.4551
▁Jann	-12.4551
▁Mish	-12.4551
▁cult	-12.4552
▁acquaint	-12.4552
▁blaze	-12.4553
▁familiar	-12.4553
▁ordinary	-12.4553
▁wreck	-12.4553
▁Majest	-12.4553
▁tailor	-12.4553
▁lesson	-12.4553
▁ramp	-12.4555
xi	-12.4555
▁Mib	-12.4555
▁firelight	-12.4555
▁scabb	-12.4556
amous	-12.4556
▁scene	-12.4556
▁Elim	-12.4556
▁withdrawn	-12.4556
orci	-12.4556
▁worshippeth	-12.4557
oose	-12.4558
key	-12.4558
▁cure	-12.4558
Are	-12.4558
allel	-12.4558
anim	-12.4559
▁watchful	-12.4559
▁generally	-12.456
ighteous	-12.456
educ	-12.456
▁Alexandrian	-12.456
▁reconcil	-12.4561
▁scour	-12.4561
blossom	-12.4561
▁joyfully	-12.4562
burger	-12.4565
▁unbeliever	-12.4565
▁striker	-12.4565
▁haul	-12.4566
▁sunris	-12.4566
▁Wind	-12.4566
▁unity	-12.4567
▁dries	-12.4567
▁Slug	-12.4568
▁perfection	-12.4568
▁plane	-12.4569
▁bored	-12.4569
▁dresses	-12.4569
oon	-12.4569
yway	-12.4569
▁frolic	-12.4571
▁carcase	-12.4571
▁thereupon	-12.4572
Avery	-12.4572
▁Mana	-12.4572
▁decrease	-12.4572
▁rambl	-12.4573
▁copies	-12.4573
▁centipedes	-12.4573
▁endeavors	-12.4573
▁grasshoppers	-12.4573
▁palaces	-12.4573
▁politics	-12.4573
▁proselytes	-12.4573
▁symbols	-12.4573
▁speeches	-12.4574
▁na	-12.4574
▁witch	-12.4574
▁meta	-12.4575
▁scattereth	-12.4578
▁assuredly	-12.4578
▁gloriously	-12.4578
rban	-12.4578
▁lackest	-12.4579
▁Boy	-12.4579
▁handsome	-12.4579
▁dismissed	-12.4579
▁bewitch	-12.4579
▁complained	-12.458
▁Jay	-12.4581
luc	-12.4582
esture	-12.4582
▁lightening	-12.4583
kick	-12.4583
▁baptizeth	-12.4583
▁foaming	-12.4584
▁complaining	-12.4584
▁penny	-12.4585
anging	-12.4586
▁project	-12.4587
evolution	-12.4588
▁overboard	-12.4588
▁reviler	-12.4589
hepherd	-12.4591
▁Had	-12.4592
▁Rhe	-12.4592
▁plum	-12.4593
▁mouthful	-12.4593
▁cau	-12.4593
▁mom	-12.4594
tant	-12.4595
▁Joy	-12.4596
▁faileth	-12.4596
▁pyr	-12.4597
▁becomingly	-12.4597
rubs	-12.4598
▁constant	-12.4599
destr	-12.46
▁pathetic	-12.46
▁dar	-12.46
▁quench	-12.46
arvel	-12.46
▁draft	-12.4601
▁heartily	-12.4602
▁contem	-12.4602
▁Hurry	-12.4602
▁sling	-12.4605
willing	-12.4605
▁TH	-12.4606
▁Wash	-12.4607
quality	-12.4607
▁earlie	-12.4608
▁Gi	-12.4609
▁ruff	-12.4612
ripe	-12.4613
▁splash	-12.4614
▁lightened	-12.4614
▁encountered	-12.4614
▁Help	-12.4614
▁licked	-12.4614
▁wedge	-12.4614
▁abhorre	-12.4615
▁lighten	-12.4617
▁shorter	-12.4618
composed	-12.4619
▁brightest	-12.462
▁thereabout	-12.462
▁Ze	-12.4622
▁operating	-12.4622
aa	-12.4624
▁mansion	-12.4625
▁nicely	-12.4626
▁catcher	-12.4626
▁spy	-12.4627
▁Phu	-12.4629
▁ruin	-12.4631
▁archer	-12.4632
▁summ	-12.4632
▁excused	-12.4637
▁meowing	-12.4638
lunchtime	-12.4639
jack	-12.4639
▁tract	-12.4639
▁compl	-12.4641
▁fastness	-12.4641
ouching	-12.4644
olent	-12.4647
▁remarked	-12.4648
▁expense	-12.4649
▁Aren	-12.465
▁vowed	-12.4651
lunta	-12.4653
▁hangeth	-12.4653
▁ev	-12.4654
▁readest	-12.4654
▁proudly	-12.4655
▁legion	-12.4657
▁Ach	-12.4657
▁stare	-12.4657
▁flashing	-12.466
▁sadly	-12.466
mmon	-12.4661
▁despairing	-12.4661
▁inventing	-12.4661
▁outright	-12.4663
nything	-12.4665
▁someday	-12.4667
▁admoni	-12.467
non	-12.467
▁graze	-12.467
▁uncover	-12.4673
▁Beor	-12.4676
▁warmer	-12.4682
▁awaked	-12.4682
ymen	-12.4684
▁weakling	-12.4687
▁Bart	-12.4694
▁knocking	-12.4699
▁gear	-12.47
mely	-12.4702
▁wickedly	-12.4704
▁consol	-12.4704
▁nast	-12.471
fied	-12.471
arly	-12.4711
ffed	-12.4713
Alon	-12.4713
▁ballplayer	-12.4713
▁rattler	-12.4714
▁Phil	-12.4719
▁included	-12.472
met	-12.4723
gation	-12.4726
determin	-12.4729
▁faster	-12.4731
▁decomposed	-12.4734
▁dispos	-12.4735
▁aboundeth	-12.4738
▁dissipat	-12.4738
TER	-12.4741
▁secretly	-12.4743
▁cries	-12.4744
uled	-12.476
▁onions	-12.4763
▁repenteth	-12.4775
▁departeth	-12.4778
▁sorely	-12.4781
gen	-12.4788
▁blasphemer	-12.4799
▁grassy	-12.4804
▁Ked	-12.4805
▁conc	-12.4806
orehouses	-12.4811
▁lawfully	-12.4817
▁sel	-12.4821
▁weeds	-12.4862
▁husk	-12.4866
▁fou	-12.4888
attered	-12.4899
▁dre	-12.4905
▁signal	-12.4905
▁rouse	-12.4917
▁preferr	-12.4919
▁vig	-12.4921
ughing	-12.4925
▁Arch	-12.4931
crackers	-12.4938
hopping	-12.4942
▁activit	-12.495
▁Abia	-12.4957
▁twister	-12.4983
▁enjoin	-12.4988
mping	-12.4989
ulation	-12.4996
▁kne	-12.5001
▁clapp	-12.5016
ssing	-12.5018
attle	-12.5023
▁Hada	-12.5041
▁retain	-12.5045
▁popula	-12.5052
▁Shil	-12.5075
chem	-12.5095
▁seedling	-12.5108
▁Pau	-12.5123
vity	-12.5152
cking	-12.5155
tura	-12.5183
ngular	-12.5235
▁che	-12.5252
arcel	-12.5276
▁dism	-12.5282
▁radian	-12.529
▁attendan	-12.5305
nstead	-12.5312
▁resu	-12.5386
porter	-12.5394
La	-12.5398
▁Spid	-12.5406
shearer	-12.5433
▁sanctifie	-12.5437
▁cu	-12.5445
▁grad	-12.5456
▁lengthen	-12.5505
witch	-12.5509
▁blur	-12.5542
▁weaken	-12.5567
▁miser	-12.5575
udg	-12.5577
gratulation	-12.5588
ope	-12.56
rake	-12.5627
▁distresse	-12.5632
▁mini	-12.5632
fallen	-12.5648
ork	-12.5653
consider	-12.5674
tac	-12.569
nybody	-12.5727
clusive	-12.5758
▁agenc	-12.5766
▁trou	-12.5842
verse	-12.5843
balanc	-12.5855
rown	-12.587
AB	-12.5898
cial	-12.5912
▁Mesh	-12.5922
had	-12.5949
twee	-12.5994
▁finishe	-12.6011
lative	-12.602
resident	-12.6056
omp	-12.6061
▁Mar	-12.6063
ailing	-12.6152
umbled	-12.6233
each	-12.6263
▁Alva	-12.6298
ency	-12.6305
▁non	-12.6343
▁gar	-12.637
rich	-12.6409
▁watche	-12.6426
▁quali	-12.6455
gin	-12.6466
Ever	-12.6538
exico	-12.656
▁ci	-12.6565
▁dainti	-12.6577
▁explosi	-12.6591
▁gunfi	-12.6592
▁naviga	-12.6645
▁relat	-12.673
view	-12.6813
efraud	-12.6938
fighters	-12.6986
▁aveng	-12.701
▁confi	-12.707
radic	-12.7104
▁Ju	-12.7136
nish	-12.7147
immed	-12.7207
Try	-12.7238
phras	-12.729
▁cro	-12.7342
G	-13.4429
D	-13.447
Z	-13.447
q	-14.7911
“	-14.7912
J	-14.7913
