{
  "src_word2id": {
    "<pad>": 0,
    "<s>": 1,
    "</s>": 2,
    "<unk>": 3,
    ",": 4,
    ".": 5,
    "\u2581\u13a0\u13b4": 6,
    "\u2581\u13be\u13cd\u13a9": 7,
    ";": 8,
    "\u13c3": 9,
    "\u2581\u13af\u13a0": 10,
    "\u2581\u13a8\u13d2": 11,
    "\u13a2": 12,
    "\u2581": 13,
    "\u2581\u13a5\u13dd": 14,
    "\u2581\u13a8\u13d2\u13a2": 15,
    "\u13a9": 16,
    "\u13f0\u13c3": 17,
    "?": 18,
    "\u2581\u13a8\u13ce\u13cd\u13d7": 19,
    "\u2581\u13a4\u13c1\u13b3\u13c5\u13af": 20,
    "\u2581\u13a4": 21,
    "\u2581\u13c3\u13b4": 22,
    "\u13d7": 23,
    "\u2581\u13a0": 24,
    "\u2581\u13f4\u13eb": 25,
    "\u13c9": 26,
    "\u13af": 27,
    "\u2581\u13a9\u13b6": 28,
    "\u13ad": 29,
    "\u2581\u13a2\u13f3\u13cd\u13d7": 30,
    "\u2581\u13be\u13cd\u13c9": 31,
    "\u2581\u13be": 32,
    "\u2581\u13be\u13bf": 33,
    "\u2581\u13be\u13cd\u13a9\u13ef": 34,
    "\u2060": 35,
    "\u2581\u13a0\u13ce\u13c3": 36,
    "\u2581\u13a0\u13f4": 37,
    "\u2581\u13f1\u13a9": 38,
    "\u2581\u13a2\u13a6": 39,
    "\u2581\u13aa\u13b1\u13cd\u13d7": 40,
    "\u2581\u13e5\u13a9": 41,
    "-": 42,
    "\u2581\u13f1\u13b0\u13e9": 43,
    "\u2581\u13c2\u13a6\u13db": 44,
    "\u2581\u13c2\u13af": 45,
    "\u13be": 46,
    "\u2581\u13a4\u13ac\u13eb\u13f3\u13af": 47,
    "\u2581\u13c2\u13a8\u13d2\u13be": 48,
    "\u2581\u13e5\u13cc": 49,
    "\u13f1": 50,
    "\u13db": 51,
    "\u13cd\u13d7": 52,
    "\u2581\u201c": 53,
    "\u13cd\u13a9\u13c2": 54,
    "\u13d3": 55,
    "\u2581\u13e7": 56,
    "\u2581\u13a3\u13cd\u13db": 57,
    "\u2581\u13d7": 58,
    "\u2581\u13af\u13a0\u13c3": 59,
    "\u2581\u13a4\u13ea\u13e5": 60,
    "\u2581\u13a2\u13f3\u13c3": 61,
    "\u2581\u13be\u13cd\u13a9\u13c3": 62,
    "\u2581\u13e7\u13ea\u13e5": 63,
    "\u2581\u13a6\u13b6\u13c1\u13db": 64,
    "\u2581\u13e5": 65,
    "\u2581\u13a0\u13c2": 66,
    "\u13a6": 67,
    "\u2581\u13c4\u13ea\u13ce\u13a2": 68,
    "\u2581\u13de\u13cd\u13d7": 69,
    "\u2581\u13bf\u13c9": 70,
    "\u2581\u13a1\u13b6\u13af": 71,
    "\u2581\u13a8\u13cd\u13d7": 72,
    "\u2581\u13e3": 73,
    "\u2581\u13a4\u13f2": 74,
    "\u2581\u13bf\u13c9\u13c3": 75,
    "\u2581\u13da": 76,
    "\u13c5": 77,
    "\u2581\u13a6\u13d9": 78,
    "\u2581\u13a4\u13db\u13c1": 79,
    "\u2581\u13a4\u13e3\u13d8": 80,
    "\u13c2": 81,
    "\u2581\u13a0\u13cd\u13a6\u13ef": 82,
    "\u2581\u13f1": 83,
    "\u2581\u13a0\u13e5\u13b8": 84,
    "\u2581\u201d": 85,
    "\u2581\u13eb\u13b5\u13bb": 86,
    ",\u201d": 87,
    "\u2581\u13be\u13af\u13f3": 88,
    "\u2581\u13c2\u13a6\u13a5": 89,
    "\u2581\u13ac\u13c2\u13a8\u13d2": 90,
    "\u2581\u13a6\u13b8\u13c9\u13d7\u13f3": 91,
    "\u2581\u13a0\u13b9": 92,
    "\u2581\u13ac\u13c2\u13f3\u13c9": 93,
    "\u2581\u13c4\u13cd\u13db": 94,
    "\u13b8": 95,
    "\u2581\u13a1\u13af": 96,
    "\u2581\u13a6\u13b8\u13b3\u13d7": 97,
    "\u2581\u13a7\u13c3\u13ae\u13db": 98,
    "\u2581\u13a0\u13c1\u13af": 99,
    "\u2581\u13a4\u13e9\u13d2": 100,
    "\u2581\u13a0\u13d5\u13b8": 101,
    "\u13a8": 102,
    "\u2581\u13a0\u13f0\u13b5": 103,
    "\u13cf": 104,
    "\u13b5": 105,
    "\u2581\u13a4\u13e4\u13b5": 106,
    "\u2581\u13a8\u13ce\u13a2": 107,
    "\u2581\u13a0\u13ce": 108,
    "\u2581\u13a4\u13c2": 109,
    "\u2581\u13cc\u13c9": 110,
    "\u2581\u13f0\u13b5": 111,
    "\u2581\u13a4\u13e4\u13b5\u13a6": 112,
    "\u2581\u13a2\u13e3": 113,
    "\u13f3": 114,
    "\u2581\u13a2\u13f4\u13db": 115,
    "\u2581\u13aa\u13af": 116,
    "\u13d7\u13f1": 117,
    "\u13d2": 118,
    "\u2581\u13d3": 119,
    "\u13b4": 120,
    "\u2581\u13a2": 121,
    "\u2581\u13a4\u13cd\u13d7": 122,
    "\u2581\u13a6\u13d9\u13af": 123,
    "\u2581\u13d4\u13b5": 124,
    "\u2581\u13be\u13c2\u13a5": 125,
    "\u2581\u13a3\u13cf\u13f3": 126,
    "\u13b2": 127,
    "\u2581\u13af": 128,
    "\u2581\u13a4\u13df": 129,
    "\u13a0": 130,
    "\u2581\u13a2\u13cf\u13b5": 131,
    "\u2581\u13a3\u13cd\u13d3": 132,
    "\u2581[": 133,
    "\u13cd\u13aa": 134,
    "\u2581\u13d7\u13a7\u13bf\u13e9\u13db\u13cd\u13d7": 135,
    "\u2581\u13a6": 136,
    "\u2581\u13a0\u13d3\u13c5\u13d9": 137,
    "\u2581\u13a0\u13c2\u13cd\u13a6\u13ef": 138,
    "\u2581\u13a8\u13ce": 139,
    "\u2581\u13d4\u13b5\u13c1": 140,
    "\u2581\u13a2\u13e5\u13c8\u13f1": 141,
    ".\u201d": 142,
    "\u13cd\u13a9": 143,
    "\u13aa": 144,
    "\u2581\u13bc\u13cf": 145,
    "\u2581\u13ac\u13e9": 146,
    "\u2581\u13a2\u13f3": 147,
    "\u13ac": 148,
    "\u2581\u13a2\u13ac\u13f1": 149,
    "\u2581\u13a8\u13d2\u13a9": 150,
    "\u2581\u2060": 151,
    "\u2581\u13a1\u13b3\u13d7": 152,
    "!": 153,
    "\u2581\u13da\u13f3\u13aa\u13db": 154,
    "\u2581\u13e9\u13a6": 155,
    "\u2581\u13f3": 156,
    "\u2581\u13e4\u13a6\u13c8": 157,
    "\u2581\u13a0\u13eb": 158,
    "]": 159,
    "\u2581\u13a4\u13c2\u13e3\u13d8": 160,
    "\u13c1": 161,
    "\u2581\u13a4\u13be": 162,
    "\u13a8\u13cd\u13d7": 163,
    "\u13ef": 164,
    "\u13d9\u13d7": 165,
    "\u2581\u13a1\u13c6\u13ad\u13bb": 166,
    "\u2581\u13a2\u13f3\u13b5\u13cd\u13d9\u13d7\u13f1": 167,
    "\u2581\u13a6\u13d9\u13c3": 168,
    ":": 169,
    "\u13cd": 170,
    "\u2581\u13a2\u13d7\u13e2": 171,
    "\u2581\u13cf\u13c6": 172,
    "\u2581\u13c7\u13b5\u13f2": 173,
    "\u2581\u13be\u13a5": 174,
    "\u2581\u13eb": 175,
    "\u2581\u13f2\u13be": 176,
    "\u2581\u13a0\u13a8\u13f4": 177,
    "\u2581\u13ac\u13d7": 178,
    "\u2581\u13a0\u13cf": 179,
    "\u2581\u13e6\u13e9": 180,
    "\u2581\u13cc\u13b3\u13d3": 181,
    "\u2581\u13c5\u13a9": 182,
    "\u2581\u13ed": 183,
    "\u2581\u13e6\u13a2": 184,
    "!\u201d": 185,
    "\u13b3": 186,
    "\u2581\u13c4\u13ea\u13d2\u13a9": 187,
    "\u2581\u13c2\u13a6\u13d3": 188,
    "?\u201d": 189,
    "\u2581\u13c4\u13ea\u13ce\u13b4\u13a2": 190,
    "\u2581\u13c5\u13ef": 191,
    "\u13e5": 192,
    "\u2581\u13e7\u13d3\u13b4\u13c5\u13db": 193,
    "\u2581\u13a2\u13e5": 194,
    "\u2581\u13a6\u13aa": 195,
    "\u2581\u13d0\u13c8\u13b5": 196,
    "\u2581\u13a0\u13d3": 197,
    "\u2581\u13a6\u13da": 198,
    "\u2581\u13f1\u13a8\u13ce\u13cd\u13d7": 199,
    "\u13ce": 200,
    "\u2581\u13ef": 201,
    "\u2581\u13c2\u13aa\u13af\u13b8": 202,
    "\u2581\u13a4\u13d9\u13af\u13f3\u13af\u13ef": 203,
    "\u2581\u13e5\u13cc\u13c3": 204,
    "\u13ae": 205,
    "\u2581\u13c2": 206,
    "\u13cd\u13ac": 207,
    "\u2581\u13c2\u13da\u13ea\u13ce\u13b4\u13a2": 208,
    "\u2581\u13dd\u13cd\u13aa": 209,
    "\u2581\u13a0\u13c2\u13e7\u13cf": 210,
    "\u2581\u13c4": 211,
    "\u2581\u13e3\u13ac\u13eb\u13f3\u13af": 212,
    "\u2581\u13a4\u13ac\u13e9\u13b5": 213,
    "\u2581\u13a0\u13c6": 214,
    "\u2581\u13e7\u13e4\u13b5": 215,
    "\u2581\u13a6\u13b5\u13c9\u13a9": 216,
    "\u2581\u13d3\u13b6\u13c2\u13a8": 217,
    "\u2581\u13ac\u13e9\u13cd\u13d3\u13e9\u13d7\u13d9\u13af": 218,
    "\u2581\u13c4\u13ea\u13ce\u13b8\u13a9": 219,
    "\u2581\u13a6\u13d3": 220,
    "\u2581\u13a8": 221,
    "\u2581\u13a1\u13cd\u13a6": 222,
    "\u2581\u13c2\u13a6\u13d7\u13f3": 223,
    "\u2581\u13a2\u13e7\u13b3\u13ad": 224,
    "\u2581\u13a4\u13d9\u13d3": 225,
    "\u2581\u13ac": 226,
    "\u2581\u13f0\u13b5\u13c9": 227,
    "\u2581\u13a3\u13c2": 228,
    "\u13d8": 229,
    "\u2581\u13d5": 230,
    "\u2581\u13c8\u13d3": 231,
    "\u2581\u13aa\u13ea\u13b5": 232,
    "\u2581\u13c4\u13ea\u13ce\u13b4": 233,
    "\u2581\u13da\u13c2": 234,
    "\u2581\u13dd": 235,
    "\u2581\u13a4\u13e4\u13cd\u13d9": 236,
    "\u2581\u13a2\u13f4": 237,
    "\u2581\u13a0\u13a9": 238,
    "\u13f4": 239,
    "\u2581\u13e3\u13c2": 240,
    "\u2581\u13a2\u13a9": 241,
    "\u2581\u13e5\u13b7\u13cf\u13b5\u13bb": 242,
    "\u2581\u13a0\u13e7\u13e3": 243,
    "\u2581\u13c2\u13da\u13ea\u13ce\u13b8\u13a9": 244,
    "\u2581\u13a6\u13da\u13b2": 245,
    "\u2581\u13a0\u13cf\u13c9": 246,
    "\u2581\u13ac\u13c2": 247,
    "\u2581\u13c5\u13d7\u13a6\u13b5\u13cd\u13d9\u13d7\u13ad": 248,
    "\u2581\u13a0\u13c2\u13a8\u13f4": 249,
    "\u2581\u13a4\u13c5\u13d2": 250,
    "\u2581\u13f1\u13a8\u13ce": 251,
    "\u2581\u13c9\u13b3": 252,
    "\u2581\u13e7\u13be\u13d3\u13b4\u13c5\u13db": 253,
    "\u2581\u13a1\u13d9\u13d3": 254,
    "\u2581\u13a2\u13ef\u13c2\u13db": 255,
    "\u2581\u13a2\u13e4": 256,
    "\u2581\u13ac\u13c2\u13db": 257,
    "\u2581\u13cd\u13a9": 258,
    "\u2581\u13c4\u13ac\u13eb\u13f3\u13d2": 259,
    "\u2581\u13c2\u13ac\u13be\u13db": 260,
    "\u13b0": 261,
    "\u2581\u13a1": 262,
    "\u2581\u13a2\u13a6\u13a2": 263,
    "\u2581\u13be\u13cd\u13a9\u13ef\u13a2": 264,
    "\u2581\u13e3\u13b5": 265,
    "\u2581\u13d0\u13c9": 266,
    "\u2581\u13a0\u13c2\u13d4\u13b5": 267,
    "\u13e2": 268,
    "\u2581\u13aa\u13af\u13f3\u13d7": 269,
    "\u13cd\u13a8\u13cd\u13d7": 270,
    "\u2581\u13af\u13cd\u13a9": 271,
    "\u2581\u13a1\u13b3\u13c2": 272,
    "\u2581\u13be\u13a5\u13c2": 273,
    "\u13d4\u13c5\u13af": 274,
    "\u2581\u13c4\u13b5\u13cd\u13d4\u13c1\u13a2": 275,
    "\u2581\u13d1\u13be\u13b4": 276,
    "\u2581\u13a7": 277,
    "\u2581\u13a4\u13b5\u13c2\u13a9\u13db": 278,
    "\u13a5": 279,
    "\u2581\u13d9": 280,
    "\u2581\u13a4\u13d3\u13b5\u13a2": 281,
    "\u2581\u13a4\u13d9\u13af\u13f3\u13af": 282,
    "\u2581\u13a4\u13c1\u13e8": 283,
    "\u13b8\u13af": 284,
    "\u2581\u13e5\u13aa": 285,
    "\u2581\u13bc\u13cf\u13c3": 286,
    "\u2581\u13a0\u13e3\u13d7": 287,
    "\u13eb": 288,
    "\u2581\u13d7\u13a6\u13b3\u13eb\u13a2\u13cd\u13d7\u13f1": 289,
    "\u13cc": 290,
    "\u2581\u13ad": 291,
    "\u13b8\u13a9": 292,
    "\u2581\u13a9\u13a6\u13a8": 293,
    "\u2581\u13a2\u13a8\u13ce\u13cd\u13d7": 294,
    "\u2581\u13a2\u13ac\u13f1\u13d7\u13e2": 295,
    "\u2581\u13a4\u13d3\u13d9\u13b5\u13cd\u13d7": 296,
    "\u2581\u13c4\u13c2\u13ea\u13ce\u13a2": 297,
    "\u13ae\u13cd\u13d7": 298,
    "\u2581\u13e7\u13c2": 299,
    "\u13e3": 300,
    "\u2581\u13a0\u13ef": 301,
    "\u13e8": 302,
    "\u13b4\u13a2": 303,
    "\u2581\u13d7\u13a6\u13b8\u13eb\u13cd\u13d3\u13c1\u13d7": 304,
    "\u2581\u13a9\u13b3": 305,
    "\u2581\u13d7\u13a7\u13bf\u13e9\u13d7\u13d9\u13af": 306,
    "\u2581\u13a4\u13db\u13c5": 307,
    "\u13d4\u13c5": 308,
    "\u13d9": 309,
    "\u2581\u13e7\u13be": 310,
    "\u2581\u13a0\u13b5\u13cd\u13d3\u13f4\u13d7": 311,
    "\u2581\u13d7\u13e3": 312,
    "\u2581\u13a2\u13e7\u13b3": 313,
    "\u2581\u13cc\u13cc": 314,
    "\u2581\u13a1\u13cf\u13a9": 315,
    "\u13d5": 316,
    "\u2581\u13a0\u13be\u13b5\u13c5\u13df": 317,
    "\u2581\u13ad\u13eb\u13c2": 318,
    "\u2581\u13d3\u13c6\u13b4\u13b3": 319,
    "\u2581\u13a4\u13d3": 320,
    "\u2581\u13b0\u13bb": 321,
    "\u2581\u13a6\u13b6\u13af\u13cd\u13d7\u13f1": 322,
    "\u2581\u13c5\u13e9\u13d3\u13b4": 323,
    "\u2581\u13a2\u13be\u13a8": 324,
    "\u2581\u13a4\u13e9\u13cc": 325,
    "\u2581\u13d2\u13c3\u13f1": 326,
    "\u2581\u13a4\u13e5": 327,
    "\u2581\u13cd\u13a9\u13be\u13be": 328,
    "\u2581\u13e7\u13ac\u13e9\u13b6\u13d7": 329,
    "\u2581\u13a2\u13ac\u13f1\u13f1": 330,
    "\u2581\u13ac\u13e9\u13a6\u13d8\u13ef": 331,
    "\u2581\u13a4\u13c3\u13d5\u13be": 332,
    "\u2581\u13c5\u13d9": 333,
    "\u2581\u13a5": 334,
    "\u2581\u13d4\u13b3\u13da": 335,
    "\u13d4": 336,
    "\u2581\u13a2\u13b8\u13af\u13f3": 337,
    "\u2581\u13a3": 338,
    "\u2581\u13a6\u13b8\u13b6\u13a2": 339,
    "\u2581\u13a3\u13a9": 340,
    "\u13cd\u13db": 341,
    "\u2581\u13da\u13d9\u13a5": 342,
    "\u2581\u13f1\u13a8\u13ce\u13a2": 343,
    "\u2581\u13a6\u13f2\u13df": 344,
    "\u2581\u13a4\u13be\u13e4\u13b5\u13a6": 345,
    "\u13d2\u13a2": 346,
    "\u13c5\u13af": 347,
    "\u2581\u13e7\u13be\u13c1\u13b6\u13d7": 348,
    "\u2581\u13a0\u13cf\u13f4\u13eb": 349,
    "\u13cd\u13a6": 350,
    "\u2581\u13e5\u13f3": 351,
    "\u2581\u13c5\u13e9\u13d9\u13af\u13ef\u13db": 352,
    "\u2581\u13a6\u13f3\u13b3": 353,
    "\u2581\u13da\u13be": 354,
    "\u2581\u13e9": 355,
    "\u13c9\u13cd\u13a9\u13c2": 356,
    "\u2581\u13c4\u13b5\u13cd\u13d4\u13c5": 357,
    "\u2581\u13a2\u13d3\u13b5\u13c5\u13df": 358,
    "\u2581\u13a4\u13da\u13a9": 359,
    "\u2581\u13f1\u13a8\u13d2\u13be": 360,
    "\u2581\u13d7\u13a6": 361,
    "\u13cd\u13a9\u13c2\u13c3\u13c5": 362,
    "\u2581\u13d3\u13c2": 363,
    "\u13c1\u13a2": 364,
    "\u2581\u13a0\u13f0\u13b8": 365,
    "\u2581\u13a0\u13c6\u13e4\u13b5": 366,
    "\u2581\u13a4\u13cd\u13c6\u13c2\u13aa\u13d7": 367,
    "\u2581\u13a1\u13c6": 368,
    "\u13cd\u13aa\u13a2": 369,
    "\u2581\u13a6\u13d3\u13ad": 370,
    "\u2581\u13a2\u13aa\u13af\u13db": 371,
    "\u2581\u13a0\u13ac\u13f1": 372,
    "\u2581\u13ad\u13eb\u13c2\u13d7\u13e2": 373,
    "\u2581\u13a0\u13c7\u13e5": 374,
    "\u13ce\u13a2": 375,
    "\u2581\u13e7\u13e4\u13b5\u13a6": 376,
    "\u2581\u13a9\u13b3\u13c9": 377,
    "\u2581\u13db": 378,
    "\u2581\u13c5\u13d3\u13f3\u13d3\u13b4\u13c5\u13af": 379,
    "\u2581\u13c2\u13e8\u13ea\u13ce\u13ad": 380,
    "\u2581\u13ad\u13e2": 381,
    "\u2581\u13c4\u13c2\u13ea\u13d2\u13a9": 382,
    "\u13b8\u13a2": 383,
    "\u2581\u13a4\u13c7\u13d3\u13b5": 384,
    "\u2581\u13a4\u13be\u13d3\u13c5\u13d8": 385,
    "\u2581\u13d0\u13a2": 386,
    "\u2581\u13a2\u13f3\u13e9\u13c2\u13cc\u13db": 387,
    "\u2581\u13a2\u13d0": 388,
    "\u2581\u13a2\u13f3\u13f0\u13c3": 389,
    "\u13b2\u13a2": 390,
    "\u2581\u13af\u13b3": 391,
    "\u2581\u13a4\u13c1\u13b3\u13a9": 392,
    "\u2581\u13e0\u13a8\u13cf": 393,
    "\u2581\u13c3\u13d7": 394,
    "\u2581\u13c4\u13cd\u13d7": 395,
    "\u2581\u13a2\u13ef\u13a6\u13f4\u13b5": 396,
    "\u2581\u13c4\u13ea\u13d2": 397,
    "\u2581\u13a4\u13d5\u13b5\u13db": 398,
    "\u2581\u13e7\u13d9\u13a2\u13db": 399,
    "\u2581\u13a2\u13a6\u13db": 400,
    "\u2581\u13a6\u13b5\u13e6\u13db": 401,
    "\u2581\u13a0\u13d3\u13c1\u13b8": 402,
    "\u13cd\u13d7\u13f1": 403,
    "\u2581\u13e7\u13cd\u13c6\u13f4\u13cd\u13d7": 404,
    "\u2581\u13a4\u13db\u13db\u13c1": 405,
    "\u13b6": 406,
    "\u2581\u13cd\u13c9": 407,
    "\u2581\u13a2\u13f3\u13b5\u13cd\u13d9\u13d7": 408,
    "\u2581\u13c4\u13b5\u13cd\u13d4\u13c1": 409,
    "\u2581\u13d7\u13aa\u13e2\u13d4\u13c5\u13af": 410,
    "\u2581\u13a0\u13c1\u13b2": 411,
    "\u13d2\u13a9": 412,
    "\u13c6": 413,
    "\u2581\u13a2\u13aa\u13af\u13d3": 414,
    "\u2581\u13a0\u13c1\u13b2\u13a2": 415,
    "\u2581\u13c4\u13d3\u13b4\u13d2": 416,
    "\u2581\u13e6\u13a2\u13c1": 417,
    "\u13c5\u13a9": 418,
    "\u13aa\u13a2": 419,
    "\u2581\u13a0\u13cd\u13d3\u13ef": 420,
    "\u2581\u13a6\u13c1\u13b8": 421,
    "\u2581\u13e6": 422,
    "\u2581\u13a4\u13be\u13e4\u13b5": 423,
    "\u2581\u13a0\u13be\u13d9\u13b4\u13b0\u13cd\u13a9": 424,
    "\u13a8\u13a2": 425,
    "\u2581\u13cf": 426,
    "\u2581\u13c3\u13c9": 427,
    "\u2581\u13a0\u13cd\u13aa\u13af\u13e7\u13c8": 428,
    "\u2581\u13a9\u13ac": 429,
    "\u2581\u13e5\u13a8\u13d2": 430,
    "\u2581\u13d5\u13e5": 431,
    "\u2581\u13e5\u13f3\u13af": 432,
    "\u13e4": 433,
    "\u13cd\u13ac\u13a2": 434,
    "\u2581\u13d5\u13a6": 435,
    "\u2581\u13a1\u13b3\u13c6\u13d7": 436,
    "\u2581\u13a0\u13f2\u13b1\u13af\u13cd\u13d7": 437,
    "\u2581\u13e7\u13c5\u13cf\u13d3\u13cd\u13d7": 438,
    "\u13d9\u13d7\u13f1": 439,
    "\u13e9": 440,
    "\u2581\u13c4\u13b5\u13cd\u13d4\u13c5\u13a9": 441,
    "\u2581\u13a0\u13a6\u13f4\u13b5\u13a8": 442,
    "\u2581\u13a4\u13d2": 443,
    "\u2581\u13cc\u13e9\u13c2": 444,
    "\u2581\u13a0\u13c2\u13c6\u13b5\u13cf": 445,
    "\u13ae\u13a2": 446,
    "\u2581\u13a7\u13c5\u13c2\u13cd\u13a9": 447,
    "\u2581\u13a4\u13c2\u13c3\u13d5\u13be": 448,
    "\u2581\u13a4\u13c3\u13b4": 449,
    "\u2581\u13a4\u13c1\u13ac": 450,
    "\u2581\u13a4\u13d2\u13af": 451,
    "\u2581\u13a1\u13e3": 452,
    "\u2581\u13a0\u13cd\u13a6\u13c2": 453,
    "\u2581\u13c4\u13c2\u13ac\u13eb\u13f3\u13d2": 454,
    "\u2581\u13e7\u13d5\u13d8\u13f4\u13db": 455,
    "\u2581\u13a0\u13ba\u13c9\u13af": 456,
    "\u13a7": 457,
    "\u13ac\u13a2": 458,
    "\u2581\u13a0\u13cd\u13aa\u13b5": 459,
    "\u13a4": 460,
    "\u2581\u13d7\u13e5": 461,
    "\u13ca": 462,
    "\u2581\u13a4\u13c2\u13ac\u13eb\u13f3\u13af": 463,
    "\u2581\u13a8\u13d0\u13a2": 464,
    "\u2581\u13a1\u13e5": 465,
    "\u2581\u13a2\u13ef": 466,
    "\u2581\u13a2\u13a6\u13e4\u13b5": 467,
    "\u2581\u13a0\u13d9\u13b4\u13b0\u13cd\u13a9": 468,
    "\u13df": 469,
    "\u13cd\u13d9\u13d7": 470,
    "\u2581\u13c2\u13ac": 471,
    "\u13f2": 472,
    "\u2581\u13d7\u13c2\u13a7\u13bf\u13e9\u13d7\u13d9\u13af": 473,
    "\u2581\u13a4\u13ec\u13f0\u13c2": 474,
    "\u2581\u13e3\u13c4\u13cf": 475,
    "\u2581\u13c5\u13e9\u13be\u13d3\u13b4": 476,
    "\u2581\u13c2\u13af\u13cd\u13a9\u13c2": 477,
    "\u2581\u13a4\u13d3\u13c5\u13d8": 478,
    "\u13e7": 479,
    "\u2581\u13a8\u13d0": 480,
    "\u2581\u13a0\u13e5": 481,
    "\u2581\u13be\u13bf\u13c2": 482,
    "\u13a8\u13b6\u13af": 483,
    "\u13c1\u13b8": 484,
    "\u2581\u13a2\u13d7": 485,
    "\u2581\u13d1\u13d3\u13b5": 486,
    "\u2581\u13e7\u13c2\u13cd\u13c6\u13c2\u13aa\u13d9\u13d7": 487,
    "\u2581\u13a5\u13a5": 488,
    "\u2581\u13c2\u13ac\u13c5": 489,
    "\u2581\u13d7\u13c2\u13f2\u13b5": 490,
    "\u2581\u13a6\u13b8\u13b6": 491,
    "\u2581\u13a2\u13e8": 492,
    "\u2581\u13a4\u13d9\u13af\u13f3": 493,
    "\u13a3": 494,
    "\u2581\u13a4\u13f4\u13cd\u13d7": 495,
    "\u2581\u13a0\u13f2\u13b5": 496,
    "\u2581\u13a1\u13c6\u13bb": 497,
    "\u2581\u13a4\u13b5\u13c2\u13a9\u13d7\u13f3": 498,
    "\u2581\u13a1\u13dd\u13ea\u13af": 499,
    "\u2581\u13a0\u13a6\u13f4\u13b5\u13a8\u13a2": 500,
    "\u2581\u13e4\u13e5": 501,
    "\u2581\u13a6\u13b5\u13e6\u13d5": 502,
    "\u2581\u13a6\u13be\u13dd\u13a2": 503,
    "\u2581\u13aa\u13b0\u13cd\u13d7": 504,
    "\u2581\u13a0\u13c2\u13f4\u13eb\u13ef": 505,
    "\u2581\u13a4\u13b5\u13cf\u13a9": 506,
    "\u2581\u13e8\u13d2": 507,
    "\u2581\u13a2\u13e8\u13d2": 508,
    "\u2581\u13a4\u13c5\u13d7": 509,
    "\u2581\u13a3\u13d3\u13b8": 510,
    "\u13a1": 511,
    "\u2581\u13d7\u13c2\u13f2\u13df": 512,
    "\u2581\u13d4\u13b5\u13c1\u13c3": 513,
    "\u2581\u13a0\u13d3\u13a8\u13f3\u13d7": 514,
    "\u2581\u13a8\u13b5\u13b5": 515,
    "\u2581\u13a6\u13b8\u13c9\u13d7": 516,
    "\u2581\u13d8": 517,
    "\u13a6\u13b5": 518,
    "\u2581\u13e5\u13a8\u13d2\u13a9": 519,
    "\u2581\u13e5\u13a8\u13ce\u13a2": 520,
    "\u13a0\u13c1\u13b6\u13af": 521,
    "\u2581\u13a4\u13c1\u13b3\u13c5\u13af\u13c3": 522,
    "\u13c8": 523,
    "\u2581\u13a2\u13ef\u13a9\u13f3\u13cd\u13c8\u13db": 524,
    "\u2581\u13a0\u13cd\u13a9\u13be": 525,
    "\u2581\u13a4\u13e4\u13b5\u13aa\u13af": 526,
    "\u2581\u13aa\u13a2": 527,
    "\u2581\u13a0\u13a9\u13be": 528,
    "\u2581\u13ad\u13be": 529,
    "\u13f0": 530,
    "\u2581\u13c4\u13d3\u13b4": 531,
    "\u2581\u13a0\u13c4\u13ec": 532,
    "\u2581\u13d7\u13c3\u13ea\u13b5\u13cd\u13a9": 533,
    "\u2581\u13a4\u13c5\u13cf\u13d3\u13cd\u13d7": 534,
    "\u2581\u13d5\u13eb": 535,
    "\u2581\u13a7\u13c1\u13cc\u13a2": 536,
    "\u2581\u13a9\u13df": 537,
    "\u2581\u13a6\u13f0\u13aa\u13a9": 538,
    "\u2581\u13a6\u13da\u13b2\u13a2": 539,
    "\u2581\u13a0\u13a6\u13d4\u13b2\u13a2": 540,
    "\u2581\u13ad\u13c2": 541,
    "\u2581\u13a0\u13be": 542,
    "\u2581(": 543,
    "\u2581\u13a7\u13c1\u13cd\u13a6": 544,
    "\u2581\u13a0\u13c2\u13e7\u13e3": 545,
    "\u2581\u13a4\u13ac\u13eb\u13f3\u13cc\u13d5\u13a9": 546,
    "\u13dd": 547,
    "\u2581\u13a0\u13db": 548,
    "\u2581\u13eb\u13e5": 549,
    "\u2581\u13d7\u13c6\u13e4\u13b5": 550,
    "\u2581\u13d5\u13e3": 551,
    "\u2581\u13b4\u13c6\u13c2": 552,
    "\u2581\u13a0\u13c3\u13af\u13f3\u13b2\u13cd\u13a9": 553,
    "\u2581\u13e5\u13cd\u13d5\u13e5": 554,
    "\u2581\u13a4\u13e3\u13d4\u13c5\u13af": 555,
    "\u2581\u13a0\u13f0\u13b3\u13cd\u13d7": 556,
    "\u2581\u13c4\u13cd\u13d5\u13cd\u13d7": 557,
    "\u2581\u13a4\u13db\u13a6\u13c5": 558,
    "\u2581\u13a2\u13a6\u13d3": 559,
    "\u2581\u13a4\u13f0\u13b8\u13d7": 560,
    "\u2581\u13e3\u13e4\u13b5": 561,
    "\u2581\u13a0\u13c2\u13cd\u13a9\u13be": 562,
    "\u2581\u13d7\u13a6\u13d9\u13b5": 563,
    "\u2581\u13d4\u13b7\u13a9\u13cd\u13a9": 564,
    "\u13d4\u13c1": 565,
    "\u13cd\u13a8\u13a2": 566,
    "\u2581\u13a8\u13b3\u13cd\u13d7\u13f1": 567,
    "\u13cd\u13d3": 568,
    "\u13d4\u13c5\u13a9": 569,
    "\u13c1\u13d7\u13f1": 570,
    "\u2581\u13b1": 571,
    "\u2581\u13a0\u13cc\u13bb\u13d3": 572,
    "\u2581\u13d7\u13be\u13d3\u13c5\u13df": 573,
    "\u2581\u13a8\u13e5\u13c5\u13cf\u13db": 574,
    "\u2581\u13c5": 575,
    "\u2581\u13ba\u13b5": 576,
    "\u2581\u13c5\u13f2\u13af": 577,
    "\u2581\u13e7\u13c1\u13e5": 578,
    "\u2581\u13a0\u13c2\u13cf\u13f4\u13eb\u13ad": 579,
    "\u2581\u13a0\u13d7\u13be": 580,
    "\u2581\u13f1\u13a6": 581,
    "\u2581\u13a4\u13f2\u13b1\u13d2": 582,
    "\u13d0": 583,
    "\u2581\u13a2\u13a6\u13db\u13c3": 584,
    "\u2581\u13c2\u13a6": 585,
    "\u2581\u13a4\u13f0\u13b8\u13db": 586,
    "\u2581\u13a0\u13b2": 587,
    "\u13cd\u13d4\u13c5": 588,
    "\u2581\u13a4\u13aa\u13b2": 589,
    "\u2581\u13d7\u13e3\u13e4\u13b5": 590,
    "\u2581\u13f4": 591,
    "\u2581\u13a2\u13b8\u13af\u13e2": 592,
    "\u2581\u13a6\u13e9\u13d2\u13a9": 593,
    "\u2581\u13a2\u13f3\u13d5\u13d8\u13f4\u13db": 594,
    "\u2581\u13e7\u13c2\u13f2\u13b1\u13d2\u13af": 595,
    "\u2581\u13a4\u13d5\u13c1\u13b4\u13a2": 596,
    "\u2581\u13aa\u13e2\u13d4\u13c5\u13af": 597,
    "\u2581\u13b0\u13e9": 598,
    "\u2581\u13a0\u13cd\u13aa\u13af": 599,
    "\u2581\u13a0\u13a6\u13d9\u13a5\u13af\u13cd\u13d7": 600,
    "o": 601,
    "\u13e7\u13c8": 602,
    "\u2581\u13e5\u13a8\u13ce": 603,
    "\u2581\u13a2\u13f3\u13cd\u13a9\u13c2": 604,
    "\u2581\u13a6\u13cd\u13a9\u13b8": 605,
    "\u2581\u13a0\u13ce\u13c9": 606,
    "\u2581\u13ac\u13c5": 607,
    "\u13c5\u13a2": 608,
    "\u2581\u13a4\u13c1": 609,
    "\u2581\u13b0": 610,
    "\u2581\u13c5\u13d3\u13ac\u13e9\u13d3\u13b4\u13c5\u13db": 611,
    "\u2581\u13e8": 612,
    "\u2581\u13c3\u13ef": 613,
    "\u2581\u13e3\u13c1\u13b3\u13c5\u13af": 614,
    "\u13b2\u13a9": 615,
    "\u2581\u13a4\u13e0\u13f1": 616,
    "\u2581\u13a2\u13f3\u13be\u13cd\u13d7": 617,
    "\u2581\u13c2\u13aa\u13af\u13b8\u13a2": 618,
    "\u13cd\u13a8": 619,
    "\u13d7\u13ad": 620,
    "\u13d7\u13a6\u13b3\u13eb\u13a2\u13cd\u13d7\u13f1": 621,
    "\u2581\u13d3\u13d4\u13b4\u13d2": 622,
    "\u2581\u13a4\u13be\u13d3\u13e1\u13ac": 623,
    "\u2581\u13a7\u13c1\u13ac": 624,
    "\u2581\u13d7\u13d3\u13cd\u13da\u13d7\u13f1": 625,
    "\u2581\u13ad\u13eb\u13ef": 626,
    "\u2581\u13e5\u13a6\u13d4\u13ad": 627,
    "\u13d4\u13c1\u13a2": 628,
    "\u13ac\u13be": 629,
    "\u2581\u13a4\u13b7\u13e8": 630,
    "\u2581\u13c5\u13d7\u13a6\u13b5\u13cd\u13d9\u13d7\u13cd\u13a8": 631,
    "\u2581\u13c4\u13ea\u13ce": 632,
    "\u2581\u13a8\u13f4": 633,
    "\u13ad\u13e9": 634,
    "\u2581\u13e5\u13da": 635,
    "\u2581\u13d4\u13d5\u13f2\u13b2\u13cd\u13a9": 636,
    "\u2581\u13c6\u13b4\u13d7": 637,
    "\u2581\u13d7\u13e4\u13e5": 638,
    "\u2581\u13a5\u13e3\u13f1": 639,
    "\u2581\u13a4\u13be\u13e4\u13b5\u13aa\u13af": 640,
    "\u2581\u13e7\u13c2\u13b8\u13eb\u13cd\u13d3\u13c1\u13af": 641,
    "\u2581\u13d7\u13c2": 642,
    "\u2581\u13a4\u13d0\u13c5": 643,
    "\u2581\u13d3\u13a6": 644,
    "\u13ce\u13cd\u13d7": 645,
    "\u2581\u13a4\u13be\u13db\u13a6\u13c5": 646,
    "\u2581\u13a2\u13b8\u13cd\u13a9": 647,
    "\u2581\u13d2\u13a6\u13d4": 648,
    "\u2581\u13c5\u13a6\u13cd\u13aa\u13af": 649,
    "\u2581\u13a4\u13b5\u13ae\u13b5\u13cd\u13d7": 650,
    "\u2581\u13c5\u13d3\u13a6\u13b5\u13cd\u13d9\u13d7\u13cd\u13ac\u13a9": 651,
    "\u2581\u13a4\u13b4\u13c5\u13ae": 652,
    "\u2581\u13a0\u13b3\u13c2": 653,
    "\u2581\u13a4\u13f2\u13a2\u13f3": 654,
    "\u2581\u13ac\u13d8": 655,
    "\u2581\u13da\u13ec\u13a1\u13a2": 656,
    "\u2581\u13a1\u13b6\u13db": 657,
    "\u2581\u13a0\u13c2\u13ef\u13eb\u13cd\u13a9": 658,
    "\u2581\u13a0\u13c2\u13d0\u13a2": 659,
    "\u2581\u13e4": 660,
    "\u2581-": 661,
    "\u2581\u13a6\u13c1\u13b8\u13a2": 662,
    "\u2581\u13a6\u13b5\u13e6\u13db\u13a2": 663,
    "\u2581\u13a4\u13d9": 664,
    "\u2581\u13a4\u13a7\u13db": 665,
    "\u2581\u13c2\u13af\u13c3": 666,
    "\u2581\u13be\u13cd\u13a9\u13cd\u13a9\u13c2": 667,
    "\u2581\u13a6\u13cd\u13a9\u13b6": 668,
    "\u2581\u13a2\u13ef\u13c2": 669,
    "\u2581\u13a0\u13b9\u13f1": 670,
    "\u2581\u13cc\u13c9\u13c9": 671,
    "\u2581\u13d7\u13c5\u13c3\u13db": 672,
    "\u2581\u13e5\u13cd\u13c6": 673,
    "\u2581\u13a1\u13ba\u13c5": 674,
    "\u2581\u13ac\u13e9\u13da\u13eb\u13db": 675,
    "\u2581\u13a9\u13b3\u13c8\u13f4": 676,
    "\u2581\u13a4\u13e3\u13b4\u13cd\u13d7": 677,
    "\u2581\u13a0\u13ac\u13f1\u13e3": 678,
    "\u2581\u13a3\u13af\u13cd\u13d9\u13d7": 679,
    "\u2581\u13ad\u13eb\u13c2\u13e3": 680,
    "\u2581\u13e3\u13b3\u13a9": 681,
    "\u2581\u13ac\u13d4\u13c5\u13af": 682,
    "\u2581\u13c2\u13e3": 683,
    "\u2581\u13ac\u13c2\u13a8": 684,
    "\u2581\u13a3\u13c2\u13c3": 685,
    "\u13be\u13cd\u13a9": 686,
    "\u13b2\u13be": 687,
    "\u2581\u13a4\u13be\u13d9\u13d3\u13c6\u13cd\u13ac": 688,
    "\u2581\u13c2\u13da\u13ea\u13ce\u13b4": 689,
    "\u2581\u13a4\u13d9\u13b4\u13b0\u13d2": 690,
    "\u2581\u13a4\u13d3\u13c5\u13d9": 691,
    "\u2581\u13d7\u13ac": 692,
    "\u13c1\u13b8\u13af": 693,
    "\u2581\u13b4\u13e5\u13b5": 694,
    "\u2581\u13a0\u13c2\u13f2\u13cd\u13a9": 695,
    "\u2581\u13a0\u13c2\u13e3\u13b3\u13a9": 696,
    "\u2581\u13a6\u13b8\u13b3\u13d7\u13e2": 697,
    "\u2581\u13a4\u13c5": 698,
    "\u2581\u13d7\u13ac\u13e9": 699,
    "\u2581\u13aa": 700,
    "\u2581\u13a0\u13b5": 701,
    "\u13b4\u13cd\u13d7": 702,
    "\u13a8\u13b3\u13cd\u13d7\u13f1": 703,
    "\u2581\u13e5\u13a8\u13d0": 704,
    "\u2581\u13c2\u13e5\u13a5": 705,
    "\u2581\u13a0\u13a6": 706,
    "\u2581\u13cd\u13a9\u13f4": 707,
    "\u2581\u13d7\u13c4\u13ec": 708,
    "\u2581\u13eb\u13be\u13cd\u13db\u13be": 709,
    "\u2581\u13a1\u13c9\u13c2": 710,
    "\u2581\u13e7\u13d2\u13af\u13db": 711,
    "\u2581\u13ce\u13b5": 712,
    "\u2581\u13aa\u13a9": 713,
    "\u2581\u13e4\u13af": 714,
    "\u13d7\u13cd\u13a9": 715,
    "\u2581\u13a4\u13b5": 716,
    "\u2581\u13c2\u13a6\u13ea\u13cd\u13ac": 717,
    "\u2581\u13a1\u13ad": 718,
    "\u2581\u13da\u13cf\u13b3\u13db": 719,
    "\u2581\u13c2\u13da": 720,
    "\u2581\u13ab": 721,
    "\u2581\u13d4": 722,
    "\u2581\u13a4\u13ea\u13d8": 723,
    "\u2581\u13d6\u13b8\u13b3\u13d7": 724,
    "\u2581\u13c3\u13c8\u13cf": 725,
    "\u2581\u13a0\u13d5\u13b3": 726,
    "\u2581\u13be\u13c2\u13ea\u13cd\u13a8\u13a2": 727,
    "\u2581\u13a0\u13c6\u13e4\u13b5\u13a6": 728,
    "\u2581\u13a6\u13da\u13cf": 729,
    "\u2581\u13e7\u13d7\u13f1": 730,
    "\u2581\u13a0\u13cb\u13d2": 731,
    "\u13bb": 732,
    "\u13ea": 733,
    "\u2581\u13a2\u13be\u13a8\u13a2": 734,
    "\u2581\u13d1\u13be\u13b4\u13a2": 735,
    "\u2581\u13a8\u13be\u13c2": 736,
    "\u2581\u13a3\u13ad\u13c1": 737,
    "\u2581\u13ed\u13d5\u13b5\u13ac": 738,
    "\u2581\u13a4\u13cf\u13d9\u13b5": 739,
    "\u2581\u13c2\u13ac\u13e9\u13ea\u13ce\u13b4\u13a2": 740,
    "\u2581\u13a2\u13f3\u13df\u13b6\u13db": 741,
    "\u2581\u13aa\u13f1\u13c1\u13a2": 742,
    "\u2581\u13ab\u13e9": 743,
    "\u2581\u13d5\u13af": 744,
    "\u2581\u13d9\u13f1": 745,
    "\u2581\u13e4\u13cd\u13d7": 746,
    "\u2581\u13f1\u13da": 747,
    "\u13d7\u13cd\u13ac": 748,
    "\u13af\u13f3": 749,
    "\u2581\u13a0\u13c2\u13a6\u13d4\u13b2": 750,
    "\u2581\u13a4\u13b5\u13cf\u13ac": 751,
    "\u2581\u13a4\u13c1\u13e4": 752,
    "\u13c4": 753,
    "\u2581\u13d7\u13e8\u13cd\u13d9\u13d7": 754,
    "\u2581\u13a6\u13b6\u13c7": 755,
    "\u2581\u13d1\u13be\u13d3\u13e1\u13a9": 756,
    "\u2581\u13a9\u13a6": 757,
    "\u2581\u13c3\u13ca": 758,
    "\u13b7": 759,
    "\u13db\u13be": 760,
    "\u2581\u13a2\u13be\u13db": 761,
    "\u13d3\u13c1\u13d7": 762,
    "\u2581\u13c5\u13d7\u13a6\u13b5\u13cd\u13d9\u13d7\u13cd\u13a8\u13cd\u13d7": 763,
    "\u13ac\u13a9": 764,
    "\u2581\u13a0\u13f4\u13c3": 765,
    "\u2581\u13a6\u13b6\u13af\u13cd\u13d7": 766,
    "\u2581\u13e5\u13a8\u13d0\u13a2": 767,
    "\u13d2\u13be": 768,
    "\u2581\u13d7\u13ab\u13aa\u13d9\u13d7": 769,
    "\u2581\u13a6\u13b5": 770,
    "\u2581\u13a4\u13ea\u13b5\u13ce": 771,
    "\u2581\u13c4\u13be\u13cd\u13db": 772,
    "\u2581\u13a1\u13af\u13cd\u13d7": 773,
    "\u2581\u13e1\u13ac": 774,
    "\u2581\u13a4\u13c1\u13e4\u13b4": 775,
    "\u2581\u13a3\u13e5": 776,
    "\u2581\u13a4\u13be\u13d3": 777,
    "\u2581\u13a4\u13c1\u13b3\u13c5\u13af\u13cd\u13a9\u13c2": 778,
    "\u2581\u13a3\u13a6": 779,
    "\u2581\u13e3\u13e5": 780,
    "\u2581\u13a8\u13e5": 781,
    "\u2581\u13ac\u13c3\u13db": 782,
    "\u2581\u13d7\u13b5\u13cd\u13d3\u13f4\u13d7\u13f1": 783,
    "\u13d5\u13cd\u13d7": 784,
    "\u2581\u13a0\u13e5\u13b8\u13c9\u13d7\u13f3": 785,
    "\u2581\u13a0\u13b0\u13b5": 786,
    "\u2581\u13eb\u13da": 787,
    "\u2581\u13a4\u13c1\u13a6": 788,
    "\u2581\u13a4\u13ac\u13eb\u13f3": 789,
    "\u2581\u13f1\u13d3": 790,
    "\u13af\u13a0": 791,
    "\u2581\u13a4\u13e9": 792,
    "\u2581\u13a4\u13cd\u13aa\u13b8": 793,
    "\u2581\u13ac\u13c2\u13f3\u13c9\u13c3": 794,
    "\u2581\u13a1\u13b6": 795,
    "\u2581\u13a4\u13ea\u13b7\u13c1": 796,
    "\u2581\u13c4\u13db\u13c1\u13b4": 797,
    "\u2581\u13a4\u13da\u13b5\u13cd\u13ac": 798,
    "\u2581\u13a0\u13c6\u13d3\u13c5\u13d9": 799,
    "\u2581\u13e7\u13be\u13e4\u13b5": 800,
    "\u2581\u13e7\u13ec\u13f0\u13c2": 801,
    "\u2581\u13c2\u13a6\u13ea\u13ad": 802,
    "\u2581\u13a5\u13de\u13cd\u13d7": 803,
    "\u2581\u13cd\u13d3\u13ef": 804,
    "\u2581\u13a4\u13c2\u13b7\u13e4": 805,
    "\u2581\u13e3\u13c1\u13ad": 806,
    "\u2581\u13a0\u13ce\u13c9\u13c9": 807,
    "\u2581\u13d3\u13f3": 808,
    "\u13d4\u13c2": 809,
    "\u2581\u13ae\u13be": 810,
    "\u2581\u13a2\u13c5": 811,
    "\u2581\u13a8\u13e3": 812,
    "\u2581\u13a4\u13ea": 813,
    "\u2581\u13a0\u13f0\u13b8\u13a2": 814,
    "\u2581\u13a0\u13d3\u13c5\u13d6\u13cd\u13ac": 815,
    "\u2581\u13d3\u13e5": 816,
    "\u2581\u13f1\u13e3": 817,
    "\u2581\u13a0\u13b5\u13cd\u13aa\u13b8\u13d9\u13d7": 818,
    "\u2581\u13ac\u13e9\u13c2": 819,
    "\u13cd\u13d8": 820,
    "\u2581\u13e7\u13c6\u13b6\u13a6": 821,
    "\u2581\u13e6\u13a0\u13cd\u13aa\u13af": 822,
    "\u2581\u13d7\u13a7\u13b8\u13ac": 823,
    "\u2581\u13a4\u13a9\u13ac": 824,
    "\u2581\u13d7\u13c2\u13b3\u13eb\u13a9": 825,
    "\u2581\u13a9\u13b6\u13cd\u13a9\u13c2": 826,
    "\u2581\u13c4\u13be": 827,
    "\u2581\u13c5\u13c3\u13af": 828,
    "\u2581\u13e7\u13be\u13e4\u13b5\u13a6": 829,
    "\u2581\u13a9\u13a6\u13a8\u13a2": 830,
    "\u2581\u13a4\u13e9\u13d2\u13c9": 831,
    "\u13c1\u13e2\u13d4\u13c5\u13db": 832,
    "\u2581\u13d5\u13a4": 833,
    "\u2581\u13c5\u13d7\u13a6\u13b5\u13cd\u13d9\u13d7\u13cd\u13ac": 834,
    "\u2581\u13a3\u13cf": 835,
    "\u13d2\u13af": 836,
    "\u2581\u13d3\u13be": 837,
    "\u2581\u13a2\u13e3\u13b5\u13cd\u13d3\u13c1\u13d7": 838,
    "\u2581\u13cd\u13a9\u13be": 839,
    "\u2581\u13e9\u13ad\u13ef": 840,
    "\u2581\u13d9\u13f1\u13d7\u13e2": 841,
    "\u13da": 842,
    "\u2581\u13a4\u13cd\u13c6\u13c2\u13a9\u13d7": 843,
    "\u2581\u13a1\u13b6\u13d7": 844,
    "\u13d7\u13cd\u13a8\u13cd\u13d7": 845,
    "\u13af\u13cd\u13d7": 846,
    "\u2581\u13a4\u13e0\u13f1\u13c9": 847,
    "\u2581\u13a0\u13d9\u13af": 848,
    "\u2581\u13a4\u13a6\u13d4": 849,
    "\u13b0\u13a2": 850,
    "\u2581\u13db\u13a6": 851,
    "\u13c1\u13b4": 852,
    "\u13d9\u13a2\u13f3\u13cd\u13d7": 853,
    "\u2581\u13ac\u13a9": 854,
    "\u2581\u13a4\u13e3\u13d8\u13c2": 855,
    "\u2581\u13a2\u13f3\u13be\u13b5\u13cd\u13d3\u13c1\u13d7": 856,
    "\u2581\u13a2\u13f3\u13be\u13db\u13c1\u13d7": 857,
    "\u2581\u13af\u13cd\u13a6\u13cd\u13aa\u13af": 858,
    "\u2581\u13c2\u13da\u13f3\u13aa\u13db\u13be": 859,
    "\u2581\u13ce\u13d3\u13c2": 860,
    "\u2581\u13ce\u13b7": 861,
    "\u13db\u13a2": 862,
    "\u2581\u13e3\u13c1\u13e2\u13d4\u13c5\u13af": 863,
    "\u2581\u13e3\u13d9\u13d3": 864,
    "\u2581\u13a4\u13c2\u13d9\u13d3": 865,
    "\u2581\u13e9\u13cd\u13db": 866,
    "\u2581\u13f1\u13e5\u13a6\u13d4\u13ad": 867,
    "\u2581\u13a2\u13e4\u13b2": 868,
    "\u13a9\u13cd\u13d7": 869,
    "\u2581\u13e5\u13bb": 870,
    "\u2581\u13a0\u13d7\u13d4\u13cd\u13d7": 871,
    "\u2581\u13b6\u13d7": 872,
    "\u2581\u13be\u13a5\u13c2\u13a8": 873,
    "\u2581\u13e7\u13d3": 874,
    "\u2581\u13a4\u13b5\u13cd\u13c6\u13b8\u13d7": 875,
    "\u2581\u13a0\u13c2\u13c5": 876,
    "\u2581\u13a4\u13d0\u13f1": 877,
    "\u2581\u13a4\u13ec\u13e2": 878,
    "\u2581\u13a4\u13b5\u13cd\u13d3\u13f4\u13d7": 879,
    "\u2581\u13a8\u13b5": 880,
    "\u2581\u13f1\u13a6\u13b5\u13cd\u13d9\u13d3": 881,
    "\u2581\u13a0\u13e5\u13c5\u13cf\u13d3\u13cd\u13d7": 882,
    "\u2581\u13a4\u13b5\u13cd\u13c8\u13d7": 883,
    "\u2581\u13b5\u13a0": 884,
    "\u2581\u13a2\u13e5\u13cd\u13a6\u13ef": 885,
    "\u2581\u13da\u13be\u13d9\u13a5": 886,
    "--": 887,
    "\u2581\u13a4\u13a7\u13b5\u13e8\u13af": 888,
    "\u2581\u13e7\u13d3\u13cf": 889,
    "\u2581\u13a0\u13a6\u13d4\u13b2": 890,
    "\u2581\u13ce\u13a6": 891,
    "\u2581\u13a4\u13be\u13dd\u13a2": 892,
    "\u13d6": 893,
    "\u2581\u13aa\u13b3": 894,
    "\u2581\u13a4\u13cd\u13aa\u13cd": 895,
    "\u2581\u13c2\u13d7": 896,
    "\u2581\u13a2\u13e4\u13b2\u13a2": 897,
    "\u2581\u13a6\u13ec\u13c2\u13cd\u13ac": 898,
    "\u13e1": 899,
    "\u2581\u13c4\u13ea\u13ce\u13b8": 900,
    "\u2581\u13a0\u13f4\u13cd\u13a9\u13c2": 901,
    "\u2581\u13a4\u13b6\u13a9\u13b8": 902,
    "\u2581\u13a1\u13b2": 903,
    "\u2581\u13f2": 904,
    "\u2581\u13b5\u13c7\u13a9": 905,
    "\u2581\u13a8\u13bb\u13b5": 906,
    "\u2581\u13a4\u13a6\u13be\u13cd\u13db": 907,
    "\u2581\u13da\u13c5\u13d3\u13d2": 908,
    "\u2581\u13a0\u13c2\u13f4\u13eb": 909,
    "\u2581\u13a0\u13a8\u13f3\u13e3": 910,
    "\u2581\u13cf\u13cc": 911,
    "\u2581\u13a1\u13b5": 912,
    "\u2581\u13a4\u13f2\u13b1\u13ce\u13a2": 913,
    "\u2581\u13e5\u13c4\u13cd\u13d7": 914,
    "\u2581\u13ac\u13d9\u13d7": 915,
    "\u2581\u13a6\u13c1\u13a6": 916,
    "\u2581\u13a4\u13b7\u13e4": 917,
    "\u2581\u13a6\u13b8\u13b3\u13d7\u13e3": 918,
    "\u13b8\u13ad": 919,
    "\u13ec": 920,
    "\u2581\u13c5\u13d3": 921,
    "\u13d9\u13b8\u13a2": 922,
    "\u13bf": 923,
    "\u2581\u13ac\u13c5\u13a2": 924,
    "\u2581\u13d3\u13a9": 925,
    "\u2581\u13a4\u13aa\u13ae": 926,
    "\u13c1\u13d7": 927,
    "\u2581\u13a2\u13ef\u13db\u13c1\u13d7": 928,
    "\u2581\u13e7\u13b8\u13eb\u13cd\u13d3\u13c1\u13af": 929,
    "\u2581\u13d4\u13b4\u13b2\u13a6": 930,
    "\u2581\u13a0\u13c2\u13f3\u13e9\u13c1\u13a6": 931,
    "\u2581\u13e5\u13aa\u13ea\u13b3": 932,
    "\u2581\u13e7\u13d3\u13c6\u13d9\u13a9": 933,
    "\u2581\u13d3\u13c6\u13b4\u13b7": 934,
    "\u2581\u13a2\u13ac\u13c1\u13b8\u13af": 935,
    "\u2581\u13a6\u13da\u13a2\u13e3": 936,
    "\u2581\u13a2\u13be\u13d3": 937,
    "\u13c1\u13ad": 938,
    "\u13c7": 939,
    "\u2581\u13ed\u13b7\u13e4": 940,
    "\u2581\u13a4\u13d5\u13ef\u13d9\u13d7": 941,
    "\u2581\u13a2\u13f3\u13b5\u13cd\u13d3\u13c1\u13d7": 942,
    "\u2581\u13a0\u13d7\u13ad": 943,
    "\u2581\u13a4\u13be\u13b5": 944,
    "\u2581\u13a6\u13da\u13a2": 945,
    "\u13cf\u13f4\u13eb\u13ad": 946,
    "\u2581\u13a4\u13c2\u13cd\u13a6\u13c5\u13e8": 947,
    "\u2581\u13ac\u13d7\u13cd\u13ac": 948,
    "\u13cd\u13aa\u13af": 949,
    "\u2581\u13a4\u13db\u13a6\u13c1": 950,
    "\u13d7\u13cd\u13aa": 951,
    "\u2581\u13c4\u13b5\u13cd\u13d4\u13c2\u13d9\u13b8": 952,
    "\u2581\u13a4\u13c2\u13f2": 953,
    "\u2581\u13c8\u13b5\u13a9": 954,
    "\u2581\u13a6\u13b7\u13ef\u13cd\u13d7": 955,
    "\u2581\u13c5\u13d3\u13a6\u13b5\u13cd\u13d4\u13c2": 956,
    "\u2581\u13d4\u13b3\u13cd\u13aa\u13af": 957,
    "\u2581\u13a2\u13e3\u13b5\u13c5\u13df": 958,
    "\u2581\u13d5\u13e7\u13ac": 959,
    "\u2581\u13a4\u13be\u13d3\u13e4\u13b5\u13db": 960,
    "\u2581\u13a0\u13c2\u13a8\u13ef": 961,
    "\u2581\u13a6\u13c5\u13cd\u13d9\u13d7": 962,
    "\u2581\u13a2\u13e5\u13d9\u13d3": 963,
    "\u2581\u13af\u13c5\u13cf\u13d3\u13cd\u13d7": 964,
    "\u2581\u13e7\u13be\u13db\u13d0\u13c5\u13af": 965,
    "\u2581\u13a2\u13e3\u13db\u13c1\u13d7\u13f1": 966,
    "\u2581\u13ce\u13a6\u13e8": 967,
    "\u2581\u13cd\u13aa\u13af": 968,
    "\u13cd\u13d4\u13c1\u13a2": 969,
    "\u2581\u13e5\u13d3": 970,
    "\u2581\u13a6\u13b5\u13c9\u13a9\u13c1": 971,
    "\u2581\u13a0\u13c2\u13d3": 972,
    "\u13ac\u13bf\u13a8": 973,
    "\u2581\u13a4\u13c2\u13aa\u13b2": 974,
    "\u13af\u13cd\u13d7\u13f1": 975,
    "\u2581\u13c2\u13af\u13f0\u13c3": 976,
    "\u13a3\u13cd\u13d3": 977,
    "\u2581\u13a4\u13db\u13be": 978,
    "\u2581\u13d0\u13a3\u13c1\u13b3": 979,
    "\u2581\u13a4\u13a9\u13e8\u13db": 980,
    "\u2581\u13d3\u13bf\u13e9": 981,
    "\u2581\u13a2\u13ef\u13db\u13c1\u13af": 982,
    "\u2581\u13e5\u13c2\u13ac\u13c5": 983,
    "\u2581\u13a2\u13e8\u13a8\u13f3\u13a2": 984,
    "\u2581\u13c2\u13a6\u13b5\u13cd\u13d7\u13ad": 985,
    "\u2581\u13a6\u13b8\u13c9\u13d9\u13d7": 986,
    "\u2581\u13a4\u13b4\u13c2\u13d9\u13b4\u13a2": 987,
    "\u13d9\u13af": 988,
    "\u2581\u13ed\u13b6\u13ce\u13a2": 989,
    "\u2581\u13a2\u13ef\u13cd\u13d7": 990,
    "\u2581\u13a1\u13ae\u13a2": 991,
    "\u2581\u13be\u13af\u13f3\u13c9": 992,
    "\u2581\u13a4\u13b7\u13e8\u13a9": 993,
    "\u2581\u13a4\u13ea\u13c5\u13ce": 994,
    "\u13db\u13a9": 995,
    "\u2581\u13c2\u13a6\u13a5\u13c9": 996,
    "\u2581\u13a0\u13d3\u13c5\u13d3\u13d7\u13cd\u13d7": 997,
    "\u2581\u13a4\u13c1\u13e4\u13b8": 998,
    "\u2581\u13d7\u13be": 999,
    "\u13a8\u13f3\u13af\u13f3": 1000,
    "\u2581\u13e9\u13ef": 1001,
    "\u13a0\u13d7\u13d4\u13cd\u13d7": 1002,
    "\u13d7\u13a6\u13c5\u13cc\u13d7": 1003,
    "\u2581\u13d7\u13a6\u13da\u13b2": 1004,
    "\u13cd\u13ac\u13be": 1005,
    "\u2581\u13d7\u13a8\u13d2": 1006,
    "\u2581\u13a4\u13b5\u13cd\u13c6\u13d7\u13cd\u13d7": 1007,
    "\u2581\u13e7\u13c2\u13be\u13eb": 1008,
    "\u2581\u13a0\u13c2\u13cd\u13a6\u13be": 1009,
    "\u2581\u13c2\u13ac\u13be\u13db\u13a2": 1010,
    "\u13a7\u13d4\u13ae\u13a2": 1011,
    "\u2581\u13a7\u13c3\u13af\u13f0\u13a9": 1012,
    "\u2581\u13a5\u13d3\u13b5": 1013,
    "\u2581\u13c5\u13ac\u13e9\u13ea\u13ce\u13b8\u13a9": 1014,
    "\u2581\u13a2\u13e5\u13a6\u13d4\u13ad": 1015,
    "\u2581\u13a4\u13be\u13eb": 1016,
    "\u2581\u13cf\u13d3\u13c1\u13b8\u13af": 1017,
    "\u2581\u13a4\u13df\u13af\u13f3": 1018,
    "\u2581\u13a0\u13c2\u13c3\u13af\u13b5\u13d9\u13af": 1019,
    "\u2581\u13a0\u13d3\u13c1\u13af": 1020,
    "\u2581\u13a6\u13db\u13a6": 1021,
    "\u2581\u13a0\u13e4\u13af": 1022,
    "\u2581\u13e4\u13ad": 1023,
    "\u2581\u13a2\u13ac\u13e9": 1024,
    "\u2581\u13aa\u13ea\u13b8\u13a2": 1025,
    "\u2581\u13a0\u13c2\u13a6\u13d4\u13b2\u13a2": 1026,
    "\u2581\u13e7\u13c2\u13cd\u13d7": 1027,
    "\u2581\u13d7\u13a8": 1028,
    "\u2581\u13e7\u13e9": 1029,
    "\u2581\u13a6\u13d3\u13c1": 1030,
    "\u2581\u13c5\u13e9\u13d3\u13b4\u13c3": 1031,
    "\u2581\u13aa\u13ea\u13b8": 1032,
    "\u2581\u13a0\u13ef\u13d9": 1033,
    "\u2581\u13a4\u13d5\u13d8\u13f4\u13cc\u13d7\u13d2": 1034,
    "\u2581\u13a0\u13cd\u13db": 1035,
    "\u13c5\u13d2": 1036,
    "\u2581\u13a0\u13c2\u13ec\u13c2\u13cd\u13ac": 1037,
    "\u2581\u13c4\u13e9\u13c1\u13b4": 1038,
    "\u2581\u13a4\u13bf": 1039,
    "\u2581\u13f4\u13eb\u13c9": 1040,
    "\u2581\u13c2\u13a6\u13b5\u13cd\u13d7\u13cd\u13ac": 1041,
    "\u2581\u13da\u13b4\u13c5": 1042,
    "\u2581\u13a6\u13c4\u13b8": 1043,
    "\u2581\u13a6\u13d9\u13ac": 1044,
    "\u2581\u13a0\u13e0\u13c1\u13d7": 1045,
    "\u2581\u13d7\u13c7\u13e5": 1046,
    "\u2581\u13c5\u13d3\u13f3\u13b6\u13d2\u13af": 1047,
    "\u2581\u13a1\u13c9\u13af\u13f3": 1048,
    "\u2581\u13a0\u13a6\u13d8\u13cf\u13d7\u13e2": 1049,
    "\u2581\u13a6\u13ec\u13c2\u13cd\u13a9": 1050,
    "\u2581\u13e7\u13f3\u13aa\u13d7": 1051,
    "\u2581\u13d7\u13f0\u13b8\u13af": 1052,
    "\u2581\u13e9\u13b6\u13cf": 1053,
    "\u2581\u13a4\u13d4\u13b3\u13ec\u13af\u13cd\u13d7": 1054,
    "\u2581\u13a6\u13b7\u13e8\u13ad": 1055,
    "\u2581\u13be\u13cd\u13a9\u13ef\u13c9": 1056,
    "\u2581\u13a0\u13d3\u13eb": 1057,
    "\u2581\u13a6\u13b8": 1058,
    "\u2581\u13a0\u13b9\u13df": 1059,
    "\u2581\u13a0\u13c6\u13db\u13c5": 1060,
    "\u2581\u13af\u13aa": 1061,
    "\u13c1\u13b3": 1062,
    "\u13b2\u13a6": 1063,
    "\u13db\u13c1\u13d7": 1064,
    "\u2581\u13c2\u13d3": 1065,
    "\u2581\u13a0\u13a6\u13d7": 1066,
    "\u13a7\u13c2": 1067,
    "\u13d5\u13be": 1068,
    "\u2581\u13a8\u13a6": 1069,
    "\u2581\u13a4\u13c1\u13e8\u13a9": 1070,
    "\u2581\u13c4\u13db\u13c1\u13b8": 1071,
    "\u2581\u13d9\u13db": 1072,
    "---": 1073,
    "\u2581\u13a6\u13d9\u13a8": 1074,
    "\u2581\u13c4\u13cd\u13d5": 1075,
    "\u2581\u13e5\u13e3": 1076,
    "\u2581\u13d5\u13a4\u13d9\u13a5": 1077,
    "\u2581\u13d3\u13f3\u13d3\u13b4\u13c5": 1078,
    "\u13a8\u13d2": 1079,
    "\u2581\u13a0\u13c6\u13da\u13b5": 1080,
    "\u2581\u13e7\u13b8\u13eb\u13cd\u13d3\u13c1\u13d7": 1081,
    "\u2581\u13a0\u13a6\u13f4\u13b5": 1082,
    "\u2581\u13d7\u13cf\u13d3\u13b5": 1083,
    "\u2581\u13a3\u13e3\u13b5\u13c5\u13df": 1084,
    "\u2581\u13e4\u13a9\u13cf\u13c2": 1085,
    "\u2581\u13af\u13b8\u13a2\u13f4": 1086,
    "\u2581\u13c6\u13c2\u13c6": 1087,
    "\u2581\u13a2\u13d3\u13d3\u13c5\u13df": 1088,
    "\u2581\u13a8\u13e5\u13b8\u13c9\u13d7": 1089,
    "\u2581\u13d7\u13a8\u13a6\u13c1\u13b6\u13d7": 1090,
    "\u2581\u13a0\u13c8\u13bb\u13b4\u13a9": 1091,
    "\u2581\u13d3\u13a6\u13b7\u13e5": 1092,
    "\u2581\u13d7\u13a8\u13eb": 1093,
    "\u2581\u13a2\u13ac": 1094,
    "\u2581\u13a4\u13a6\u13b5\u13cd\u13d7": 1095,
    "\u2581\u13a0\u13c1\u13d9\u13af": 1096,
    "\u2581\u13ac\u13e9\u13d5\u13c1\u13b4\u13a2": 1097,
    "\u2581\u13be\u13a9\u13ea\u13ce\u13b8\u13a9": 1098,
    "\u13c5\u13be": 1099,
    "\u2581\u13d5\u13e3\u13d3\u13c5\u13db\u13a2": 1100,
    "\u2581\u13e6\u13f0\u13c2": 1101,
    "\u2581\u13a4\u13d4\u13be": 1102,
    "\u2581\u13a0\u13c2\u13aa\u13a2": 1103,
    "\u13f1\u13a9": 1104,
    "\u2581\u13f4\u13a9": 1105,
    "\u13a2\u13f3\u13cd\u13d7": 1106,
    "\u201d": 1107,
    "\u2581\u13d7\u13a9": 1108,
    "\u2581\u13a3\u13d3\u13b8\u13a2": 1109,
    "\u2581\u13e7\u13ac": 1110,
    "\u2581\u13aa\u13ea\u13b5\u13af": 1111,
    "\u2581\u13a6\u13f0": 1112,
    "\u2581\u13d3\u13c6": 1113,
    "\u13e8\u13a9": 1114,
    "\u2581\u13aa\u13af\u13d3": 1115,
    "\u13d1": 1116,
    "e": 1117,
    "\u2581\u13c4\u13b5\u13cd\u13d4\u13c5\u13a2": 1118,
    "\u2581\u13d5\u13e3\u13d9\u13a5": 1119,
    "\u13c5\u13cf\u13db": 1120,
    "\u2581\u13a0\u13b5\u13cd\u13da\u13b6": 1121,
    "\u2581\u13a0\u13e4": 1122,
    "\u2581\u13a5\u13a9": 1123,
    "\u2581\u13a6\u13a8": 1124,
    "\u2581\u13c4\u13e9\u13c1\u13b8": 1125,
    "\u2581\u13a2\u13e3\u13e4\u13b5": 1126,
    "\u2581\u13aa\u13cd\u13da": 1127,
    "\u2581\u13d8\u13c5\u13cf\u13d3\u13cd\u13d7": 1128,
    "\u2581\u13c4\u13c2\u13ac\u13eb\u13f3\u13cc\u13d5\u13a9": 1129,
    "\u2581\u13d7\u13d3\u13c5\u13d9": 1130,
    "\u2581\u13a2\u13b3\u13ef": 1131,
    "\u2581\u13a4\u13d7\u13b4\u13a9": 1132,
    "\u2581\u13a4\u13be\u13b5\u13cd\u13d5\u13b8\u13d9\u13d7": 1133,
    "\u2581\u13d7\u13d8\u13c2\u13d9\u13af": 1134,
    "\u2581\u13d0\u13b3": 1135,
    "\u2581\u13e5\u13d5": 1136,
    "\u2581\u13d7\u13dc": 1137,
    "\u2581\u13a4\u13cd\u13a6\u13c3\u13b5": 1138,
    "\u2581\u13a4\u13e9\u13d2\u13af\u13f3": 1139,
    "\u2581\u13a0\u13cd\u13d3\u13f1": 1140,
    "\u2581\u13d7\u13e3\u13e4\u13b5\u13a6": 1141,
    "\u2581\u13a0\u13c6\u13da\u13b5\u13ad": 1142,
    "\u2581\u13d1": 1143,
    "\u2581\u13a4\u13d5\u13c5\u13af": 1144,
    "\u13c1\u13b5": 1145,
    "\u2581\u13a4\u13d9\u13af\u13f3\u13d2": 1146,
    "\u2581\u13ac\u13d7\u13cd\u13a9": 1147,
    "\u2581\u13d9\u13f3": 1148,
    "\u2581\u13f1\u13d7": 1149,
    "\u2581\u13ef\u13c6": 1150,
    "\u13cd\u13d9": 1151,
    "\u2581\u13de\u13a6": 1152,
    "\u13a2\u13cd\u13d7\u13f1": 1153,
    "\u2581\u13d5\u13a8": 1154,
    "\u13a6\u13c5\u13af\u13db": 1155,
    "\u13cd\u13c6": 1156,
    "\u2581\u13d3\u13ac": 1157,
    "t": 1158,
    "\u2581\u13a5\u13cd\u13a9": 1159,
    "\u2581\u13af\u13ef": 1160,
    "\u2581\u13a9": 1161,
    "\u2581\u13e7\u13c2\u13e2\u13a9": 1162,
    "\u13e0": 1163,
    "\u13d5\u13a2": 1164,
    "\u2581\u13a0\u13e5\u13b8\u13f1": 1165,
    "\u2581\u13e5\u13c8": 1166,
    "\u2581\u13ed\u13c2": 1167,
    "\u2581\u13a4\u13b6\u13d0\u13c5": 1168,
    "\u13a5\u13a2": 1169,
    "\u2581\u13a0\u13a7\u13b5\u13a2": 1170,
    "\u2581\u13a0\u13f0\u13d9\u13b3\u13db\u13d7": 1171,
    "\u2581\u13d3\u13cf\u13b3\u13db": 1172,
    "\u2581\u13e9\u13cf\u13d3\u13c2": 1173,
    "\u2581\u13a0\u13cd\u13c6\u13a8\u13c2": 1174,
    "\u2581\u13e9\u13da\u13b5\u13cf": 1175,
    "\u2581\u13e7\u13d5\u13d8\u13f4\u13d3": 1176,
    "\u13a0\u13c2\u13b3\u13cd\u13d3\u13b8": 1177,
    "\u2581\u13e5\u13d4\u13a6": 1178,
    "\u2581\u13e7\u13ef\u13d6\u13be": 1179,
    "\u2581\u13da\u13ec\u13e2\u13d4\u13c5\u13a9": 1180,
    "\u2581\u13a4\u13ec\u13da\u13af": 1181,
    "\u2581\u13a7\u13c3\u13ae\u13cd\u13a9": 1182,
    "\u2581\u13f1\u13c4\u13cd\u13d7": 1183,
    "\u2581\u13a4\u13c5\u13cc": 1184,
    "\u2581\u13e7\u13c2\u13b8\u13eb\u13cd\u13d3\u13c1\u13d7\u13f1": 1185,
    "\u2581\u13a0\u13b9\u13f0\u13b5": 1186,
    "\u2581\u13be\u13c3": 1187,
    "\u2581\u13e5\u13c1\u13ac\u13a2": 1188,
    "\u2581\u13f1\u13d7\u13e5": 1189,
    "\u13b5\u13cd\u13d7": 1190,
    "\u2581\u13a4\u13f2\u13b1\u13d2\u13af": 1191,
    "\u2581\u13a4\u13b5\u13cd\u13d7": 1192,
    "\u13db\u13a6": 1193,
    "\u2581\u13f1\u13e5": 1194,
    "\u2581\u13a8\u13c2": 1195,
    "\u2581\u13ab\u13e2\u13d7": 1196,
    "\u13cc\u13db": 1197,
    "\u2581\u13c2\u13e5": 1198,
    "\u2581\u13ae": 1199,
    "\u2581\u13a7\u13c1\u13ac\u13a2": 1200,
    "\u2581\u13d7\u13a6\u13b8\u13c9\u13d7": 1201,
    "\u2581\u13da\u13c1\u13e4\u13b4": 1202,
    "\u2581\u13a0\u13cd\u13a6\u13be": 1203,
    "\u2581\u13a4\u13c2\u13e5": 1204,
    "\u2581\u13d7\u13c6": 1205,
    "\u2581\u13be\u13c2\u13a5\u13c9": 1206,
    "\u2581\u13d9\u13af": 1207,
    "\u2581\u13a0\u13d4\u13b4\u13d2": 1208,
    "\u13af\u13cd\u13d9\u13d7": 1209,
    "\u2581\u13a0\u13b2\u13a2": 1210,
    "\u2581\u13e6\u13a9": 1211,
    "\u2581\u13da\u13d9\u13a5\u13a2": 1212,
    "\u2581\u13e7\u13ea\u13c5\u13d2": 1213,
    "\u2581\u13d7\u13d3\u13b4\u13c2\u13cd\u13ac": 1214,
    "\u2581\u13a0\u13e6\u13f4": 1215,
    "\u2581\u13a6\u13e5": 1216,
    "\u2581\u13c2\u13d5": 1217,
    "\u2581\u13a4\u13ec\u13b8": 1218,
    "\u13a2\u13cd\u13d7": 1219,
    "\u2581\u13d7\u13a6\u13ab\u13cd\u13db\u13d7": 1220,
    "\u2581\u13cd\u13c8\u13cd\u13d3": 1221,
    "\u2581\u13b5\u13eb": 1222,
    "\u2581\u13a8\u13e5\u13c5\u13cf\u13d3\u13cd\u13d7": 1223,
    "\u2581\u13cc\u13ca": 1224,
    "\u2581\u13cc\u13aa\u13c2\u13a8": 1225,
    "\u2581\u13a7\u13c2\u13a9\u13d3": 1226,
    "\u2581\u13a4\u13a6\u13be\u13cd\u13d3": 1227,
    "\u2581\u13da\u13ec\u13e2\u13c5\u13a9": 1228,
    "\u2581\u13a6\u13b6\u13d9\u13d7": 1229,
    "\u2581\u13a2\u13a9\u13d9\u13d3": 1230,
    "\u2581\u13be\u13cd\u13a6\u13c5\u13be": 1231,
    "\u2581\u13a0\u13c2\u13a9\u13cf": 1232,
    "\u2581\u13cd\u13d4\u13ef": 1233,
    "\u2581\u13a4\u13ec\u13d7\u13a8": 1234,
    "\u2581\u13a4\u13be\u13c1\u13b3\u13a9": 1235,
    "\u2581\u13ab\u13ab": 1236,
    "\u2581\u13a0\u13e2\u13d7\u13f1": 1237,
    "\u2581\u13a0\u13f2\u13a9": 1238,
    "\u2581\u13a4\u13d3\u13c5\u13d8\u13f3": 1239,
    "\u2581\u13a0\u13a9\u13cf": 1240,
    "\u2581\u13a4\u13c5\u13df": 1241,
    "\u2581\u13da\u13b8\u13eb\u13cd\u13d3\u13c1\u13b2\u13a2": 1242,
    "\u13d0\u13a2": 1243,
    "\u2581\u13a4\u13d3\u13c5\u13d6": 1244,
    "\u2581\u13a2\u13f3\u13cd\u13d7\u13c9": 1245,
    "\u2581\u13a6\u13c5\u13af\u13db": 1246,
    "\u2581\u13a4\u13be\u13b5\u13a2": 1247,
    "\u2581\u13c1": 1248,
    "\u2581\u13a1\u13b2\u13a2": 1249,
    "\u2581\u13a2\u13a6\u13d8": 1250,
    "\u13a1\u13a2": 1251,
    "\u13cd\u13a6\u13c5\u13a2\u13cd\u13d7": 1252,
    "\u2581\u13eb\u13a6": 1253,
    "\u2581\u13a4\u13b8\u13c9\u13d7": 1254,
    "\u2581\u13c5\u13a9\u13c1": 1255,
    "\u2581\u13be\u13a5\u13a2": 1256,
    "\u13e4\u13cd\u13d7": 1257,
    "\u2581\u13d3\u13d3\u13bf\u13e9\u13cd\u13db": 1258,
    "\u2581\u13c2\u13da\u13a9\u13e8\u13c2\u13d2": 1259,
    "\u2581\u13d3\u13c6\u13d9\u13a5": 1260,
    "\u2581\u13a4\u13c2\u13e3\u13d6": 1261,
    "\u2581\u13a4\u13c3\u13f4\u13ac": 1262,
    "\u13a0\u13b4": 1263,
    "\u2581\u13a2\u13a6\u13a6\u13db": 1264,
    "\u2581\u13e7\u13be\u13cd\u13d7": 1265,
    "\u2581\u13cd\u13c6": 1266,
    "\u2581\u13a2\u13be": 1267,
    "\u13b2\u13cf": 1268,
    "\u13cd\u13ac\u13a9": 1269,
    "\u2581\u13d7\u13a7\u13c3\u13d7": 1270,
    "\u2581\u13e5\u13a6": 1271,
    "\u2581\u13a0\u13a6\u13d8\u13cf": 1272,
    "\u2581\u13d7\u13d6\u13b5\u13d9": 1273,
    "\u2581\u13a4\u13cd\u13a6\u13ce\u13d7": 1274,
    "\u2581\u13e7\u13c3\u13f0\u13c2": 1275,
    "\u2581\u13c5\u13db\u13a9\u13c5\u13cf\u13db": 1276,
    "\u2581\u13c2\u13a6\u13ea\u13cd\u13a8\u13a2": 1277,
    "\u2581\u13d7\u13c2\u13a6\u13d9\u13b5": 1278,
    "\u2581\u13be\u13ce\u13b5\u13d7": 1279,
    "\u2581\u13a0\u13a9\u13c5\u13cf\u13d9\u13af": 1280,
    "\u2581\u13a0\u13c2\u13aa\u13d5\u13cd\u13a9": 1281,
    "\u2581\u13af\u13b8\u13af\u13f3": 1282,
    "\u2581\u13ac\u13c2\u13d7\u13f3": 1283,
    "\u2581\u13e6\u13b3\u13c2": 1284,
    "\u2581\u13a4\u13cd\u13c6\u13b8\u13b2": 1285,
    "\u2581\u13d7\u13a7\u13c3\u13d7\u13f1": 1286,
    "\u2581\u13da\u13aa\u13ae": 1287,
    "\u2581\u13c5\u13d7\u13a6\u13b5\u13cd\u13d9\u13d7\u13cd\u13aa": 1288,
    "\u2581\u13a4\u13c2\u13b7\u13e8\u13a9": 1289,
    "\u2581\u13a6\u13ec\u13c2\u13af\u13cd\u13d7": 1290,
    "\u2581\u13ad\u13be\u13be": 1291,
    "\u13b4\u13af\u13d0\u13d7": 1292,
    "\u2581\u13d7\u13e4": 1293,
    "\u2581\u13a0\u13bc": 1294,
    "\u2581\u13eb\u13e3": 1295,
    "\u2581\u13a4\u13e5\u13b8\u13a2": 1296,
    "\u13d2\u13ad": 1297,
    "\u2581\u13a4\u13ea\u13bf\u13a2": 1298,
    "\u2581\u13d9\u13d3": 1299,
    "\u13da\u13b5\u13cd\u13ac\u13be": 1300,
    "\u2581\u13ed\u13b7\u13e4\u13a2": 1301,
    "\u2581\u13a4\u13d2\u13a2": 1302,
    "\u2581\u13a2\u13ac\u13c1\u13d7": 1303,
    "\u13a6\u13d4\u13b2\u13be": 1304,
    "\u2581\u13e7\u13cd\u13d7": 1305,
    "\u13a0\u13cb\u13cc": 1306,
    "\u13c2\u13cf": 1307,
    "\u13a1\u13b5": 1308,
    "\u13c1\u13b2": 1309,
    "\u2581\u13a0\u13ac": 1310,
    "\u13cd\u13d4": 1311,
    "\u13c1\u13b3\u13c5\u13af": 1312,
    "\u2581\u13d7\u13a6\u13d3": 1313,
    "\u2581\u13ac\u13e9\u13be": 1314,
    "\u13e4\u13a2": 1315,
    "\u2581\u13c5\u13db": 1316,
    "\u2581\u13a4\u13cd\u13a6\u13c5\u13e8": 1317,
    "\u13c1\u13b4\u13a2": 1318,
    "\u2581\u13a6\u13db\u13ac": 1319,
    "\u2581\u13a6\u13b3\u13a8\u13f4": 1320,
    "\u2581\u13d5\u13a6\u13da\u13b2": 1321,
    "\u2581\u13d7\u13a9\u13a6\u13f4\u13b5\u13a8": 1322,
    ",]": 1323,
    "\u2581\u13c2\u13e3\u13db\u13c1\u13b8": 1324,
    "\u2581\u13da\u13c2\u13b8\u13eb\u13cd\u13d3\u13c1\u13b2": 1325,
    "\u2581\u13a6\u13d3\u13c5\u13d6\u13cd\u13ac": 1326,
    "\u2581\u13da\u13be\u13d3\u13c5\u13db": 1327,
    "\u13a9\u13ce": 1328,
    "\u2581\u13a6\u13c5\u13c5": 1329,
    "\u2581\u13a4\u13d5\u13c5": 1330,
    "\u13b2\u13cd\u13a9": 1331,
    "\u2581\u13da\u13ef": 1332,
    "\u2581\u13c7\u13c2": 1333,
    "\u2581\u13a2\u13e4\u13be": 1334,
    "\u2581\u13a4\u13c2\u13ec\u13c2\u13af\u13cd\u13d7": 1335,
    "\u2581\u13a4\u13be\u13b5\u13cd\u13d3\u13f4\u13d7": 1336,
    "\u2581\u13a4\u13c2\u13f4\u13cd\u13d7": 1337,
    "c": 1338,
    "\u2581\u13a2\u13e5\u13c8": 1339,
    "\u2581\u13a2\u13f3\u13e9\u13ab\u13d7": 1340,
    "\u2581\u13c4\u13c3\u13af\u13f3\u13d2\u13be": 1341,
    "\u2581\u13d2\u13a7\u13d4": 1342,
    "\u2581\u13a2\u13f3\u13d3\u13b4\u13a9": 1343,
    "\u2581\u13a2\u13e5\u13e1\u13f1": 1344,
    "\u2581\u13da\u13d9\u13a1\u13a2": 1345,
    "\u2581\u13a2\u13f3\u13e9\u13c2\u13b8": 1346,
    "\u2581\u13d9\u13b4\u13db": 1347,
    "\u2581\u13a6\u13b5\u13c6\u13cd\u13aa\u13af": 1348,
    "\u2581\u13eb\u13e5\u13a2\u13a6": 1349,
    "\u2581\u13ea\u13cc": 1350,
    "\u2581\u13a2\u13e4\u13ef\u13d4\u13ae\u13cd\u13d7": 1351,
    "\u2581\u13a6\u13c3\u13b8\u13a5\u13cd\u13ac": 1352,
    "\u2581\u13a2\u13cc\u13ef": 1353,
    "\u2581\u13a2\u13d7\u13a6\u13d4\u13ad": 1354,
    "\u2581\u13c5\u13d3\u13f3\u13b5\u13cd\u13d9\u13d4\u13c5\u13a9": 1355,
    "\u2581\u13c4\u13ac\u13eb\u13f3\u13cc\u13d5\u13a9": 1356,
    "\u2581\u13a2\u13e8\u13f2\u13ce\u13ad": 1357,
    "\u2581\u13d7\u13b9\u13d7": 1358,
    "\u2581\u13e7\u13d9\u13d3\u13c6\u13d3": 1359,
    "\u2581\u13e5\u13cd\u13da": 1360,
    "\u2581\u13a4\u13af\u13d0\u13d7": 1361,
    "\u2581\u13a4\u13b5\u13d1\u13eb\u13d3": 1362,
    "\u2581\u13a0\u13cf\u13be\u13cc\u13c2": 1363,
    "\u2581\u13d3\u13ef\u13a2": 1364,
    "\u2581\u13a0\u13ab\u13f4\u13d9\u13d7": 1365,
    "\u2581\u13a4\u13f2\u13e8": 1366,
    "\u2581\u13d7\u13a6\u13aa\u13d7\u13f1": 1367,
    "\u2581\u13a6\u13be\u13f0\u13af\u13cd\u13d7": 1368,
    "\u2581\u13a4\u13be\u13eb\u13f1": 1369,
    "\u2581\u13a4\u13be\u13c4\u13aa\u13eb\u13d2\u13af": 1370,
    "\u2581\u13d7\u13e6\u13e2\u13d7": 1371,
    "\u2581\u13a0\u13b4\u13ec": 1372,
    "\u13aa\u13af": 1373,
    "\u2581\u13a0\u13c6\u13db\u13a6\u13c5\u13a9": 1374,
    "\u2581\u13c9\u13b3\u13c3": 1375,
    "\u2581\u13ed\u13f4\u13b4\u13a2": 1376,
    "\u13cd\u13d4\u13c2": 1377,
    "\u2581\u13c1\u13b3": 1378,
    "\u2581\u13e9\u13cd\u13d7": 1379,
    "\u2581\u13be\u13c2\u13a5\u13a2": 1380,
    "\u2581\u13e7\u13ea": 1381,
    "\u2581\u13a0\u13a9\u13cd\u13d7": 1382,
    "\u2581\u13a2\u13e4\u13af": 1383,
    "\u2581\u13a1\u13d8": 1384,
    "\u2581\u13a0\u13d3\u13c1\u13b8\u13a2": 1385,
    "\u13b6\u13d7": 1386,
    "\u2581\u13a4\u13f2\u13a2": 1387,
    "\u13d1\u13f4\u13be": 1388,
    "\u2581\u13c4\u13cd\u13db\u13a2": 1389,
    "\u13aa\u13d7": 1390,
    "\u13c1\u13ae\u13cd\u13d7": 1391,
    "\u2581\u13f3\u13be": 1392,
    "\u13c1\u13b8\u13a9": 1393,
    "\u13be\u13dd\u13a2": 1394,
    "\u13ee": 1395,
    "\u13d4\u13c5\u13ad": 1396,
    "\u13a6\u13d8": 1397,
    "\u2581\u13a0\u13c2\u13c3\u13ae\u13cd\u13ac": 1398,
    "\u13a4\u13c1\u13b3\u13c5\u13af": 1399,
    "\u2581\u13d3\u13d3\u13c1\u13b8": 1400,
    "\u2581\u13ed\u13b6\u13d2": 1401,
    "\u13e5\u13cc": 1402,
    "\u2581\u13af\u13b8": 1403,
    "\u13db\u13ac\u13a6": 1404,
    "\u13c9\u13c3": 1405,
    "\u2581\u13a1\u13c9\u13d7": 1406,
    "\u2581Cr": 1407,
    "\u2581\u13a2\u13f3\u13be\u13db\u13bf\u13d5\u13a9": 1408,
    "\u2581\u13cd\u13a6\u13da\u13a9": 1409,
    "\u2581\u13c2\u13e5\u13ea\u13ad": 1410,
    "\u2581\u13ce\u13a9\u13b5": 1411,
    "\u2581\u13e7\u13d3\u13d5\u13d2\u13db": 1412,
    "\u2581\u13d7\u13c2\u13ad\u13c4\u13b8\u13af": 1413,
    "\u2581\u13a1\u13c8\u13cc": 1414,
    "\u2581\u13a0\u13e6\u13ad\u13f4": 1415,
    "\u2581\u13a4\u13aa\u13cf\u13d3": 1416,
    "\u2581\u13a0\u13a9\u13b5\u13ef": 1417,
    "\u2581\u13da\u13b3\u13cd\u13ac": 1418,
    "\u2581\u13d4\u13b7\u13e3": 1419,
    "\u2581\u13cd\u13a9\u13c3\u13b2\u13cf": 1420,
    "\u2581\u13a2\u13f3\u13d3\u13b4\u13c5\u13db": 1421,
    "\u2581\u13a4\u13e9\u13d9\u13af\u13f4\u13d3": 1422,
    "\u2581\u13a2\u13b3\u13aa": 1423,
    "\u2581\u13a4\u13c2\u13ac\u13eb\u13f3\u13cc\u13d5\u13a9": 1424,
    "\u2581\u13a2\u13f3\u13e9\u13c2\u13d0\u13d7\u13f1": 1425,
    "\u2581\u13a2\u13f3\u13e9\u13c1\u13d7\u13f1": 1426,
    "\u2581\u13d7\u13aa\u13ea\u13b5\u13cd\u13a9": 1427,
    "\u2581\u13d3\u13e3": 1428,
    "\u2581\u13d9\u13f0": 1429,
    "\u2581\u13d2\u13ae\u13f1\u13e3": 1430,
    "\u2581\u13a2\u13ac\u13c1\u13af": 1431,
    "\u2581\u13a0\u13b5\u13cd\u13d5\u13b8\u13d9\u13d7": 1432,
    "\u2581\u13a1\u13d3": 1433,
    "\u2581\u13a4\u13f0\u13af": 1434,
    "\u2581\u13e3\u13be": 1435,
    "\u2581\u13db\u13be": 1436,
    "\u2581\u13be\u13cd\u13a9\u13c9": 1437,
    ")": 1438,
    "\u2581\u13c6": 1439,
    "\u2581\u13e3\u13c1\u13b3": 1440,
    "\u2581\u13f1\u13c2": 1441,
    "\u13c1\u13af": 1442,
    "\u2581\u13a1\u13b5\u13cd\u13d7": 1443,
    "\u2581\u13da\u13be\u13d3\u13c5\u13db\u13a2": 1444,
    "\u2581\u13a7\u13b8\u13a2": 1445,
    "\u2581\u13d7\u13aa\u13ea\u13b6\u13d7": 1446,
    "\u2581\u13ed\u13be": 1447,
    "\u2581\u13a4\u13be\u13b5\u13aa": 1448,
    "\u2581\u13c4\u13db\u13c1\u13b4\u13a2": 1449,
    "\u2581\u13a0\u13d9": 1450,
    "\u2581\u13a6\u13b8\u13b3\u13d7\u13f3": 1451,
    "\u2581\u13e3\u13e4\u13b5\u13a6": 1452,
    "\u2581\u13a2\u13ef\u13c2\u13a2": 1453,
    "\u2581\u13d7\u13e6": 1454,
    "\u2581\u13a4\u13be\u13d3\u13e1\u13ac\u13a2": 1455,
    "\u13a9\u13b6": 1456,
    "\u2581\u13f1\u13e8": 1457,
    "\u2581\u13a4\u13c2\u13b8\u13c9\u13d7": 1458,
    "\u2581\u13d3\u13be\u13d3": 1459,
    "\u2581\u13c2\u13a6\u13d7": 1460,
    "\u2581\u13a4\u13e5\u13b8": 1461,
    "\u2581\u13a4\u13d3\u13c5\u13d6\u13d7": 1462,
    "\u2581\u13d7\u13a7\u13bf\u13e9\u13db\u13cd\u13d7\u13f1": 1463,
    "\u13c5\u13d3": 1464,
    "\u13b5\u13cd\u13d9\u13d7": 1465,
    "\u2581\u13c4\u13ea\u13d2\u13a2": 1466,
    "\u2581\u13f0": 1467,
    "\u13db\u13af": 1468,
    "\u2581\u13d7\u13d7": 1469,
    "\u13b9": 1470,
    "\u2581\u13c3\u13e5": 1471,
    "\u13a6\u13d4\u13ad": 1472,
    "\u2581\u13a4\u13a8\u13d3\u13b5\u13f4": 1473,
    "\u2581\u13a7\u13b3\u13e9\u13d7\u13d2": 1474,
    "\u2581\u13a4\u13c5\u13cf\u13f4": 1475,
    "\u2581\u13a2\u13e6\u13af\u13f3\u13d2": 1476,
    "\u2581\u13a0\u13e4\u13b5\u13cd\u13db": 1477,
    "\u2581\u13a0\u13aa": 1478,
    "\u13ab": 1479,
    "\u2581\u13a8\u13b3": 1480,
    "\u2581\u13a6\u13c1\u13cc\u13a2": 1481,
    "\u2581\u13be\u13c2": 1482,
    "\u2581\u13a4\u13d5\u13c1\u13b8": 1483,
    "\u2581\u13a4\u13c5\u13d2\u13c9": 1484,
    "\u2581\u13d5\u13a9": 1485,
    "\u2581\u13e8\u13d7\u13d3\u13b4\u13b2\u13cd\u13a6": 1486,
    "\u2581\u13a0\u13d9\u13b3\u13c5\u13cd\u13d7": 1487,
    "\u2581\u13a5\u13f3\u13a9": 1488,
    "\u2581\u13d7\u13df\u13b6\u13cd\u13d4\u13c5\u13af": 1489,
    "\u2581\u13e6\u13d3\u13c2": 1490,
    "\u2581\u13a0\u13c2\u13eb\u13c5": 1491,
    "\u2581\u13a4\u13a9\u13e8\u13d3": 1492,
    "\u2581\u13f1\u13c5\u13d7\u13a6\u13b5\u13cd\u13d9\u13d7\u13ad": 1493,
    "\u2581\u13a2\u13f3\u13be\u13b5\u13cd\u13d9\u13d7\u13f1": 1494,
    "\u2581\u13d7\u13d3\u13d8\u13c2\u13d9\u13af": 1495,
    "\u2581\u13a1\u13b5\u13ca": 1496,
    "\u2581\u13a2\u13ef\u13be\u13db\u13c1\u13af": 1497,
    "\u2581\u13ac\u13e9\u13df\u13cd\u13d7": 1498,
    "\u2581\u13e7\u13aa\u13b3": 1499,
    "\u2581\u13a0\u13df\u13b6\u13cd\u13d7": 1500,
    "\u2581\u13aa\u13af\u13d7\u13f3": 1501,
    "\u2581\u13a4\u13d3\u13c2\u13b5\u13a8": 1502,
    "\u2581\u13a8\u13b5\u13cd\u13ac": 1503,
    "\u2581\u13a0\u13c3": 1504,
    "\u2581\u13e7\u13d3\u13b4\u13c5\u13d3": 1505,
    "\u2581\u13a0\u13e5\u13cd\u13db": 1506,
    "\u2581\u13aa\u13a8\u13f1": 1507,
    "\u2581\u13ae\u13a6": 1508,
    "\u2581\u13a4\u13da\u13b5\u13cd\u13a8\u13cd\u13d7": 1509,
    "\u2581\u13a4\u13da\u13b8\u13d7": 1510,
    "\u2581\u13be\u13cd\u13a9\u13f4": 1511,
    "\u2581\u13a2\u13e3\u13e4\u13b5\u13a6": 1512,
    "\u2581\u13a2\u13a6\u13a6\u13d8": 1513,
    "\u2581\u13eb\u13d3": 1514,
    "\u13cd\u13d5\u13b8\u13d7": 1515,
    "\u2581\u13d7\u13c6\u13e4\u13b5\u13a6": 1516,
    "\u2581\u13a4\u13da\u13b5\u13ad": 1517,
    "\u2581\u13a6\u13c2": 1518,
    "\u13d5\u13b5": 1519,
    "\u2581\u13a4\u13d3\u13c5\u13d6\u13b4": 1520,
    "\u2581\u13a0\u13c1\u13ad": 1521,
    "\u2581\u13a4\u13d5": 1522,
    "\u2581\u13af\u13a0\u13cd\u13a9\u13c2": 1523,
    "\u2581\u13e7\u13d3\u13c3": 1524,
    "\u13d9\u13a9": 1525,
    "\u2581\u13a4\u13c2\u13e3\u13d4": 1526,
    "\u2581\u13a3\u13c2\u13f1": 1527,
    "\u13c2\u13d7\u13f3": 1528,
    "\u13b6\u13af": 1529,
    "\u2581\u13a4\u13b5\u13ec\u13e8": 1530,
    "\u13b7\u13a6": 1531,
    "\u2581\u13c1\u13b3\u13a9": 1532,
    "\u2581\u13a4\u13da\u13b5": 1533,
    "\u13b8\u13d7": 1534,
    "\u2581\u13a0\u13d7": 1535,
    "\u13a1\u13d7\u13f1": 1536,
    "\u2581\u13c4\u13c2": 1537,
    "\u2581\u13a2\u13a8": 1538,
    "\u2581\u13be\u13be\u13db\u13c1\u13b2": 1539,
    "\u2581\u13ef\u13a9": 1540,
    "\u13aa\u13cd\u13d3\u13f1": 1541,
    "\u13be\u13cf": 1542,
    "\u2581\u13a1\u13d9\u13b2": 1543,
    "\u2581\u13f1\u13ac": 1544,
    "\u2581\u13a4\u13ea\u13b5\u13af\u13cd\u13d7": 1545,
    "\u13f0\u13b5": 1546,
    "\u2581\u13ed\u13ef\u13c5\u13ae": 1547,
    "\u2581\u13a0\u13be\u13a2\u13d2": 1548,
    "\u2581\u13d5\u13e1\u13ac": 1549,
    "\u2581\u13a4\u13c2\u13b7\u13e8": 1550,
    "\u2581\u13d5\u13ad\u13b7\u13a8": 1551,
    "\u2581\u13c4\u13be\u13db\u13c5": 1552,
    "\u2581\u13a0\u13c6\u13da\u13b5\u13cd\u13ac": 1553,
    "\u2581\u13a4\u13c1\u13e8\u13a2": 1554,
    "\u2581\u13ed\u13b7\u13e8": 1555,
    "\u13b6\u13db": 1556,
    "\u2581\u13d7\u13e5\u13be\u13eb": 1557,
    "\u2581\u13d0\u13d3\u13bb": 1558,
    "\u2581\u13a4\u13b7\u13af\u13cd\u13d7": 1559,
    "\u2581Perry": 1560,
    "\u2581\u13c5\u13ec\u13d8": 1561,
    "\u2581\u13a0\u13b5\u13cd\u13d4\u13f4\u13d7": 1562,
    "\u2581\u13e7\u13a6\u13be\u13ee": 1563,
    "\u13da\u13d3\u13b4\u13cd\u13d9\u13d7": 1564,
    "\u2581\u13a4\u13cf\u13e9": 1565,
    "\u2581\u13d7\u13d5\u13f2\u13d7": 1566,
    "\u2581\u13a7\u13c2\u13a9\u13db": 1567,
    "\u2581\u13a4\u13c2\u13a9\u13ac": 1568,
    "\u2581\u13a4\u13be\u13f0\u13af\u13cd\u13d7": 1569,
    "\u2581\u13a4\u13eb\u13ef": 1570,
    "\u2581\u13e7\u13be\u13a9\u13b8\u13d7": 1571,
    "\u2581\u13a4\u13ec\u13e2\u13d4\u13c5\u13a9": 1572,
    "\u2581\u13a4\u13c1\u13ab\u13e5\u13db": 1573,
    "\u2581\u13a0\u13c6\u13c1\u13b3\u13c5\u13af": 1574,
    "\u2581\u13a0\u13b5\u13cd\u13aa\u13b8\u13d4\u13c5\u13af": 1575,
    "\u2581\u13a7\u13b8": 1576,
    "\u2581\u13f3\u13da\u13b5\u13cd\u13a8": 1577,
    "\u2581\u13a4\u13b6\u13d2\u13cd\u13d7": 1578,
    "\u2581\u13a4\u13e2\u13a9": 1579,
    "\u2581\u13c2\u13d7\u13a5": 1580,
    "\u13e8\u13af": 1581,
    "\u2581\u13c2\u13a6\u13b5\u13cd\u13d3": 1582,
    "\u2581\u13da\u13d3\u13d8\u13be\u13a5\u13a2": 1583,
    "\u2581\u13a4\u13c2\u13cd\u13c6\u13c2\u13aa\u13ce\u13a2": 1584,
    "\u2581\u13a0\u13cd\u13da\u13d7": 1585,
    "\u13cc\u13b3\u13d3": 1586,
    "\u2581\u13a2\u13f3\u13be\u13db\u13c1\u13d7\u13f1": 1587,
    "\u13a4\u13c5": 1588,
    "\u2581\u13a4\u13cd\u13c6\u13c2\u13aa\u13d7\u13f3": 1589,
    "\u13a6\u13c5\u13af\u13d3": 1590,
    "\u2581\u13c4\u13db\u13c1\u13b8\u13a9": 1591,
    "\u2581\u13d0\u13a2\u13f1": 1592,
    "\u2581\u13a3\u13cf\u13c9": 1593,
    "\u2581\u13a4\u13ad": 1594,
    "\u2581\u13d7\u13a8\u13d2\u13a2": 1595,
    "\u2581\u13f4\u13ac": 1596,
    "\u2581\u13f3\u13c2": 1597,
    "\u13d6\u13cd\u13d7": 1598,
    "\u2581\u13a6\u13c5": 1599,
    "\u2581\u13a4\u13c1\u13b8": 1600,
    "\u2581\u13a0\u13eb\u13c5": 1601,
    "\u2581\u13e1\u13ac\u13a2": 1602,
    "\u2581\u13a4\u13c1\u13e8\u13af": 1603,
    "\u2581\u13c2\u13a6\u13ea\u13cd\u13ac\u13a2": 1604,
    "\u2581\u13d3\u13e8": 1605,
    "\u2581\u13a4\u13b8": 1606,
    "\u13a6\u13db": 1607,
    "\u2581\u13a2\u13e7": 1608,
    "\u13a5\u13cd\u13ac": 1609,
    "\u2581\u13c1\u13b0": 1610,
    "\u13c2\u13b8": 1611,
    "\u2581\u13a0\u13cf\u13f4\u13eb\u13c3": 1612,
    "\u2581\u13a4\u13ec\u13b5": 1613,
    "\u13a1\u13af": 1614,
    "\u2581\u13eb\u13ac\u13e9": 1615,
    "\u2581\u13a0\u13ce\u13a9": 1616,
    "\u13e0\u13be\u13cd\u13d7": 1617,
    "\u2581\u13a0\u13dc": 1618,
    "\u13cd\u13ca": 1619,
    "\u13b5\u13a6": 1620,
    "n": 1621,
    "\u2581\u13da\u13f3\u13aa\u13db\u13a2": 1622,
    "\u2581\u13a0\u13be\u13d3": 1623,
    "\u13db\u13d7": 1624,
    "\u13cd\u13c9": 1625,
    "\u2581\u13d7\u13d3": 1626,
    "\u2581\u13a0\u13f0\u13d9\u13b3\u13db": 1627,
    "\u2581\u13a2\u13f3\u13a2": 1628,
    "\u2581\u13d4\u13b5\u13ad": 1629,
    "\u2581\u13d7\u13aa": 1630,
    "\u2581\u13a4\u13b5\u13c1\u13e8": 1631,
    "\u2581\u13a0\u13be\u13db": 1632,
    "\u2581\u13d3\u13c1\u13e9\u13d7\u13d2": 1633,
    "\u2581\u13d5\u13a8\u13cc\u13d7\u13d2": 1634,
    "\u2581\u13f1\u13a8": 1635,
    "\u13a0\u13ef": 1636,
    "\u2581\u13a4\u13cd\u13aa\u13b5": 1637,
    "\u2581\u13ef\u13be": 1638,
    "\u2581\u13a1\u13dd\u13ea": 1639,
    "\u13f4\u13eb": 1640,
    "\u2581\u13a4\u13d3\u13f4\u13cd\u13d7": 1641,
    "\u2581\u13aa\u13ea\u13b3": 1642,
    "\u2581\u13d5\u13a6\u13b6\u13d7": 1643,
    "\u2581\u13a4\u13d5\u13b0\u13af\u13cd\u13d7": 1644,
    "\u2581\u13b7\u13c8\u13c2": 1645,
    "\u2581\u13d7\u13c2\u13b5\u13a0\u13c5\u13af\u13db": 1646,
    "\u2581\u13f1\u13c4\u13b5\u13cd\u13d4\u13be": 1647,
    "\u2581\u13a2\u13c8\u13ac\u13a2": 1648,
    "\u2581\u13a4\u13b5\u13aa\u13b2\u13cd\u13d7": 1649,
    "\u2581\u13e7\u13a6\u13d2\u13cd\u13d7": 1650,
    "\u2581\u13cd\u13c6\u13de\u13cd\u13d7": 1651,
    "\u2581\u13b9\u13cf\u13d9\u13c2": 1652,
    "\u2581\u13a0\u13be\u13d3\u13c5\u13df": 1653,
    "\u2581\u13ac\u13d4\u13c2\u13d3\u13cd\u13d7": 1654,
    "\u2581\u13de\u13a9\u13f3": 1655,
    "\u2581\u13a0\u13aa\u13c4": 1656,
    "\u2581\u13d7\u13cd\u13d3\u13d3\u13c5\u13df": 1657,
    "\u2581\u13cc\u13ba\u13b5\u13f1": 1658,
    "\u2581\u13a1\u13d7": 1659,
    "\u2581\u13e7\u13b3\u13cf\u13d5\u13c2": 1660,
    "\u2581\u13a0\u13eb\u13c4\u13e3": 1661,
    "\u2581\u13d7\u13a6\u13c5\u13d9\u13d7": 1662,
    "\u2581\u13a2\u13e8\u13d7\u13cd\u13a8\u13cd\u13d7": 1663,
    "\u2581\u13a2\u13f3\u13ea\u13c5\u13cd\u13d7": 1664,
    "\u2581\u13a4\u13ec": 1665,
    "\u2581\u13e7\u13cd\u13c6\u13c5\u13be": 1666,
    "\u2581\u13a0\u13c2\u13a6\u13d3\u13ad": 1667,
    "\u2581\u13a1\u13cf\u13f1": 1668,
    "\u2581\u13a0\u13e5\u13be\u13dd\u13a2": 1669,
    "\u2581\u13a4\u13ec\u13da\u13af\u13f3": 1670,
    "\u2581\u13a4\u13ec\u13da\u13e8": 1671,
    "\u2581\u13ce\u13b3\u13f1": 1672,
    "\u2581\u13c1\u13b2\u13be": 1673,
    "\u2581\u13ab\u13b4": 1674,
    "\u2581\u13e5\u13e5": 1675,
    "\u2581\u13d4\u13b5\u13e7\u13c8": 1676,
    "\u2581\u13a4\u13c2\u13f4\u13cd\u13d7\u13f1": 1677,
    "\u2581\u13a0\u13aa\u13e9\u13db\u13d7": 1678,
    "\u2581\u13a4\u13df\u13cd\u13d3": 1679,
    "\u2581\u13e7\u13be\u13d3": 1680,
    "\u2581\u13f1\u13a8\u13d0\u13a2": 1681,
    "\u2581\u13e4\u13ae\u13a2": 1682,
    "\u13a8\u13f3\u13ce\u13cd\u13d7": 1683,
    "\u2581\u13a3\u13c1": 1684,
    "\u2581\u13a0\u13c1\u13ae\u13a2": 1685,
    "\u2581\u13da\u13b4\u13c1\u13a2": 1686,
    "\u2581\u13a4\u13b4": 1687,
    "\u13e9\u13db\u13b2": 1688,
    "\u2581\u13f0\u13ad": 1689,
    "\u13c5\u13df": 1690,
    "\u2581\u13a0\u13d3\u13c1\u13d7": 1691,
    "\u13e9\u13db\u13d7": 1692,
    "\u2581\u13a0\u13d3\u13af": 1693,
    "\u13cd\u13d7\u13cd\u13ac": 1694,
    "\u13e2\u13d9\u13d7": 1695,
    "\u13b8\u13c9\u13d9\u13d7": 1696,
    "\u2581\u13a0\u13e5\u13b8\u13c9\u13d7": 1697,
    "\u2581\u13a2\u13f3\u13be": 1698,
    "\u2581\u13e5\u13ef": 1699,
    "\u2581\u13d2\u13af": 1700,
    "\u13eb\u13d2": 1701,
    "\u2581\u13a6\u13cd\u13a9\u13b8\u13a2": 1702,
    "\u13ef\u13c5\u13db": 1703,
    "\u2581\u13a4\u13a8\u13f3\u13af": 1704,
    "\u2581\u13d9\u13af\u13f1": 1705,
    "\u13b4\u13c2": 1706,
    "\u2581\u13da\u13b4\u13c1": 1707,
    "\u2581\u13a4\u13c1\u13c5\u13ce": 1708,
    "\u13a2\u13f3": 1709,
    "\u2581\u13a4\u13c2\u13e0\u13f1": 1710,
    "\u2581\u13da\u13be\u13d3": 1711,
    "\u13db\u13ad": 1712,
    "a": 1713,
    "\u2581\u13e8\u13cd\u13a9\u13c3": 1714,
    "\u2581\u13a4\u13e3": 1715,
    "\u13c9\u13f0\u13c3": 1716,
    "\u2581\u13a0\u13c2\u13d9\u13be\u13a5": 1717,
    "\u13a1\u13ad": 1718,
    "\u2581\u13c5\u13d3\u13f3": 1719,
    "\u13b3\u13c5\u13af": 1720,
    "\u2581\u13a6\u13c1\u13b2": 1721,
    "\u13b1": 1722,
    "\u2581\u13d9\u13a9": 1723,
    "\u13d9\u13d3": 1724,
    "\u2581\u13d7\u13e3\u13d3\u13c5\u13d9": 1725,
    "\u13d7\u13cd\u13a8": 1726,
    "\u2581\u13a4\u13f0\u13e4": 1727,
    "\u2581\u13a0\u13c6\u13db\u13a6\u13c5": 1728,
    "\u2581\u13a0\u13c6\u13a7\u13db": 1729,
    "\u2581\u13d3\u13e0\u13af\u13cd\u13db": 1730,
    "\u2581\u13a0\u13c1\u13d9\u13b2": 1731,
    "\u2581\u13ed\u13b6\u13ce": 1732,
    "\u2581\u13d9\u13d3\u13b8": 1733,
    "\u2581\u13a4\u13d3\u13c5\u13ce": 1734,
    "\u13b3\u13d7": 1735,
    "\u2581\u13a0\u13f4\u13eb\u13ef": 1736,
    "\u2581\u13cf\u13a9\u13bb": 1737,
    "\u2581\u13a0\u13e5\u13a6\u13d8\u13d7\u13cd\u13d7": 1738,
    "\u2581\u13ac\u13c6": 1739,
    "\u2581\u13a2\u13f3\u13df\u13b6": 1740,
    "\u2581\u13a4\u13d3\u13b5": 1741,
    "\u13da\u13a6": 1742,
    "\u2581\u13a2\u13f3\u13db\u13c1\u13d7": 1743,
    "\u2581\u13d4\u13b5\u13c1\u13a2": 1744,
    "y": 1745,
    "\u2581\u13a6\u13b7\u13ef\u13cd\u13d8": 1746,
    "\u2581\u13ac\u13e9\u13cd\u13d3\u13e9\u13db\u13ce\u13a2": 1747,
    "\u2581\u13a2\u13cf\u13ba\u13b5": 1748,
    "\u2581\u13a4\u13b5\u13d7\u13e8": 1749,
    "ett": 1750,
    "\u2581\u13c5\u13d3\u13f3\u13c2\u13b6\u13d2\u13af": 1751,
    "\u2581\u13d7\u13f0\u13d9\u13b3\u13db\u13d7": 1752,
    "\u2581\u13d7\u13ac\u13d4\u13c2\u13d3\u13cd\u13d7": 1753,
    "\u2581\u13d1\u13be\u13d9\u13d3\u13c6\u13cd\u13d7": 1754,
    "\u2581\u13c2\u13ac\u13e9\u13ea\u13ce\u13b8\u13a9": 1755,
    "\u2581\u13a2\u13ef\u13c5\u13d9": 1756,
    "\u2581\u13a0\u13d6\u13b5\u13d9": 1757,
    "\u2581\u13a4\u13b4\u13c2\u13d9\u13b8": 1758,
    "\u2581\u13a2\u13a6\u13ea\u13cd\u13d7": 1759,
    "\u2581\u13ad\u13e9\u13e7": 1760,
    "\u2581\u13da\u13d8\u13c5\u13ce": 1761,
    "\u2581\u13a0\u13a6\u13b5\u13cd\u13ac": 1762,
    "\u2581\u13d5\u13b9\u13cd\u13a6": 1763,
    "\u2581\u13a0\u13c2\u13a8\u13be\u13c2": 1764,
    "\u2581\u13a2\u13f3\u13d3\u13c5\u13af\u13d3": 1765,
    "\u2581\u13a0\u13eb\u13d2\u13d7\u13f1": 1766,
    "\u2581\u13d7\u13b3\u13d1\u13b6": 1767,
    "\u2581\u13a6\u13c2\u13a6\u13d4": 1768,
    "\u13e9\u13ac\u13d8": 1769,
    "\u2581\u13e3\u13d3\u13b5\u13a2": 1770,
    "\u2581\u13cc\u13be\u13f1": 1771,
    "\u2581\u13e5\u13da\u13d9\u13a5": 1772,
    "\u2581\u13a4\u13c1\u13b5\u13e4\u13a2": 1773,
    "\u2581\u13a7\u13c3\u13ae\u13d3": 1774,
    "\u2581\u13a0\u13aa\u13d9\u13d7": 1775,
    "\u2581\u13a4\u13be\u13c1\u13b3\u13c5\u13af": 1776,
    "\u2581\u13ce\u13bb": 1777,
    "\u2581\u13a0\u13a9\u13b5\u13f2\u13a2\u13cd\u13d7": 1778,
    "\u2581\u13d7\u13e6\u13e2\u13d9\u13d7": 1779,
    "\u2581\u13a4\u13be\u13f0\u13af\u13cd\u13d7\u13f3": 1780,
    "\u2581\u13a4\u13be\u13e0\u13be\u13cd\u13d7": 1781,
    "\u2581\u13d9\u13f1\u13e8": 1782,
    "\u2581\u13a0\u13f0\u13df": 1783,
    "\u2581\u13f1\u13c2\u13a6\u13b5\u13cd\u13d3": 1784,
    "\u2581\u13cf\u13f2": 1785,
    "\u2581\u13a4\u13c2\u13af\u13cd\u13d7\u13f1": 1786,
    "\u2581\u13a0\u13a9\u13f0\u13b8\u13ad": 1787,
    "\u2581\u13c8\u13b3": 1788,
    "\u2581\u13a4\u13b7\u13af\u13cd\u13d7\u13f1": 1789,
    "\u2581\u13a0\u13cd\u13aa\u13af\u13c1": 1790,
    "\u2581\u13e7\u13d2\u13af": 1791,
    "\u2581\u13a2\u13ac\u13d3": 1792,
    "\u2581\u13be\u13c2\u13ea\u13cd\u13ac\u13a9": 1793,
    "\u2581\u13da\u13b8\u13eb\u13cd\u13d3\u13c1\u13b2": 1794,
    "\u2581\u13a4\u13f4": 1795,
    "\u2581\u13a0\u13b1\u13cd\u13d5": 1796,
    "\u2581\u13d7\u13c2\u13c5\u13cc\u13d7": 1797,
    "\u2581\u13a0\u13c1\u13a9": 1798,
    "\u2581\u13a2\u13ac\u13d2": 1799,
    "\u2581\u13a8\u13b5\u13a0": 1800,
    "\u2581\u13d5\u13ac": 1801,
    "\u2581\u13d3\u13c1\u13e9\u13d7\u13d2\u13a2": 1802,
    "\u2581\u13c4\u13be\u13db\u13c5\u13a2": 1803,
    "\u2581\u13d5\u13ad\u13b7\u13a8\u13a2": 1804,
    "\u2581\u13a2\u13d3": 1805,
    "\u2581\u13a4\u13d3\u13c5": 1806,
    "\u2581\u13a0\u13bf\u13ec": 1807,
    "\u13b8\u13c9\u13d7\u13f3": 1808,
    "\u2581\u13d5\u13a6\u13db": 1809,
    "\u2581\u13d7\u13a8\u13e5": 1810,
    "\u13ad\u13c2": 1811,
    "\u13d4\u13c5\u13a2": 1812,
    "\u13b5\u13cf": 1813,
    "\u13c3\u13ae\u13ad": 1814,
    "\u2581\u13a8\u13f4\u13a2": 1815,
    "\u2581\u13e3\u13c9": 1816,
    "\u2581\u13f4\u13a6": 1817,
    "\u13aa\u13b5\u13f0\u13cd\u13a9": 1818,
    ",)": 1819,
    "\u2581\u13e5\u13d3\u13c2": 1820,
    "\u2581\u13a4\u13be\u13d9\u13b4\u13b0\u13d2": 1821,
    "\u2581\u13a4\u13c7\u13d3\u13b8": 1822,
    "\u2581\u13f3\u13e9": 1823,
    "\u2581\u13a4\u13c2\u13c1": 1824,
    "\u13c5\u13d2\u13a9": 1825,
    "\u13b5\u13cd\u13a6\u13cd\u13d9\u13db": 1826,
    "\u2581\u13e9\u13a9": 1827,
    "\u13d7\u13cd\u13a8\u13a2": 1828,
    "\u2581\u13e4\u13e3": 1829,
    "\u2581\u13da\u13b8\u13eb\u13cd\u13d3\u13c1\u13b8": 1830,
    "\u2581\u13c4\u13db\u13c5": 1831,
    "\u2581\u13a4\u13da\u13b5\u13cd\u13a8": 1832,
    "\u13e3\u13d3": 1833,
    "\u2581\u13d0": 1834,
    "\u13b5\u13f1": 1835,
    "\u2581\u13ce\u13b3": 1836,
    "\u2581\u13d5\u13e5\u13b8\u13eb\u13cd\u13d3\u13c1\u13b2": 1837,
    "\u2581\u13ed\u13f4\u13b4": 1838,
    "\u2581\u13e2": 1839,
    "\u2581\u13c5\u13d7\u13a6\u13b5\u13cd\u13d9\u13d7": 1840,
    "\u13b5\u13cd\u13c6\u13d7\u13cd\u13a9": 1841,
    "\u2581\u13a1\u13ae": 1842,
    "\u2581\u13eb\u13da\u13c2": 1843,
    "\u2581\u13d7\u13c1\u13b2": 1844,
    "\u2581\u13a4\u13ea\u13d9\u13b8": 1845,
    "\u2581\u13d7\u13a7\u13c3\u13a9\u13cd\u13d7": 1846,
    "\u13f4\u13d3": 1847,
    "\u2581\u13a4\u13ea\u13c5\u13cd\u13d7": 1848,
    "\u2581\u13f1\u13d7\u13e3": 1849,
    "\u2581\u13a0\u13be\u13d3\u13be\u13cf\u13c2\u13d9\u13af": 1850,
    "\u2581\u13a0\u13d7\u13c6\u13b8\u13d5\u13f2": 1851,
    "\u2581\u13a0\u13b5\u13f0\u13be": 1852,
    "\u2581\u13a6\u13e3\u13c4\u13b3": 1853,
    "\u2581\u13cc\u13b6\u13b5": 1854,
    "\u2581\u13a0\u13e8\u13cd\u13d9\u13d7": 1855,
    "\u2581\u13d7\u13e5\u13f2\u13b5": 1856,
    "\u2581\u13a2\u13ac\u13e9\u13b5\u13cd\u13d9\u13d7": 1857,
    "\u2581\u13a2\u13e3\u13b5\u13cd\u13d9\u13d7\u13f1": 1858,
    "\u2581\u13a0\u13d2\u13ac": 1859,
    "\u2581\u13d7\u13c2\u13cf\u13d7": 1860,
    "\u2581\u13e5\u13c4\u13ea\u13ce\u13a2": 1861,
    "\u2581\u13a0\u13e4\u13b7\u13a9": 1862,
    "\u2581\u13a0\u13c2\u13a9\u13b7\u13eb": 1863,
    "\u2581\u13a4\u13b5\u13cd\u13a8\u13db": 1864,
    "\u13b5\u13f0\u13a2\u13b6\u13af\u13cd\u13d7": 1865,
    "\u2581\u13eb\u13a6\u13b7\u13a9": 1866,
    "\u2581\u13d7\u13c2\u13f0\u13b8": 1867,
    "\u2581\u13eb\u13b6\u13af": 1868,
    "\u2581\u13a4\u13be\u13b3\u13c5\u13af": 1869,
    "\u2581\u13c4\u13be\u13d3\u13b4\u13d2": 1870,
    "\u13f2\u13af\u13cd\u13d7": 1871,
    "\u2581\u13a4\u13f2\u13b1\u13af\u13cd\u13d7\u13f1": 1872,
    "\u2581\u13a4\u13b4\u13eb\u13cd\u13d4\u13c5": 1873,
    "\u2581\u13a0\u13e5\u13b3": 1874,
    "\u2581\u13ad\u13eb\u13c2\u13e8": 1875,
    "\u2581\u13a2\u13f3\u13cd\u13d8": 1876,
    "\u2581\u13a0\u13be\u13d3\u13c5\u13d6\u13cd\u13ac": 1877,
    "\u2581\u13a7\u13eb": 1878,
    "\u2581\u13a4\u13df\u13c2\u13a9\u13d3": 1879,
    "\u2581\u13a7\u13c3\u13ae\u13d7": 1880,
    "\u2581\u13ef\u13a6\u13d4\u13ae": 1881,
    "\u2581\u13a4\u13c2\u13e3\u13db\u13a9": 1882,
    "\u2581\u13ed\u13c2\u13b6\u13ce\u13a2": 1883,
    "\u2581\u13d7\u13a9\u13cf": 1884,
    "\u13a6\u13d9\u13c3": 1885,
    "\u2581\u13c2\u13aa\u13af\u13b8\u13be\u13c9": 1886,
    "\u13c4\u13a6": 1887,
    "\u2581\u13e5\u13a8\u13f3\u13a2": 1888,
    "\u2581\u13a4\u13f4\u13dc": 1889,
    "\u2581\u13a1\u13a9": 1890,
    "\u2581\u13a6\u13e5\u13ef": 1891,
    "\u2581\u13a0\u13a2\u13d2\u13a2": 1892,
    "\u13ef\u13d6\u13c5": 1893,
    "\u2581\u13c2\u13a6\u13b5\u13cd\u13d9\u13d7": 1894,
    "\u2581\u13a1\u13ae\u13cd\u13d7": 1895,
    "\u2581\u13da\u13b8\u13eb\u13cd\u13d3\u13c1\u13b8\u13a2": 1896,
    "\u2581\u13a0\u13c1\u13d9\u13b2\u13a2": 1897,
    "\u2581\u13a2\u13a6\u13e4\u13b5\u13a6": 1898,
    "\u2581\u13aa\u13a8": 1899,
    "\u2581\u13d7\u13c1\u13b2\u13a2": 1900,
    "\u2581\u13a1\u13d9\u13b2\u13a2": 1901,
    "\u13b8\u13be": 1902,
    "\u2581\u13a4\u13d3\u13c5\u13c5": 1903,
    "\u2581\u13cd\u13a9\u13ef": 1904,
    "\u2581\u13a2\u13c5\u13af": 1905,
    "\u13f0\u13af": 1906,
    "\u2581\u13d1\u13d3\u13b5\u13c1": 1907,
    "\u2581\u13d9\u13a6": 1908,
    "\u2581\u13a1\u13be": 1909,
    "\u2581\u13a4\u13db\u13c1\u13a2": 1910,
    "\u13b3\u13bb": 1911,
    "\u2581\u13e3\u13c2\u13c3": 1912,
    "\u2581\u13e9\u13c1": 1913,
    ";]": 1914,
    "\u2581\u13c2\u13d9\u13d3\u13f3": 1915,
    "\u2581\u13a4\u13c2\u13b7\u13e4\u13a2": 1916,
    "\u13cd\u13d7\u13cd\u13a8\u13cd\u13d7": 1917,
    "\u2581\u13c2\u13e5\u13a5\u13a2": 1918,
    "\u13e4\u13b8": 1919,
    "\u13ce\u13b8": 1920,
    "\u2581\u13a4\u13db": 1921,
    "\u2581\u13a0\u13c2\u13d0": 1922,
    "\u2581\u13c2\u13aa\u13af\u13b8\u13be": 1923,
    "\u13c3\u13b2\u13cf": 1924,
    "\u2581\u13e7\u13c5": 1925,
    "\u2581\u13a0\u13d3\u13f0\u13cd": 1926,
    "\u13aa\u13e9\u13db\u13d7": 1927,
    "\u2581\u13a0\u13a9\u13ad": 1928,
    "\u13cd\u13d4\u13c5\u13a9": 1929,
    "\u2581\u13a0\u13cb\u13d2\u13c9": 1930,
    "\u2581\u13d5\u13e3\u13d3": 1931,
    "\u2581\u13a6\u13e8": 1932,
    "\u2581\u13d9\u13d3\u13a6": 1933,
    "\u13b5\u13d7": 1934,
    "\u2581\u13cc": 1935,
    "\u2581\u13f1\u13ac\u13e9": 1936,
    "\u13d7\u13cd\u13aa\u13a2": 1937,
    "\u13b2\u13cd\u13a8\u13cd\u13d7": 1938,
    "\u2581\u13e3\u13da": 1939,
    "\u2581\u13aa\u13af\u13cd\u13a9\u13c2": 1940,
    "\u13b8\u13c9\u13d7": 1941,
    "\u13d9\u13b4\u13b0\u13af\u13cd\u13d7": 1942,
    "\u13e7\u13c8\u13cd\u13d7": 1943,
    "\u2581\u13a4\u13a6": 1944,
    "\u2581\u13a6\u13db": 1945,
    "\u2581\u13a2\u13f3\u13ea": 1946,
    "\u13d9\u13a5": 1947,
    "\u2581\u13e5\u13ac": 1948,
    "\u2581\u13ce": 1949,
    "\u2581\u13a6\u13c1": 1950,
    "\u2581\u13e7\u13be\u13c4\u13ec": 1951,
    "\u2581\u13a2\u13cd\u13d7": 1952,
    "\u2581\u13a4\u13ec\u13e2\u13c5": 1953,
    "\u13a6\u13b6\u13c1\u13db": 1954,
    "\u2581\u13a1\u13b3\u13ea": 1955,
    "\u2581\u13d3\u13eb\u13d2": 1956,
    "\u2581\u13a0\u13e8\u13ef": 1957,
    "\u2581\u13a0\u13f0": 1958,
    "\u13d3\u13b5": 1959,
    "\u2581\u13ed\u13c2\u13b7\u13e8": 1960,
    "\u2581\u13da\u13c1\u13b4": 1961,
    "\u2581\u13e7\u13b5": 1962,
    "\u2581\u13a4\u13d3\u13c5\u13db": 1963,
    "\u2581\u13e4\u13c8": 1964,
    "\u2581\u13a0\u13db\u13aa\u13d7": 1965,
    "\u2581\u13d7\u13aa\u13ea\u13b5": 1966,
    "\u2581\u13a4\u13e9\u13db\u13b2": 1967,
    "\u2581\u13a0\u13c2\u13cc\u13da\u13cf": 1968,
    "\u2581\u13a6\u13b6\u13c4\u13ae": 1969,
    "\u2581\u13ac\u13cd\u13a6\u13a2\u13cd\u13d3\u13a9": 1970,
    "\u2581\u13c2\u13a6\u13c5\u13af\u13ce\u13cd\u13d7": 1971,
    "\u2581\u13d1\u13d3\u13b4\u13a9": 1972,
    "\u2581\u13c4\u13dc\u13cf\u13db\u13d2\u13be": 1973,
    "\u2581\u13cc\u13ef\u13c2": 1974,
    "\u2581\u13d7\u13c1\u13b6\u13d9\u13d7": 1975,
    "\u2581\u13e7\u13c3\u13d1\u13b6\u13e8\u13af": 1976,
    "\u2581\u13e2\u13d3\u13e5": 1977,
    "\u2581\u13a4\u13b6\u13d2\u13cd\u13d4\u13c5\u13af": 1978,
    "\u2581\u13a2\u13e8\u13d4\u13f2\u13ce\u13ad": 1979,
    "\u2581\u13e7\u13be\u13b3\u13cf\u13d5\u13c2": 1980,
    "\u2581\u13e7\u13be\u13e6\u13af\u13cd\u13d7": 1981,
    "\u2581\u13a2\u13f3\u13d3\u13a8\u13db": 1982,
    "\u2581\u13b3\u13cf\u13b3": 1983,
    "\u2581\u13a2\u13a9\u13cd\u13d5\u13b5\u13cd\u13a9": 1984,
    "\u2581\u13a2\u13e3\u13d3\u13d9\u13b5\u13cd\u13d7\u13cd\u13a8\u13cd\u13d7": 1985,
    "\u2581\u13a4\u13da\u13eb\u13db": 1986,
    "\u2581\u13eb\u13c2\u13a6\u13b5\u13cd\u13d3": 1987,
    "\u2581\u13eb\u13c4\u13d2\u13b8": 1988,
    "\u2581\u13a6\u13c3\u13cd\u13a9\u13cd\u13a9": 1989,
    "\u2581\u13a3\u13cc\u13c2": 1990,
    "\u2581\u13a3\u13a6\u13c1\u13b3\u13c5\u13af": 1991,
    "\u2581\u13a6\u13f0\u13cc\u13d7": 1992,
    "\u2581\u13be\u13db\u13c1\u13ae\u13cd\u13d7": 1993,
    "\u2581\u13a4\u13f4\u13e3": 1994,
    "\u2581\u13a0\u13a6\u13d8\u13ef": 1995,
    "\u2581\u13a4\u13be\u13b4\u13c5\u13ae": 1996,
    "\u2581\u13a0\u13c2\u13a6\u13d4\u13bf\u13a2": 1997,
    "\u2581\u13da\u13a6\u13d2\u13cd\u13db": 1998,
    "\u2581\u13ac\u13aa\u13e9\u13db\u13d7": 1999,
    "\u2581\u13a0\u13b5\u13ae\u13b5\u13cd\u13d7": 2000,
    "\u2581\u13a2\u13a6\u13ea\u13db": 2001,
    "\u2581\u13d7\u13ef\u13d6\u13be": 2002,
    "\u13c5\u13d7": 2003,
    "\u2581\u13a4\u13a6\u13c3\u13e9": 2004,
    "\u2581\u13a4\u13b5\u13cd\u13a8\u13d3": 2005,
    "\u2581\u13c2\u13d9": 2006,
    "\u2581\u13c2\u13a6\u13da": 2007,
    "\u2581\u13e7\u13be\u13d3\u13b5\u13a2": 2008,
    "\u13db\u13f3\u13a8\u13d7": 2009,
    "\u2581\u13a2\u13f3\u13c5\u13c1\u13d7\u13f1": 2010,
    "\u2581\u13a0\u13d3\u13c5\u13d6\u13d7": 2011,
    "\u13d4\u13f2\u13ce\u13b4": 2012,
    "\u2581\u13ec": 2013,
    "\u2581\u13e3\u13c1\u13ae\u13a2": 2014,
    "\u2581\u13a6\u13c1\u13b3": 2015,
    "\u2581\u13a0\u13c2\u13c1\u13b5": 2016,
    "\u2581\u13d7\u13a6\u13b5\u13a0\u13c5\u13af\u13db": 2017,
    "\u2581\u13a4\u13ec\u13e2\u13c5\u13af": 2018,
    "\u2581\u13e7\u13b8\u13eb\u13cd\u13d3\u13c1\u13d7\u13f1": 2019,
    "\u13aa\u13e9\u13d8\u13ad": 2020,
    "\u2581\u13a4\u13e4": 2021,
    "\u2581\u13c4\u13be\u13db\u13c1\u13b8\u13a9": 2022,
    "\u2581\u13a0\u13e5\u13b8\u13a0\u13c1\u13b6\u13af": 2023,
    "\u2581\u13da\u13f3\u13aa\u13d7": 2024,
    "\u2581\u13a4\u13be\u13c4\u13aa\u13eb\u13ce\u13a2": 2025,
    "\u2581\u13a4\u13d4\u13b7\u13a9\u13cd\u13a9": 2026,
    "\u2581\u13ef\u13c6\u13da\u13b5": 2027,
    "\u2581\u13d3\u13ac\u13be": 2028,
    "\u2581\u13ed\u13b6\u13d2\u13a9": 2029,
    "\u2581\u13ac\u13e9\u13db\u13db\u13c1": 2030,
    "\u2581\u13a0\u13a6\u13d4\u13ad": 2031,
    "\u2581\u13be\u13a5\u13c2\u13f3": 2032,
    "\u13b8\u13cc\u13db": 2033,
    "\u2581\u13ad\u13d3\u13c5\u13d6\u13cd\u13ac": 2034,
    "\u13c3\u13af\u13ce\u13b8": 2035,
    "\u2581\u13d3\u13e0\u13af\u13cd\u13db\u13a2": 2036,
    "\u2581\u13d5\u13ac\u13e9": 2037,
    "\u2581\u13e7\u13b5\u13a2": 2038,
    "\u2581\u13d5\u13a8\u13cc\u13d7\u13d2\u13a2": 2039,
    "\u2581\u13ef\u13c2": 2040,
    "\u2581\u13a4\u13c1\u13e4\u13b8\u13a9": 2041,
    "\u13b7\u13e5\u13cf": 2042,
    "an": 2043,
    "\u2581\u13a0\u13d4\u13b4\u13d2\u13a2": 2044,
    "\u2581\u13da\u13ea": 2045,
    "\u13cd\u13d5": 2046,
    "\u13cc\u13d8": 2047,
    "\u2581\u13a4\u13e3\u13db": 2048,
    "\u2581\u13e7\u13ea\u13d8": 2049,
    "\u13cd\u13d7\u13cd\u13a9": 2050,
    "\u13d5\u13a9": 2051,
    "\u2581\u13ac\u13d7\u13cd\u13ac\u13a2": 2052,
    "\u13b2\u13cd\u13ac": 2053,
    "\u2581\u13a4\u13ef": 2054,
    "\u2581\u13a4\u13b4\u13c5": 2055,
    "\u13cd\u13db\u13be": 2056,
    "\u2581\u13a0\u13f0\u13b8\u13d7": 2057,
    "\u13f2\u13af": 2058,
    "\u2581\u13a4\u13f0\u13b8\u13db\u13a2": 2059,
    "\u2581\u13a4\u13aa": 2060,
    "\u2581\u13cd\u13a9\u13c3": 2061,
    "\u2581\u13a4\u13c2\u13b5": 2062,
    "\u13cd\u13d4\u13c1": 2063,
    "\u2581\u13e4\u13a9": 2064,
    "\u13c1\u13e5": 2065,
    "\u13a2\u13cd": 2066,
    "\u2581\u13a4\u13f2\u13c9": 2067,
    "\u2581\u13d7\u13e3\u13d3": 2068,
    "\u2581\u13a0\u13d3\u13c5\u13d9\u13cd\u13a9\u13c2": 2069,
    "\u13b5\u13d3\u13cd\u13d7": 2070,
    "\u13d3\u13e1\u13ac": 2071,
    "\u2581\u13e5\u13a8\u13d2\u13a2": 2072,
    "\u2581\u13af\u13a6\u13d4\u13ad": 2073,
    "\u13af\u13ad": 2074,
    "\u13e2\u13a2": 2075,
    "\u2581\u13a0\u13cd\u13d3": 2076,
    "\u2581\u13aa\u13af\u13db": 2077,
    "\u13b4\u13ad": 2078,
    "\u2581\u13d3\u13d3": 2079,
    "\u13ad\u13d7": 2080,
    "\u2581\u13d7\u13ac\u13e9\u13c2": 2081,
    "\u13a6\u13d8\u13cd\u13d9\u13d7": 2082,
    "\u2581\u13da\u13c5": 2083,
    "\u2581\u13a4\u13e6": 2084,
    "\u2581\u13e5\u13c5\u13cf\u13d3\u13cd\u13d7": 2085,
    "\u2581\u13a7\u13b5": 2086,
    "\u2581\u13a4\u13ab\u13f4\u13d7": 2087,
    "\u2581\u13c4\u13cd\u13db\u13be": 2088,
    "\u2581\u13a4\u13cd\u13a6": 2089,
    "\u13b4\u13c5": 2090,
    "\u2581\u13a0\u13c1\u13d9\u13ae": 2091,
    "\u13c1\u13b2\u13a2": 2092,
    "\u2581\u13d5\u13a8\u13f4": 2093,
    "\u2581\u13d3\u13c5\u13c5": 2094,
    "\u2581---": 2095,
    "\u2581\u13d7\u13d3\u13c1\u13b8": 2096,
    "\u2581\u13da\u13be\u13d3\u13e1\u13e9\u13d7\u13d2": 2097,
    "\u2581\u13a3\u13e3": 2098,
    "\u2581\u13a0\u13a6\u13cd\u13a6\u13c2": 2099,
    "\u2581\u13a4\u13c4\u13aa\u13e8": 2100,
    "\u2581\u13d1\u13be\u13b4\u13c3": 2101,
    "\u2581\u13eb\u13ac": 2102,
    "\u2581\u13c5\u13c3": 2103,
    "\u2581\u13a4\u13db\u13d0\u13c5": 2104,
    "\u2581\u13a0\u13c2\u13c3\u13af\u13b5\u13d9": 2105,
    "\u2581\u13a6\u13c5\u13ac": 2106,
    "\u2581\u13da\u13aa\u13b2": 2107,
    "\u2581\u13d7\u13a6\u13aa\u13d7": 2108,
    "\u2581\u13a0\u13d2\u13a8": 2109,
    "\u2581\u13a4\u13f2\u13b1\u13af\u13cd\u13d7": 2110,
    "\u2581\u13a4\u13d3\u13c5\u13d6\u13b8": 2111,
    "\u13aa\u13e3\u13b4\u13db": 2112,
    "\u2581\u13af\u13c6": 2113,
    "\u2581\u13cd\u13cf\u13c9\u13ef": 2114,
    "\u2581\u13d7\u13a6\u13d9\u13cc\u13d7\u13cd\u13d7\u13f1": 2115,
    "\u2581\u13d7\u13c2\u13a8\u13eb": 2116,
    "\u2581\u13da\u13d1\u13ac": 2117,
    "\u2581\u13c0\u13be": 2118,
    "\u2581\u13cc\u13d9\u13c2": 2119,
    "\u2581\u13e7\u13be\u13e6\u13f4\u13cd\u13d7": 2120,
    "\u2581\u13ae\u13b3\u13c2": 2121,
    "\u2581\u13be\u13a6\u13a5": 2122,
    "\u2581\u13d7\u13aa\u13d2\u13d4\u13c5": 2123,
    "\u2581\u13ac\u13a9\u13cd\u13a6\u13a9": 2124,
    "\u2581\u13a8\u13e3\u13cd\u13a6\u13a9": 2125,
    "\u2581\u13a0\u13c9\u13f0\u13c2": 2126,
    "\u2581\u13a6\u13da\u13a2\u13d7\u13e2": 2127,
    "\u2581\u13d7\u13c2\u13b0\u13b5": 2128,
    "\u2581\u13a6\u13c2\u13d3\u13db": 2129,
    "\u2581\u13a8\u13a6\u13d1\u13f0\u13db": 2130,
    "\u2581\u13c1\u13c2\u13cf": 2131,
    "\u2581\u13c7\u13cd\u13d3": 2132,
    ".]": 2133,
    "\u2581\u13cd\u13d7\u13eb": 2134,
    "\u2581\u13a0\u13c2\u13a6\u13d4\u13be\u13a2": 2135,
    "\u2581\u13d7\u13cd\u13c6\u13be\u13b3\u13d7\u13cd\u13d7": 2136,
    "\u2581\u13c4\u13cd\u13d7\u13d3\u13c5": 2137,
    "\u2581\u13a3\u13e5\u13a6\u13d4\u13ad": 2138,
    "\u2581\u13a2\u13f3\u13d5\u13d8\u13f4\u13d3": 2139,
    "\u2581\u13a4\u13d5\u13b6\u13b0\u13ce": 2140,
    "\u2581\u13a4\u13a7\u13f2\u13db\u13af": 2141,
    "\u2581\u13a3\u13ad\u13c2": 2142,
    "\u2581\u13e9\u13db\u13ac\u13a6": 2143,
    "\u2581\u13a2\u13e5\u13ef\u13eb\u13cd\u13a8\u13cd\u13d7": 2144,
    "\u2581\u13a0\u13a6\u13ef\u13b7\u13d7": 2145,
    "\u2581\u13a0\u13c2\u13a9\u13cf\u13d9\u13af": 2146,
    "\u2581\u13a0\u13be\u13a6\u13b5\u13cd\u13a9": 2147,
    "\u2581\u13d7\u13e5\u13b6\u13cd\u13d4\u13c5": 2148,
    "\u2581\u13a0\u13c2\u13a6\u13d4\u13af": 2149,
    "\u2581\u13e5\u13ae\u13be": 2150,
    "\u2581\u13a2\u13e5\u13c5\u13df": 2151,
    "\u2581\u13a8\u13c6\u13c2": 2152,
    "\u2581\u13d3\u13a8\u13cf": 2153,
    "\u2581\u13a0\u13cd\u13a6\u13f0\u13ac\u13cd\u13d4": 2154,
    "\u2581\u13a6\u13be\u13cd\u13d3": 2155,
    "\u2581\u13a6\u13d0\u13af": 2156,
    "\u2581\u13a4\u13d9\u13b4\u13b0\u13ce": 2157,
    "\u2581\u13a4\u13ea\u13b7\u13c5\u13a9": 2158,
    "\u2581\u13c4\u13d5\u13d8\u13f4\u13ae\u13a2": 2159,
    "\u2581\u13d3\u13f3\u13b6\u13d2": 2160,
    "\u2581\u13a0\u13a6\u13d4\u13bf\u13a2": 2161,
    "\u13d9\u13b3": 2162,
    "\u2581\u13a9\u13b6\u13a2": 2163,
    "\u2581\u13a2\u13d5\u13be": 2164,
    "\u2581\u13da\u13a7\u13be\u13c1": 2165,
    "\u2581\u13a4\u13c1\u13b7\u13c1\u13a2": 2166,
    "\u2581\u13a2\u13e5\u13cd\u13a6\u13c5\u13e8\u13a2": 2167,
    "\u2581\u13aa\u13e2\u13c5\u13af": 2168,
    "\u13ef\u13a0": 2169,
    "\u2581\u13a4\u13c2\u13a9\u13cd\u13d7": 2170,
    "\u2581\u13a4\u13d3\u13c5\u13d2\u13a9": 2171,
    "\u2581\u13a8\u13d9\u13b2": 2172,
    "\u2581\u13a4\u13b5\u13cd\u13d5\u13b8\u13d9\u13d7": 2173,
    "\u2581\u13a4\u13db\u13d0\u13c5\u13af": 2174,
    "\u2581\u13a0\u13e7\u13cf": 2175,
    "\u13a0\u13ce\u13c3": 2176,
    "\u2581\u13a4\u13d3\u13d4\u13c5\u13af": 2177,
    "\u2581\u13a4\u13be\u13db\u13c1\u13a2": 2178,
    "\u2581\u13d5\u13a6\u13b6\u13d7\u13af": 2179,
    "\u2581\u13a4\u13be\u13d3\u13d1\u13f4": 2180,
    "\u2581\u13a0\u13a9\u13aa\u13b2\u13a9": 2181,
    "\u2581\u13d3\u13a7\u13c5\u13a2": 2182,
    "\u2581\u13ac\u13e9\u13b7\u13e4\u13b8\u13a9": 2183,
    "\u2581\u13a4\u13c1\u13b3\u13c5\u13af\u13f1": 2184,
    "\u2581\u13ac\u13e9\u13aa\u13b2": 2185,
    "\u2581\u13a4\u13c4\u13aa\u13e4": 2186,
    "\u13e3\u13d8": 2187,
    "\u2581\u13a2\u13e7\u13e9\u13c1": 2188,
    "\u2581\u13a1\u13d9\u13af": 2189,
    "\u13cd\u13d4\u13c5\u13af": 2190,
    "\u2581\u13a1\u13b3\u13d7\u13e3": 2191,
    "\u2581\u13a0\u13e5\u13b8\u13a8\u13b6\u13af": 2192,
    "\u2581\u13d5\u13ad": 2193,
    "\u2581\u13aa\u13e2\u13d2\u13a2": 2194,
    "\u2581\u13a8\u13be\u13c2\u13f1": 2195,
    "\u2581\u13da\u13be\u13d3\u13e1\u13e9\u13d7\u13d2\u13a2": 2196,
    "\u2581\u13a0\u13a9\u13be\u13eb": 2197,
    "\u2581\u13a4\u13c2\u13cd\u13a6\u13c5\u13e8\u13af": 2198,
    "\u2581\u13a4\u13cd\u13d8\u13f0\u13ac": 2199,
    "\u2581\u13aa\u13e3\u13b4\u13db": 2200,
    "\u2581\u13a0\u13c1\u13b3": 2201,
    "\u13d6\u13b8\u13d7": 2202,
    "\u2581\u13ae\u13d7": 2203,
    "\u2581\u13e5\u13aa\u13a8": 2204,
    "\u13c5\u13ce": 2205,
    "\u2581\u13a4\u13aa\u13d7": 2206,
    "\u2581\u13a0\u13c1": 2207,
    "\u2581\u13a6\u13c5\u13af\u13d3": 2208,
    "\u13d3\u13cf": 2209,
    "\u2581\u13da\u13c2\u13b8\u13eb\u13cd\u13d3\u13c1\u13b2\u13a2": 2210,
    "\u13a6\u13d7\u13d3": 2211,
    "\u2581\u13c2\u13a6\u13ea\u13cd\u13ac\u13a9": 2212,
    "\u2581\u13a4\u13e9\u13c5": 2213,
    "\u2581\u13a4\u13b4\u13c5\u13b2": 2214,
    "\u2581\u13f1\u13a6\u13a9": 2215,
    "\u2581\u13a4\u13b2": 2216,
    "\u2581\u13a4\u13aa\u13ae\u13a2": 2217,
    "\u2581\u13a6\u13ec\u13c2\u13cd\u13ac\u13a2": 2218,
    "\u2581\u13ee": 2219,
    "\u13d2\u13c5": 2220,
    "\u2581\u13a1\u13b3": 2221,
    "\u2581\u13a4\u13f2\u13b1\u13d2\u13a2": 2222,
    "\u13b5\u13cd\u13aa\u13b8\u13d3\u13c1\u13b8\u13af": 2223,
    ";)": 2224,
    "\u2581\u13e5\u13d9": 2225,
    "\u2581\u13a6\u13be": 2226,
    "\u2581\u13a4\u13bf\u13e5": 2227,
    "\u2581\u13eb\u13a9": 2228,
    "\u13c5\u13ad": 2229,
    "\u13b7\u13e4\u13d7\u13f1": 2230,
    "\u2581\u13bb": 2231,
    "\u2581\u13a7\u13c1\u13a2\u13cd\u13d7": 2232,
    "\u2581\u13d9\u13d7": 2233,
    "\u2581\u13a2\u13f3\u13e9": 2234,
    "\u13ab\u13f4\u13d9\u13d7": 2235,
    "\u2581\u13be\u13d1\u13f4": 2236,
    "\u2581\u13a0\u13c2\u13c2": 2237,
    "\u13cd\u13d5\u13cd\u13d7": 2238,
    "\u13a6\u13d4": 2239,
    "\u2581\u13a4\u13e9\u13db\u13d7": 2240,
    "\u13b6\u13a2": 2241,
    "\u2581\u13e9\u13e5": 2242,
    "\u2581\u13a0\u13a6\u13d4": 2243,
    "\u2581\u13a4\u13c2\u13c1\u13e8": 2244,
    "\u2581\u13a0\u13be\u13b5": 2245,
    "\u2581\u13a4\u13c4\u13ec": 2246,
    "\u13a5\u13be": 2247,
    "\u2581\u13af\u13cd\u13a9\u13c1": 2248,
    "\u13d3\u13c2\u13b8\u13e8\u13af": 2249,
    "\u2581\u13a0\u13af\u13d7": 2250,
    "\u2581\u13aa\u13af\u13f3\u13d7\u13cd\u13a9": 2251,
    "\u2581\u13cf\u13bb\u13ef\u13c2": 2252,
    "\u13e4\u13b5": 2253,
    "\u2581\u13a3\u13a6\u13e4\u13b5": 2254,
    "\u13d3\u13d1\u13ef": 2255,
    "\u2581\u13a8\u13d3\u13b5": 2256,
    "\u2581\u13a7\u13c3\u13ae\u13cd\u13ac": 2257,
    "\u2581\u13c4\u13be\u13db\u13c1\u13b8": 2258,
    "\u2581\u13eb\u13a6\u13c5\u13c5": 2259,
    "\u2581\u13a0\u13c2\u13e8\u13ef": 2260,
    "\u2581\u13a0\u13c5\u13d7\u13cd\u13ac": 2261,
    "\u2581\u13a0\u13c7": 2262,
    "\u2581\u13a4\u13dc\u13c5\u13db": 2263,
    "\u2581\u13d5\u13a6\u13c5\u13c5": 2264,
    "\u13c1\u13e4\u13d7": 2265,
    "\u2581\u13eb\u13da\u13ef\u13c5\u13ae": 2266,
    "\u2581\u13aa\u13f1\u13c1": 2267,
    "\u2581\u13e3\u13a9": 2268,
    "\u2581\u13c2\u13ac\u13c1": 2269,
    "\u2581\u13d5\u13aa": 2270,
    "\u13e9\u13db": 2271,
    "\u2581\u13a0\u13c2\u13c1\u13ac": 2272,
    "\u2581\u13e5\u13d9\u13ac": 2273,
    "\u2581\u13ad\u13b5": 2274,
    "\u2581\u13a4\u13c2\u13a9\u13ce": 2275,
    "\u2581\u13a0\u13c7\u13b5\u13d2": 2276,
    "\u2581\u13a4\u13be\u13da\u13b5\u13cd\u13ac": 2277,
    "\u2581\u13da\u13b8\u13cc\u13db": 2278,
    "\u2581\u13c2\u13da\u13e9\u13c1\u13b8": 2279,
    "\u2581\u13a0\u13c1\u13b5\u13cd\u13a8": 2280,
    "\u13a5\u13af\u13cd\u13d7": 2281,
    "\u2581\u13e5\u13c1\u13ac": 2282,
    "\u2581\u13a4\u13ea\u13c5\u13d2": 2283,
    "\u2581\u13e3\u13da\u13b5": 2284,
    "\u2581\u13f1\u13e5\u13a6\u13d4": 2285,
    "\u13d7\u13e3": 2286,
    "\u13c3\u13c1\u13b8\u13a9": 2287,
    "\u2581\u13a2\u13ef\u13c6\u13db\u13c1\u13d7": 2288,
    "\u2581\u13a4\u13c1\u13d3\u13cd\u13d7": 2289,
    "\u13c4\u13ec": 2290,
    "\u2581\u13a6\u13b4\u13c2": 2291,
    "\u2581\u13c2\u13e8\u13c1\u13b8": 2292,
    "\u2581\u13a1\u13b3\u13c2\u13ac": 2293,
    "\u13e2\u13d7": 2294,
    "\u2581\u13a4\u13cd\u13da\u13a2\u13d2": 2295,
    "\u2581\u13a0\u13c2\u13c3\u13cd\u13a9\u13cd\u13a9": 2296,
    "\u2581\u13a0\u13c2\u13e9\u13e5\u13c2": 2297,
    "\u2581\u13a6\u13b3\u13b1\u13c2": 2298,
    "\u2581\u13d5\u13a6\u13b3\u13eb\u13a5": 2299,
    "\u2581\u13d7\u13d3\u13ec\u13cd\u13a9": 2300,
    "\u2581\u13e7\u13d3\u13bf\u13e9\u13db": 2301,
    "\u2581\u13e7\u13d9\u13d3\u13cb\u13d3": 2302,
    "\u2581\u13a2\u13c6\u13b6\u13c2": 2303,
    "\u2581\u13be\u13aa\u13d4\u13c5\u13be": 2304,
    "\u2581\u13da\u13be\u13a7\u13db": 2305,
    "\u2581\u13a4\u13d9\u13b4\u13b0\u13af\u13cd\u13d7\u13f1": 2306,
    "\u2581\u13da\u13c3\u13e2\u13d4\u13c5\u13a9": 2307,
    "\u2581\u13c4\u13d3\u13b5\u13d3\u13cd\u13db\u13be": 2308,
    "\u2581\u13d7\u13c2\u13ec\u13c2\u13cd\u13a9": 2309,
    "\u2581\u13d7\u13a8\u13e5\u13a4\u13cd\u13d5\u13ce\u13b8\u13af": 2310,
    "\u2581\u13a2\u13d5\u13af": 2311,
    "\u2581\u13a0\u13d3\u13ea\u13b3\u13a9\u13cd\u13a9": 2312,
    "\u2581\u13c5\u13d3\u13a6\u13b5\u13cd\u13d9\u13d3": 2313,
    "\u2581\u13d7\u13c2\u13cd\u13aa\u13b5": 2314,
    "\u2581\u13c2\u13a6\u13b5\u13cd\u13d4\u13c2\u13d9\u13b2": 2315,
    "\u2581\u13e3\u13d4\u13a6": 2316,
    "\u2581\u13e7\u13c6\u13b6\u13ac": 2317,
    "\u2581\u13c4\u13b5\u13cd\u13d4\u13be": 2318,
    "\u2581\u13a2\u13e5\u13f0\u13b8\u13ce\u13cd\u13d7": 2319,
    "\u2581\u13c2\u13e3\u13db\u13c1\u13ae\u13cd\u13d7": 2320,
    "\u2581\u13be\u13b5\u13cd\u13c6\u13d7\u13cd\u13ac\u13be": 2321,
    "\u2581\u13a2\u13e3\u13c5\u13d6\u13cd\u13d7": 2322,
    "\u2581\u13a5\u13a9\u13c5\u13cf\u13db": 2323,
    "\u2581\u13a4\u13ec\u13d1\u13b6\u13e8\u13af": 2324,
    "\u2581\u13da\u13be\u13b4\u13c1": 2325,
    "\u2581\u13e6\u13e2\u13d7": 2326,
    "\u2581\u13a2\u13e5\u13a6\u13d4\u13ae\u13cd\u13d7": 2327,
    "\u2581\u13a2\u13e7\u13b3\u13d7\u13e2": 2328,
    "\u2581\u13af\u13cd\u13a6\u13ef": 2329,
    "\u2581\u13c2\u13da\u13be\u13d3\u13ea\u13ce\u13b4\u13a2": 2330,
    "\u2581\u13a1\u13c2\u13d7": 2331,
    "\u2581\u13a0\u13cc\u13c5\u13d9\u13d7": 2332,
    "\u2581\u13a3\u13c2\u13d7\u13e2": 2333,
    "\u2581\u13c5\u13d3\u13a6\u13b5\u13cd\u13d9\u13d4\u13c2": 2334,
    "\u2581\u13d7\u13d1\u13e2\u13db": 2335,
    "\u2581\u13a0\u13b5\u13e5\u13d9\u13b2\u13cd\u13a9": 2336,
    "\u2581\u13a2\u13e5\u13a6\u13d9\u13a5\u13af\u13cd\u13d7\u13f1": 2337,
    "\u2581\u13a1\u13c8\u13b5": 2338,
    "\u2581\u13e7\u13be\u13b5\u13c2\u13a9\u13db": 2339,
    "\u2581\u13aa\u13af\u13f3\u13b2\u13cd\u13a9": 2340,
    "\u2581\u13a0\u13e5\u13a4\u13cd\u13d5\u13ce\u13b8\u13af": 2341,
    "\u2581\u13a2\u13ef\u13cd\u13d8": 2342,
    "\u2581\u13c2\u13ac\u13ea\u13ce\u13ad": 2343,
    "\u2581\u13e7\u13cd\u13aa\u13b5": 2344,
    "\u2581\u13a0\u13d3\u13cd\u13d3\u13f4\u13d7": 2345,
    "\u2581\u13e3\u13d3\u13c5\u13d9": 2346,
    "\u2581\u13a4\u13db\u13a6\u13be": 2347,
    "\u2581\u13c5\u13e7\u13b5\u13cd\u13d9\u13d4\u13c5": 2348,
    "\u13cd\u13aa\u13c3": 2349,
    "\u2581\u13cd\u13a9\u13d9\u13b5\u13a9": 2350,
    "\u2581\u13a0\u13c2\u13c5\u13a2": 2351,
    "\u2581\u13cd\u13aa\u13ef": 2352,
    "\u2581\u13c2\u13a6\u13b5\u13cd\u13d4\u13c5\u13ad": 2353,
    "\u2581\u13e7\u13c2\u13b3\u13eb\u13a2\u13cd\u13d7\u13f1": 2354,
    "\u2581\u13a2\u13f3\u13b5\u13cd\u13d4\u13c5\u13af": 2355,
    "\u2581\u13ad\u13bb": 2356,
    "\u2581\u13a4\u13b5\u13cd\u13d7\u13f3": 2357,
    "\u2581\u13a4\u13d5\u13b5\u13d2": 2358,
    "\u2581\u13da\u13e0\u13f1\u13b4\u13a2": 2359,
    "\u2581\u13a0\u13c6\u13b5\u13cf": 2360,
    "\u2581\u13a2\u13ef\u13c6\u13db\u13c1\u13d7\u13f1": 2361,
    "\u2581\u13d3\u13d3\u13cf": 2362,
    "\u2581\u13e6\u13b3": 2363,
    "\u2581\u13f1\u13d9": 2364,
    "\u2581\u13a2\u13d3\u13b5": 2365,
    "\u2581\u13e5\u13aa\u13e9\u13d8\u13ad": 2366,
    "\u2581\u13c4\u13e9\u13c5": 2367,
    "\u2581\u13a2\u13e8\u13ef": 2368,
    "\u2581\u13b9\u13d7": 2369,
    "\u2581\u13a4\u13ea\u13d7\u13f1": 2370,
    "\u2581\u13a4\u13cd\u13c6\u13db": 2371,
    "\u2581\u13a4\u13e3\u13d6": 2372,
    "\u2581\u13a8\u13a5\u13a2": 2373,
    "\u2581\u13a1\u13d8\u13f4": 2374,
    "\u2581\u13a7\u13c5\u13d1\u13b8": 2375,
    "\u2581\u13a4\u13c2\u13a9\u13d2\u13a9": 2376,
    "\u2581\u13d3\u13ac\u13e9": 2377,
    "\u2581\u13d8\u13b5": 2378,
    "\u2581\u13b9\u13a9": 2379,
    "\u2581\u13c2\u13da\u13e9\u13c1\u13b8\u13a9": 2380,
    "\u2581\u13e7\u13c2\u13be\u13eb\u13f1": 2381,
    "\u2581\u13d7\u13e8": 2382,
    "\u13cc\u13c2": 2383,
    "\u2581\u13e7\u13d3\u13c5\u13db\u13a2": 2384,
    "\u2581\u13cc\u13da": 2385,
    "\u2581\u13e7\u13ec\u13da\u13af": 2386,
    "\u13ce\u13d7": 2387,
    "\u2581\u13ed\u13c2\u13b7\u13e4\u13a2": 2388,
    "\u2581\u13c4\u13be\u13cd\u13d7": 2389,
    "\u2581\u13be\u13c6": 2390,
    "\u2581\u13a8\u13c2\u13d7": 2391,
    "\u13cf\u13d7\u13d2": 2392,
    "\u2581\u13a4\u13c4\u13e2": 2393,
    "\u13d0\u13c5": 2394,
    "\u2581\u13a0\u13c6\u13b5": 2395,
    "\u2581\u13d2": 2396,
    "\u13f4\u13d7": 2397,
    "\u2581\u13f1\u13da\u13c2": 2398,
    "\u2581\u13c8": 2399,
    "\u2581\u13a0\u13ad": 2400,
    "\u2581\u13c2\u13eb": 2401,
    "\u2581\u13f1\u13b0": 2402,
    "\u13b5\u13cd\u13d4\u13c5": 2403,
    "\u13cd\u13c6\u13c2\u13aa\u13d7": 2404,
    "\u2581\u13a6\u13db\u13ac\u13a2": 2405,
    "\u2581\u13a4\u13aa\u13b2\u13af": 2406,
    "\u2581\u13c4\u13db\u13c1\u13b8\u13a2": 2407,
    "\u13c1\u13ac": 2408,
    "\u2581\u13a4\u13c1\u13a2\u13cd\u13d7": 2409,
    "\u13a9\u13d3": 2410,
    "\u13cd\u13d4\u13c5\u13a2": 2411,
    "\u2581\u13da\u13e9": 2412,
    "\u13ea\u13e8\u13af": 2413,
    "\u13a6\u13b8": 2414,
    "\u2581\u13a0\u13a9\u13aa\u13b2": 2415,
    "\u2581\u13d7\u13ac\u13d9\u13d7": 2416,
    "\u2581\u13a4\u13be\u13d5": 2417,
    "\u13f4\u13ad": 2418,
    "\u13d8\u13d7": 2419,
    "\u13dc": 2420,
    "\u2581\u13a4\u13ad\u13a8": 2421,
    "\u13cd\u13d3\u13f4": 2422,
    "\u2581\u13e5\u13f4": 2423,
    "\u2581\u13d3\u13e5\u13ef": 2424,
    "\u2581\u13c4\u13d3": 2425,
    "\u13e7\u13cf": 2426,
    "\u13d7\u13d2": 2427,
    "\u13a9\u13cd\u13a8\u13cd\u13d7": 2428,
    "\u2581\u13af\u13be": 2429,
    "\u2581\u13a0\u13a6\u13db": 2430,
    "\u2581\u13eb\u13d7": 2431,
    "\u2581\u13a0\u13cf\u13b3\u13db": 2432,
    "\u2581\u13a4\u13d4\u13c5": 2433,
    "\u2581\u13a4\u13d9\u13d3\u13c3": 2434,
    "\u13c5\u13cf\u13d9\u13af": 2435,
    "\u13c1\u13ae": 2436,
    "\u13a0\u13ef\u13d7": 2437,
    "\u2581\u13af\u13b8\u13af": 2438,
    "\u13c2\u13d2": 2439,
    "\u13d9\u13ae\u13cd\u13d7": 2440,
    "\u2581\u13a4\u13b6\u13d2": 2441,
    "\u13a1\u13cd\u13d7": 2442,
    "\u13b6\u13d2": 2443,
    "\u2581\u13a4\u13cd\u13c6": 2444,
    "\u2581\u13a8\u13b6\u13af": 2445,
    "\u2581\u13a4\u13db\u13c5\u13a9": 2446,
    "\u2581\u13c2\u13e3\u13db\u13c5\u13a2": 2447,
    "\u13c1\u13b8\u13d4\u13c5": 2448,
    "\u13ea\u13b3": 2449,
    "\u2581\u13a0\u13f2": 2450,
    "\u2581\u13ed\u13c2\u13b7\u13e4": 2451,
    "\u2581\u13a4\u13e9\u13a8\u13eb": 2452,
    "\u2581\u13ad\u13b4": 2453,
    "\u13a7\u13b5\u13a2": 2454,
    "\u2581\u13a2\u13cd": 2455,
    "\u13d7\u13f3": 2456,
    "\u13aa\u13a9": 2457,
    "\u13a4\u13d9\u13af\u13f3": 2458,
    "\u13ef\u13c5": 2459,
    "\u2581\u13a0\u13a2\u13d2": 2460,
    "\u2581\u13c2\u13aa": 2461,
    "\u13a9\u13cd\u13aa": 2462,
    "\u2581\u13a0\u13c2\u13c1": 2463,
    "\u2581\u13e5\u13be": 2464,
    "\u13c9\u13d7": 2465,
    "\u13d9\u13b5": 2466,
    "\u13d9\u13b5\u13cd\u13d7": 2467,
    "\u13f0\u13b8": 2468,
    "\u2581\u13a0\u13cd\u13a6": 2469,
    "\u2581\u13a0\u13cd\u13da\u13b2": 2470,
    "\u13ec\u13c2\u13af\u13cd\u13d7": 2471,
    "\u13d3\u13c1\u13b8": 2472,
    "\u2581\u13d7\u13be\u13d3": 2473,
    "\u2581\u13ac\u13ef": 2474,
    "\u2581\u13a0\u13cd\u13a6\u13c5\u13e8": 2475,
    "\u13a9\u13b3": 2476,
    "\u13a5\u13cf": 2477,
    "\u13c5\u13d3\u13d7\u13cd\u13d9\u13d7": 2478,
    "\u13d3\u13b6\u13c2\u13a8": 2479,
    "\u2581\u13be\u13c6\u13db\u13c1\u13b8": 2480,
    "\u2581\u13aa\u13e2\u13d2": 2481,
    "\u13b4\u13c5\u13af": 2482,
    "\u13d4\u13b7\u13a9\u13cd\u13a9": 2483,
    "\u2581\u13a0\u13d3\u13d9\u13b5\u13cd\u13d7": 2484,
    "\u13c5\u13c5": 2485,
    "\u2581\u13be\u13c2\u13ea\u13cd\u13ac": 2486,
    "\u13a8\u13b3\u13cd\u13d7": 2487,
    "\u2581\u13a0\u13a9\u13c1\u13e8": 2488,
    "\u2581\u13a0\u13d3\u13c5\u13d6\u13cd\u13a8": 2489,
    "\u2581\u13a1\u13b5\u13cd\u13a8": 2490,
    "\u2581\u13a5\u13d3\u13b8": 2491,
    "\u2581\u13a4\u13a9\u13e8\u13c5": 2492,
    "\u2581\u13a4\u13b5\u13c2\u13ac\u13ac": 2493,
    "\u2581\u13a0\u13f2\u13df": 2494,
    "\u2581\u13a2\u13e3\u13d3": 2495,
    "\u13b5\u13aa": 2496,
    "\u2581\u13ac\u13e9\u13b7\u13e4\u13b4": 2497,
    "\u13a2\u13f3\u13be\u13cd\u13d7": 2498,
    "\u2581\u13e3\u13a7\u13db": 2499,
    "\u2581\u13d7\u13e4\u13b2": 2500,
    "\u2581\u13a4\u13c2\u13c3\u13ae\u13b8": 2501,
    "\u2581\u13a6\u13f0\u13cc\u13db": 2502,
    "\u2581\u13c2\u13e3\u13db\u13c5": 2503,
    "\u2581\u13a4\u13bf\u13a5": 2504,
    "\u2581\u13a4\u13f0\u13b8\u13c1": 2505,
    "\u2581\u13eb\u13cd\u13a9": 2506,
    "\u13c6\u13b5": 2507,
    "\u2581\u13a0\u13d3\u13ef": 2508,
    "\u2581\u13d7\u13e5\u13f0\u13b8": 2509,
    "\u2581\u13eb\u13da\u13ef\u13c5\u13b2": 2510,
    "\u2581\u13ac\u13e9\u13b7\u13e4\u13b8": 2511,
    "\u2581\u13a4\u13a6\u13d4\u13b2\u13d2": 2512,
    "\u2581\u13be\u13db\u13c1\u13b2": 2513,
    "\u2581\u13a0\u13c1\u13b5\u13cd\u13ac": 2514,
    "\u2581\u13d7\u13c4\u13aa\u13d7\u13cd\u13a9": 2515,
    "\u2581\u13a2\u13ac\u13e9\u13c1\u13d7": 2516,
    "\u2581\u13a0\u13e5\u13a2\u13cd\u13d7": 2517,
    "\u13a5\u13dd": 2518,
    "\u13d7\u13cd\u13ac\u13a2": 2519,
    "\u13c7\u13d3\u13b5": 2520,
    "\u2581\u13da\u13c5\u13ce": 2521,
    "\u2581\u13aa\u13e2\u13d7": 2522,
    "\u2581\u13a0\u13f0\u13b3\u13cd\u13d8": 2523,
    "\u2581\u13a1\u13a9\u13b5\u13c8": 2524,
    "\u2581\u13a2\u13d7\u13cd\u13d3\u13d3\u13b3": 2525,
    "\u2581\u13a6\u13cc\u13c6\u13b8": 2526,
    "\u2581\u13c2\u13d3\u13aa\u13d4\u13c5\u13be": 2527,
    "\u2581\u13cc\u13ec\u13da": 2528,
    "\u2581\u13a2\u13ef\u13ac\u13c1\u13b8\u13af": 2529,
    "\u2581\u13a0\u13c2\u13c8\u13b5\u13cd\u13d7": 2530,
    "\u2581\u13cc\u13f1\u13b3": 2531,
    "\u2581Chap": 2532,
    "\u2581\u13e3\u13a6\u13df\u13b6\u13cd\u13d4\u13c5\u13af": 2533,
    "\u2581\u13a7\u13c1\u13cd\u13aa": 2534,
    "\u2581\u13da\u13a7\u13d4\u13cd\u13d4\u13c1\u13a2": 2535,
    "\u2581\u13e5\u13cd\u13aa\u13f4": 2536,
    "\u2581\u13e7\u13d3\u13d5\u13cd\u13d7\u13f1": 2537,
    "\u2581\u13c5\u13d3\u13a6\u13e5\u13f4\u13c1\u13b5": 2538,
    "\u2581\u13a4\u13f2\u13cd\u13db\u13c9": 2539,
    "\u2581\u13ae\u13bc": 2540,
    "\u2581\u13a0\u13d5\u13d2\u13b2\u13cd\u13a9": 2541,
    "\u2581\u13a2\u13c6\u13bb": 2542,
    "\u2581\u13a2\u13f3\u13db\u13c1\u13b8\u13af": 2543,
    "\u2581\u13a0\u13d7\u13d2\u13cd\u13d7": 2544,
    "\u2581\u13d7\u13e5\u13a6\u13d9\u13b5": 2545,
    "\u2581\u13e5\u13c2\u13e3\u13db\u13c5": 2546,
    "\u2581\u13e7\u13be\u13d3\u13c5\u13d9": 2547,
    "\u2581\u13a6\u13cc\u13be\u13b5": 2548,
    "\u2581\u13a4\u13c2\u13c1\u13ab\u13e5\u13db": 2549,
    "\u2581\u13a4\u13a9\u13d3\u13df\u13c5\u13ef": 2550,
    "\u2581\u13a4\u13b3\u13a8\u13ef\u13db\u13e4\u13a2": 2551,
    "\u2581\u13d7\u13bf\u13ec": 2552,
    "\u2581\u13a4\u13b4\u13f4\u13d2": 2553,
    "\u2581\u13f1\u13e5\u13cd\u13a6\u13a2\u13ae\u13cd\u13d7": 2554,
    "\u2581\u13a0\u13b9\u13f3\u13b8\u13d3": 2555,
    "\u2581\u13a7\u13f4\u13d0\u13b5": 2556,
    "\u2581\u13a0\u13a9\u13ac\u13eb\u13f3\u13af": 2557,
    "\u2581\u13e3\u13e4\u13b5\u13aa\u13af": 2558,
    "\u2581\u13cf\u13b5\u13f1": 2559,
    "\u2581\u13e5\u13f2\u13ce\u13b8": 2560,
    "\u2581\u13a6\u13ab\u13cd\u13db\u13d7": 2561,
    "\u2581\u13d0\u13c1\u13b3": 2562,
    "\u2581\u13a0\u13c2\u13c3\u13ae\u13cd\u13a9": 2563,
    "\u2581\u13c7\u13d5\u13b5": 2564,
    "\u2581\u13d7\u13a8\u13e5\u13be\u13cc\u13a2": 2565,
    "\u2581\u13ed\u13b7\u13e3": 2566,
    "\u2581\u13a0\u13f0\u13b2": 2567,
    "\u2581\u13a0\u13a6\u13d4\u13be\u13a2": 2568,
    "\u2581\u13a4\u13e3\u13d4": 2569,
    "\u2581\u13a4\u13be\u13d7\u13cd\u13a6\u13b6\u13d7": 2570,
    "\u2581\u13c7": 2571,
    "\u13d9\u13a2": 2572,
    "\u2581\u13d3\u13ac\u13d4\u13c2": 2573,
    "\u2581\u13ac\u13e9\u13cd\u13d3\u13e9\u13db\u13d2\u13a9": 2574,
    "\u2581\u13ac\u13b5\u13cd\u13c6\u13d7\u13cd\u13a9": 2575,
    "\u2581\u13a0\u13c9\u13b3": 2576,
    "\u2581\u13a2\u13f3\u13e9\u13c1\u13af": 2577,
    "\u2581\u13a0\u13b5\u13cd\u13aa\u13b8\u13d3\u13c1\u13d7": 2578,
    "\u2581\u13da\u13c3\u13a1\u13a2": 2579,
    "\u2581\u13e5\u13e5\u13a6\u13d4\u13ad": 2580,
    "\u2581\u13d7\u13ac\u13e9\u13b8\u13cc\u13db": 2581,
    "\u2581\u13ef\u13a6\u13d4\u13ad": 2582,
    "\u2581\u13a3\u13a9\u13d9\u13d3": 2583,
    "\u2581\u13e4\u13d9\u13b2": 2584,
    "\u2581\u13a0\u13c3\u13cd\u13db": 2585,
    "\u2581\u13a4\u13c1\u13e2\u13d4\u13c5\u13af": 2586,
    "\u2581\u13d7\u13a6\u13c5\u13cd\u13a8\u13c2": 2587,
    "\u2581\u13be\u13e5\u13be\u13dd\u13a5\u13be": 2588,
    "\u2581\u13e7\u13c2\u13a6\u13f4\u13b5\u13a8": 2589,
    "\u2581\u13f3\u13e9\u13c1\u13a6": 2590,
    "\u2581\u13cf\u13c5\u13d3": 2591,
    "\u2581\u13a2\u13e3\u13e0\u13be\u13cd\u13d7": 2592,
    "\u2581\u13ed\u13b6\u13af\u13cd\u13d7\u13f1": 2593,
    "\u2581\u13aa\u13ea\u13b3\u13c5\u13af": 2594,
    "\u2581\u13a0\u13a8\u13ef": 2595,
    "\u13ac\u13eb\u13f3\u13d2": 2596,
    "\u2581\u13e6\u13c8": 2597,
    "\u13af\u13d3": 2598,
    "\u2581\u13ac\u13c2\u13a8\u13d2\u13a2\u13f3": 2599,
    "\u2581\u13a4\u13c1\u13cd\u13d3\u13b3": 2600,
    "\u2581\u13e5\u13c2\u13a6\u13ea\u13ad": 2601,
    "\u2581\u13aa\u13e2\u13c5": 2602,
    "\u2581\u13a0\u13e5\u13c3\u13ae\u13cd\u13ac\u13a2": 2603,
    "\u2581\u13e7\u13c1\u13ac": 2604,
    "\u2581\u13a4\u13a6\u13b9": 2605,
    "\u2581\u13c2\u13a6\u13c5\u13af\u13d2\u13a9": 2606,
    "\u2581\u13a4\u13aa\u13e9\u13db\u13d7": 2607,
    "\u2581\u13c2\u13da\u13cd\u13db": 2608,
    "\u2581\u13a1\u13c9\u13d7\u13f1": 2609,
    "\u2581\u13a4\u13c5\u13cf\u13d9\u13af": 2610,
    "\u2581\u13a4\u13d3\u13c5\u13d6\u13b8\u13af": 2611,
    "\u13f3\u13af": 2612,
    "\u2581\u13a3\u13a9\u13be\u13b5\u13a2": 2613,
    "\u13be\u13f0\u13cd\u13ac\u13be": 2614,
    "\u2581\u13be\u13a6\u13d4\u13b2\u13be": 2615,
    "\u2581\u13a4\u13d5\u13c1\u13b8\u13af": 2616,
    "\u2581\u13a0\u13c1\u13b0": 2617,
    "\u2581\u13d3\u13d5\u13f2\u13b2\u13cd\u13ac\u13a2": 2618,
    "\u2581\u13a4\u13ec\u13e2\u13c5\u13a9": 2619,
    "\u2581\u13a0\u13ad\u13c2": 2620,
    "\u2581\u13d3\u13c2\u13c1\u13b8\u13a2": 2621,
    "\u13c2\u13d3\u13cd\u13d7\u13f1": 2622,
    "\u2581\u13a4\u13cd\u13a6\u13c5\u13e8\u13af": 2623,
    "\u2581\u13a1\u13b3\u13d7\u13e2": 2624,
    "\u2581\u13ac\u13c2\u13f3": 2625,
    "\u13da\u13b5\u13ad": 2626,
    "\u2581\u13a8\u13b3\u13cd\u13d7": 2627,
    "\u2581\u13a4\u13bf\u13a5\u13a2": 2628,
    "\u2581\u13a0\u13a9\u13cd\u13d7\u13f1": 2629,
    "\u13c2\u13a9\u13db": 2630,
    "\u2581\u13f1\u13d5": 2631,
    "\u2581\u13e5\u13a8": 2632,
    "\u13a1\u13d7": 2633,
    "\u2581\u13e4\u13c6": 2634,
    "\u2581\u13cc\u13b5": 2635,
    "\u2581\u13a0\u13cd\u13d8": 2636,
    "\u2581\u13d5\u13e1\u13ac\u13a2": 2637,
    "\u2581\u13a4\u13be\u13db\u13a6\u13c5\u13af": 2638,
    "\u13b5\u13ef": 2639,
    "\u2581\u13be\u13a8": 2640,
    "\u2581\u13a0\u13a9\u13f0\u13b8": 2641,
    "\u2581\u13d5\u13c2": 2642,
    "\u2581\u13a0\u13c6\u13d3\u13c5\u13d9\u13a9": 2643,
    "\u2581\u13c2\u13ac\u13c1\u13b2": 2644,
    "\u2581\u13f3\u13da\u13b5": 2645,
    "\u13e0\u13f1": 2646,
    "\u2581\u13a6\u13d9\u13ac\u13a9": 2647,
    "\u13c4\u13aa\u13eb\u13d2\u13a9": 2648,
    "\u13be\u13a5": 2649,
    "\u13d1\u13f0\u13db": 2650,
    "\u13a8\u13f3\u13d7": 2651,
    "\u13c8\u13cd\u13d7": 2652,
    "\u13c1\u13b0\u13a2": 2653,
    "\u2581\u13c4\u13b5\u13cd\u13d4\u13c2\u13d9\u13b8\u13a2": 2654,
    "\u2581\u13a4\u13c2\u13cd\u13a6\u13c5\u13e8\u13a2": 2655,
    "\u13d5\u13b6\u13b0\u13af\u13cd\u13d7": 2656,
    "\u2581\u13a6\u13b8\u13c9": 2657,
    "\u2581\u13a4\u13b7\u13e4\u13a2": 2658,
    "\u2581\u13a4\u13d7\u13d4\u13cd\u13d7": 2659,
    "\u2581\u13a0\u13ab": 2660,
    "\u2581\u13c5\u13d7\u13a6\u13b5\u13cd\u13d9\u13d7\u13cd\u13ac\u13a2": 2661,
    "\u2581\u13e6\u13af\u13f3\u13d2": 2662,
    "\u2581\u13e5\u13c4": 2663,
    "\u13d3\u13c5\u13a6\u13b8\u13db": 2664,
    "\u2581\u13a0\u13d2\u13a9": 2665,
    "\u13cf\u13c1": 2666,
    "\u13d4\u13f2\u13cf": 2667,
    "id": 2668,
    "\u2581\u13a2\u13e5\u13f0\u13b8": 2669,
    "\u2581\u13a4\u13a7\u13db\u13a2": 2670,
    "\u13a9\u13af": 2671,
    "\u2581\u13d5\u13cd\u13a9": 2672,
    "\u13a8\u13c2": 2673,
    "\u13d9\u13b4\u13b0\u13cf": 2674,
    "\u2581\u13a8\u13db": 2675,
    "\u13c1\u13e4\u13b4": 2676,
    "\u2581\u13a2\u13d2": 2677,
    "\u13d4\u13be": 2678,
    "\u2581\u13a4\u13c2\u13b2": 2679,
    "\u2581\u13ad\u13e9": 2680,
    "\u13b7\u13e3": 2681,
    "\u2581\u13a6\u13f2\u13b5": 2682,
    "\u2581\u13a4\u13be\u13db": 2683,
    "\u13a6\u13d9": 2684,
    "\u13d3\u13c5": 2685,
    "l": 2686,
    "\u2581\u13da\u13a6": 2687,
    "\u13b5\u13cd\u13d7\u13f1": 2688,
    "\u13a1\u13b8\u13a9": 2689,
    "\u2581\u13c4\u13ea": 2690,
    "\u13b5\u13cf\u13f1": 2691,
    "\u2581\u13e6\u13a2\u13ad": 2692,
    "\u2581\u13a9\u13b5": 2693,
    "\u2581\u13a2\u13cf\u13b5\u13f1": 2694,
    "\u13c5\u13d3\u13d3": 2695,
    "\u2581\u13be\u13a9": 2696,
    "\u13a6\u13d4\u13b0": 2697,
    "\u13d9\u13e2\u13c5": 2698,
    "\u13db\u13c2": 2699,
    "\u2581\u13da\u13c1\u13b8": 2700,
    "\u13e8\u13a2": 2701,
    "\u13c1\u13cd\u13d7": 2702,
    "\u13af\u13af": 2703,
    "\u13d5\u13c5": 2704,
    "\u2581\u13a0\u13c2\u13eb\u13be": 2705,
    "\u13d3\u13cd\u13d7": 2706,
    "\u2581\u13d3\u13f0": 2707,
    "\u13da\u13b5": 2708,
    "\u13f0\u13a2": 2709,
    "\u13c5\u13cf\u13d3\u13cd\u13d7": 2710,
    "\u2581\u13a0\u13c2\u13d0\u13a2\u13c3": 2711,
    "\u13d9\u13b8": 2712,
    "\u13a5\u13a9": 2713,
    "\u13b6\u13e8": 2714,
    "\u2581\u13af\u13a6\u13d8\u13cf": 2715,
    "\u2581\u13e7\u13d9": 2716,
    "\u13c1\u13e4\u13b8\u13af": 2717,
    "\u2581\u13e3\u13d3": 2718,
    "\u2581\u13aa\u13a6": 2719,
    "\u13a6\u13b3": 2720,
    "\u13c1\u13b8\u13a2": 2721,
    "\u13ce\u13b4": 2722,
    "\u2581\u13d7\u13a6\u13c5": 2723,
    "\u2581\u13a3\u13a9\u13be": 2724,
    "\u2581\u13a4\u13ec\u13c2\u13d2": 2725,
    "\u13be\u13c4\u13aa\u13eb\u13cf": 2726,
    "\u13df\u13cd\u13d7": 2727,
    "\u2581\u13a4\u13c2\u13e3\u13db": 2728,
    "\u2581\u13c4\u13c5": 2729,
    "\u2581\u13da\u13a7\u13bf\u13c5": 2730,
    "\u2581\u13a2\u13b3": 2731,
    "\u13d4\u13c5\u13be": 2732,
    "\u13ef\u13c5\u13b2": 2733,
    "\u13a1\u13b8\u13af": 2734,
    "\u2581\u13c2\u13a8": 2735,
    "\u13e9\u13db\u13ae": 2736,
    "\u2581\u13a0\u13c9": 2737,
    "\u2581\u13a0\u13d4\u13b4\u13a6\u13d2": 2738,
    "\u2581\u13a4\u13c3\u13c1\u13b4": 2739,
    "\u13e3\u13db\u13c1\u13af": 2740,
    "\u2581\u13d5\u13a6\u13da\u13e9\u13d7\u13d2": 2741,
    "\u2581\u13e7\u13e9\u13ab\u13d4\u13c5\u13d2": 2742,
    "\u2581\u13a4\u13cd\u13d3\u13a6\u13b8": 2743,
    "\u2581\u13d3\u13d5\u13f2\u13b2\u13cd\u13ac": 2744,
    "\u2581\u13f1\u13a8\u13d0": 2745,
    "\u13aa\u13b1\u13cd\u13d7": 2746,
    "\u2581\u13a0\u13da\u13a2\u13cd\u13db": 2747,
    "\u2581\u13a4\u13f0\u13b8\u13c5": 2748,
    "\u2581\u13a4\u13c2\u13b7\u13e4\u13d7": 2749,
    "\u2581\u13e9\u13be": 2750,
    "\u2581\u13da\u13ec\u13a1": 2751,
    "\u2581\u13d3\u13c2\u13c1\u13b8": 2752,
    "\u2581\u13d7\u13ab": 2753,
    "\u2581\u13a3\u13b5\u13e9": 2754,
    "\u13c5\u13a6": 2755,
    "\u13d7\u13e2": 2756,
    "\u2581\u13a4\u13b7\u13e4\u13b4": 2757,
    "\u2581\u13e4\u13ae": 2758,
    "\u2581\u13a4\u13ec\u13da": 2759,
    "\u2581\u13d5\u13aa\u13ea\u13b8": 2760,
    "\u2581\u13a4\u13c1\u13a6\u13b8": 2761,
    "\u13cd\u13a6\u13a2\u13b2\u13be": 2762,
    "\u13e5\u13f2\u13cf": 2763,
    "\u2581\u13a4\u13c5\u13ce": 2764,
    "rs": 2765,
    "\u2581\u13a1\u13c2\u13be\u13ef": 2766,
    "\u2581\u13a4\u13c2\u13c3\u13ae\u13b4": 2767,
    "\u2581\u13a5\u13d8\u13a3\u13a9": 2768,
    "\u2581\u13d1\u13d3\u13b3\u13cd\u13aa\u13af": 2769,
    "\u2581\u13d7\u13ab\u13d3\u13b8\u13d7\u13f1": 2770,
    "\u2581\u13e4\u13a6\u13b3\u13ef": 2771,
    "\u2581\u13a1\u13b9\u13c2\u13d3": 2772,
    "\u2581\u13a2\u13cd\u13a6\u13b3\u13d7": 2773,
    "\u2581\u13e7\u13a6\u13c3\u13ee": 2774,
    "\u13b0\u13b2\u13cd\u13d7": 2775,
    "\u2581\u13a4\u13b5\u13cd\u13d4\u13f4\u13d7": 2776,
    "\u2581\u13e7\u13ef\u13d6\u13c3\u13af": 2777,
    "\u2581\u13ef\u13c3\u13a9\u13f3": 2778,
    "\u13d4\u13ec\u13cd\u13d4\u13c5": 2779,
    "\u2581\u13d7\u13a7\u13be\u13e9\u13db\u13cd\u13d7": 2780,
    "\u2581\u13eb\u13da\u13a7\u13bf\u13c1": 2781,
    "\u2581\u13a4\u13be\u13e2\u13c9\u13d7": 2782,
    "\u2581\u13d7\u13c7\u13c5\u13d2": 2783,
    "\u2581\u13d7\u13be\u13d3\u13c2\u13f1\u13cd\u13a9": 2784,
    "\u2581\u13a4\u13ef\u13d6\u13c3\u13af": 2785,
    "\u2581\u13a2\u13e4\u13b3\u13d7\u13d9\u13ae\u13cd\u13d7": 2786,
    "\u2581\u13d7\u13cd\u13c6\u13a8\u13c2": 2787,
    "\u2581\u13ac\u13c9\u13ce\u13b0": 2788,
    "\u2581\u13d5\u13a8\u13e5\u13f0\u13b8\u13d4\u13c5\u13a9": 2789,
    "\u2581\u13e6\u13cd\u13d3\u13d3\u13c5\u13df": 2790,
    "\u2581\u13bb\u13be\u13cc": 2791,
    "\u2581\u13a2\u13f3\u13e9\u13c2\u13cc\u13c5\u13af": 2792,
    "\u2581\u13d1\u13be\u13d3\u13b4\u13a9": 2793,
    "\u2581\u13a6\u13b6\u13af\u13cd\u13d7\u13f3\u13b6\u13d7": 2794,
    "\u2581\u13a1\u13e5\u13b8\u13c9\u13d3": 2795,
    "\u2581\u13c5\u13d3\u13f3\u13b5\u13cd\u13d9\u13d7\u13f1": 2796,
    "\u13a6\u13da": 2797,
    "\u2581\u13a8\u13e3\u13cd\u13d3\u13e9\u13d7\u13d9\u13af": 2798,
    "\u2581\u13c2\u13e3\u13ea\u13d2": 2799,
    "\u2581\u13d5\u13aa\u13ea\u13b5\u13cd\u13ac": 2800,
    "\u2581\u13c5\u13d3\u13ac\u13c1\u13b5": 2801,
    "\u2581\u13cd\u13a9\u13c4\u13cd\u13db": 2802,
    "\u2581\u13aa\u13cc\u13c2": 2803,
    "\u2581\u13a0\u13c2\u13c8\u13b7": 2804,
    "\u2581\u13a2\u13f2\u13cd\u13db": 2805,
    "\u2581\u13f1\u13c5\u13a6\u13b5\u13cd\u13d3": 2806,
    "\u2581\u13a4\u13f0\u13b8\u13ae": 2807,
    "\u2581\u13af\u13a8\u13f4": 2808,
    "\u2581\u13c2\u13e3\u13db\u13a6": 2809,
    "\u2581\u13d7\u13d3\u13b4\u13b2\u13cd\u13a6": 2810,
    "\u2581\u13e7\u13b3\u13cd\u13a9": 2811,
    "\u13cd\u13da": 2812,
    "\u2581\u13a2\u13f3\u13db\u13bf\u13d5\u13a9": 2813,
    "\u2581\u13d3\u13d3\u13b6\u13c2": 2814,
    "\u2581\u13a2\u13a7\u13c1\u13e8\u13af": 2815,
    "\u2581\u13a0\u13d3\u13e0\u13cd\u13d7": 2816,
    "\u2581\u13eb\u13e8\u13b7\u13e4\u13d7\u13f1": 2817,
    "\u13b8\u13c9\u13d5\u13cd\u13d7": 2818,
    "\u2581\u13a4\u13c2\u13b7\u13af\u13cd\u13d7\u13f1": 2819,
    "\u2581\u13a4\u13b5\u13e0\u13ef\u13cd\u13d5\u13cd\u13d7": 2820,
    "\u2581\u13db\u13cd\u13c6\u13b8\u13af": 2821,
    "\u2581\u13d7\u13d3\u13c2\u13d0\u13d7\u13f1": 2822,
    "\u2581\u13d1\u13d5\u13d8\u13f4\u13db": 2823,
    "\u2581\u13a2\u13e3\u13b5\u13cd\u13d5\u13b8\u13d9\u13d7": 2824,
    "\u2581\u13d7\u13a6\u13b4\u13c2": 2825,
    "\u2581\u13a2\u13e3\u13db\u13a6\u13c5\u13af": 2826,
    "\u2581\u13a0\u13d9\u13b4\u13b0\u13af\u13cd\u13d9\u13d7": 2827,
    "\u2581\u13ed\u13f4\u13b8": 2828,
    "\u2581\u13a4\u13db\u13aa\u13d7\u13f1": 2829,
    "\u2581\u13ed\u13c2\u13b6\u13af\u13cd\u13d7\u13f1": 2830,
    "\u2581\u13a2\u13f3\u13e9\u13c1\u13b8\u13af": 2831,
    "\u2581\u13a0\u13a9\u13c5\u13cf\u13db": 2832,
    "\u2581\u13a4\u13d3\u13d9\u13b5\u13cd\u13d3\u13c1\u13b4\u13a2": 2833,
    "\u2581\u13a0\u13c2\u13e6\u13a2": 2834,
    "\u2581\u13be\u13c2\u13a6\u13d4\u13b2\u13be": 2835,
    "\u2581\u13a4\u13c1\u13b7\u13c5\u13a9": 2836,
    "\u2581\u13a4\u13ea\u13b5\u13cd\u13d7": 2837,
    "\u2581\u13e9\u13a9\u13b7\u13e8": 2838,
    "\u2581\u13a4\u13d3\u13d9\u13b5\u13e3\u13d8\u13f3": 2839,
    "\u2581\u13e6\u13d3\u13b8": 2840,
    "\u2581\u13c1\u13b5\u13cd\u13ac": 2841,
    "\u2581\u13a0\u13c7\u13c5\u13cd\u13d7": 2842,
    "\u2581\u13a4\u13ea\u13d9\u13b5\u13cd\u13d7": 2843,
    "\u2581\u13be\u13c2\u13a0": 2844,
    "\u2581\u13a2\u13a8\u13ac\u13c1\u13d7": 2845,
    "\u2581\u13ac\u13e9\u13d4\u13f2\u13ce\u13b4": 2846,
    "\u2581\u13f4\u13a8\u13e5": 2847,
    "\u2581\u13a4\u13c2\u13c7\u13d3\u13b8\u13a2": 2848,
    "\u2581\u13c2\u13a6\u13b5\u13cd\u13d7\u13cd\u13a8\u13cd\u13d7": 2849,
    "\u2581\u13d9\u13d3\u13f3": 2850,
    "\u2581\u13a0\u13a6\u13cd\u13ac": 2851,
    "\u2581\u13be\u13a9\u13ea\u13d2\u13a9": 2852,
    "\u2581\u13a4\u13e9\u13c2": 2853,
    "\u2581\u13a4\u13b6": 2854,
    "\u2581\u13a4\u13cc\u13b3\u13d3\u13c5": 2855,
    "\u13a6\u13f4\u13b5\u13a8": 2856,
    "\u2581\u13a4\u13c2\u13c1\u13ab": 2857,
    "\u13c2\u13cc\u13c1": 2858,
    "\u2581\u13d7\u13a6\u13b6\u13d7": 2859,
    "\u2581\u13e5\u13cd\u13c6\u13ef": 2860,
    "\u2581\u13a4\u13be\u13d5\u13c5\u13af": 2861,
    "\u2581\u13a4\u13c2\u13c3\u13ae\u13b8\u13af": 2862,
    "\u2581\u13da\u13c2\u13c5\u13ce": 2863,
    "\u2581\u13c2\u13ac\u13c1\u13ad": 2864,
    "\u2581\u13e4\u13b2\u13a9": 2865,
    "\u2581\u13da\u13c1\u13e4\u13b8\u13a9": 2866,
    "\u2581\u13a2\u13f3\u13db\u13c1\u13d7\u13f1": 2867,
    "\u2581\u13a4\u13f0\u13b8\u13af": 2868,
    "\u2581\u13d9\u13e7\u13be\u13d3\u13c5\u13db\u13a2": 2869,
    "\u2581\u13a4\u13d3\u13d1\u13ef": 2870,
    "\u2581\u13a4\u13ea\u13c5\u13cd\u13d7\u13f1": 2871,
    "\u13db\u13c5": 2872,
    "\u2581\u13a4\u13be\u13b5\u13cd\u13d3\u13f4\u13d7\u13f1": 2873,
    "\u13f0\u13ad": 2874,
    "\u2581\u13a3\u13ac\u13d2": 2875,
    "\u2581\u13c4\u13be\u13db\u13c1\u13b4\u13a2": 2876,
    "\u13f2\u13a2\u13f4": 2877,
    "\u2581\u13a0\u13c6\u13d3\u13c5\u13db": 2878,
    "\u2581\u13a4\u13d3\u13b4\u13c5\u13db": 2879,
    "\u2581\u13c5\u13d3\u13ac": 2880,
    "\u2581\u13eb\u13da\u13ef\u13c5\u13b2\u13a9": 2881,
    "\u13a6\u13d4\u13af": 2882,
    "\u2581\u13a4\u13b5\u13ec\u13e8\u13af": 2883,
    "\u2581\u13a4\u13ea\u13c5\u13d2\u13a9": 2884,
    "\u2581\u13da\u13cc\u13b3\u13d3\u13c1": 2885,
    "\u2581\u13a0\u13e5\u13b8\u13a8\u13b3\u13cd\u13d7\u13f1": 2886,
    "\u2581\u13a8\u13a6\u13ab\u13f4\u13a1": 2887,
    "\u2581\u13a4\u13ea\u13d9\u13b8\u13a9": 2888,
    "\u2581\u13a4\u13a9\u13b8": 2889,
    "\u2581\u13a4\u13c4\u13aa\u13e8\u13a9": 2890,
    "\u2581\u13be\u13c2\u13ea\u13cd\u13ac\u13a2": 2891,
    "\u2581\u13a4\u13c2\u13f0": 2892,
    "\u2581\u13a0\u13ce\u13cd\u13a9\u13c2\u13c3\u13c5": 2893,
    "\u2581\u13a4\u13f0\u13b8\u13c1\u13a2": 2894,
    "\u13d7\u13cf": 2895,
    "\u2581\u13d9\u13ef": 2896,
    "\u2581\u13e5\u13cd": 2897,
    "\u13a7\u13c1": 2898,
    "\u2581\u13a0\u13e8\u13ef\u13a2": 2899,
    "\u2581\u13d5\u13b3": 2900,
    "\u2581\u13a2\u13be\u13a9": 2901,
    "\u2581\u13a4\u13c2\u13f0\u13b8\u13c1": 2902,
    "\u13c4\u13aa\u13e9": 2903,
    "\u2581\u13f2\u13a9": 2904,
    "\u2581\u13a7\u13c1\u13c9": 2905,
    "\u13e9\u13d2": 2906,
    "\u2581\u13a2\u13f3\u13d3\u13b5": 2907,
    "\u2581\u13a0\u13eb\u13cd\u13a9": 2908,
    "\u2581\u13a0\u13e4\u13b5\u13cd\u13db\u13a2": 2909,
    "\u2581\u13a4\u13c2\u13ac": 2910,
    "\u13f2\u13af\u13cd\u13d4\u13c5": 2911,
    "\u2581\u13a7\u13aa": 2912,
    "\u2581\u13f4\u13d3": 2913,
    "\u13d3\u13b4\u13c5\u13db": 2914,
    "\u13b2\u13cd\u13a6": 2915,
    "\u13d3\u13f1\u13b5": 2916,
    "\u2581\u13d4\u13b5\u13cd\u13aa": 2917,
    "\u2581\u13c4\u13e9\u13c1\u13b4\u13a2": 2918,
    "\u2581\u13d7\u13a6\u13da\u13b2\u13a2": 2919,
    "\u13de": 2920,
    "\u2581\u13d7\u13a6\u13c5\u13cc\u13d7": 2921,
    "\u2581\u13eb\u13d7\u13a6": 2922,
    "\u2581\u13be\u13cb\u13c1\u13b8": 2923,
    "\u2581\u13a4\u13b6\u13a9\u13b8\u13a2": 2924,
    "\u13c1\u13b8\u13be": 2925,
    "\u13b5\u13cd\u13d5\u13b8\u13d9\u13d7": 2926,
    "\u2581\u13ac\u13be": 2927,
    "\u13d2\u13c3": 2928,
    "\u2581\u13db\u13c2": 2929,
    "\u2581\u13f1\u13cf": 2930,
    "\u2581\u13a4\u13ac": 2931,
    "\u2581\u13d9\u13a9\u13be": 2932,
    "\u13c5\u13d4": 2933,
    "\u2581\u13a0\u13cb\u13ad": 2934,
    "\u2581\u13a4\u13b4\u13c1": 2935,
    "\u2581\u13c2\u13d5\u13ac\u13c1": 2936,
    "\u13b2\u13cd\u13aa\u13a2": 2937,
    "\u2581\u13a0\u13df": 2938,
    "\u13e5\u13aa\u13e9\u13db": 2939,
    "\u13e4\u13b5\u13a6": 2940,
    "\u13b0\u13b5": 2941,
    "\u2581\u13e5\u13aa\u13a5": 2942,
    "\u2581\u13a4\u13e5\u13b8\u13d2": 2943,
    "\u2581\u13e3\u13c1": 2944,
    "\u2581\u13c4\u13b5\u13cd\u13d4\u13c1\u13ae": 2945,
    "\u2581\u13a4\u13da": 2946,
    "\u2581\u13a2\u13af": 2947,
    "\u2581\u13f0\u13b5\u13cd\u13a8": 2948,
    "\u13c1\u13c3": 2949,
    "\u2581\u13a4\u13b2\u13a2": 2950,
    "\u2581\u13e7\u13ec": 2951,
    "\u2581\u13a0\u13eb\u13be": 2952,
    "\u2581\u13a3\u13ac": 2953,
    "\u2581\u13a2\u13e3\u13d3\u13c5\u13d8": 2954,
    "\u13b1\u13cd\u13d7": 2955,
    "\u13cd\u13d4\u13be": 2956,
    "\u13c1\u13ae\u13a2": 2957,
    "\u13a0\u13c8": 2958,
    "\u13db\u13d9\u13d7": 2959,
    "\u13cd\u13c6\u13d9\u13c5": 2960,
    "\u13b8\u13c9\u13d9\u13d7\u13f1": 2961,
    "\u2581\u13c2\u13ac\u13e9": 2962,
    "\u2581\u13f1\u13d9\u13a6": 2963,
    "\u2581\u13a3\u13a9\u13c2": 2964,
    "\u13b3\u13d3": 2965,
    "\u13d2\u13cd\u13d7": 2966,
    "\u13cd\u13d5\u13b5\u13ad": 2967,
    "\u2581\u13a2\u13ac\u13c1": 2968,
    "\u13d3\u13c5\u13d6\u13d7": 2969,
    "\u13cd\u13d3\u13e9\u13d7\u13d9\u13af": 2970,
    "\u13be\u13c4\u13aa\u13e8\u13af": 2971,
    "\u2581\u13d3\u13f2": 2972,
    "\u2581\u13da\u13c2\u13f2": 2973,
    "\u13cd\u13a6\u13a9": 2974,
    "\u13d7\u13cd\u13ac\u13be": 2975,
    "\u13a7\u13c5": 2976,
    "\u13cf\u13c6": 2977,
    "\u13c9\u13cd\u13aa": 2978,
    "\u13af\u13eb": 2979,
    "\u2581\u13a1\u13a6": 2980,
    "\u2581\u13a4\u13be\u13db\u13a6\u13c1": 2981,
    "\u2581\u13a6\u13f0\u13e5": 2982,
    "\u13c7\u13c5": 2983,
    "\u2581\u13a9\u13b3\u13af": 2984,
    "\u2581\u13b2": 2985,
    "\u13f0\u13cc\u13db": 2986,
    "\u2581\u13a4\u13cd": 2987,
    "\u13aa\u13b5\u13f0": 2988,
    "\u2581\u13f1\u13d7\u13a6": 2989,
    "\u13c2\u13d7": 2990,
    "\u2581\u13a1\u13e5\u13c1\u13d7": 2991,
    "\u2581\u13b9": 2992,
    "\u13d5\u13d7": 2993,
    "\u13e6\u13c5": 2994,
    "\u13cd\u13d4\u13f1": 2995,
    "\u2581\u13e5\u13c2\u13a6\u13ea": 2996,
    "\u13e0\u13cd\u13d7": 2997,
    "\u13e5\u13e9\u13db\u13b2": 2998,
    "\u2581\u13f1\u13cd\u13a9": 2999,
    "\u13aa\u13b5\u13f0\u13d7": 3000,
    "\u2581\u13e7\u13be\u13b4\u13af\u13d0": 3001,
    "\u2581\u13a0\u13d3\u13c5\u13d6\u13b5\u13d9": 3002,
    "\u13b5\u13a2": 3003,
    "\u13a6\u13d3\u13c1": 3004,
    "\u2581\u13a0\u13cd\u13aa\u13af\u13c3": 3005,
    "\u2581\u13be\u13bf\u13c9": 3006,
    "h": 3007,
    "\u2581\u13eb\u13d3\u13c2": 3008,
    "\u13a0\u13ce": 3009,
    "\u13be\u13c4\u13aa\u13eb\u13d2\u13af": 3010,
    "\u2581\u13c4\u13c2\u13ea\u13d2": 3011,
    "\u2581\u13a4\u13c2\u13a9\u13d2": 3012,
    "\u13a2\u13d2": 3013,
    "\u2581\u13be\u13ac\u13c1\u13b8": 3014,
    "\u13be\u13c4\u13aa\u13a2\u13cd\u13d7": 3015,
    "\u2581\u13e5\u13c1": 3016,
    "\u2581\u13e5\u13c1\u13b8": 3017,
    "\u2581\u13d3\u13c8": 3018,
    "\u2581\u13af\u13f0\u13b8": 3019,
    "\u2581\u13c2\u13a6\u13b5\u13cd\u13d7\u13cd\u13a8": 3020,
    "\u2581\u13a3\u13d3\u13c5\u13db": 3021,
    "\u2581\u13e5\u13c2": 3022,
    "\u2581\u13a4\u13f2\u13af\u13cd\u13d4\u13c1": 3023,
    "\u13d3\u13c2": 3024,
    "\u13d7\u13c2\u13c5\u13cc\u13d7": 3025,
    "\u13cd\u13c6\u13c2\u13aa\u13d9\u13d7\u13f1": 3026,
    "\u13ad\u13d5\u13ec": 3027,
    "\u2581\u13e7\u13f4\u13e2": 3028,
    "\u2581\u13a2\u13e3\u13d3\u13e1\u13ac": 3029,
    "\u2581\u13a4\u13be\u13b5\u13ae\u13b5\u13e4": 3030,
    "on": 3031,
    "\u13a8\u13b5\u13a0": 3032,
    "\u13a0\u13a9\u13be": 3033,
    "\u13a6\u13b8\u13b3\u13d7": 3034,
    "\u13a0\u13d5\u13b8": 3035,
    "\u2581\u13a1\u13d9\u13ae": 3036,
    "\u2581\u13d5\u13a4\u13b4\u13d4\u13c5": 3037,
    "\u2581\u13f1\u13d3\u13c2": 3038,
    "\u13ad\u13f2\u13b2": 3039,
    "\u13d7\u13a6\u13d8\u13ef": 3040,
    "\u2581\u13e7\u13d3\u13c5\u13db": 3041,
    "\u2581\u13a4\u13ea\u13f4": 3042,
    "\u13a7\u13b5\u13e8\u13af": 3043,
    "\u13e0\u13a0\u13cf": 3044,
    "\u13f2\u13ad": 3045,
    "\u13f2\u13af\u13ce\u13b8\u13a9": 3046,
    "\u2581\u13da\u13c2\u13b8\u13eb\u13cd\u13d3\u13c1\u13b8": 3047,
    "\u2581\u13a0\u13d3\u13c1\u13e3\u13cd\u13da\u13b6": 3048,
    "\u2581\u13a4\u13d7\u13de": 3049,
    "\u2581\u13a2\u13d9\u13bb": 3050,
    "\u2581\u13cf\u13d3\u13c1\u13b8": 3051,
    "\u2581\u13e7\u13c2\u13b3\u13eb\u13a2\u13cd\u13d7": 3052,
    "\u2581\u13a0\u13f2\u13b1\u13d2": 3053,
    "\u2581\u13c5\u13f2": 3054,
    "\u2581\u13a0\u13e5\u13cd\u13d5\u13b8\u13d7": 3055,
    "\u2581\u13d9\u13e7": 3056,
    "\u2581\u13e3\u13be\u13eb": 3057,
    "\u2581\u13e5\u13f0": 3058,
    "\u2581\u13ae\u13b5\u13a0": 3059,
    "\u2581\u13a4\u13be\u13d5\u13c5": 3060,
    "\u13ad\u13c4\u13b8\u13af": 3061,
    "\u2581Philadelphia": 3062,
    "\u2581\u13d0\u13b5\u13b9\u13c5": 3063,
    "\u2581\u13d5\u13a8\u13a6\u13e8\u13cd\u13d7\u13cd\u13ac": 3064,
    "\u2581\u13d5\u13e6\u13af\u13f3\u13ce\u13cd\u13d7": 3065,
    "\u2581\u13da\u13cd\u13c6\u13b8\u13d4\u13c1": 3066,
    "\u2581\u13ac\u13e9\u13e0\u13ef\u13cd\u13d7": 3067,
    "\u2581\u13c6\u13b3\u13c6": 3068,
    "\u2581\u13a2\u13e6\u13af\u13f3\u13af": 3069,
    "\u2581\u13d7\u13a6\u13d2\u13cd\u13d4\u13c5": 3070,
    "\u2581\u13da\u13e9\u13c2\u13a6\u13e2": 3071,
    "\u2581\u13a4\u13d2\u13af\u13f0\u13f1": 3072,
    "\u2581\u13c0\u13a2\u13f3": 3073,
    "\u2581\u13c7\u13da\u13a1\u13b5": 3074,
    "\u2581\u13a4\u13e3\u13b4\u13d3": 3075,
    "\u2581\u13da\u13db\u13db\u13c1": 3076,
    "\u2581\u13d7\u13be\u13d5\u13f2\u13b2\u13cd\u13a9": 3077,
    "\u2581\u13e7\u13b4\u13af\u13cc\u13c5\u13af": 3078,
    "\u2581\u13a8\u13c5\u13a2\u13cd\u13d7": 3079,
    "\u2581\u13a4\u13d7\u13d4\u13b2": 3080,
    "\u2581\u13a7\u13c2\u13b5\u13ef": 3081,
    "\u2581\u13da\u13a7\u13bf\u13c1": 3082,
    "\u2581\u13e7\u13f4\u13e8": 3083,
    "\u2581\u13a4\u13ec\u13d3\u13b8": 3084,
    "\u2581\u13d3\u13f3\u13c2\u13b6\u13d2": 3085,
    "\u2581\u13e7\u13d9\u13a2\u13d3": 3086,
    "\u2581\u13a6\u13e3\u13c3\u13cd": 3087,
    "\u2581\u13d7\u13a6\u13b8\u13eb\u13cd\u13d3\u13c1\u13b8\u13af": 3088,
    "\u2581\u13c5\u13e9\u13d9\u13af": 3089,
    "\u2581\u13a2\u13e7\u13be\u13d3\u13b3": 3090,
    "\u2581\u13a4\u13c4\u13aa\u13a2\u13cd\u13d7": 3091,
    "\u2581\u13a0\u13da\u13b8\u13d7": 3092,
    "\u2581\u13a1\u13c5\u13cd\u13d7": 3093,
    "\u2581\u13e7\u13e3\u13f2\u13cd": 3094,
    "\u2581\u13a2\u13e5\u13c6\u13b5\u13cf": 3095,
    "\u2581\u13f1\u13e3\u13d3\u13c5\u13d6\u13d7\u13cd\u13a8\u13cd\u13d7": 3096,
    "\u2581\u13a4\u13d3\u13d1\u13f1": 3097,
    "\u2581\u13d7\u13e5\u13b8\u13eb\u13cd\u13d3\u13c1\u13d7\u13f1": 3098,
    "\u2581\u13a4\u13d3\u13c5\u13b5\u13f0\u13a5": 3099,
    "\u2581\u13a1\u13e3\u13c2\u13b5": 3100,
    "\u2581\u13d3\u13b5\u13c6": 3101,
    "\u2581\u13a2\u13d7\u13c5\u13c1": 3102,
    "\u2581\u13d7\u13a8\u13e5\u13be\u13dd\u13a2": 3103,
    "\u2581\u13a6\u13d3\u13b7\u13ef\u13db": 3104,
    "\u2581\u13a0\u13be\u13db\u13a9\u13cd\u13a9": 3105,
    "\u2581\u13d7\u13ac\u13aa\u13e9\u13db\u13d7": 3106,
    "\u2581\u13a0\u13a9\u13b7\u13e5\u13b8": 3107,
    "\u2581\u13a0\u13cd\u13c6\u13da\u13b8": 3108,
    "\u2581\u13a0\u13c2\u13b4\u13f4\u13cd\u13a9": 3109,
    "\u2581\u13aa\u13cd\u13d7": 3110,
    "\u2581\u13a4\u13b5\u13ac\u13ad\u13b7\u13f4": 3111,
    "\u13be\u13d9\u13d3\u13c6\u13cd\u13d7": 3112,
    "\u2581\u13f1\u13aa\u13b5\u13a6": 3113,
    "\u2581\u13a4\u13be\u13d3\u13d3\u13cd\u13ac": 3114,
    "\u2581\u13d7\u13db\u13d3\u13c5\u13af": 3115,
    "\u2581\u13da\u13c3\u13e2\u13c5\u13a9": 3116,
    "\u2581\u13d7\u13aa\u13d1\u13b4\u13d7\u13f1": 3117,
    "\u2581\u13e7\u13b4\u13d4\u13c5\u13af": 3118,
    "\u2581\u13be\u13ef\u13db\u13a1\u13cd\u13d7": 3119,
    "\u2581\u13ac\u13e9\u13f2\u13b1\u13af\u13cd\u13d7": 3120,
    "\u2581\u13e7\u13d3\u13b4\u13c5\u13b2": 3121,
    "\u2581\u13ac\u13c6\u13db\u13c1\u13d7\u13f1": 3122,
    "\u2581\u13a0\u13c4\u13a6\u13b8": 3123,
    "\u2581\u13e5\u13a3\u13b5": 3124,
    "\u2581\u13a5\u13e5\u13aa\u13a5\u13a9": 3125,
    "\u2581\u13c2\u13e5\u13a6\u13d4\u13b2\u13be": 3126,
    "\u2581\u13a0\u13d3\u13cd\u13d3\u13e9\u13d7\u13d9\u13af": 3127,
    "\u13db\u13c5\u13a2\u13cd\u13d9\u13d7\u13f1": 3128,
    "\u2581\u13a4\u13d3\u13b4\u13e8": 3129,
    "\u2581\u13a4\u13d5\u13c1\u13a2": 3130,
    "\u2581\u13a4\u13be\u13b5\u13d7\u13a9\u13db": 3131,
    "\u2581\u13a4\u13ec\u13ea\u13b3\u13c5\u13af": 3132,
    "\u2581\u13a0\u13d3\u13ea\u13b3\u13a9\u13cd\u13ac": 3133,
    "\u13b3\u13cf\u13d5\u13be": 3134,
    "\u13a4\u13c5\u13d3\u13d5": 3135,
    "\u2581\u13a0\u13b9\u13b4\u13a9": 3136,
    "\u2581\u13da\u13b7\u13eb\u13cd\u13d4\u13c1\u13b2": 3137,
    "\u2581\u13a4\u13c2\u13aa\u13ae": 3138,
    "\u2581\u13a2\u13a9\u13c5\u13df": 3139,
    "\u2581\u13cd\u13a9\u13be\u13dd\u13a2": 3140,
    "\u2581\u13a4\u13b5\u13e8\u13d3\u13c6\u13d3": 3141,
    "\u2581\u13a2\u13e7\u13d5\u13d8\u13f4\u13db": 3142,
    "\u2581\u13a4\u13ac\u13eb\u13f3\u13ce\u13cd\u13d7": 3143,
    "\u2581\u13d4\u13b8\u13d7": 3144,
    "\u2581\u13a4\u13b6\u13af\u13cd\u13d7": 3145,
    "\u2581\u13a2\u13a0": 3146,
    "\u2581\u13e7\u13be\u13c4\u13e9\u13a2": 3147,
    "\u2581\u13be\u13c1\u13b2\u13be": 3148,
    "\u2581\u13a0\u13b5\u13ae\u13b5\u13ac": 3149,
    "\u2581\u13a0\u13c1\u13d9\u13ad": 3150,
    "\u2581\u13a4\u13a7\u13ad\u13db": 3151,
    "\u2581\u13a0\u13a9\u13f0\u13b8\u13b2": 3152,
    "\u2581\u13a0\u13e8\u13cd\u13db": 3153,
    "\u2581\u13a4\u13b4\u13eb\u13cd\u13d4\u13c1": 3154,
    "\u2581\u13a0\u13b5\u13e5\u13d9\u13b2\u13cd\u13a8": 3155,
    "\u2581\u13ed\u13c2\u13f4\u13b4\u13a2": 3156,
    "\u2581\u13a4\u13c2\u13f0\u13b8\u13d2\u13a9": 3157,
    "\u13e5\u13af\u13cd\u13d7": 3158,
    "\u2581\u13a6\u13c5\u13d9\u13d7": 3159,
    "\u2581\u13e7\u13ec\u13b8": 3160,
    "\u2581\u13a1\u13d9\u13ad": 3161,
    "\u2581\u13a0\u13f4\u13e4\u13c2": 3162,
    "\u2581\u13a7\u13c3\u13a9\u13cd\u13d7": 3163,
    "\u2581\u13a8\u13e5\u13c1\u13b8\u13af": 3164,
    "\u2581\u13a5\u13a9\u13d9\u13c9": 3165,
    "\u13a6\u13c3\u13b1\u13a9\u13cd\u13ac": 3166,
    "\u2581\u13a4\u13be\u13d7\u13c5\u13d7": 3167,
    "\u2581\u13a4\u13c5\u13d9\u13d7\u13f1": 3168,
    "\u2581\u13ed\u13c2\u13b6\u13d2\u13a9": 3169,
    "\u2581\u13d7\u13c2\u13a6\u13d8\u13ef": 3170,
    "\u2581\u13a4\u13ea\u13a7\u13c5\u13a9": 3171,
    "\u2581\u13e5\u13cd\u13aa\u13b5": 3172,
    "\u2581\u13c4\u13c2\u13ea\u13ce\u13b8\u13a9": 3173,
    "\u2581\u13a2\u13f3\u13d3\u13b5\u13ad": 3174,
    "\u2581\u13be\u13cd\u13a6\u13a2\u13b2\u13be": 3175,
    "\u2581\u13ef\u13d7\u13ad": 3176,
    "\u2581\u13be\u13c2\u13a1\u13a2": 3177,
    "\u2581\u13a0\u13a7\u13b5\u13ec\u13af": 3178,
    "\u2581\u13a4\u13e8\u13c9\u13d7": 3179,
    "\u2581\u13a4\u13d9\u13d3\u13c6\u13d3": 3180,
    "\u13a1\u13b4\u13a2": 3181,
    "\u2581\u13a0\u13d3\u13b4\u13c2\u13cd\u13ac": 3182,
    "\u2581\u13d7\u13a6\u13b5\u13cd\u13d9\u13d7\u13ad": 3183,
    "\u2581\u13a4\u13d5\u13d7\u13f1": 3184,
    "\u2581\u13a0\u13df\u13cd\u13db\u13a2": 3185,
    "\u2581\u13a4\u13ef\u13c5\u13af": 3186,
    "\u2581\u13a0\u13ef\u13a5": 3187,
    "\u2581\u13a1\u13ae\u13be": 3188,
    "\u2581\u13d7\u13df\u13cd\u13d7": 3189,
    "\u2581\u13a4\u13ea\u13c1\u13a2": 3190,
    "\u2581\u13d0\u13d3\u13bb\u13f1": 3191,
    "\u2581\u13a2\u13a9\u13c1\u13b8\u13af": 3192,
    "\u13b6\u13af\u13cd\u13d7\u13f1": 3193,
    "\u13e2\u13c5": 3194,
    "\u2581\u13a4\u13f0\u13b8\u13ad": 3195,
    "\u2581\u13d7\u13d0\u13a2": 3196,
    "\u2581\u13cd\u13d3\u13f1": 3197,
    "\u2581\u13e3\u13da\u13b5\u13ad": 3198,
    "\u2581\u13f1\u13be": 3199,
    "\u2581\u13eb\u13a6\u13b6\u13af\u13cd\u13d7": 3200,
    "\u2581\u13ef\u13a9\u13ad": 3201,
    "\u2581\u13cd\u13a9\u13a8\u13f3": 3202,
    "\u2581\u13e7\u13c2\u13b5": 3203,
    "\u2581\u13a2\u13a6\u13c1\u13b3\u13c5\u13af": 3204,
    "\u2581\u13e7\u13c1\u13b3": 3205,
    "\u2581\u13d3\u13f3\u13d3\u13b4\u13c5\u13d3": 3206,
    "\u2581\u13d9\u13e5": 3207,
    "\u13f0\u13c2": 3208,
    "\u2581\u13a6\u13c1\u13cc\u13a2\u13af": 3209,
    "\u13d7\u13cd\u13aa\u13c2\u13af": 3210,
    "\u2581\u13e5\u13a8\u13e5": 3211,
    "\u2581\u13a4\u13b5\u13cf\u13c2": 3212,
    "\u2581\u13da\u13c2\u13b8\u13eb\u13cd\u13d3\u13c1\u13b8\u13a2": 3213,
    "\u2581\u13a1\u13d9\u13ae\u13a2": 3214,
    "\u2581\u13ad\u13be\u13c2": 3215,
    "\u2581\u13a2\u13ef\u13ac\u13c1\u13d7": 3216,
    "\u2581\u13a4\u13be\u13db\u13a6\u13c1\u13a2": 3217,
    "\u13c5\u13cd\u13d7\u13f1": 3218,
    "\u2581\u13a4\u13e9\u13db\u13ae\u13a2": 3219,
    "\u2581\u13a6\u13d7": 3220,
    "\u2581\u13a2\u13d7\u13a6\u13ea\u13cd": 3221,
    "\u2581\u13a4\u13ce\u13b5\u13d4\u13c5": 3222,
    "\u13a9\u13a1\u13b8": 3223,
    "\u2581\u13a0\u13d2\u13ad": 3224,
    "\u2581\u13ed\u13b7\u13e8\u13a9": 3225,
    "\u2581\u13a6\u13c4\u13b8\u13d2": 3226,
    "\u2581\u13a1\u13b5\u13cd\u13a8\u13a2": 3227,
    "\u13b8\u13d3": 3228,
    "\u2581\u13a5\u13b5": 3229,
    "\u2581\u13a4\u13cd\u13c9\u13df": 3230,
    "\u2581\u13a4\u13c3\u13ae\u13b4": 3231,
    "\u2581\u13ac\u13d9\u13d7\u13f1": 3232,
    "\u2581\u13a4\u13d3\u13c5\u13d6\u13b8\u13a2": 3233,
    "\u13c1\u13b6\u13d7": 3234,
    "\u2581\u13a4\u13ef\u13a2": 3235,
    "\u2581\u13cf\u13a6": 3236,
    "\u2581\u13a2\u13cc": 3237,
    "\u2581\u13d5\u13e5\u13b8\u13eb\u13cd\u13d3\u13c1\u13b2\u13a2": 3238,
    "\u2581\u13d7\u13cd\u13a9": 3239,
    "\u2581\u13a4\u13d3\u13c5\u13db\u13a2": 3240,
    "\u13cd\u13d5\u13b8\u13af": 3241,
    "\u13cd\u13d5\u13b5\u13cd\u13ac": 3242,
    "\u2581\u13c4\u13b3": 3243,
    "\u2581\u13a2\u13e6": 3244,
    "\u2581\u13a0\u13d1": 3245,
    "\u13a5\u13cd\u13a8\u13cd\u13d7": 3246,
    "\u2581\u13a4\u13d3\u13c5\u13ce\u13a2": 3247,
    "\u2581\u13da\u13c1\u13b4\u13a2": 3248,
    "\u2581\u13be\u13be\u13db\u13c1\u13b2\u13a2": 3249,
    "\u2581\u13d7\u13df": 3250,
    "\u2581\u13a2\u13e6\u13af\u13f3\u13d2\u13a2": 3251,
    "\u2581\u13a4\u13ef\u13c5\u13d2": 3252,
    "\u2581\u13a1\u13b5\u13a9": 3253,
    "\u2581\u13a6\u13d3\u13c5\u13d6\u13cd\u13ac\u13a2": 3254,
    "\u2581\u13d7\u13ac\u13d7": 3255,
    "\u2581\u13d7\u13ac\u13e9\u13d3\u13c2\u13b8\u13a2\u13cd": 3256,
    "\u2581\u13e7\u13b5\u13cf": 3257,
    "\u13b3\u13cf": 3258,
    "\u2581\u13e6\u13be": 3259,
    "\u2581\u13a4\u13f2\u13b4": 3260,
    "\u2581\u13a0\u13cd\u13a6\u13be\u13a2": 3261,
    "\u2581\u13a1\u13b2\u13a9": 3262,
    "\u2581\u13da\u13c1\u13e4\u13b4\u13a2": 3263,
    "\u13b3\u13c5": 3264,
    "\u2581\u13cd": 3265,
    "\u13b3\u13c1\u13a2": 3266,
    "\u13cd\u13db\u13f1": 3267,
    "\u13a6\u13e8": 3268,
    "\u2581\u13c5\u13d7": 3269,
    "\u2581\u13a0\u13a6\u13d8\u13f0": 3270,
    "\u2581\u13a0\u13be\u13d7\u13cd\u13aa": 3271,
    "\u13aa\u13b5\u13f0\u13a1": 3272,
    "\u2581\u13a6\u13ef": 3273,
    "\u2581\u13c5\u13d3\u13f3\u13be\u13b5\u13cd\u13aa\u13b8\u13d4": 3274,
    "\u2581\u13e7\u13be\u13c4\u13aa\u13eb\u13ce\u13d7": 3275,
    "\u2581\u13a4\u13ea\u13c5\u13ce\u13a2": 3276,
    "\u2581\u13a0\u13cd\u13db\u13a2": 3277,
    "\u2581\u13aa\u13cd\u13d4": 3278,
    "\u2581\u13d7\u13c2\u13e9\u13be\u13a6\u13b3": 3279,
    "\u2581\u13a4\u13be\u13c4\u13aa\u13eb\u13d2": 3280,
    "\u13c1\u13e4\u13b5": 3281,
    "\u2581\u13a4\u13aa\u13b2\u13a9": 3282,
    "\u2581\u13a4\u13c1\u13b3": 3283,
    "\u2581\u13a4\u13c5\u13c5": 3284,
    "\u2581\u13a0\u13d3\u13c5\u13d6\u13cd\u13ac\u13a2": 3285,
    "\u2581\u13a4\u13ea\u13b7\u13c1\u13a2": 3286,
    "\u13f2\u13b0\u13ce\u13b8": 3287,
    "\u2581\u13a4\u13b5\u13cd\u13da\u13a2": 3288,
    "\u2581\u13c7\u13b5\u13e5": 3289,
    "\u13a2\u13a6": 3290,
    "\u2581\u13a4\u13be\u13d9\u13d3\u13c6\u13cd\u13ac\u13a2": 3291,
    "\u2581\u13a0\u13c2\u13e4": 3292,
    "\u2581\u13d7\u13c2\u13c3": 3293,
    "\u2581\u13a0\u13f2\u13b1\u13cd": 3294,
    "\u2581\u13a0\u13c6\u13d3\u13c5\u13d6\u13d7": 3295,
    "\u2581\u13a4\u13be\u13a9\u13b8": 3296,
    "\u2581\u13a0\u13e5\u13c1\u13b8": 3297,
    "\u13ec\u13a5": 3298,
    "\u2581\u13a4\u13cd\u13aa": 3299,
    "\u2581\u13c5\u13d7\u13a6\u13b5\u13cd\u13d9\u13d7\u13cd\u13a8\u13a2": 3300,
    "\u2581\u13a6\u13da\u13f1": 3301,
    "\u13a5\u13a6": 3302,
    "\u13d3\u13c1\u13df\u13f4\u13db": 3303,
    "\u13c2\u13eb": 3304,
    "\u2581\u13a4\u13c2\u13e9\u13db\u13d7": 3305,
    "\u2581\u13a2\u13e3\u13b5": 3306,
    "\u2581\u13a0\u13cb": 3307,
    "\u2581\u13d7\u13b2": 3308,
    "\u13c2\u13ef": 3309,
    "\u13a6\u13d9\u13a5\u13af\u13cd\u13d7\u13f1": 3310,
    "\u13cd\u13c6\u13c2\u13aa\u13d5\u13cd\u13d7": 3311,
    "\u2581\u13d9\u13d8": 3312,
    "\u2581\u13a4\u13c2\u13f4\u13b8": 3313,
    "\u2581\u13c2\u13a6\u13b5\u13cd\u13d9\u13d7\u13cd\u13a8": 3314,
    "\u13a3\u13a2": 3315,
    "\u2581\u13a4\u13be\u13c4\u13aa\u13eb\u13ce": 3316,
    "\u2581\u13a0\u13a6\u13d5": 3317,
    "\u2581\u13da\u13d3": 3318,
    "\u13b7\u13a9": 3319,
    "\u2581\u13a4\u13c2\u13f4": 3320,
    "\u13c2\u13d9\u13af": 3321,
    "\u2581\u13d5\u13ab": 3322,
    "\u2581\u13a4\u13b5\u13ae\u13b5\u13e4": 3323,
    "\u2581\u13ea": 3324,
    "\u13db\u13d4\u13c2": 3325,
    "\u2581\u13a2\u13e5\u13a9\u13cd\u13d7": 3326,
    "\u13c3\u13ae\u13cd\u13ac\u13a2": 3327,
    "\u13a2\u13f4": 3328,
    "\u2581\u13e7\u13b4": 3329,
    "\u13c5\u13d3\u13db": 3330,
    "\u13df\u13b6\u13cd\u13d9\u13d7": 3331,
    "\u2581\u13a0\u13a8": 3332,
    "\u13db\u13c1\u13d7\u13f1": 3333,
    "\u2581\u13be\u13a6\u13db": 3334,
    "\u2581\u13d9\u13af\u13f3": 3335,
    "\u13db\u13c1\u13b5": 3336,
    "\u2581\u13ac\u13d7\u13ad": 3337,
    "\u2581\u13c2\u13e8": 3338,
    "\u13b5\u13cd\u13ac": 3339,
    "\u13d3\u13b3": 3340,
    "\u2581\u13d7\u13e8\u13c2\u13d7": 3341,
    "\u13ce\u13b8\u13a9": 3342,
    "\u13cd\u13a6\u13f0\u13ac\u13cd\u13d3": 3343,
    "\u2581\u13a4\u13e5\u13c3": 3344,
    "\u2581\u13a1\u13e3\u13ab\u13f4": 3345,
    "\u13ed": 3346,
    "\u2581\u13d9\u13d3\u13e3": 3347,
    "\u13b4\u13be": 3348,
    "\u2581\u13db\u13a9": 3349,
    "\u13cd\u13d6": 3350,
    "\u2581\u13ad\u13d3": 3351,
    "\u2581\u13a2\u13e5\u13b2": 3352,
    "\u13af\u13ef": 3353,
    "\u2581\u13da\u13ef\u13ea": 3354,
    "\u2581\u13c2\u13db": 3355,
    "\u13cb": 3356,
    "\u2581\u13bf": 3357,
    "\u2581\u13a4\u13c1\u13b4": 3358,
    "\u2581\u13a1\u13b3\u13ea\u13f1": 3359,
    "\u2581\u13a2\u13cd\u13d3": 3360,
    "\u13be\u13dd\u13a0": 3361,
    "\u13d9\u13b4": 3362,
    "\u13ea\u13d2": 3363,
    "\u2581\u13a6\u13c5\u13a8": 3364,
    "\u13ae\u13c3": 3365,
    "\u2581\u13f1\u13eb": 3366,
    "\u13a8\u13cd\u13d7\u13d7": 3367,
    "\u13c5\u13d6": 3368,
    "\u2581\u13da\u13d9": 3369,
    "\u13a8\u13db": 3370,
    "\u2581\u13d5\u13e8": 3371,
    "\u13e3\u13b5": 3372,
    "\u13c5\u13b5": 3373,
    "\u2581\u13e8\u13d7": 3374,
    "\u13d8\u13f0": 3375,
    "\u13f2\u13b5": 3376,
    "\u2581\u13a0\u13d7\u13cd\u13ac": 3377,
    "\u2581\u13a4\u13c2\u13a6\u13d9\u13a5\u13d2": 3378,
    "\u2581\u13de": 3379,
    "\u2581\u13e6\u13e5": 3380,
    "\u13d9\u13b5\u13e8": 3381,
    "\u13ac\u13eb\u13f3\u13af": 3382,
    "\u13b5\u13d3": 3383,
    "\u2581\u13a4\u13a7\u13d4": 3384,
    "\u2581\u13a0\u13e2": 3385,
    "\u2581\u13c2\u13af\u13cd\u13aa": 3386,
    "\u2581\u13e3\u13c6": 3387,
    "\u2581\u13c2\u13af\u13be": 3388,
    "\u13d8\u13f2\u13cd\u13d7": 3389,
    "\u2581\u13a6\u13e3\u13c4\u13b5": 3390,
    "\u2581\u13a4\u13a6\u13db": 3391,
    "\u13c1\u13ce\u13a2": 3392,
    "\u13ef\u13a5\u13a2": 3393,
    "\u13b4\u13c5\u13db": 3394,
    "\u2581\u13a2\u13e3\u13da\u13b5": 3395,
    "\u13cd\u13d4\u13c5\u13ad": 3396,
    "\u2581\u13d5\u13e3\u13a7": 3397,
    "\u2581\u13c2\u13da\u13ea\u13ce\u13b8": 3398,
    "\u13e0\u13e8": 3399,
    "\u2581\u13e7\u13b3\u13d1\u13b6": 3400,
    "\u2581\u13a6\u13b6": 3401,
    "\u13e6\u13c1": 3402,
    "\u2581\u13f3\u13eb": 3403,
    "\u13d9\u13ac": 3404,
    "\u2581\u13d3\u13b5\u13cd\u13d7\u13b3\u13c1\u13ac": 3405,
    "\u2581\u13d9\u13d3\u13c6\u13cd\u13ac": 3406,
    "\u2581\u13a4\u13c1\u13b5\u13ce": 3407,
    "\u2581\u13d7\u13a6\u13c5\u13ec": 3408,
    "\u2581\u13a4\u13ec\u13b4": 3409,
    "\u2581\u13a2\u13d5\u13b2": 3410,
    "\u2581\u13d3\u13c2\u13b3\u13eb\u13a5": 3411,
    "\u2581\u13d7\u13e5\u13a6\u13f4\u13b5\u13a8": 3412,
    "\u2581\u13d3\u13df\u13b6\u13cd\u13db": 3413,
    "\u13b6\u13d0\u13c5": 3414,
    "\u2581\u13a4\u13d7\u13db\u13ae": 3415,
    "\u13e5\u13a8\u13f3\u13a2": 3416,
    "\u2581\u13a2\u13a9\u13cd\u13a6\u13c5\u13e8": 3417,
    "\u2581\u13a4\u13ec\u13ce\u13b4": 3418,
    "\u2581\u13a7\u13b8\u13ac": 3419,
    "r": 3420,
    "\u2581\u13a0\u13c2\u13d9\u13be\u13a1": 3421,
    "\u2581\u13a4\u13da\u13a2\u13cd\u13d4\u13c5": 3422,
    "\u2581\u13da\u13b4\u13af\u13cc\u13c5": 3423,
    "\u2581\u13a4\u13ea\u13a7\u13c1\u13b4": 3424,
    "\u2581\u13a0\u13c2\u13a6\u13f4\u13b5\u13a8": 3425,
    "\u2581\u13d3\u13c2\u13a7\u13c5": 3426,
    "\u13d5\u13ac": 3427,
    "\u2581\u13e7\u13a6\u13f4\u13b5\u13a8": 3428,
    "\u13a0\u13b9": 3429,
    "\u2581\u13a1\u13b5\u13cd\u13ac": 3430,
    "\u13b5\u13ec\u13e8": 3431,
    "\u13c1\u13e8": 3432,
    "\u2581\u13a6\u13a2\u13d2": 3433,
    "\u13ac\u13eb\u13f3\u13cc\u13d5\u13a9": 3434,
    "\u13f2\u13aa": 3435,
    "\u13df\u13c2\u13a9\u13d3": 3436,
    "\u13be\u13c9": 3437,
    "\u2581\u13aa\u13cd\u13d3": 3438,
    "\u13a4\u13cd\u13c6\u13c2\u13a9\u13d7": 3439,
    "\u2581\u13da\u13c1\u13e4\u13b8": 3440,
    "\u2581\u13a6\u13c6\u13d8": 3441,
    "\u13a7\u13b5\u13ec\u13af": 3442,
    "\u2581\u13ad\u13d7": 3443,
    "\u13f4\u13b5": 3444,
    "\u13a4\u13d9\u13af\u13f3\u13af": 3445,
    "\u13db\u13c1\u13b2": 3446,
    "\u2581\u13a0\u13c1\u13ae": 3447,
    "\u2581\u13aa\u13e2\u13d4\u13c5": 3448,
    "\u13c2\u13a6\u13d3": 3449,
    "\u13c5\u13aa\u13e4": 3450,
    "\u2581\u13e4\u13c5\u13cd\u13d7": 3451,
    "\u2581\u13a0\u13d3\u13a8\u13d7": 3452,
    "\u2581\u13a4\u13e9\u13db\u13ae": 3453,
    "\u2581\u13da\u13b7\u13eb\u13cd\u13d4\u13c1": 3454,
    "\u2581\u13a4\u13c2\u13cd\u13c6\u13c2\u13aa\u13d9\u13d7": 3455,
    "\u2581\u13aa\u13b9\u13b5": 3456,
    "\u13b8\u13eb\u13cd\u13d3\u13c1\u13d7": 3457,
    "\u2581\u13a2\u13e5\u13cd\u13c6\u13c2\u13aa\u13d9\u13d7": 3458,
    "\u13d4\u13f2\u13ce\u13b8\u13a9": 3459,
    "\u13b4\u13af\u13cc\u13c5": 3460,
    "\u2581\u13a2\u13f3\u13c5\u13c1\u13d7": 3461,
    "\u2581\u13a8\u13e5\u13c1\u13d7": 3462,
    "\u2581\u13a4\u13be\u13c5\u13d7": 3463,
    "\u2581\u13a0\u13d5": 3464,
    "\u2581\u13af\u13a0\u13c9": 3465,
    "\u2581\u13a4\u13f0\u13b8\u13ce": 3466,
    "\u13a1\u13b5\u13cd\u13d7": 3467,
    "\u13f4\u13d0\u13b5": 3468,
    "\u13be\u13d3\u13b4\u13a9": 3469,
    "\u2581\u13a1\u13c9\u13c4\u13b6\u13d7": 3470,
    "\u2581\u13a4\u13c2\u13da\u13ef\u13cd\u13d7": 3471,
    "\u2581\u13a4\u13d3\u13cf\u13c2\u13d5\u13be": 3472,
    "\u2581\u13be\u13c2\u13b3\u13cd\u13d3\u13b8": 3473,
    "\u2581\u13c5\u13d3\u13ac\u13f4\u13c1\u13b5": 3474,
    "\u2581\u13c8\u13ef\u13cf\u13c6": 3475,
    "\u2581\u13d7\u13be\u13d9\u13c2\u13cd\u13a9": 3476,
    "\u2581\u13e6\u13a9\u13b8\u13eb\u13cd\u13d3\u13c1\u13af": 3477,
    "\u13a6\u13cc\u13ef\u13cd\u13d5\u13cd\u13d7": 3478,
    "\u2581\u13a0\u13e3\u13ea\u13d0\u13b8\u13cd\u13d9\u13d7\u13f1": 3479,
    "\u2581\u13a4\u13d3\u13db\u13db\u13c1": 3480,
    "\u2581\u13a6\u13b5\u13e6\u13d9\u13d9\u13d7": 3481,
    "\u2581\u13c6\u13bb\u13c6\u13c2": 3482,
    "\u2581\u13a2\u13f0\u13c6": 3483,
    "\u2581\u13d7\u13a7\u13c1\u13a2\u13cd\u13d7": 3484,
    "\u2581\u13af\u13a7\u13c5\u13ad": 3485,
    "\u2581\u13af\u13a6\u13d9\u13b5": 3486,
    "\u2581\u13c2\u13da\u13be\u13d3\u13ea\u13ce\u13b8\u13a9": 3487,
    "\u2581\u13eb\u13c2\u13a6\u13b5\u13cd\u13d9\u13d3": 3488,
    "\u2581\u13a4\u13ea\u13f2\u13d3\u13db": 3489,
    "\u2581\u13a6\u13c5\u13c3\u13e9": 3490,
    "\u2581\u13d7\u13c9\u13f0\u13c2": 3491,
    "\u2581\u13a0\u13c2\u13d9\u13be\u13a2": 3492,
    "\u2581\u13e7\u13c1\u13bf\u13a2": 3493,
    "\u2581\u13e7\u13e9\u13c2\u13a6\u13dd\u13c5": 3494,
    "\u2581\u13c4\u13ec\u13af\u13f3\u13d2\u13be": 3495,
    "\u2581\u13e7\u13c3\u13da\u13af": 3496,
    "\u2581\u13d7\u13c6\u13b3\u13cf\u13d5\u13c2": 3497,
    "\u2581\u13c5\u13d3\u13aa\u13af\u13e5": 3498,
    "\u2581\u13c5\u13c3\u13b1\u13b6\u13d7": 3499,
    "\u2581\u13a4\u13e2\u13c9\u13d7": 3500,
    "\u2581\u13a2\u13b3\u13cf\u13d7": 3501,
    "\u2581\u13e7\u13be\u13d3\u13cd\u13da\u13d7": 3502,
    "\u2581\u13d5\u13e5\u13f2\u13b5\u13b8\u13ad": 3503,
    "\u2581\u13a6\u13e3\u13c4\u13b8": 3504,
    "\u2581\u13ac\u13e9\u13d5\u13c1\u13b8\u13af": 3505,
    "\u2581\u13d7\u13a6\u13c3\u13e3\u13df": 3506,
    "\u2581\u13a4\u13ea\u13da\u13b2": 3507,
    "\u2581\u13a4\u13ec\u13de": 3508,
    "\u2581\u13f1\u13c4\u13b5\u13cd\u13d4\u13c5": 3509,
    "\u2581\u13aa\u13d2\u13d4\u13c5": 3510,
    "\u2581\u13a4\u13c2\u13b8\u13c9\u13d4\u13c1": 3511,
    "\u2581\u13a4\u13c2\u13ac\u13a5\u13cd\u13a9": 3512,
    "\u2581\u13c5\u13d3\u13f3\u13d3\u13b4\u13c5\u13db": 3513,
    "\u13cd\u13a6\u13a3\u13c5": 3514,
    "\u2581\u13f1\u13e4\u13b5\u13af\u13cd\u13a8\u13cd\u13d7": 3515,
    "\u2581\u13b0\u13ea\u13b8\u13a6": 3516,
    "\u2581\u13d3\u13a9\u13ef\u13ea\u13a6": 3517,
    "\u2581\u13e7\u13d3\u13d8\u13be\u13a2": 3518,
    "\u2581\u13a6\u13ef\u13b4\u13cd\u13d7": 3519,
    "\u2581\u13a2\u13ac\u13ea\u13c5\u13db": 3520,
    "\u2581\u13d7\u13a7\u13c2\u13a8": 3521,
    "\u2581\u13a4\u13be\u13d3\u13d1\u13f0\u13db": 3522,
    "\u2581\u13a2\u13e8\u13cd\u13d7\u13f0\u13d7\u13ad": 3523,
    "\u2581\u13a5\u13a9\u13c5\u13df": 3524,
    "\u2581\u13c2\u13da\u13c5\u13cf\u13f4": 3525,
    "\u2581\u13ac\u13e9\u13d3\u13cd\u13d5\u13b8\u13d7": 3526,
    "\u2581\u13e7\u13c3\u13e9": 3527,
    "\u2581\u13d7\u13c1\u13d9\u13b2": 3528,
    "\u2581\u13d5\u13aa\u13e2\u13e9\u13d7\u13d2": 3529,
    "\u2581\u13c4\u13e0\u13be\u13cd\u13db\u13be": 3530,
    "\u2581\u13a0\u13c2\u13be\u13c1\u13cd\u13ac": 3531,
    "\u2581\u13a2\u13a7\u13c1\u13a2\u13cd\u13d7": 3532,
    "\u13b3\u13a9\u13d2": 3533,
    "\u2581\u13d7\u13a9\u13c5\u13d2": 3534,
    "\u2581\u13a0\u13c6\u13d3\u13b5\u13a2": 3535,
    "\u2581\u13c4\u13c2\u13b2\u13be": 3536,
    "\u2581\u13cc\u13c8": 3537,
    "\u2581\u13a0\u13c2\u13ef\u13a2": 3538,
    "\u2581\u13a4\u13c2\u13d1\u13b8\u13d3": 3539,
    "\u2581\u13b2\u13d7\u13cd\u13a8\u13cd\u13d7": 3540,
    "\u2581\u13bf\u13db\u13a6": 3541,
    "\u2581\u13a4\u13cd\u13d7\u13a9\u13db": 3542,
    "\u2581\u13a6\u13cc\u13b4\u13c2": 3543,
    "\u2581\u13a1\u13e3\u13b8\u13c9\u13d7\u13f3": 3544,
    "\u2581\u13a2\u13e5\u13ea\u13cd\u13d7\u13f1": 3545,
    "\u2581\u13a0\u13c6\u13b5\u13cd\u13d3\u13f4\u13d7": 3546,
    "\u2581\u13a0\u13b9\u13f3\u13b6\u13d7": 3547,
    "\u2581\u13a4\u13d5\u13b6\u13b0\u13d2": 3548,
    "\u2581\u13d7\u13ab\u13aa\u13d7\u13cd\u13a9": 3549,
    "\u2581\u13a0\u13c1\u13e2\u13d4\u13c5\u13af": 3550,
    "\u2581\u13d9\u13d7\u13e3\u13d3\u13c5\u13db\u13a2": 3551,
    "\u2581\u13eb\u13a8\u13e5\u13f2\u13b5\u13ad": 3552,
    "\u2581\u13d3\u13ad\u13c3\u13eb": 3553,
    "\u2581\u13da\u13e6\u13af\u13cd\u13db": 3554,
    "\u2581\u13a1\u13c3\u13f1": 3555,
    "\u2581\u13a0\u13be\u13d3\u13d9\u13b5\u13cd\u13d3\u13c1\u13af": 3556,
    "\u2581\u13ac\u13c1\u13cd\u13d7": 3557,
    "\u2581\u13da\u13a6\u13cc\u13db": 3558,
    "\u2581\u13a4\u13a9\u13b5\u13f2\u13e8": 3559,
    "\u13bf\u13d5\u13a9": 3560,
    "\u2581\u13a6\u13b5\u13a1\u13b5\u13a6": 3561,
    "\u2581\u13e7\u13d9\u13d3\u13c6\u13db": 3562,
    "\u2581\u13a0\u13ac\u13d3\u13a8\u13c2": 3563,
    "\u2581\u13af\u13ec\u13c2\u13cd\u13ac": 3564,
    "\u2581\u13d7\u13d3\u13ec\u13cd\u13d7": 3565,
    "\u2581\u13a0\u13ef\u13d6\u13be": 3566,
    "\u2581\u13a4\u13c3\u13cd\u13db": 3567,
    "\u2581\u13a4\u13c2\u13b5\u13e6\u13e9\u13db": 3568,
    "\u2581\u13f1\u13cd\u13a6\u13a2\u13ae\u13cd\u13d7": 3569,
    "\u2581\u13a0\u13ac\u13ad\u13b8\u13db": 3570,
    "\u2581\u13d3\u13ac\u13c1\u13b5": 3571,
    "\u2581\u13a4\u13be\u13db\u13c1\u13b8\u13d7": 3572,
    "\u2581\u13e5\u13c5\u13d7\u13a6\u13b5\u13cd\u13d9\u13d7\u13ad": 3573,
    "\u2581\u13a4\u13c2\u13cd\u13c6\u13c2\u13aa\u13d2\u13a9": 3574,
    "\u2581\u13a4\u13db\u13c5\u13a2\u13cd\u13d4\u13c1": 3575,
    "\u2581\u13da\u13ed": 3576,
    "\u2581\u13a4\u13d8\u13f4\u13af": 3577,
    "\u2581\u13a4\u13ad\u13b8\u13c2\u13af": 3578,
    "\u2581\u13a0\u13a6\u13b8\u13d3": 3579,
    "\u2581\u13a0\u13a6\u13d9\u13b5": 3580,
    "\u2581\u13ac\u13e9\u13c3\u13c1\u13b4": 3581,
    "\u2581\u13a0\u13aa\u13ce\u13ae\u13cd\u13d7": 3582,
    "\u2581\u13a0\u13c2\u13e5\u13b8\u13cd\u13a9": 3583,
    "\u2581\u13a2\u13aa\u13af": 3584,
    "\u2581\u13b9\u13be": 3585,
    "\u2581\u13a9\u13be\u13b5\u13a2": 3586,
    "\u2581\u13c5\u13d3\u13f0": 3587,
    "\u2581\u13d3\u13c6\u13a7\u13be\u13c5": 3588,
    "\u13d5\u13a6": 3589,
    "\u13f3\u13cd\u13d7": 3590,
    "\u2581\u13a0\u13aa\u13d4\u13c5\u13af": 3591,
    "\u2581\u13a6\u13df\u13d3": 3592,
    "\u2581\u13ae\u13c2\u13b5": 3593,
    "\u2581\u13eb\u13da\u13be": 3594,
    "\u2581\u13a0\u13d3\u13f0\u13a8\u13cd\u13d7": 3595,
    "\u2581\u13c2\u13e8\u13a6": 3596,
    "\u2581\u13a2\u13e5\u13c1\u13cd\u13d7": 3597,
    "\u2581\u13a4\u13c3\u13af\u13f3\u13d7\u13f1": 3598,
    "\u2581\u13a0\u13e5\u13c5\u13cf\u13db": 3599,
    "\u2581\u13d5\u13ac\u13d7\u13cd\u13ac": 3600,
    "\u2581\u13a0\u13b4\u13c2\u13cd\u13a9": 3601,
    "\u2581\u13e7\u13be\u13c4\u13aa\u13eb\u13d2\u13af": 3602,
    "\u2581\u13ad\u13c2\u13e3": 3603,
    "\u13b3\u13da": 3604,
    "\u2581\u13a4\u13c2\u13e9\u13db\u13ae": 3605,
    "\u2581\u13a0\u13c2\u13f4\u13a9": 3606,
    "\u2581\u13c4\u13be\u13b5\u13cd\u13d3\u13c1\u13b8": 3607,
    "\u2581\u13a4\u13f0\u13e8": 3608,
    "\u2581\u13a4\u13c2\u13d7": 3609,
    "\u2581\u13d5\u13a7\u13c1\u13e4": 3610,
    "\u13b2\u13cd\u13ac\u13be": 3611,
    "\u13ef\u13c5\u13b2\u13a9": 3612,
    "\u2581\u13a4\u13be\u13a6\u13d9\u13cd\u13d5\u13a2": 3613,
    "\u2581\u13a4\u13c2\u13c1\u13ac": 3614,
    "\u2581\u13a9\u13b3\u13ca": 3615,
    "\u13f0\u13a2\u13b5\u13d3\u13cd\u13d7": 3616,
    "\u2581\u13d7\u13b5\u13cd\u13aa\u13b8\u13d3\u13c1\u13b8\u13af": 3617,
    "\u2581\u13a0\u13f2\u13d9\u13d7": 3618,
    ".)": 3619,
    "\u13c3\u13b4": 3620,
    "\u2581\u13a4\u13be\u13d5\u13d7\u13f1": 3621,
    "\u2581\u13a0\u13c2\u13af\u13d7": 3622,
    "\u2581\u13e3\u13a8": 3623,
    "\u2581\u13c4\u13db\u13c5\u13a2": 3624,
    "\u2581\u13ec\u13a9\u13b7\u13e8\u13a9": 3625,
    "\u2581\u13a4\u13d7\u13d7\u13e2": 3626,
    "\u2581\u13a4\u13e1\u13d7\u13cd\u13a9": 3627,
    "\u2581\u13a0\u13aa\u13b5\u13f0\u13d7": 3628,
    "\u2581\u13a4\u13be\u13c5\u13c5": 3629,
    "\u2581\u13a0\u13ac\u13d7\u13cd\u13ac\u13a2": 3630,
    "\u2581\u13a4\u13c2\u13a9\u13cd\u13d7\u13f1": 3631,
    "\u2581\u13ee\u13db": 3632,
    "\u2581\u13d7\u13e5\u13be\u13eb\u13f1": 3633,
    "\u2581\u13a0\u13c2\u13a9\u13cd\u13ac": 3634,
    "\u2581\u13a6\u13df\u13ae": 3635,
    "\u2581\u13a4\u13ea\u13c5\u13a9": 3636,
    "\u2581\u13e7\u13c1\u13e4\u13a2": 3637,
    "\u2581\u13a4\u13b5\u13cd\u13c6": 3638,
    "\u2581\u13d7\u13e7": 3639,
    "\u13ef\u13d4\u13ae\u13cd\u13d7": 3640,
    "\u2581\u13d9\u13d3\u13a8": 3641,
    "\u13f2\u13be": 3642,
    "\u2581\u13d7\u13c1\u13af": 3643,
    "\u13c1\u13c6": 3644,
    "\u2581\u13a0\u13af\u13d3": 3645,
    "\u2581\u13a4\u13b5\u13cd\u13c6\u13db": 3646,
    "\u2581\u13d3\u13cd\u13db\u13a2": 3647,
    "\u2581\u13ce\u13c9": 3648,
    "\u2581\u13a4\u13cc\u13af\u13b8\u13a2": 3649,
    "\u2581\u13a6\u13f0\u13eb\u13cd": 3650,
    "\u2581\u13f2\u13a6": 3651,
    "\u2581\u13a0\u13b5\u13ae\u13b5\u13a8": 3652,
    "\u13ce\u13ad": 3653,
    "\u2581\u13a2\u13a9\u13cd\u13a6\u13c5\u13e8\u13a2": 3654,
    "\u2581\u13a4\u13c2\u13c1\u13e8\u13a9": 3655,
    "\u2581\u13d5\u13e5\u13c1\u13b8": 3656,
    "\u2581\u13a4\u13be\u13d3\u13c5\u13ce": 3657,
    "\u2581\u13be\u13c6\u13cd\u13db": 3658,
    "\u13a4\u13f2": 3659,
    "\u2581\u13a4\u13b4\u13c5\u13a9": 3660,
    "\u2581\u13a6\u13d3\u13cd\u13ac\u13a2": 3661,
    "\u2581\u13d7\u13aa\u13e2": 3662,
    "\u2581\u13a0\u13d3\u13af\u13af": 3663,
    "\u2581\u13a6\u13c1\u13df\u13f4\u13cd\u13d7": 3664,
    "\u13a7\u13ad": 3665,
    "\u2581\u13a0\u13e5\u13db\u13d9\u13d7": 3666,
    "\u2581\u13da\u13e9\u13db\u13ae": 3667,
    "\u2581\u13c5\u13b5\u13cc\u13b5\u13c9": 3668,
    "\u2581\u13d3\u13e4\u13b8": 3669,
    "\u2581\u13aa\u13db": 3670,
    "\u13a6\u13ef": 3671,
    "\u2581\u13a4\u13e4\u13b8": 3672,
    "\u2581\u13a4\u13ec\u13af\u13f3": 3673,
    "\u2581\u13a4\u13c2\u13a9\u13ce\u13a2": 3674,
    "\u13b4\u13c3": 3675,
    "\u2581\u13a4\u13da\u13b8\u13b2": 3676,
    "\u2581\u13a4\u13c2\u13aa\u13b2\u13af": 3677,
    "\u13bf\u13a2": 3678,
    "\u13a6\u13d4\u13b2": 3679,
    "\u2581\u13ac\u13a8\u13f3\u13a2": 3680,
    "\u2581\u13d7\u13a8\u13e3": 3681,
    "\u13d5\u13ef\u13d9\u13d4\u13c5\u13a9": 3682,
    "\u2581\u13a3\u13d2": 3683,
    "\u2581\u13f1\u13c2\u13ac": 3684,
    "\u2581\u13a4\u13ec\u13e2\u13c5\u13a2": 3685,
    "\u2581\u13ee\u13d3": 3686,
    "\u13b8\u13c9\u13db\u13be": 3687,
    "\u2581\u13cf\u13b3": 3688,
    "\u2581\u13e3\u13aa": 3689,
    "\u13d4\u13f2\u13cd\u13d7": 3690,
    "\u2581\u13a0\u13b5\u13cd\u13c6\u13d7\u13cd": 3691,
    "\u2581\u13ae\u13d3": 3692,
    "\u13c7\u13b5": 3693,
    "\u2581\u13aa\u13ea\u13b8\u13a9": 3694,
    "\u13d0\u13c9": 3695,
    "\u2581\u13dd\u13a8": 3696,
    "\u2581\u13a6\u13ac\u13e9": 3697,
    "\u2581\u13e5\u13b3": 3698,
    "\u13c4\u13aa": 3699,
    "\u13de\u13cd\u13d7": 3700,
    "\u13c1\u13b0": 3701,
    "\u2581\u13a4\u13e9\u13d4\u13c5": 3702,
    "\u2581\u13a6\u13c5\u13c5\u13a2": 3703,
    "\u2581\u13f4\u13a6\u13a6": 3704,
    "\u13a0\u13c6": 3705,
    "\u13a7\u13cf": 3706,
    "\u2581\u13c2\u13da\u13a9\u13e8\u13c2\u13d2\u13a2": 3707,
    "\u2581\u13c4\u13d3\u13b4\u13af": 3708,
    "\u2581\u13a4\u13ec\u13b8\u13a2": 3709,
    "\u2581\u13a1\u13cd\u13a6\u13c2": 3710,
    "\u13cd\u13ac\u13cf": 3711,
    "\u2581\u13a0\u13d3\u13d9\u13b5\u13cd\u13d9\u13d7": 3712,
    "\u13d4\u13c2\u13d3": 3713,
    "\u13c3\u13ae\u13b8": 3714,
    "\u2581\u13b5\u13cf": 3715,
    "\u2581\u13a4\u13cd\u13c6\u13b8": 3716,
    "\u13d9\u13b5\u13a9": 3717,
    "\u2581\u13ae\u13af": 3718,
    "\u2581\u13cd\u13a9\u13cd\u13d5\u13b8": 3719,
    "\u13a9\u13cd\u13ac": 3720,
    "\u13f4\u13a9": 3721,
    "\u13ce\u13b8\u13af": 3722,
    "\u2581\u13a0\u13c2\u13cd\u13a6\u13be\u13a2": 3723,
    "\u2581\u13c4\u13cd\u13d5\u13a2": 3724,
    "\u13a6\u13b9": 3725,
    "\u13e6\u13f0\u13c2": 3726,
    "\u2581\u13c5\u13e9\u13cd\u13db": 3727,
    "\u2581\u13a4\u13be\u13db\u13a6\u13c5\u13a9": 3728,
    "\u2581\u13e5\u13c5": 3729,
    "\u13d3\u13f4\u13b3\u13db": 3730,
    "\u2581\u13a4\u13c1\u13e4\u13b8\u13a2": 3731,
    "\u2581\u13a4\u13a6\u13c3": 3732,
    "\u13ab\u13e9": 3733,
    "\u2581\u13be\u13cd": 3734,
    "\u2581\u13a5\u13e3": 3735,
    "\u2581\u13b2\u13a6": 3736,
    "\u13a9\u13cd\u13d7\u13f1": 3737,
    "\u13cd\u13da\u13a2\u13d2": 3738,
    "\u2581\u13d5\u13a8\u13e5": 3739,
    "\u2581\u13d3\u13b6\u13c2\u13a8\u13a2": 3740,
    "ss": 3741,
    "\u2581\u13d3\u13a6\u13e5": 3742,
    "\u2581\u13a4\u13c1\u13d2": 3743,
    "\u2581\u13a0\u13a9\u13b8\u13c9\u13d7": 3744,
    "\u13b7\u13e4": 3745,
    "\u13cd\u13d9\u13d7\u13f1": 3746,
    "\u13e3\u13c1": 3747,
    "\u13e6\u13e9\u13db": 3748,
    "\u2581\u13a2\u13e3\u13df\u13c2\u13ac\u13c1": 3749,
    "\u13b5\u13cd\u13d4\u13c1": 3750,
    "\u2581\u13a4\u13d9\u13f3": 3751,
    "\u13d2\u13b2\u13cd\u13d7": 3752,
    "\u2581\u13a0\u13a6\u13c5": 3753,
    "\u13ac\u13be\u13a8": 3754,
    "\u13e2\u13c5\u13af": 3755,
    "\u2581\u13d9\u13d3\u13ac": 3756,
    "\u2581\u13c6\u13be": 3757,
    "\u2581\u13a4\u13e9\u13c1": 3758,
    "\u2581\u13da\u13ec": 3759,
    "\u2581\u13a2\u13e5\u13a9": 3760,
    "\u2581\u13ac\u13e9\u13cd\u13d3\u13e9\u13d7": 3761,
    "\u2581...": 3762,
    "\u2581\u13a0\u13a6\u13d9": 3763,
    "\u13c2\u13f4": 3764,
    "\u2581\u13a0\u13c2\u13d4\u13b5\u13ad": 3765,
    "\u2581\u13be\u13d5\u13d8\u13f4": 3766,
    "\u2581\u13a2\u13b8": 3767,
    "\u13b6\u13cf": 3768,
    "\u13e5\u13b6\u13cf": 3769,
    "\u13c1\u13b2\u13a9": 3770,
    "\u13c5\u13c3": 3771,
    "\u13d3\u13c1\u13ae\u13cd\u13d7": 3772,
    "\u2581\u13a4\u13c2\u13b7\u13e4\u13b8": 3773,
    "\u2581\u13d3\u13c2\u13b8": 3774,
    "\u13d8\u13c3\u13ae\u13b8\u13a9": 3775,
    "\u13cf\u13d7": 3776,
    "\u2581\u13a4\u13ec\u13c2\u13af\u13cd\u13d7": 3777,
    "\u13d3\u13c5\u13d6\u13b4": 3778,
    "\u13b5\u13b9": 3779,
    "\u13e5\u13c3\u13ae\u13cd\u13a9": 3780,
    "\u2581\u13af\u13c1\u13b8": 3781,
    "\u2581\u13a0\u13a9\u13f0\u13b8\u13c5": 3782,
    "\u2581\u13d9\u13c9": 3783,
    "\u13cd\u13d3\u13c1": 3784,
    "\u13c1\u13c5": 3785,
    "\u13be\u13b5": 3786,
    "\u13d7\u13cd\u13d4\u13c1": 3787,
    "\u13be\u13e9": 3788,
    "\u13cf\u13be\u13cc\u13c2": 3789,
    "\u13cd\u13da\u13d7": 3790,
    "\u13e6\u13e2\u13d9\u13d7": 3791,
    "\u2581\u13f2\u13e5": 3792,
    "\u13da\u13ac": 3793,
    "\u13ec\u13c2\u13cd\u13ac": 3794,
    "\u13d7\u13ef": 3795,
    "\u13cd\u13db\u13a2": 3796,
    "\u2581\u13a4\u13ea\u13c5\u13ce\u13c3": 3797,
    "\u2581\u13a0\u13cc": 3798,
    "\u13af\u13f3\u13b2\u13cd\u13a6": 3799,
    "\u2581\u13a0\u13a6\u13d4\u13ae": 3800,
    "\u2581\u13ac\u13e9\u13aa\u13e9\u13db": 3801,
    "\u2581\u13e5\u13d5\u13a6": 3802,
    "\u2581\u13a0\u13e5\u13f0": 3803,
    "\u2581\u13a4\u13c5\u13e3": 3804,
    "\u2581\u13a0\u13c1\u13b6\u13af": 3805,
    "\u2581\u13a8\u13a2": 3806,
    "\u2581\u13a4\u13a9\u13cd\u13d7": 3807,
    "\u2581\u13d7\u13c5": 3808,
    "\u13aa\u13b2": 3809,
    "\u13f0\u13b8\u13b2": 3810,
    "\u13b3\u13d7\u13cd\u13d7": 3811,
    "\u2581\u13d1\u13be\u13b4\u13c9": 3812,
    "\u2581\u13d7\u13a7": 3813,
    "\u13a9\u13cd\u13d9\u13d7": 3814,
    "\u13d3\u13f1": 3815,
    "\u2581\u13e7\u13c4\u13ec": 3816,
    "\u2581\u13f3\u13d3": 3817,
    "\u13a2\u13cd\u13d4\u13c2": 3818,
    "\u2581\u13a2\u13f3\u13c2": 3819,
    "\u2581\u13a4\u13ed": 3820,
    "\u2581\u13c4\u13ec": 3821,
    "\u2581\u13f3\u13ea": 3822,
    "\u13f0\u13b8\u13d7": 3823,
    "\u2581\u13e5\u13f3\u13aa": 3824,
    "\u2581\u13a2\u13aa": 3825,
    "\u2581\u13d7\u13a9\u13a6": 3826,
    "\u2581\u13a2\u13d7\u13a6\u13d8": 3827,
    "\u13cf\u13f3": 3828,
    "\u13cd\u13a6\u13c3\u13b3": 3829,
    "\u2581\u13a2\u13e3\u13b5\u13ae\u13b5": 3830,
    "\u13e5\u13aa\u13e9\u13db\u13d7\u13f1": 3831,
    "\u13b5\u13e8": 3832,
    "\u2581\u13d3\u13ac\u13a9": 3833,
    "\u13b7\u13e4\u13b8": 3834,
    "\u13be\u13c4\u13aa\u13e9": 3835,
    "\u13e3\u13c5\u13a9": 3836,
    "\u13f4\u13b5\u13b8": 3837,
    "\u13c5\u13d3\u13d7\u13cd\u13d7": 3838,
    "\u13cf\u13b3": 3839,
    "\u2581\u13d7\u13a9\u13f2\u13af": 3840,
    "\u2581\u13e6\u13a6": 3841,
    "\u13c5\u13aa\u13a2\u13cd\u13d7": 3842,
    "\u13a9\u13ef": 3843,
    "\u2581\u13af\u13cd\u13a9\u13a6\u13da": 3844,
    "\u2581\u13f1\u13e3\u13d3": 3845,
    "\u13d1\u13f0\u13d2": 3846,
    "\u2581\u13a6\u13d9\u13a6": 3847,
    "\u2581\u13a0\u13d8": 3848,
    "\u13b7\u13af\u13cd\u13d7": 3849,
    "\u13c1\u13c9\u13e5": 3850,
    "\u13b3\u13db": 3851,
    "\u2581\u13da\u13aa": 3852,
    "\u13be\u13c4\u13aa\u13eb\u13ce\u13b8": 3853,
    "\u2581\u13a4\u13c2\u13b6\u13d2": 3854,
    "\u13eb\u13ce\u13b4\u13a2": 3855,
    "\u2581\u13a4\u13e9\u13d2\u13cd\u13a9\u13c2": 3856,
    "\u13c1\u13df\u13f4\u13be": 3857,
    "\u2581\u13a4\u13cd\u13c6\u13c2\u13aa\u13d9\u13d7": 3858,
    "\u13a1\u13b8": 3859,
    "\u13d3\u13c1\u13ae": 3860,
    "\u2581\u13d5\u13c5": 3861,
    "\u2581\u13a4\u13c1\u13c5": 3862,
    "\u13d5\u13b6\u13c6\u13cd\u13d7": 3863,
    "\u2581\u13a6\u13c2\u13cf": 3864,
    "\u2581\u13e5\u13c2\u13ac": 3865,
    "\u2581\u13eb\u13e8\u13f2\u13ea\u13b3": 3866,
    "\u13d8\u13c3\u13b8": 3867,
    "\u13a4\u13cd\u13d7": 3868,
    "\u2581\u13f1\u13d3\u13a9": 3869,
    "\u2581\u13a4\u13f0": 3870,
    "\u13f2\u13cd\u13d9\u13d7": 3871,
    "\u13b7\u13e8": 3872,
    "\u2581\u13e3\u13da\u13b5\u13cd\u13ac": 3873,
    "\u2581\u13d4\u13b5\u13da": 3874,
    "\u2581\u13a6\u13ec\u13c2": 3875,
    "\u13f0\u13b8\u13ad": 3876,
    "\u2581\u13c2\u13a6\u13a5\u13a9": 3877,
    "\u2581\u13d7\u13a8\u13a6": 3878,
    "\u2581\u13d3\u13a8\u13e3": 3879,
    "\u13aa\u13e9\u13db": 3880,
    "\u2581\u13da\u13c3\u13b8": 3881,
    "\u13a6\u13c5\u13a6": 3882,
    "\u2581\u13a4\u13c3\u13f4": 3883,
    "\u13ef\u13c2\u13cd\u13ac": 3884,
    "\u2581\u13c8\u13b5": 3885,
    "\u2581\u13e7\u13a6": 3886,
    "\u13b5\u13d9\u13b4": 3887,
    "\u13e4\u13ad": 3888,
    "\u13b6\u13af\u13cd\u13d7": 3889,
    "\u13bc": 3890,
    "\u2581\u13da\u13c2\u13a7\u13b5": 3891,
    "\u2581\u13e5\u13da\u13c2": 3892,
    "\u2581\u13a4\u13a7": 3893,
    "\u2581\u13a4\u13c3\u13ae\u13b8": 3894,
    "\u13aa\u13db": 3895,
    "\u13cd\u13a6\u13c3\u13b5": 3896,
    "\u2581\u13d7\u13a6\u13b4\u13c5": 3897,
    "\u2581\u13a4\u13b5\u13ae\u13b5\u13e8": 3898,
    "\u13eb\u13db\u13b2": 3899,
    "\u2581\u13c2\u13e3\u13db\u13c1\u13b2": 3900,
    "\u2581\u13d5\u13a6\u13b3\u13c5\u13db": 3901,
    "\u13b4\u13a3": 3902,
    "\u2581\u13da\u13be\u13c4\u13aa\u13eb\u13ce\u13b4": 3903,
    "\u13cd\u13c6\u13c2\u13aa\u13d4\u13c2": 3904,
    "\u2581\u13a6\u13a6\u13b6": 3905,
    "\u2581\u13a0\u13d0\u13f4": 3906,
    "\u2581\u13d3\u13c2\u13d9\u13a8": 3907,
    "\u2581\u13a4\u13c2\u13d9": 3908,
    "d": 3909,
    "\u2581\u13d5\u13a6\u13b6\u13a8\u13d2": 3910,
    "\u13e7\u13cd\u13c6\u13f4\u13cd\u13d7": 3911,
    "\u2581\u13a4\u13e6\u13f1\u13b4": 3912,
    "\u13d7\u13a6\u13b5\u13a0\u13c5\u13af\u13db": 3913,
    "\u2581\u13ed\u13c2\u13b6\u13ce": 3914,
    "\u2581\u13e4\u13b2": 3915,
    "\u2581\u13a4\u13cc\u13af\u13b8": 3916,
    "\u2581\u13d5\u13e3\u13d3\u13c5\u13db": 3917,
    "\u13b8\u13cd\u13d4\u13c5": 3918,
    "\u13d1\u13be\u13b4": 3919,
    "\u2581\u13a0\u13cd\u13c6\u13b5\u13cd\u13ac": 3920,
    "\u2581\u13a7\u13c1\u13cc": 3921,
    "\u13db\u13c1\u13b8": 3922,
    "\u2581\u13a4\u13d3\u13d1\u13f4": 3923,
    "\u13ac\u13c2\u13a8": 3924,
    "\u13c2\u13d9\u13b8": 3925,
    "\u2581\u13a4\u13be\u13c4\u13aa\u13eb\u13ce\u13b4": 3926,
    "\u2581\u13c2\u13a8\u13ce": 3927,
    "\u2581\u13c4\u13be\u13db\u13c1\u13b4": 3928,
    "\u2581\u13a0\u13e9\u13db\u13d7": 3929,
    "\u2581\u13a0\u13c2\u13cd\u13a6\u13a2\u13b2": 3930,
    "\u13d3\u13b4\u13c2\u13cd\u13ac": 3931,
    "\u13cd\u13c8\u13ef": 3932,
    "\u2581\u13ec\u13a9\u13b7\u13e8": 3933,
    "\u2581\u13c2\u13a6\u13c5\u13af\u13d2": 3934,
    "\u2581\u13c4\u13be\u13b5\u13cd\u13d4\u13c1": 3935,
    "\u13e3\u13d7": 3936,
    "\u2581\u13a0\u13c6\u13e3": 3937,
    "\u2581\u13a4\u13c2\u13f4\u13ae": 3938,
    "\u2581\u13be\u13ef\u13db\u13a5": 3939,
    "\u13f2\u13cd\u13d4\u13c2": 3940,
    "\u13b3\u13c1": 3941,
    "\u13c6\u13cf": 3942,
    "\u2581\u13d3\u13a9\u13b8\u13eb\u13cd\u13d3\u13c1\u13b2": 3943,
    "\u2581\u13da\u13e9\u13c2\u13a6\u13b8": 3944,
    "\u2581\u13a4\u13c1\u13dd\u13c5": 3945,
    "\u2581\u13d7\u13d8\u13f2\u13af": 3946,
    "\u13cd\u13d7\u13cd\u13a8": 3947,
    "\u13a2\u13cd\u13d9\u13d7": 3948,
    "\u13e3\u13b5\u13cd\u13d9": 3949,
    "\u2581\u13e7\u13ed\u13aa\u13d9\u13d7": 3950,
    "\u2581\u13a0\u13cd": 3951,
    "\u2581\u13a4\u13c1\u13a2\u13cd\u13d4\u13c5": 3952,
    "\u2581\u13c2\u13a6\u13b5\u13cd\u13d4\u13c5": 3953,
    "\u2581\u13d1\u13df\u13b6": 3954,
    "\u2581\u13a4\u13ea\u13d3\u13cd\u13d7": 3955,
    "\u2581\u13a4\u13be\u13c2\u13a9\u13d2": 3956,
    "\u2581\u13c2\u13a6\u13db\u13c1\u13b2": 3957,
    "\u2581\u13a5\u13de": 3958,
    "\u2581\u13a6\u13c3": 3959,
    "\u2581\u13a4\u13be\u13db\u13aa\u13d7": 3960,
    "\u2581\u13da\u13b8": 3961,
    "\u13d9\u13d3\u13c6\u13d3": 3962,
    "\u13a6\u13d8\u13d5\u13af": 3963,
    "\u2581\u13ed\u13e9": 3964,
    "\u2581\u13a0\u13e9\u13be\u13a6\u13b3": 3965,
    "\u2581\u13a4\u13c1\u13c9\u13e8": 3966,
    "\u2581\u13aa\u13b5\u13cd\u13d7": 3967,
    "\u2581\u13e5\u13a6\u13d8\u13cf": 3968,
    "\u13a6\u13b5\u13b7\u13a8\u13cd\u13d7": 3969,
    "\u2581\u13a0\u13b5\u13cf\u13be\u13af\u13cd\u13d4\u13c5\u13af": 3970,
    "\u2581\u13a0\u13f2\u13d3\u13cc\u13b2": 3971,
    "\u2581\u13a4\u13be\u13d7\u13cd\u13a6\u13df": 3972,
    "\u2581\u13a4\u13e9\u13ad\u13c2\u13b4": 3973,
    "\u2581\u13c2\u13a9\u13ea\u13ce\u13b8\u13ad": 3974,
    "\u2581\u13c5\u13db\u13c6\u13d3\u13b4\u13c5\u13af": 3975,
    "\u2581\u13c5\u13e7\u13d3\u13b4\u13c5\u13b2\u13be": 3976,
    "\u2581\u13e6\u13d1\u13eb": 3977,
    "\u2581\u13a0\u13d3\u13c5\u13d6\u13cd\u13aa": 3978,
    "\u2581\u13a8\u13b4\u13cf\u13f1": 3979,
    "\u2581\u13d7\u13e6\u13ea\u13b5\u13cd\u13a9": 3980,
    "\u2581\u13da\u13a8\u13d3\u13b5\u13f4": 3981,
    "\u2581\u13a0\u13d0\u13a5\u13cd\u13d9\u13d7": 3982,
    "\u2581\u13a4\u13c2\u13a9\u13b5\u13f2\u13a2\u13cd\u13d7": 3983,
    "\u2581\u13c5\u13e5\u13ea\u13ce\u13b8\u13a9": 3984,
    "\u2581\u13cf\u13b5\u13c6": 3985,
    "\u2581\u13a0\u13be\u13d3\u13cd\u13a6\u13b6\u13a9": 3986,
    "\u2581\u13a4\u13da\u13d3\u13b4\u13db": 3987,
    "\u2581\u13a2\u13b3\u13a9\u13f3": 3988,
    "\u2581\u13a4\u13aa\u13b5\u13f0\u13a5": 3989,
    "\u2581\u13c4\u13be\u13d3\u13a1\u13cd\u13d7": 3990,
    "\u2581\u13e3\u13d3\u13f2\u13c1\u13b8\u13a9": 3991,
    "\u2581\u13a0\u13c2\u13f0\u13aa\u13a9": 3992,
    "\u2581\u13a0\u13d3\u13ea\u13af": 3993,
    "\u2581\u13a4\u13db\u13b4\u13ae": 3994,
    "\u2581\u13a4\u13ea\u13d0\u13c5\u13f4": 3995,
    "\u2581\u13a2\u13e3\u13db\u13d3\u13cd\u13d3": 3996,
    "\u2581\u13d5\u13a6\u13c5\u13d9\u13ac": 3997,
    "\u2581\u13e4\u13c6\u13b3\u13c2": 3998,
    "\u2581\u13a7\u13c4\u13a6\u13df": 3999,
    "\u2581\u13a2\u13aa\u13ea\u13b3": 4000,
    "\u2581\u13a4\u13ed\u13e2\u13d4\u13c5\u13a9": 4001,
    "\u2581\u13a6\u13d7\u13a8\u13c2": 4002,
    "\u2581\u13a0\u13cd\u13a9\u13d3\u13cd\u13ac": 4003,
    "\u2581\u13a4\u13b5\u13cf\u13c2\u13d5\u13c5": 4004,
    "\u2581\u13a4\u13b5\u13f2\u13d7": 4005,
    "\u2581\u13e7\u13c1\u13b5\u13c1": 4006,
    "\u2581\u13b6\u13bb": 4007,
    "\u2581\u13d7\u13a7\u13c3\u13a9\u13cd\u13d9\u13d7": 4008,
    "\u2581\u13d5\u13e5\u13c3\u13a9\u13cd\u13a8\u13cd\u13d7": 4009,
    "\u2581\u13be\u13a8\u13a2\u13f4": 4010,
    "\u2581\u13a0\u13be\u13d3\u13cd\u13d3\u13e9\u13d7\u13d9\u13af": 4011,
    "\u2581\u13e9\u13a9\u13b7\u13e3": 4012,
    "\u2581\u13d3\u13f2\u13e4\u13cf": 4013,
    "\u2581\u13ad\u13f0\u13b5\u13cd\u13d7": 4014,
    "\u2581\u13a0\u13be\u13b5\u13cd\u13d5\u13b5\u13cd\u13a9": 4015,
    "\u2581\u13c2\u13a9\u13ea\u13cf": 4016,
    "\u2581\u13a0\u13be\u13d3\u13e4\u13b5": 4017,
    "\u2581\u13a0\u13aa\u13d5\u13cd\u13a9": 4018,
    "\u2581\u13f1\u13c2\u13ac\u13c1\u13ad": 4019,
    "\u2581\u13d5\u13e5\u13a7\u13bf\u13e9\u13d7\u13d9\u13ae\u13cd\u13d7": 4020,
    "\u2581\u13eb\u13d7\u13b6\u13af": 4021,
    "\u2581\u13d4\u13d8\u13c4\u13a6": 4022,
    "\u2581\u13a0\u13e6\u13b3\u13c5": 4023,
    "\u2581\u13d7\u13a6\u13b6\u13d4\u13c5": 4024,
    "\u2581\u13da\u13ad\u13c4\u13ee": 4025,
    "\u2581\u13a0\u13d3\u13f2\u13c1\u13ae\u13cd\u13d7": 4026,
    "\u2581\u13da\u13cd\u13d3\u13a6\u13b8": 4027,
    "\u2581\u13a2\u13e6\u13af\u13f3\u13d7\u13f1": 4028,
    "\u2581\u13d5\u13aa\u13ea\u13b4\u13cd\u13d7": 4029,
    "\u2581\u13a4\u13db\u13a6\u13cd\u13d5": 4030,
    "\u2581\u13e7\u13c2\u13c1\u13df\u13f4\u13cd\u13d7": 4031,
    "\u2581\u13d3\u13a6\u13db\u13c1\u13b5": 4032,
    "\u13d8\u13ef\u13cd\u13d3\u13c1": 4033,
    "\u2581\u13c4\u13ea\u13b2\u13be": 4034,
    "\u2581\u13d3\u13f1\u13be": 4035,
    "\u2581\u13e7\u13be\u13ac\u13e9\u13b6\u13d7": 4036,
    "\u2581\u13d7\u13e3\u13b4\u13b2\u13a6": 4037,
    "\u2581\u13a7\u13c3\u13ae": 4038,
    "\u2581\u13a1\u13e5\u13c5\u13cf\u13d3\u13cd\u13d7": 4039,
    "\u2581\u13e5\u13da\u13f3\u13aa\u13d7": 4040,
    "\u2581\u13a8\u13e5\u13cd\u13d5\u13b8\u13d7": 4041,
    "\u2581\u13a2\u13ac\u13db\u13c1\u13d7": 4042,
    "\u2581\u13d7\u13be\u13a2\u13d2": 4043,
    "\u2581\u13e7\u13c2\u13b6\u13b8\u13d7": 4044,
    "\u2581\u13a6\u13c2\u13a9\u13b8": 4045,
    "\u2581\u13a0\u13ab\u13e9\u13cc": 4046,
    "\u2581\u13a0\u13c2\u13aa\u13b2\u13ad": 4047,
    "\u2581\u13a4\u13ac\u13a5\u13cd\u13a9": 4048,
    "\u2581\u13a2\u13ef\u13e5\u13b8\u13c9\u13d7": 4049,
    "\u2581\u13d7\u13aa\u13e2\u13c5\u13af": 4050,
    "\u2581\u13ac\u13ec\u13af\u13f3\u13c5\u13a9": 4051,
    "\u2581\u13a3\u13a6\u13da\u13b5\u13ad": 4052,
    "\u2581\u13a2\u13f3\u13ea\u13ce\u13b8\u13af": 4053,
    "\u2581\u13cd\u13a9\u13cd\u13d3\u13e9\u13da\u13a6": 4054,
    "\u2581\u13a0\u13cd\u13d5\u13ef\u13d3": 4055,
    "\u2581\u13a4\u13c2\u13aa\u13e9\u13db\u13d7\u13f1": 4056,
    "\u2581\u13af\u13b8\u13c9\u13d3": 4057,
    "\u2581\u13e3\u13a6\u13e8\u13cd": 4058,
    "\u2581\u13a0\u13c2\u13a8\u13f3\u13e3": 4059,
    "\u2581\u13e5\u13e3\u13db\u13a9\u13ad": 4060,
    "\u2581\u13c2\u13e3\u13db\u13bf\u13d5\u13ac\u13a2": 4061,
    "\u2581\u13ad\u13d3\u13c5\u13be": 4062,
    "\u2581\u13a2\u13e5\u13ef\u13a1\u13cd\u13d7": 4063,
    "\u2581\u13d3\u13ad\u13cf": 4064,
    "\u2581\u13af\u13cd\u13aa\u13b5": 4065,
    "\u2581\u13a2\u13e3\u13da\u13b5\u13cd\u13a8\u13cd\u13d7": 4066,
    "\u2581\u13aa\u13b0\u13cd": 4067,
    "\u2581\u13a0\u13cd\u13a9\u13d7\u13cd\u13a8\u13a2": 4068,
    "\u2581\u13e3\u13d9\u13b3\u13c5\u13cd\u13d7": 4069,
    "\u2581\u13cd\u13c8\u13cd\u13d4": 4070,
    "\u2581\u13d7\u13a6\u13b6\u13a9\u13cd\u13a9": 4071,
    "\u2581\u13d7\u13e3\u13a7\u13c5\u13a6": 4072,
    "\u2581\u13a0\u13e0\u13d7\u13f1": 4073,
    "\u2581\u13a2\u13e3\u13b5\u13ae\u13b5\u13a8\u13cd\u13d7": 4074,
    "\u2581\u13c2\u13f4\u13c1\u13b8": 4075,
    "\u2581\u13a8\u13e5\u13c5\u13d2\u13af": 4076,
    "\u2581\u13eb\u13e5\u13b7\u13e8\u13ad": 4077,
    "\u2581\u13c7\u13d7\u13c2\u13f1": 4078,
    "\u2581\u13d7\u13a9\u13b8\u13eb\u13cd\u13d3\u13c1\u13d7\u13f1": 4079,
    "\u2581\u13a4\u13b6\u13d7\u13e2": 4080,
    "\u2581\u13a4\u13be\u13db\u13c5\u13a9": 4081,
    "\u2581\u13ed\u13d5\u13b5\u13e8": 4082,
    "\u2581\u13d1\u13d3\u13b5\u13cd\u13aa\u13af": 4083,
    "\u2581\u13dd\u13ec\u13da": 4084,
    "\u2581\u13a0\u13c2\u13a6\u13f2\u13df": 4085,
    "\u2581\u13e7\u13c2\u13b8\u13eb\u13cd\u13d3\u13c1\u13d7": 4086,
    "\u2581\u13a1\u13e5\u13ef\u13c5\u13db": 4087,
    "\u2581\u13a2\u13ef\u13d3\u13c5\u13d6\u13d7": 4088,
    "\u2581\u13f0\u13d9\u13ad": 4089,
    "\u2581\u13ce\u13d8": 4090,
    "\u2581\u13d7\u13e3\u13d3\u13b4\u13c5\u13db": 4091,
    "\u2581\u13e7\u13b7\u13eb\u13cd\u13d4\u13c1\u13d7": 4092,
    "\u2581\u13c8\u13b5\u13cf": 4093,
    "\u2581\u13a0\u13a9\u13b5\u13a8\u13c2": 4094,
    "\u2581\u13cd\u13aa\u13c1": 4095,
    "\u2581\u13a4\u13bf\u13b7\u13d2\u13a9": 4096,
    "\u2581\u13a6\u13c3\u13d9\u13d7\u13f1": 4097,
    "\u2581\u13a4\u13be\u13d3\u13d9\u13b5\u13cd\u13d3\u13c1\u13b8\u13a9": 4098,
    "\u2581\u13da\u13ef\u13ea\u13a8": 4099,
    "\u2581\u13aa\u13af\u13a2\u13f4": 4100,
    "\u2581\u13a2\u13e8\u13c3\u13ae\u13ae\u13b8": 4101,
    "\u2581\u13a2\u13a6\u13b5\u13cd\u13d9\u13d7\u13f1": 4102,
    "\u2581\u13c3\u13a9\u13ea\u13ce\u13b8": 4103,
    "\u13c4\u13cd\u13d7": 4104,
    "\u2581\u13a4\u13d3\u13d9\u13b5\u13e3\u13db": 4105,
    "\u13df\u13cc\u13c2": 4106,
    "\u13f2\u13d2\u13a9": 4107,
    "\u2581\u13a4\u13a6\u13d4\u13d4\u13c5\u13af": 4108,
    "\u2581\u13d3\u13be\u13d5\u13f2\u13b2\u13cd\u13ac": 4109,
    "\u2581\u13b9\u13a6": 4110,
    "\u2581\u13c4\u13e9\u13c1\u13b0": 4111,
    "\u2581\u13a4\u13c3\u13af\u13f3\u13c5\u13af": 4112,
    "\u2581\u13a0\u13d3\u13c1\u13e3\u13cd\u13da\u13b6\u13a9\u13af": 4113,
    "\u2581\u13ef\u13c2\u13a6\u13d4\u13ae": 4114,
    "\u2581\u13a2\u13a6\u13a6\u13d3": 4115,
    "\u2581\u13a0\u13cd\u13ab\u13d5\u13cd\u13d7\u13f1": 4116,
    "\u13d7\u13d4\u13af": 4117,
    "\u2581\u13a4\u13db\u13d2\u13af": 4118,
    "\u13d2\u13d7": 4119,
    "\u2581\u13d3\u13a7\u13c5": 4120,
    "\u2581\u13a2\u13cd\u13d5\u13be": 4121,
    "\u2581\u13b2\u13d3": 4122,
    "\u2581\u13a0\u13a6\u13d4\u13af\u13f3": 4123,
    "\u2581\u13a4\u13b3\u13cf\u13d5\u13c2": 4124,
    "\u2581\u13a2\u13e5\u13e0": 4125,
    "\u2581\u13a4\u13d3\u13f4\u13ce\u13a2": 4126,
    "\u2581\u13ac\u13e9\u13db\u13d7": 4127,
    "\u2581\u13e5\u13c1\u13a6": 4128,
    "\u2581\u13aa\u13ea\u13b4": 4129,
    "\u2581\u13a4\u13c1\u13c9\u13e8\u13af": 4130,
    "\u2581\u13a4\u13c1\u13dd\u13c5\u13af": 4131,
    "\u2581\u13a4\u13ea\u13a7\u13c1\u13a2": 4132,
    "\u2581\u13a4\u13be\u13c4\u13aa\u13a2\u13cd\u13d7": 4133,
    "\u13a7\u13c1\u13b8": 4134,
    "\u2581\u13d3\u13e8\u13c1\u13b5": 4135,
    "\u2581\u13a4\u13c3\u13af\u13f3\u13c5\u13a9": 4136,
    "\u2581\u13af\u13f2\u13b5": 4137,
    "\u2581\u13a9\u13b3\u13af\u13f3": 4138,
    "\u2581\u13c7\u13b5\u13a9": 4139,
    "\u2581\u13c4\u13be\u13b5\u13cd\u13d4\u13c5": 4140,
    "\u2581\u13a2\u13ab\u13e9": 4141,
    "\u2581\u13e5\u13d9\u13a6": 4142,
    "\u2581\u13a0\u13c2\u13c3\u13ae\u13ad": 4143,
    "\u2581\u13d7\u13a6\u13e5": 4144,
    "\u2581\u13a2\u13f3\u13d2\u13af": 4145,
    "\u2581\u13a4\u13be\u13db\u13aa\u13d7\u13f1": 4146,
    "\u2581\u13e5\u13ef\u13b5\u13a1\u13b5\u13e4": 4147,
    "\u2581\u13a4\u13ea\u13cd\u13a9\u13b8\u13a2": 4148,
    "\u2581\u13eb\u13e5\u13a6\u13db\u13a2": 4149,
    "\u2581\u13a4\u13e6\u13cd\u13d7": 4150,
    "\u2581\u13d7\u13aa\u13e9\u13db\u13d7": 4151,
    "\u2581\u13a4\u13aa\u13e9\u13db\u13d7\u13f1": 4152,
    "\u2581\u13c2\u13da\u13e9\u13c1\u13b4\u13a2": 4153,
    "\u2581\u13a8\u13b5\u13cd\u13a9": 4154,
    "\u2581\u13e7\u13d3\u13b5\u13a2": 4155,
    "\u2581\u13e5\u13aa\u13e9\u13d8\u13cd\u13ac": 4156,
    "\u2581\u13bb\u13b3": 4157,
    "\u2581\u13a1\u13d3\u13cd\u13d7": 4158,
    "\u2581\u13be\u13ef\u13db\u13a5\u13a9": 4159,
    "\u13cd\u13a6\u13ce\u13d7": 4160,
    "\u2581\u13a4\u13a9\u13d2\u13a9": 4161,
    "\u13e9\u13d4": 4162,
    "\u2581\u13a4\u13be\u13c2\u13a9\u13d2\u13a9": 4163,
    "\u2581\u13a4\u13d3\u13d9\u13b5\u13cd\u13d4\u13c1\u13a2": 4164,
    "\u2581\u13a4\u13cd\u13c6\u13c2\u13aa\u13db": 4165,
    "\u2581\u13d7\u13be\u13d3\u13aa\u13be\u13d7\u13cd\u13ac\u13a2": 4166,
    "\u13e8\u13d7": 4167,
    "\u13c5\u13ec\u13d7\u13f1": 4168,
    "\u2581\u13a0\u13be\u13d3\u13aa\u13be\u13d7\u13cd\u13ac\u13a2": 4169,
    "\u2581\u13a0\u13a6\u13cd\u13a9": 4170,
    "\u2581\u13a4\u13c1\u13af": 4171,
    "\u2581\u13a6\u13d3\u13d9\u13b5\u13cd\u13d7\u13cd\u13ac\u13a2": 4172,
    "\u2581\u13a4\u13be\u13d3\u13c5\u13d6\u13b4": 4173,
    "\u2581\u13a2\u13a6\u13b5\u13a2": 4174,
    "\u2581\u13e5\u13ac\u13e9": 4175,
    "\u2581\u13a4\u13be\u13d5\u13d7": 4176,
    "\u2581\u13a4\u13e9\u13d4\u13c5\u13a9": 4177,
    "\u2581\u13a4\u13be\u13c2\u13a9\u13ce\u13a2": 4178,
    "\u2581\u13a4\u13c7\u13d3\u13b5\u13c9": 4179,
    "\u2581\u13a0\u13aa\u13be": 4180,
    "\u2581\u13e5\u13f0\u13b8\u13a2": 4181,
    "\u2581\u13a4\u13be\u13d3\u13c5\u13d6\u13b8": 4182,
    "\u2581\u13a4\u13c2\u13e3\u13d6\u13cd\u13d7": 4183,
    "\u13b4\u13c5\u13b2": 4184,
    "\u2581\u13e5\u13c4\u13cd\u13d5": 4185,
    "\u2581\u13a6\u13ef\u13b8": 4186,
    "\u2581\u13da\u13e9\u13c2\u13a6\u13b8\u13a2": 4187,
    "\u2581\u13a4\u13e6\u13f1\u13b4\u13a2": 4188,
    "\u2581\u13a3\u13b5\u13e9\u13f2": 4189,
    "\u13b6\u13b8\u13d7": 4190,
    "\u13d3\u13db\u13cd\u13a9": 4191,
    "\u13a1\u13b2": 4192,
    "\u13d9\u13ad": 4193,
    "\u2581\u13a4\u13a9\u13ce\u13a2": 4194,
    "\u2581\u13a0\u13a2\u13d2\u13a9": 4195,
    "\u2581\u13a4\u13a9\u13d2": 4196,
    "\u2581\u13a6\u13df": 4197,
    "\u2581\u13a3\u13a9\u13be\u13b5\u13aa": 4198,
    "\u2581\u13a4\u13d7\u13db\u13ae\u13a2": 4199,
    "\u2581\u13a4\u13f2\u13a2\u13f4": 4200,
    "\u2581\u13a6\u13f2\u13df\u13a8": 4201,
    "\u2581\u13a0\u13df\u13cd\u13d7": 4202,
    "\u2581\u13a4\u13ea\u13f4\u13a2": 4203,
    "\u2581\u13eb\u13a6\u13b7\u13ac": 4204,
    "\u2581\u13ed\u13c2\u13b7\u13e8\u13a9": 4205,
    "\u13f4\u13ae\u13a2": 4206,
    "\u13cf\u13d4\u13db": 4207,
    "\u2581\u13e3\u13d7\u13ad": 4208,
    "\u13d5\u13b6\u13b0\u13cc": 4209,
    "\u13da\u13a2\u13cd\u13d3\u13c1\u13b4": 4210,
    "\u13c3\u13af\u13ce\u13b4": 4211,
    "\u2581\u13e6\u13a8": 4212,
    "\u13d7\u13c2\u13cd\u13aa\u13c2\u13af": 4213,
    "\u2581\u13a2\u13e3\u13d3\u13c5\u13d6\u13cd\u13ac": 4214,
    "\u2581\u13a2\u13d7\u13ac\u13c1": 4215,
    "\u2581\u13ae\u13b5": 4216,
    "\u2581\u13d5\u13a6\u13a7\u13b2": 4217,
    "\u2581\u13e7\u13c1\u13a6": 4218,
    "\u2581\u13a4\u13cd\u13aa\u13d2": 4219,
    "\u13a4\u13e9\u13c2\u13a6\u13b8": 4220,
    "\u13b2\u13ce": 4221,
    "\u13d9\u13b2\u13a2": 4222,
    "\u2581\u13a0\u13a9\u13c1\u13e8\u13a2": 4223,
    "\u2581\u13a2\u13e8\u13d7\u13cd\u13ac": 4224,
    "\u13c2\u13a6": 4225,
    "\u2581\u13d7\u13d0\u13f4": 4226,
    "\u2581\u13a4\u13c2\u13be\u13eb": 4227,
    "\u2581\u13dc": 4228,
    "\u2581\u13c2\u13d5\u13ac\u13c1\u13b2": 4229,
    "\u2581\u13eb\u13da\u13ef\u13c5\u13ae\u13a2": 4230,
    "\u2581\u13af\u13a6\u13d4\u13b2": 4231,
    "\u2581\u13a0\u13be\u13b5\u13ae\u13b5\u13a8": 4232,
    "\u13d3\u13c1\u13af": 4233,
    "\u2581\u13a0\u13e5\u13be": 4234,
    "\u2581\u13a4\u13c4\u13aa\u13e4\u13a2": 4235,
    "\u2581\u13a4\u13c5\u13ce\u13a2": 4236,
    "\u2581\u13a0\u13c1\u13ae\u13cd\u13d7": 4237,
    "\u2581\u13be\u13db\u13c1\u13b2\u13a2": 4238,
    "\u2581\u13a4\u13c1\u13cd\u13a9\u13b8": 4239,
    "\u2581\u13a2\u13d4": 4240,
    "\u13b5\u13cd\u13aa\u13b8\u13d3\u13c1\u13d7\u13f1": 4241,
    "\u2581\u13a4\u13e9\u13d4\u13c1": 4242,
    "\u2581\u13a4\u13b7\u13e4\u13b4\u13a2": 4243,
    "\u2581\u13e5\u13d5\u13e3": 4244,
    "\u2581\u13a4\u13c1\u13cd\u13d4": 4245,
    "\u2581\u13da\u13d9\u13cd\u13db": 4246,
    "\u2581\u13e5\u13eb": 4247,
    "\u2581\u13e7\u13c1\u13d7\u13f1": 4248,
    "\u2581\u13a4\u13ec\u13e8": 4249,
    "\u2581\u13ab\u13a6": 4250,
    "\u13c8\u13f1": 4251,
    "\u2581\u13a1\u13be\u13a2": 4252,
    "\u13db\u13a6\u13c5": 4253,
    "\u2581\u13c2\u13e5\u13ea\u13ce\u13b8": 4254,
    "\u2581\u13a4\u13ea\u13ad": 4255,
    "\u2581\u13a4\u13c2\u13c5": 4256,
    "\u13aa\u13b5\u13ef": 4257,
    "\u2581\u13a4\u13ec\u13c2\u13ce": 4258,
    "\u13e7\u13c2\u13f2\u13af\u13cd\u13d7\u13f1": 4259,
    "\u2581\u13c4\u13e9\u13c1\u13b8\u13a9": 4260,
    "\u13d4\u13c1\u13cd\u13d7": 4261,
    "\u13a8\u13ce\u13a2": 4262,
    "\u13d9\u13b5\u13a6": 4263,
    "\u2581\u13e7\u13c1\u13e4\u13b4": 4264,
    "\u2581\u13a4\u13d5\u13b8": 4265,
    "\u2581\u13f1\u13e5\u13f0\u13b8": 4266,
    "\u13cc\u13db\u13d7": 4267,
    "\u2581\u13e7\u13be\u13e6": 4268,
    "\u2581\u13a4\u13c2\u13aa\u13b2\u13a9": 4269,
    "\u2581\u13e7\u13f2": 4270,
    "\u13e0\u13d2": 4271,
    "\u2581\u13a4\u13e9\u13c2\u13b8": 4272,
    "\u2581\u13a2\u13a9\u13c1\u13b8": 4273,
    "\u2581\u13d7\u13a9\u13a6\u13f4\u13b5\u13a8\u13a2": 4274,
    "\u13d3\u13c5\u13af\u13d3": 4275,
    "\u2581\u13da\u13c2\u13b8": 4276,
    "\u2581\u13a2\u13e3\u13d3\u13c5\u13d6": 4277,
    "\u2581\u13c3\u13f3": 4278,
    "\u13c4\u13aa\u13eb\u13cf": 4279,
    "\u2581\u13e7\u13ea\u13c5\u13d2\u13a2": 4280,
    "\u2581\u13a0\u13e6\u13f4\u13a2": 4281,
    "\u2581\u13a4\u13cd\u13d3\u13f1\u13d5": 4282,
    "\u2581\u13a4\u13cd\u13a6\u13c5\u13e8\u13a2": 4283,
    "\u2581\u13a4\u13c3\u13e2\u13c5": 4284,
    "\u2581\u13be\u13cf": 4285,
    "\u13cf\u13d0\u13d7": 4286,
    "\u13b5\u13cd\u13d9": 4287,
    "\u13e2\u13be\u13c1\u13d7": 4288,
    "\u2581\u13a4\u13d3\u13c5\u13d9\u13a9": 4289,
    "\u2581\u13a4\u13a7\u13b5\u13b8": 4290,
    "\u2581\u13d5\u13e3\u13d9\u13a5\u13a2": 4291,
    "\u13b5\u13cd\u13d3\u13f4\u13d7": 4292,
    "\u13df\u13b6": 4293,
    "\u13d6\u13b5": 4294,
    "\u2581\u13d8\u13c5": 4295,
    "\u2581\u13c3\u13d2": 4296,
    "\u2581\u13c3\u13a9": 4297,
    "\u2581\u13a4\u13b5\u13cd\u13c6\u13d5": 4298,
    "\u13f2\u13cd\u13d7\u13cd\u13ac": 4299,
    "\u13ea\u13ce\u13d7": 4300,
    "\u13d0\u13d7": 4301,
    "\u2581\u13a2\u13e8\u13f2\u13ea\u13b3": 4302,
    "\u13aa\u13b3": 4303,
    "\u2581\u13a4\u13cd\u13d7\u13c9": 4304,
    "\u13c5\u13a6\u13b8\u13db": 4305,
    "\u13c1\u13a2\u13cd\u13d3\u13c1\u13d7": 4306,
    "\u13c5\u13d7\u13cd\u13a8\u13cd\u13d7": 4307,
    "\u2581\u13a0\u13c3\u13b5": 4308,
    "\u2581\u13c2\u13ac\u13c1\u13b8": 4309,
    "\u13a7\u13be": 4310,
    "\u13eb\u13cd\u13a9": 4311,
    "\u2581\u13a4\u13c1\u13c5\u13cd\u13d7": 4312,
    "\u2581\u13ea\u13d9": 4313,
    "\u2581\u13be\u13e5": 4314,
    "\u13f2\u13a6": 4315,
    "\u2581\u13a0\u13c5": 4316,
    "\u2581\u13a3\u13cd": 4317,
    "\u2581\u13d7\u13cd\u13c6": 4318,
    "\u13f2\u13af\u13b2": 4319,
    "\u2581\u13e5\u13d7": 4320,
    "\u2581\u13a4\u13d3\u13c5\u13d2": 4321,
    "\u13cc\u13b3\u13d3\u13c1": 4322,
    "\u2581\u13c4\u13ea\u13ce\u13b8\u13a2": 4323,
    "\u13c2\u13cc\u13c2": 4324,
    "\u13c2\u13ac\u13a6": 4325,
    "\u13cd\u13a6\u13a2\u13ae\u13cd\u13d7": 4326,
    "\u2581\u13a4\u13c1\u13c5\u13ce\u13c3": 4327,
    "\u2581\u13a2\u13f2": 4328,
    "\u2581\u13a4\u13d9\u13af\u13f3\u13ad": 4329,
    "\u2581\u13d5\u13a0": 4330,
    "\u2581\u13a0\u13c2\u13b8\u13c9\u13d7\u13cd\u13a8": 4331,
    "\u2581\u13a0\u13c9\u13e2": 4332,
    "\u13a6\u13d9\u13a5\u13ce": 4333,
    "\u2581\u13e7\u13d3\u13b4": 4334,
    "\u13c1\u13cd\u13a8": 4335,
    "\u2581\u13e6\u13cf": 4336,
    "\u13f0\u13b2": 4337,
    "\u13b6\u13d3": 4338,
    "\u2581\u13d7\u13ac\u13e9\u13be": 4339,
    "\u2581\u13a4\u13a7\u13b5": 4340,
    "\u2581\u13e4\u13b3\u13d7": 4341,
    "\u13c9\u13af": 4342,
    "\u13a4\u13cd\u13d3\u13a6\u13f4\u13af\u13d3": 4343,
    "\u2581\u13e6\u13d2": 4344,
    "\u2581\u13a0\u13f0\u13b5\u13d2": 4345,
    "\u2581\u13a4\u13c1\u13e4\u13a2": 4346,
    "\u13df\u13ef": 4347,
    "\u2581\u13a4\u13c1\u13e4\u13b4\u13a2": 4348,
    "\u13e5\u13c1\u13b8": 4349,
    "\u13b3\u13c5\u13a9": 4350,
    "s": 4351,
    "\u2581\u13ac\u13e9\u13db\u13db": 4352,
    "\u2581\u13a4\u13d9\u13af": 4353,
    "\u13aa\u13b5\u13c2\u13d7": 4354,
    "\u2581\u13be\u13c2\u13a5\u13a9": 4355,
    "\u2581\u13a2\u13a4": 4356,
    "\u2581\u13a4\u13b3": 4357,
    "\u2581\u13ad\u13d7\u13d4": 4358,
    "\u13d3\u13c2\u13b8\u13a9": 4359,
    "\u13e1\u13d7\u13cd\u13a9": 4360,
    "\u2581\u13a8\u13cd": 4361,
    "\u2581\u13a0\u13e3": 4362,
    "\u2581\u13d3\u13d4\u13b4\u13d2\u13a2": 4363,
    "\u2581\u13a6\u13f2\u13a6": 4364,
    "\u13d5\u13ad": 4365,
    "\u2581\u13a4\u13bf\u13b8": 4366,
    "\u2581\u13da\u13c1\u13e4\u13b4\u13c3": 4367,
    "\u2581\u13af\u13c3": 4368,
    "\u13db\u13aa\u13d7": 4369,
    "\u13cd\u13d3\u13e9\u13d5\u13a9": 4370,
    "\u2581\u13a1\u13cd\u13d7": 4371,
    "\u2581\u13eb\u13c2": 4372,
    "\u2581\u13a2\u13ac\u13f1\u13f1\u13c9": 4373,
    "\u2581\u13a0\u13a9\u13cd\u13a6\u13c5\u13e8": 4374,
    "\u13c5\u13c1": 4375,
    "\u13b4\u13d2": 4376,
    "\u2581\u13a2\u13f3\u13cd\u13a9\u13c2\u13c3": 4377,
    "\u13c2\u13cd\u13d9\u13d7": 4378,
    "\u13d7\u13d4\u13cd\u13ac": 4379,
    "\u13d3\u13c1\u13d7\u13f1": 4380,
    "\u13ef\u13d9": 4381,
    "\u2581\u13d3\u13e5\u13f2": 4382,
    "\u13a6\u13db\u13a6": 4383,
    "\u2581\u13a0\u13b9\u13c2": 4384,
    "\u2581\u13a0\u13be\u13d7\u13cd\u13a8": 4385,
    "\u2581\u13ef\u13d3\u13c5\u13d6": 4386,
    "\u13e5\u13e7\u13e3": 4387,
    "\u2581\u13be\u13d3": 4388,
    "\u13aa\u13c5": 4389,
    "\u2581\u13a0\u13ab\u13f4\u13d7": 4390,
    "\u2581\u13f0\u13e3": 4391,
    "\u13aa\u13d5\u13cd\u13d7": 4392,
    "\u13a8\u13f3\u13ad": 4393,
    "\u13cd\u13d7\u13cd\u13a8\u13a2": 4394,
    "\u2581\u13a0\u13a9\u13b2": 4395,
    "\u2581\u13a4\u13cd\u13db": 4396,
    "\u2581\u13e5\u13f2": 4397,
    "\u13cd\u13c6\u13b5": 4398,
    "\u2581\u13a0\u13d3\u13c5": 4399,
    "\u2581\u13a4\u13c2\u13c4\u13aa\u13e8": 4400,
    "\u13a9\u13cc": 4401,
    "\u2581\u13be\u13af\u13f3\u13a2": 4402,
    "\u2581\u13f0\u13b5\u13a6": 4403,
    "\u13b7\u13e5": 4404,
    "\u2581\u13da\u13c1": 4405,
    "\u2581\u13d9\u13e3": 4406,
    "\u13ea\u13ce\u13b4\u13a2": 4407,
    "\u2581\u13a6\u13be\u13c4\u13aa": 4408,
    "\u2581\u13ea\u13e3": 4409,
    "\u2581\u13a4\u13c2\u13cf\u13d7": 4410,
    "\u2581\u13a4\u13ea\u13f0": 4411,
    "\u2581\u13a4\u13e3\u13c5": 4412,
    "\u2581\u13ef\u13db\u13c5": 4413,
    "\u13a6\u13ce\u13cd\u13d5\u13cd\u13d7": 4414,
    "\u13f0\u13db": 4415,
    "\u2581\u13a4\u13b5\u13cd\u13c6\u13b8\u13d7\u13c3": 4416,
    "\u13db\u13c3\u13af": 4417,
    "\u2581\u13e5\u13a6\u13d4": 4418,
    "\u13b8\u13ae": 4419,
    "\u2581\u13a4\u13c3\u13f4\u13b5": 4420,
    "\u2581\u13a0\u13a9\u13c1": 4421,
    "\u2581\u13d7\u13e3\u13c1\u13b6": 4422,
    "\u2581\u13d3\u13cd\u13a9": 4423,
    "\u2581\u13ac\u13be\u13ec": 4424,
    "\u13a6\u13cd\u13aa": 4425,
    "\u13c2\u13a9\u13cd\u13ac": 4426,
    "\u13c2\u13c6\u13d8\u13af": 4427,
    "\u2581\u13f1\u13e3\u13d3\u13c5\u13d6": 4428,
    "\u13e1\u13d7\u13cd\u13ac\u13a2": 4429,
    "\u13d4\u13b5": 4430,
    "\u13cc\u13d5": 4431,
    "\u2581\u13ac\u13d2": 4432,
    "\u13b3\u13d7\u13cd\u13ac": 4433,
    "\u13d8\u13be\u13eb\u13db\u13b2\u13a9": 4434,
    "\u2581\u13a0\u13cd\u13a9": 4435,
    "\u13e2\u13d7\u13f1": 4436,
    "...\u201d": 4437,
    "\u13a6\u13c1\u13b6\u13d7": 4438,
    "\u2581\u13a0\u13e9\u13db": 4439,
    "\u2581\u13da\u13f2\u13ce": 4440,
    "\u2581\u13a9\u13ef": 4441,
    "al": 4442,
    "\u13cd\u13d3\u13e9\u13db\u13d2\u13a9": 4443,
    "\u13d3\u13c1\u13b2": 4444,
    "\u2581\u13a6\u13b5\u13e6": 4445,
    "\u13e5\u13c6": 4446,
    "\u13be\u13d4": 4447,
    "\u13c7\u13d3": 4448,
    "\u13b3\u13d1\u13e2": 4449,
    "\u2581\u13a4\u13b5\u13f0": 4450,
    "\u2581\u13a4\u13b5\u13cf": 4451,
    "\u13d8\u13cd\u13d7\u13cd\u13a9": 4452,
    "\u2581\u13d7\u13db": 4453,
    "\u2581\u13a0\u13c2\u13c1\u13b8": 4454,
    "\u2581\u13a0\u13b5\u13f0\u13a2\u13b5": 4455,
    "\u2581\u13e7\u13c1": 4456,
    "\u13b5\u13f3": 4457,
    "\u2581\u13a0\u13cd\u13c6\u13c2\u13aa\u13d9\u13d7": 4458,
    "\u2581\u13a5\u13e5": 4459,
    "\u2581\u13a6\u13ac": 4460,
    "\u2581\u13c2\u13a9": 4461,
    "\u13a6\u13d8\u13f4": 4462,
    "\u13c1\u13b8\u13ad": 4463,
    "\u13ec\u13a2": 4464,
    "\u13cd\u13d3\u13f1": 4465,
    "\u2581\u13af\u13f4": 4466,
    "\u2581\u13d3\u13f3\u13c2": 4467,
    "\u13d3\u13d1\u13f0\u13cd\u13d7": 4468,
    "\u2581\u13d9\u13db\u13c2": 4469,
    "\u2581\u13d5\u13a6\u13c5": 4470,
    "\u13e5\u13a9": 4471,
    "\u2581\u13c4\u13cd\u13db\u13a9": 4472,
    "\u13a9\u13f4": 4473,
    "\u2581\u13d3\u13cc": 4474,
    "\u2581\u13a0\u13c6\u13d3": 4475,
    "\u13f4\u13cd\u13d7": 4476,
    "\u13d3\u13ce\u13aa\u13a9\u13cd": 4477,
    "\u13ce\u13ae": 4478,
    "\u2581\u13d4\u13ef": 4479,
    "\u2581\u13c2\u13a6\u13a5\u13a2": 4480,
    "\u13e3\u13db": 4481,
    "\u2581\u13a4\u13c5\u13c1": 4482,
    "\u13d8\u13c3\u13af\u13cd\u13d7\u13f1": 4483,
    "\u13cd\u13d5\u13b8\u13d7\u13f1": 4484,
    "\u2581\u13c5\u13d3\u13ac\u13e9": 4485,
    "\u2581\u13d7\u13a9\u13cd\u13d7": 4486,
    "\u2581\u13e7\u13ac\u13e9": 4487,
    "\u13cd\u13d3\u13e9\u13d7\u13d2": 4488,
    "\u13cd\u13d7\u13c9": 4489,
    "\u13a7\u13b8": 4490,
    "\u2581\u13f1\u13a8\u13e5": 4491,
    "\u13e8\u13be": 4492,
    "\u13e9\u13db\u13af": 4493,
    "\u2581\u13c2\u13ef": 4494,
    "\u13cd\u13a6\u13e8\u13af": 4495,
    "\u2581\u13e3\u13db": 4496,
    "\u13a7\u13af\u13ef\u13cd\u13d7": 4497,
    "\u2581\u13a4\u13c2\u13cd\u13c6\u13c2\u13aa\u13ce": 4498,
    "\u13f2\u13cf": 4499,
    "\u2581\u13ac\u13f0\u13b8": 4500,
    "\u13c5\u13db": 4501,
    "\u13e5\u13cd\u13a6\u13ef": 4502,
    "\u2581\u13a4\u13be\u13db\u13c1": 4503,
    "\u2581\u13c2\u13d5\u13a6": 4504,
    "\u13c2\u13aa\u13b2": 4505,
    "\u13cd\u13a6\u13b3\u13c1\u13b8": 4506,
    "\u2581\u13f3\u13ec\u13af\u13f3": 4507,
    "\u13e9\u13d5\u13ac": 4508,
    "\u2581\u13a4\u13cd\u13c6\u13b8\u13af\u13d7": 4509,
    "\u13aa\u13b5\u13f0\u13a5\u13af": 4510,
    "\u13b4\u13d9\u13d7": 4511,
    "\u2581\u13da\u13f3": 4512,
    "\u13bf\u13a5\u13a2": 4513,
    "\u2581\u13a2\u13cd\u13db": 4514,
    "\u2581\u13a4\u13c4\u13ea": 4515,
    "\u2581\u13cd\u13a6": 4516,
    "\u2581\u13a0\u13e5\u13b8\u13f3": 4517,
    "\u2581\u13a0\u13da\u13d3\u13b4\u13cd\u13d7": 4518,
    "\u13d3\u13c2\u13b8\u13e4\u13a2": 4519,
    "\u2581\u13c4\u13c2\u13ea\u13ce": 4520,
    "\u2581\u13a8\u13cd\u13d7\u13d7": 4521,
    "\u13cf\u13c2": 4522,
    "\u13ac\u13c1\u13b5": 4523,
    "\u2581\u13e7\u13c1\u13e8": 4524,
    "\u13b3\u13c2": 4525,
    "\u13ea\u13b6\u13d7": 4526,
    "\u2581\u13d5\u13a6\u13c4\u13aa\u13eb\u13cd": 4527,
    "\u13d3\u13d9\u13b5\u13cd\u13d7\u13cd\u13ac": 4528,
    "\u2581\u13a4\u13c1\u13b7\u13ac": 4529,
    "\u13d9\u13a0": 4530,
    "\u13e2\u13db": 4531,
    "\u13f3\u13b5": 4532,
    "\u13be\u13db\u13a6": 4533,
    "\u2581\u13d9\u13d3\u13e5": 4534,
    "\u2581\u13eb\u13a6\u13b6\u13af": 4535,
    "\u13ce\u13ae\u13cd\u13d7": 4536,
    "\u2581\u13c4\u13db\u13c1": 4537,
    "\u2581\u13a2\u13a9\u13f0\u13b8": 4538,
    "\u13c2\u13d9\u13b2": 4539,
    "\u13c2\u13b4": 4540,
    "\u2581\u13f1\u13ac\u13a9": 4541,
    "\u2581\u13d5\u13a6\u13c4\u13aa\u13ac": 4542,
    "\u13ac\u13c5": 4543,
    "\u13d8\u13c4\u13a6": 4544,
    "\u2581\u13a4\u13cd\u13c6\u13c2\u13aa\u13ce": 4545,
    "\u2581\u13a0\u13d3\u13ea\u13b5\u13a9\u13cd\u13ac": 4546,
    "\u2581\u13a3\u13a6\u13db\u13a6\u13c5": 4547,
    "\u2581\u13a0\u13cd\u13aa": 4548,
    "\u2581\u13a0\u13a9\u13c7\u13d3\u13b8": 4549,
    "\u2581\u13a2\u13e3\u13d3\u13d9\u13b5\u13cd\u13d7\u13cd\u13ac": 4550,
    "\u2581\u13d5\u13a6\u13cd\u13a9\u13b8": 4551,
    "\u13d7\u13a6\u13db\u13af": 4552,
    "\u2581\u13a4\u13be\u13c2\u13a9\u13ce": 4553,
    "\u2581\u13a4\u13b5\u13f0\u13d4\u13c1": 4554,
    "\u2581\u13d9\u13e7\u13be\u13d3\u13c5\u13db": 4555,
    "\u2581\u13a4\u13b6\u13a8\u13d2": 4556,
    "\u13eb\u13b5\u13bb": 4557,
    "\u13c4\u13d3\u13b4": 4558,
    "\u2581\u13e3\u13a6": 4559,
    "\u2581\u13f1\u13e5\u13a6\u13d4\u13ae": 4560,
    "\u2581\u13c2\u13a6\u13b5\u13cd\u13d7\u13cd\u13aa": 4561,
    "\u2581\u13c4\u13c2\u13ea\u13ce\u13b4": 4562,
    "\u2581\u13a2\u13e3\u13b5\u13ae\u13b5\u13ac": 4563,
    "\u2581\u13a6\u13c1\u13e5": 4564,
    "\u2581\u13f1\u13c4\u13cd\u13d5": 4565,
    "\u2581\u13da\u13d3\u13d8\u13be\u13a5": 4566,
    "\u2581\u13a4\u13ec\u13af\u13f3\u13d2": 4567,
    "\u2581\u13f1\u13ac\u13c6": 4568,
    "\u2581\u13a4\u13c4\u13e9\u13a5": 4569,
    "\u2581\u13c8\u13ac": 4570,
    "\u13be\u13c4\u13aa\u13eb\u13ce": 4571,
    "\u2581\u13a4\u13ee\u13d4\u13c5": 4572,
    "\u2581\u13a0\u13c2\u13cd\u13a6": 4573,
    "\u2581\u13d7\u13a6\u13c1\u13b8": 4574,
    "\u2581\u13d5\u13a6\u13ec\u13c1\u13d7\u13cd\u13ac": 4575,
    "\u2581\u13a0\u13c7\u13c5\u13d2": 4576,
    "\u2581\u13ac\u13e9\u13be\u13d5": 4577,
    "\u2581\u13be\u13a9\u13ea\u13ce\u13b8": 4578,
    "\u2581\u13ed\u13ef\u13c5\u13b2": 4579,
    "\u13aa\u13b2\u13cd\u13d9\u13d7": 4580,
    "\u2581\u13a0\u13a9\u13e9\u13db\u13b2": 4581,
    "\u2581\u13c4\u13c5\u13c1\u13b8": 4582,
    "\u2581\u13a5\u13a9\u13d9": 4583,
    "\u2581\u13e5\u13f0\u13b8": 4584,
    "\u13be\u13d7": 4585,
    "\u13f0\u13b3\u13cd\u13d7": 4586,
    "\u13af\u13cd\u13d4\u13c2": 4587,
    "\u13a4\u13b7\u13e8": 4588,
    "\u2581\u13a4\u13b5\u13e6\u13db": 4589,
    "\u2581\u13a0\u13c2\u13aa\u13e9\u13d8\u13cd\u13ac": 4590,
    "\u13f2\u13cd\u13d3": 4591,
    "\u13ec\u13d7\u13a8": 4592,
    "\u2581\u13a4\u13b7": 4593,
    "\u2581\u13c7\u13d3\u13c1\u13b3\u13bb": 4594,
    "\u2581\u13e7\u13c2\u13a7\u13bf\u13e9\u13db\u13cd\u13d7": 4595,
    "\u2581\u13d7\u13ab\u13cd\u13d9\u13cd\u13d7": 4596,
    "\u2581\u13a0\u13cd\u13ab\u13d5\u13cd\u13d7": 4597,
    "\u2581\u13c2\u13d5\u13a6\u13ea\u13ce\u13b2": 4598,
    "\u2581\u13a4\u13ec\u13af\u13f3\u13c5": 4599,
    "\u13f2\u13b1\u13af\u13ce\u13b8\u13af": 4600,
    "\u2581\u13d7\u13a8\u13ab\u13aa\u13d3\u13c1\u13d7": 4601,
    "\u2581\u13ed\u13b7\u13e4\u13b4": 4602,
    "\u13b4\u13cf": 4603,
    "\u13b0\u13e9": 4604,
    "\u2581\u13d5\u13d7": 4605,
    "\u13cf\u13d4\u13d7\u13cd\u13d7": 4606,
    "\u2581\u13ed\u13b6\u13af\u13cd\u13d7": 4607,
    "\u2581\u13a0\u13e5\u13c1\u13d7": 4608,
    "\u13d9\u13a1\u13cd\u13d7": 4609,
    "\u13d7\u13a6\u13b5\u13cd\u13d9\u13d7": 4610,
    "\u2581\u13d7\u13e3\u13b8\u13eb\u13cd\u13d3\u13c1\u13d7": 4611,
    "\u2581\u13a0\u13c7\u13d3\u13cd\u13d7": 4612,
    "\u13db\u13c1\u13b2\u13a2": 4613,
    "\u13a3\u13cf": 4614,
    "\u2581\u13a4\u13be\u13d7\u13d4\u13cd\u13d7": 4615,
    "\u13be\u13cc\u13be\u13a9": 4616,
    "\u2581\u13a0\u13be\u13b3\u13cd\u13a6\u13b5\u13cd\u13a9": 4617,
    "\u2581\u13a0\u13c2\u13e5\u13ca\u13cf": 4618,
    "\u2581\u13a0\u13ec\u13ad\u13b5": 4619,
    "\u2581\u13a2\u13a8\u13ac\u13c1\u13b8\u13af": 4620,
    "\u2581\u13a2\u13b5\u13a1\u13cc": 4621,
    "\u2581\u13a4\u13cd\u13d4\u13f2\u13d2": 4622,
    "\u2581\u13a4\u13d6\u13b8\u13b3\u13db": 4623,
    "\u2581\u13a7\u13be\u13e5\u13cd\u13d5\u13e5": 4624,
    "\u2581\u13ab\u13eb\u13cd\u13ab\u13eb": 4625,
    "\u2581\u13ac\u13ec\u13af\u13f3\u13b2\u13cd\u13a9": 4626,
    "\u2581\u13ac\u13f2\u13ce\u13ad": 4627,
    "\u2581\u13b0\u13e2\u13d4\u13c5\u13ad": 4628,
    "\u2581\u13b4\u13a3\u13d7\u13cf\u13ef": 4629,
    "\u2581\u13bb\u13da\u13cf\u13b3": 4630,
    "\u2581\u13c2\u13e6\u13b5\u13ac\u13be": 4631,
    "\u2581\u13c7\u13e3\u13b5\u13b5": 4632,
    "\u2581\u13cd\u13d5\u13f1\u13d3": 4633,
    "\u2581\u13d3\u13c7\u13aa\u13d4\u13c5": 4634,
    "\u2581\u13d7\u13be\u13d9\u13b4\u13c6\u13cd\u13a9": 4635,
    "\u2581\u13d7\u13d3\u13b4\u13c5\u13d7\u13cd\u13a9": 4636,
    "\u2581\u13e3\u13a6\u13d1\u13b2\u13a2": 4637,
    "\u2581\u13e7\u13c2\u13e6\u13ef\u13cd\u13d7": 4638,
    "\u2581\u13a5\u13c6\u13b8\u13a2\u13db": 4639,
    "\u2581\u13af\u13cc\u13b3\u13db\u13a6": 4640,
    "\u2581\u13d7\u13ac\u13e9\u13a9\u13e8\u13d7": 4641,
    "\u2581\u13e5\u13c8\u13a3\u13c2": 4642,
    "\u2581\u13a4\u13c2\u13b5\u13c5\u13e8\u13af": 4643,
    "\u2581\u13d3\u13d7\u13b6\u13c2": 4644,
    "\u2581\u13a2\u13ef\u13db\u13c1\u13b5\u13d3\u13cd\u13d7": 4645,
    "\u2581\u13a4\u13b5\u13c3\u13af\u13f4\u13af": 4646,
    "\u2581\u13e5\u13c2\u13e8\u13ea\u13ce\u13b8\u13a9": 4647,
    "\u2581\u13e7\u13be\u13d7\u13a9\u13d3": 4648,
    "\u2581\u13a2\u13e5\u13c7\u13d3\u13b8": 4649,
    "\u2581\u13d7\u13e5\u13a8\u13eb": 4650,
    "\u2581\u13a2\u13f3\u13e9\u13ac\u13d7": 4651,
    "\u2581\u13a0\u13b5\u13cf\u13be\u13af\u13cd\u13d9\u13d7": 4652,
    "\u2581\u13a0\u13c2\u13aa\u13d7\u13f3": 4653,
    "\u2581\u13a4\u13ea\u13ef\u13b8\u13e4\u13a2": 4654,
    "\u2581\u13da\u13d5\u13f2\u13c1": 4655,
    "\u2581\u13a0\u13c6\u13d7\u13d4\u13cd\u13d7": 4656,
    "\u2581\u13a0\u13be\u13b5\u13d6\u13b8\u13b2\u13cd\u13a9": 4657,
    "\u2581\u13cd\u13aa\u13c2\u13d7\u13e2": 4658,
    "\u2581\u13a4\u13b5\u13cd\u13db\u13e7\u13c1": 4659,
    "\u2581\u13d7\u13a8\u13d8\u13c2\u13d3\u13cd\u13d7": 4660,
    "\u2581\u13b9\u13ba\u13b5": 4661,
    "\u2581\u13a0\u13c2\u13b6\u13cd\u13a9": 4662,
    "\u2581\u13a4\u13e6\u13a0\u13ce\u13d7": 4663,
    "\u2581\u13aa\u13af\u13f3\u13b2\u13cd\u13a8\u13cd\u13d7": 4664,
    "\u2581\u13a0\u13aa\u13b2\u13cd\u13d4\u13c5\u13af": 4665,
    "\u2581\u13a4\u13e2\u13d3\u13b8": 4666,
    "\u2581\u13a0\u13df\u13b6\u13a5": 4667,
    "\u2581\u13a4\u13a6\u13db\u13be\u13e8\u13af": 4668,
    "\u2581\u13e7\u13cf\u13e9": 4669,
    "\u2581\u13a6\u13b6\u13e3\u13d7": 4670,
    "\u2581\u13a0\u13c1\u13b8\u13d7\u13cd\u13a8\u13a2": 4671,
    "\u2581\u13a2\u13aa\u13c2\u13ef": 4672,
    "\u2581\u13a4\u13d9\u13b3\u13c5\u13cd\u13d7": 4673,
    "\u2581\u13d5\u13e5\u13c2\u13f4\u13ce\u13cd\u13d7": 4674,
    "\u2581\u13c6\u13cf\u13b9": 4675,
    "\u2581\u13d7\u13a9\u13f2\u13b1\u13d2\u13af": 4676,
    "\u2581\u13c5\u13d3\u13f3\u13be\u13d3\u13b4\u13c5\u13af": 4677,
    "\u2581\u13a2\u13e5\u13c1\u13ab": 4678,
    "\u2581\u13be\u13c2\u13cd\u13a6\u13c5\u13be": 4679,
    "\u2581\u13d3\u13f2\u13e3\u13db\u13c1\u13b5": 4680,
    "\u2581\u13be\u13c3\u13af\u13f3\u13b2\u13cd\u13ac\u13be": 4681,
    "\u2581\u13a0\u13be\u13d3\u13ad\u13f2\u13af": 4682,
    "\u2581\u13a0\u13d9\u13b4\u13b0\u13d2\u13af": 4683,
    "\u2581\u13ac\u13e9\u13d5\u13f1\u13db": 4684,
    "\u2581\u13d7\u13c2\u13c3\u13a8\u13c2": 4685,
    "\u2581\u13e7\u13ac\u13e9\u13b3\u13c5\u13af": 4686,
    "\u13d0\u13ad\u13db": 4687,
    "\u2581\u13c4\u13be\u13db\u13c1\u13b5\u13d9\u13b8": 4688,
    "\u13a9\u13cf\u13d5\u13a9": 4689,
    "\u2581\u13e7\u13c8\u13ef": 4690,
    "\u2581\u13d6\u13b9": 4691,
    "\u2581\u13a2\u13ac\u13c6\u13db\u13c1\u13d7": 4692,
    "\u13d9\u13b4\u13cb": 4693,
    "\u2581\u13ed\u13d5\u13b5\u13e4": 4694,
    "\u2581\u13d3\u13d3\u13db\u13c2": 4695,
    "\u2581\u13d7\u13c2\u13d0\u13af": 4696,
    "\u2581\u13f1\u13e5\u13aa\u13b5\u13f0\u13a3": 4697,
    "\u2581\u13a4\u13f4\u13b5\u13b4": 4698,
    "\u13eb\u13c2\u13d7\u13e2": 4699,
    "\u2581\u13a2\u13f3\u13be\u13d3\u13b3": 4700,
    "\u2581\u13a4\u13a6\u13c3\u13ee": 4701,
    "\u2581\u13c1\u13c6\u13b8": 4702,
    "\u2581\u13d3\u13a6\u13e5\u13c1\u13b5": 4703,
    "\u2581\u13d7\u13ac\u13e9\u13c2\u13f0\u13af": 4704,
    "\u2581\u13d8\u13a6\u13d9\u13b5": 4705,
    "\u2581\u13da\u13ea\u13a7\u13c5\u13a9": 4706,
    "\u2581\u13a4\u13c6\u13db\u13a9": 4707,
    "\u2581\u13e7\u13ec\u13e2\u13c5\u13af": 4708,
    "\u2581\u13d7\u13a6\u13be\u13cc\u13a2": 4709,
    "\u2581\u13da\u13ed\u13e2\u13d4\u13c5\u13a9": 4710,
    "\u2581\u13b6\u13e9\u13c2": 4711,
    "\u2581\u13e7\u13b5\u13ac\u13e9\u13df": 4712,
    "\u2581\u13a0\u13c6\u13df\u13c2\u13ac\u13c1\u13b8": 4713,
    "\u2581\u13a0\u13c2\u13b1\u13e3": 4714,
    "\u2581\u13e7\u13be\u13aa\u13c5\u13cd\u13d3\u13b5": 4715,
    "\u2581\u13a5\u13c3\u13e5": 4716,
    "\u2581\u13f3\u13f2\u13b1\u13d2": 4717,
    "\u2581\u13a2\u13ef\u13d3\u13db\u13c1\u13af": 4718,
    "\u2581\u13e9\u13e5\u13b3": 4719,
    "\u2581\u13d7\u13d5\u13f2\u13b2\u13cd\u13a9": 4720,
    "\u2581\u13eb\u13e5\u13f2\u13b5\u13a6": 4721,
    "\u2581\u13a0\u13c2\u13c3\u13ae\u13cd\u13a8": 4722,
    "\u2581\u13c5\u13c1\u13b8\u13ad": 4723,
    "\u2581\u13a2\u13ef\u13c6\u13b5\u13cd\u13d9\u13d7\u13f1": 4724,
    "\u2581\u13a4\u13be\u13da\u13b5\u13cd\u13a9": 4725,
    "\u2581\u13a6\u13e5\u13ef\u13c1\u13b3\u13c5\u13af": 4726,
    "\u2581\u13aa\u13a2\u13f3\u13b2\u13cd\u13a6": 4727,
    "\u2581\u13c5\u13d3\u13f3\u13c5\u13cf\u13db": 4728,
    "\u2581\u13ad\u13db\u13d3\u13cd\u13d3": 4729,
    "\u2581\u13a0\u13c2\u13a9\u13a6\u13a8": 4730,
    "\u2581\u13d7\u13a9\u13f4\u13eb": 4731,
    "\u2581\u13e5\u13cd\u13a6\u13a2\u13b2": 4732,
    "\u2581\u13b1\u13b7\u13e3": 4733,
    "\u2581\u13a4\u13be\u13d9\u13b4\u13b0\u13af\u13cd\u13d9\u13d7": 4734,
    "\u2581\u13a0\u13c2\u13be\u13f0\u13cd\u13a9": 4735,
    "\u2581\u13d5\u13c5\u13d9\u13a5": 4736,
    "\u2581\u13a1\u13e5\u13f2\u13b5\u13b8\u13ad": 4737,
    "\u2581\u13d5\u13a6\u13f0\u13cc\u13db": 4738,
    "\u2581\u13c2\u13e3\u13d3\u13c5\u13db\u13be": 4739,
    "\u2581\u13a2\u13e5\u13a8\u13f4": 4740,
    "\u2581\u13a4\u13c3\u13af\u13f3\u13af": 4741,
    "\u2581\u13c4\u13d3\u13d1\u13f4\u13be": 4742,
    "\u2581\u13da\u13ec\u13c1\u13d4\u13c5\u13a9": 4743,
    "\u2581\u13a2\u13e4\u13b5\u13ad": 4744,
    "\u2581\u13a2\u13d7\u13dc": 4745,
    "\u2581\u13f1\u13e5\u13cf\u13be": 4746,
    "\u2581\u13d7\u13cd\u13a9\u13a7\u13c1": 4747,
    "\u2581\u13a2\u13e3\u13b4\u13c2\u13d9\u13b2": 4748,
    "\u2581\u13d7\u13c2\u13b4\u13c2": 4749,
    "\u2581\u13d7\u13e5\u13b8\u13eb\u13cd\u13d3\u13c1\u13af": 4750,
    "\u2581\u13a0\u13c2\u13a1\u13bc\u13b5": 4751,
    "\u2581\u13a4\u13c2\u13c6\u13d8\u13cd\u13d7": 4752,
    "\u2581\u13a4\u13a7\u13b5\u13e8": 4753,
    "\u2581\u13a0\u13c6\u13d5\u13b6\u13b0\u13d2": 4754,
    "\u2581\u13c5\u13d3\u13cd\u13c6": 4755,
    "\u2581\u13a4\u13b8\u13c9\u13d4\u13c1": 4756,
    "\u13b5\u13d6\u13b8\u13c2\u13cd\u13d7": 4757,
    "\u2581\u13d7\u13e3\u13b3\u13cf": 4758,
    "\u2581\u13a0\u13b1\u13b5": 4759,
    "\u2581\u13d7\u13ad\u13be\u13ec": 4760,
    "\u2581\u13c1\u13b3\u13da": 4761,
    "\u2581\u13eb\u13c2\u13ea\u13cf": 4762,
    "\u2581\u13a2\u13e7\u13d6": 4763,
    "\u2581\u13d3\u13d3\u13c2\u13b8\u13a8\u13cd\u13d7": 4764,
    "\u2581\u13e4\u13b5\u13aa": 4765,
    "\u2581\u13a0\u13ef\u13c4\u13b5": 4766,
    "\u13e1\u13d4\u13c2": 4767,
    "\u2581\u13a4\u13d3\u13d1\u13f0\u13db": 4768,
    "\u2581\u13a2\u13ac\u13be\u13d5\u13c5": 4769,
    "\u2581\u13eb\u13e5\u13a6\u13d8": 4770,
    "\u2581\u13da\u13c4\u13cc\u13db": 4771,
    "\u2581\u13d7\u13c1\u13cd\u13a8\u13cd\u13a9": 4772,
    "\u2581\u13da\u13bf\u13cd\u13d5\u13e2": 4773,
    "\u2581\u13d7\u13a6\u13aa\u13d9\u13d7": 4774,
    "\u2581\u13a1\u13bf\u13a2": 4775,
    "\u2581\u13e6\u13a8\u13e5": 4776,
    "\u2581\u13ac\u13d4\u13f2\u13ce\u13ad": 4777,
    "\u13f2\u13b5\u13cd\u13d7\u13f1": 4778,
    "\u2581\u13e3\u13d3\u13c5\u13db\u13a2": 4779,
    "\u2581\u13a0\u13c4\u13ec\u13a9\u13af": 4780,
    "\u2581\u13d3\u13c2\u13f4\u13ac\u13a2": 4781,
    "\u2581\u13aa\u13d2\u13c5": 4782,
    "\u2581\u13a2\u13e8\u13f2\u13ea\u13b3\u13c1\u13ad": 4783,
    "\u2581\u13e3\u13d3\u13b8\u13a9": 4784,
    "\u2581\u13d3\u13c2\u13f4\u13a8\u13cd\u13d7": 4785,
    "\u2581\u13ed\u13a9\u13b6\u13eb\u13ce": 4786,
    "\u2581\u13d7\u13e3\u13b3\u13cf\u13d5\u13c2": 4787,
    "\u2581\u13d3\u13c2\u13c4\u13d9\u13ac\u13a2": 4788,
    "\u2581\u13da\u13da\u13d3\u13db\u13a2": 4789,
    "\u2581\u13e5\u13a6\u13da\u13ad": 4790,
    "\u2581\u13a0\u13c8\u13b7": 4791,
    "\u2581\u13e7\u13f2\u13af\u13cd\u13d7\u13f1": 4792,
    "\u2581\u13ed\u13b3\u13a9\u13d2": 4793,
    "\u2581\u13a1\u13c8\u13b3": 4794,
    "\u2581\u13c2\u13e5\u13ea\u13cd\u13ac": 4795,
    "\u2581\u13a7\u13c1\u13cd\u13ac": 4796,
    "\u2581\u13a2\u13e4\u13c5\u13cd\u13d7\u13f1": 4797,
    "\u2581\u13d3\u13be\u13e0\u13f1\u13b2": 4798,
    "\u2581\u13a4\u13d3\u13c5\u13a6\u13b8\u13d3": 4799,
    "\u2581\u13a4\u13ec\u13d2\u13c5": 4800,
    "\u2581\u13e7\u13b8\u13eb\u13cd\u13d3\u13c1\u13b8\u13af": 4801,
    "\u2581\u13c5\u13db\u13db\u13c1\u13b5": 4802,
    "\u2581\u13a6\u13db\u13a9\u13a0": 4803,
    "\u2581\u13ac\u13ef\u13b5\u13a1\u13b5\u13e4": 4804,
    "\u2581\u13e7\u13ec\u13ea\u13b3\u13c5": 4805,
    "\u2581\u13d3\u13e5\u13c1\u13b5": 4806,
    "\u2581\u13c7\u13b5\u13cf": 4807,
    "\u2581\u13d2\u13af\u13f0\u13f1": 4808,
    "\u2581\u13a0\u13c2\u13a9\u13be": 4809,
    "\u2581\u13a1\u13da\u13e5": 4810,
    "\u2581\u13d5\u13af\u13a7\u13c5": 4811,
    "\u2581\u13a4\u13f2\u13b1\u13ce\u13ae\u13cd\u13d7": 4812,
    "\u2581\u13a4\u13c5\u13ea": 4813,
    "\u2581\u13a0\u13f4\u13d3\u13c6\u13b6\u13cd\u13a9": 4814,
    "\u2581\u13eb\u13c4\u13ea\u13ce\u13a2": 4815,
    "\u2581\u13d7\u13a6\u13c1\u13b2": 4816,
    "\u2581\u13e3\u13d4\u13b3\u13ec\u13af\u13cd\u13d7": 4817,
    "\u2581\u13da\u13d8\u13c3\u13ae\u13b4\u13a2": 4818,
    "\u2581\u13a6\u13d3\u13b7\u13aa\u13d7": 4819,
    "\u2581\u13e7\u13a7\u13ad\u13f2": 4820,
    "\u2581\u13f1\u13c2\u13a6\u13b5\u13cd\u13d7\u13ad": 4821,
    "\u2581\u13a1\u13cd\u13a6\u13c2\u13f3": 4822,
    "\u2581\u13a2\u13d7\u13c2": 4823,
    "\u2581\u13a4\u13b5\u13e6\u13af\u13db": 4824,
    "\u2581\u13a2\u13e3\u13b5\u13cd\u13d3\u13f4\u13d7\u13f1": 4825,
    "\u2581\u13b4\u13bb\u13a9": 4826,
    "\u2581\u13d7\u13df\u13cd\u13d9\u13d7": 4827,
    "\u2581\u13e7\u13be\u13c1\u13b3\u13c5\u13af": 4828,
    "-\u201c": 4829,
    "\u2581\u13da\u13cf\u13d4\u13db": 4830,
[...]
